unsigned char EEGnet_btchA2_tflite[] = {
  0x1c, 0x00, 0x00, 0x00, 0x54, 0x46, 0x4c, 0x33, 0x14, 0x00, 0x20, 0x00,
  0x1c, 0x00, 0x18, 0x00, 0x14, 0x00, 0x10, 0x00, 0x0c, 0x00, 0x00, 0x00,
  0x08, 0x00, 0x04, 0x00, 0x14, 0x00, 0x00, 0x00, 0x1c, 0x00, 0x00, 0x00,
  0x80, 0x00, 0x00, 0x00, 0xd8, 0x00, 0x00, 0x00, 0x54, 0x1a, 0x00, 0x00,
  0x64, 0x1a, 0x00, 0x00, 0x2c, 0x26, 0x00, 0x00, 0x03, 0x00, 0x00, 0x00,
  0x01, 0x00, 0x00, 0x00, 0x04, 0x00, 0x00, 0x00, 0xa2, 0xe3, 0xff, 0xff,
  0x0c, 0x00, 0x00, 0x00, 0x1c, 0x00, 0x00, 0x00, 0x38, 0x00, 0x00, 0x00,
  0x0f, 0x00, 0x00, 0x00, 0x73, 0x65, 0x72, 0x76, 0x69, 0x6e, 0x67, 0x5f,
  0x64, 0x65, 0x66, 0x61, 0x75, 0x6c, 0x74, 0x00, 0x01, 0x00, 0x00, 0x00,
  0x04, 0x00, 0x00, 0x00, 0x9c, 0xff, 0xff, 0xff, 0x14, 0x00, 0x00, 0x00,
  0x04, 0x00, 0x00, 0x00, 0x07, 0x00, 0x00, 0x00, 0x73, 0x6f, 0x66, 0x74,
  0x6d, 0x61, 0x78, 0x00, 0x01, 0x00, 0x00, 0x00, 0x04, 0x00, 0x00, 0x00,
  0x76, 0xe5, 0xff, 0xff, 0x04, 0x00, 0x00, 0x00, 0x07, 0x00, 0x00, 0x00,
  0x69, 0x6e, 0x70, 0x75, 0x74, 0x5f, 0x31, 0x00, 0x02, 0x00, 0x00, 0x00,
  0x34, 0x00, 0x00, 0x00, 0x04, 0x00, 0x00, 0x00, 0xdc, 0xff, 0xff, 0xff,
  0x17, 0x00, 0x00, 0x00, 0x04, 0x00, 0x00, 0x00, 0x13, 0x00, 0x00, 0x00,
  0x43, 0x4f, 0x4e, 0x56, 0x45, 0x52, 0x53, 0x49, 0x4f, 0x4e, 0x5f, 0x4d,
  0x45, 0x54, 0x41, 0x44, 0x41, 0x54, 0x41, 0x00, 0x08, 0x00, 0x0c, 0x00,
  0x08, 0x00, 0x04, 0x00, 0x08, 0x00, 0x00, 0x00, 0x16, 0x00, 0x00, 0x00,
  0x04, 0x00, 0x00, 0x00, 0x13, 0x00, 0x00, 0x00, 0x6d, 0x69, 0x6e, 0x5f,
  0x72, 0x75, 0x6e, 0x74, 0x69, 0x6d, 0x65, 0x5f, 0x76, 0x65, 0x72, 0x73,
  0x69, 0x6f, 0x6e, 0x00, 0x18, 0x00, 0x00, 0x00, 0x78, 0x19, 0x00, 0x00,
  0x70, 0x19, 0x00, 0x00, 0x20, 0x19, 0x00, 0x00, 0xf0, 0x18, 0x00, 0x00,
  0xe0, 0x09, 0x00, 0x00, 0xd0, 0x05, 0x00, 0x00, 0xb0, 0x05, 0x00, 0x00,
  0x98, 0x05, 0x00, 0x00, 0x48, 0x05, 0x00, 0x00, 0xf8, 0x04, 0x00, 0x00,
  0xe8, 0x00, 0x00, 0x00, 0xe0, 0x00, 0x00, 0x00, 0xd8, 0x00, 0x00, 0x00,
  0xd0, 0x00, 0x00, 0x00, 0xc8, 0x00, 0x00, 0x00, 0xc0, 0x00, 0x00, 0x00,
  0xb8, 0x00, 0x00, 0x00, 0xb0, 0x00, 0x00, 0x00, 0xa8, 0x00, 0x00, 0x00,
  0xa0, 0x00, 0x00, 0x00, 0x98, 0x00, 0x00, 0x00, 0x90, 0x00, 0x00, 0x00,
  0x70, 0x00, 0x00, 0x00, 0x04, 0x00, 0x00, 0x00, 0x4a, 0xe6, 0xff, 0xff,
  0x04, 0x00, 0x00, 0x00, 0x5c, 0x00, 0x00, 0x00, 0x0c, 0x00, 0x00, 0x00,
  0x08, 0x00, 0x0e, 0x00, 0x08, 0x00, 0x04, 0x00, 0x08, 0x00, 0x00, 0x00,
  0x14, 0x00, 0x00, 0x00, 0x2c, 0x00, 0x00, 0x00, 0x00, 0x00, 0x0a, 0x00,
  0x0c, 0x00, 0x08, 0x00, 0x00, 0x00, 0x07, 0x00, 0x0a, 0x00, 0x00, 0x00,
  0x00, 0x00, 0x00, 0x01, 0x04, 0x00, 0x00, 0x00, 0x00, 0x00, 0x00, 0x00,
  0x00, 0x00, 0x0a, 0x00, 0x10, 0x00, 0x0c, 0x00, 0x08, 0x00, 0x04, 0x00,
  0x0a, 0x00, 0x00, 0x00, 0x02, 0x00, 0x00, 0x00, 0x02, 0x00, 0x00, 0x00,
  0x04, 0x00, 0x00, 0x00, 0x06, 0x00, 0x00, 0x00, 0x32, 0x2e, 0x31, 0x35,
  0x2e, 0x30, 0x00, 0x00, 0xb2, 0xe6, 0xff, 0xff, 0x04, 0x00, 0x00, 0x00,
  0x10, 0x00, 0x00, 0x00, 0x31, 0x2e, 0x31, 0x34, 0x2e, 0x30, 0x00, 0x00,
  0x00, 0x00, 0x00, 0x00, 0x00, 0x00, 0x00, 0x00, 0x3c, 0xdb, 0xff, 0xff,
  0x40, 0xdb, 0xff, 0xff, 0x44, 0xdb, 0xff, 0xff, 0x48, 0xdb, 0xff, 0xff,
  0x4c, 0xdb, 0xff, 0xff, 0x50, 0xdb, 0xff, 0xff, 0x54, 0xdb, 0xff, 0xff,
  0x58, 0xdb, 0xff, 0xff, 0x5c, 0xdb, 0xff, 0xff, 0x60, 0xdb, 0xff, 0xff,
  0x64, 0xdb, 0xff, 0xff, 0xfa, 0xe6, 0xff, 0xff, 0x04, 0x00, 0x00, 0x00,
  0x00, 0x04, 0x00, 0x00, 0xa0, 0xd3, 0x8a, 0x3c, 0x74, 0x96, 0x23, 0xbd,
  0x14, 0x02, 0x0f, 0x3d, 0xcb, 0xd4, 0xb3, 0x3c, 0x5a, 0xbe, 0xd0, 0x3c,
  0xfc, 0xee, 0x05, 0x3d, 0x88, 0xf1, 0x7a, 0xbd, 0x86, 0xbf, 0x1a, 0x3d,
  0x9a, 0x41, 0x63, 0xbd, 0xd4, 0xef, 0x19, 0x3d, 0xc4, 0x20, 0x05, 0x3d,
  0x5e, 0x2d, 0x30, 0xbd, 0x40, 0xce, 0x00, 0x3c, 0x58, 0x6b, 0xea, 0x3c,
  0x0b, 0x31, 0x17, 0xbd, 0xe1, 0x17, 0x0c, 0xbd, 0x21, 0x4a, 0x17, 0xbd,
  0x8e, 0x55, 0x35, 0xbc, 0xbb, 0x16, 0x0f, 0xbd, 0xb4, 0xaa, 0xac, 0xbc,
  0x4f, 0x80, 0x01, 0xbd, 0x78, 0xb9, 0x1a, 0xbd, 0x26, 0xc6, 0xea, 0x3c,
  0x6d, 0x37, 0xc4, 0xbc, 0x91, 0x9e, 0x1e, 0x3d, 0xf7, 0x06, 0x25, 0xbd,
  0x9b, 0x89, 0xc1, 0xbc, 0x89, 0x48, 0xbb, 0x3c, 0x7a, 0xcb, 0x82, 0xbc,
  0x46, 0xdd, 0xde, 0xbc, 0x4e, 0x67, 0xcf, 0xbc, 0x44, 0x31, 0x30, 0xbd,
  0xbd, 0x1b, 0x92, 0x3c, 0x3d, 0xb6, 0x5b, 0x3a, 0xa5, 0xe5, 0x2f, 0x3c,
  0x2e, 0x26, 0xf8, 0x3c, 0x70, 0x40, 0xd4, 0x3c, 0xf0, 0xb1, 0x88, 0x3c,
  0x23, 0x96, 0x67, 0xbb, 0x02, 0xd2, 0x99, 0x3b, 0x81, 0x03, 0x9b, 0xbc,
  0xf4, 0x7e, 0xd8, 0x3c, 0x52, 0xe4, 0xd7, 0x3c, 0x34, 0x45, 0xa8, 0x3c,
  0x48, 0x89, 0x7c, 0x3c, 0x9e, 0x3a, 0x11, 0x3c, 0x69, 0x2f, 0xfa, 0x3c,
  0x63, 0x27, 0xc7, 0x3c, 0x80, 0x5f, 0x20, 0xbd, 0xc5, 0xcb, 0x70, 0x3d,
  0xbf, 0xe6, 0x24, 0xbd, 0x2e, 0x43, 0x05, 0xbd, 0x0f, 0xb1, 0x05, 0xbd,
  0xdf, 0x5d, 0xfe, 0xbc, 0xc3, 0x99, 0x42, 0xbc, 0x63, 0x03, 0xf1, 0xba,
  0xaf, 0x6e, 0xc4, 0xbb, 0x1f, 0x4a, 0xef, 0xbc, 0xd4, 0x2c, 0x33, 0xbd,
  0x5f, 0x19, 0xeb, 0xbc, 0x8c, 0x62, 0x84, 0xbc, 0x86, 0x3b, 0x38, 0xbd,
  0x8a, 0x52, 0x48, 0xbd, 0x72, 0x7e, 0x39, 0xbd, 0x89, 0x60, 0xf3, 0xbc,
  0x94, 0x4e, 0x1e, 0x3c, 0x14, 0x59, 0x5b, 0xbb, 0x0a, 0xe3, 0x80, 0x3c,
  0xba, 0x44, 0x2a, 0x3c, 0x86, 0xfe, 0xbb, 0x3b, 0x6f, 0xc4, 0x6f, 0xbd,
  0xa6, 0xf3, 0x81, 0x3b, 0x4b, 0xd4, 0xa7, 0xbc, 0x5a, 0xfb, 0x96, 0xbb,
  0xd2, 0x49, 0x71, 0x3b, 0xc7, 0x34, 0x3c, 0xbd, 0xb0, 0x62, 0xd2, 0x3c,
  0x15, 0x34, 0xd3, 0x3b, 0xa4, 0x86, 0x62, 0xbd, 0x2f, 0x0a, 0x83, 0xbd,
  0x08, 0xdc, 0xf2, 0xbb, 0x85, 0x0a, 0x4d, 0xbd, 0x18, 0xe5, 0xf6, 0xbc,
  0x8f, 0x2a, 0x65, 0xbd, 0x92, 0xe5, 0x22, 0xbd, 0x0a, 0xa8, 0x80, 0xbc,
  0x6c, 0xa7, 0x27, 0x3c, 0x93, 0xdc, 0xab, 0xbc, 0x3b, 0x4c, 0x8c, 0x3b,
  0xcb, 0x59, 0xf2, 0xbc, 0x5a, 0x86, 0x3f, 0xbd, 0xde, 0xe5, 0x54, 0x3b,
  0xac, 0xcd, 0x65, 0xbd, 0x69, 0xa8, 0xab, 0xbc, 0x0e, 0xf9, 0x9c, 0xbc,
  0xa4, 0x54, 0x2b, 0xbc, 0x56, 0x4e, 0x1c, 0xbc, 0xf6, 0x52, 0x15, 0x3c,
  0x0c, 0x52, 0x7f, 0x3c, 0x7d, 0xa5, 0x54, 0x3c, 0xcb, 0xab, 0x0a, 0x3c,
  0x0b, 0xe5, 0x3e, 0x3c, 0x43, 0x2b, 0xc7, 0xbc, 0x83, 0x98, 0x3b, 0x3c,
  0xc3, 0x88, 0x3a, 0xbd, 0x2f, 0x70, 0xd3, 0xbb, 0x20, 0x09, 0xcd, 0x3b,
  0x0b, 0xe8, 0x57, 0xbc, 0xa9, 0x49, 0x44, 0x3c, 0x74, 0x0f, 0x3b, 0x3c,
  0x32, 0x7b, 0x3a, 0xbc, 0xbf, 0xc8, 0x0c, 0xbb, 0xb7, 0x85, 0x6c, 0x3d,
  0xc1, 0x09, 0x5a, 0xbd, 0x16, 0xcb, 0x75, 0xbc, 0x73, 0xeb, 0xe0, 0xbc,
  0x0e, 0x91, 0x03, 0xbd, 0x8c, 0xf9, 0x0f, 0xbd, 0x88, 0xbb, 0x0e, 0x3d,
  0x62, 0xa4, 0x36, 0xbd, 0xee, 0x64, 0x43, 0x3c, 0xaf, 0xba, 0xec, 0xb8,
  0x6b, 0x0d, 0x30, 0xbd, 0xe4, 0x91, 0x3b, 0x3d, 0x7d, 0x52, 0x0f, 0xbd,
  0xe2, 0x6b, 0xa6, 0xbc, 0x58, 0x79, 0x8b, 0x3d, 0x1a, 0x00, 0x80, 0x3d,
  0x38, 0xd9, 0x27, 0x3d, 0x21, 0x29, 0x54, 0xbd, 0xa9, 0x7f, 0x38, 0xbd,
  0xd8, 0x23, 0x34, 0xbd, 0xbc, 0xd1, 0x4a, 0xbd, 0xa4, 0x8e, 0x20, 0xbd,
  0xfc, 0xed, 0x30, 0x3d, 0x65, 0x18, 0x75, 0xbd, 0x29, 0x4d, 0xa7, 0x3c,
  0x7d, 0x1b, 0xf2, 0xbc, 0x69, 0x88, 0x05, 0xbd, 0xec, 0x3d, 0x36, 0x3d,
  0x8b, 0xe9, 0x36, 0xbd, 0x41, 0x66, 0x27, 0xbd, 0xa3, 0xc2, 0x7a, 0x3d,
  0x51, 0x37, 0x77, 0x3d, 0x35, 0x13, 0x3b, 0x3d, 0x6c, 0xd8, 0x19, 0xbd,
  0x5e, 0x8c, 0xc9, 0x3c, 0x34, 0x8e, 0x4b, 0x3b, 0x02, 0xc6, 0x1a, 0x3c,
  0x5e, 0x9d, 0xd3, 0x3c, 0xc3, 0x1b, 0x08, 0xbd, 0x14, 0x49, 0xd8, 0x3c,
  0x8a, 0x4b, 0x33, 0xbd, 0xfa, 0x5a, 0xfe, 0x3c, 0x53, 0xb0, 0xe8, 0x3b,
  0x70, 0x67, 0xcf, 0x3b, 0x82, 0xf4, 0x22, 0x3c, 0xc1, 0x3b, 0xf8, 0x3c,
  0x7e, 0xdf, 0x32, 0x3d, 0x6d, 0x26, 0x36, 0x3d, 0x10, 0xc7, 0xe5, 0x3b,
  0xa3, 0x51, 0x97, 0x3a, 0xd5, 0xdb, 0xe9, 0xbc, 0x0c, 0xda, 0xef, 0xbb,
  0x94, 0x7f, 0x6d, 0xbc, 0x0b, 0x4b, 0xc1, 0xbc, 0xab, 0x67, 0xa2, 0x3c,
  0x2b, 0xef, 0xa5, 0xbc, 0xca, 0x74, 0x22, 0x3c, 0x71, 0x57, 0x27, 0xbc,
  0xd2, 0xec, 0xa5, 0xba, 0x43, 0xea, 0x47, 0x3c, 0xaa, 0x5b, 0x19, 0xba,
  0xdb, 0x36, 0x81, 0xbc, 0x88, 0x25, 0x9b, 0xbc, 0xc0, 0xdf, 0xde, 0xbc,
  0xdc, 0x30, 0xa5, 0xbb, 0x5d, 0x0a, 0x58, 0xbd, 0x9b, 0x71, 0xf8, 0x3c,
  0xd1, 0x01, 0x95, 0x3c, 0x6a, 0x2c, 0xd0, 0x3c, 0x96, 0xf3, 0xc8, 0x3c,
  0x47, 0x2e, 0x18, 0xbb, 0x46, 0x10, 0xd5, 0x3c, 0x5e, 0x12, 0xc6, 0x3b,
  0x44, 0xbd, 0xe3, 0x3c, 0x10, 0x35, 0x18, 0x3d, 0xb2, 0x96, 0x66, 0xbc,
  0xe8, 0xbe, 0x6f, 0x3c, 0xa6, 0x72, 0x01, 0x3d, 0x96, 0x9e, 0xc0, 0xbc,
  0xce, 0x18, 0xb3, 0xbc, 0xbd, 0x77, 0x16, 0xbd, 0xaa, 0xc5, 0x48, 0x3d,
  0x21, 0xc6, 0x0b, 0xbd, 0xbe, 0xbe, 0x16, 0xbd, 0x8c, 0xea, 0x05, 0xbd,
  0xc6, 0x60, 0x48, 0xbd, 0xb4, 0xea, 0xdb, 0x3b, 0x50, 0x23, 0x0a, 0xbd,
  0xda, 0xf0, 0xa3, 0x3c, 0x2b, 0x61, 0x2e, 0xbd, 0x95, 0x47, 0x3d, 0xbd,
  0xb0, 0x05, 0x76, 0xbc, 0x40, 0x72, 0xda, 0xbc, 0x70, 0x52, 0x2c, 0xbd,
  0x2c, 0xe2, 0x30, 0xbd, 0xe5, 0x40, 0x16, 0xbd, 0x48, 0x1b, 0xd6, 0xbc,
  0xd0, 0x29, 0x39, 0x3d, 0xfd, 0x47, 0x26, 0x3c, 0xb9, 0x3e, 0x06, 0x3d,
  0x20, 0x39, 0xd7, 0x3c, 0x1c, 0xeb, 0xb8, 0x3b, 0x52, 0xbe, 0x4f, 0xbd,
  0xbe, 0x0d, 0x22, 0x3a, 0xce, 0x71, 0x67, 0xbd, 0xd4, 0x1c, 0xc8, 0x3b,
  0x1c, 0x36, 0x05, 0x3d, 0x5c, 0x94, 0x35, 0xbd, 0x64, 0xd7, 0xca, 0x3c,
  0xb5, 0x9f, 0x52, 0xb9, 0x48, 0xde, 0x09, 0xbd, 0xae, 0x60, 0xe3, 0xbc,
  0x44, 0xa1, 0xb1, 0xbc, 0x22, 0x1f, 0x5a, 0xbc, 0x3a, 0x8e, 0x79, 0xbc,
  0x99, 0x7e, 0x82, 0xbd, 0xca, 0x4c, 0x40, 0xbd, 0xd8, 0xb4, 0xdd, 0xbc,
  0x43, 0x55, 0x2d, 0xbb, 0xc2, 0x2d, 0x6b, 0xbb, 0xcb, 0x06, 0xba, 0x3c,
  0xf2, 0x4f, 0xcd, 0xbc, 0x02, 0xeb, 0x53, 0xbd, 0xf2, 0x52, 0xd1, 0xbc,
  0x2f, 0x49, 0x33, 0xbd, 0xb0, 0x1c, 0x92, 0xbc, 0x50, 0x78, 0x6a, 0xbc,
  0xa4, 0x5b, 0x2e, 0xbc, 0xd8, 0xb6, 0xc5, 0xbc, 0x73, 0xfb, 0x05, 0x3c,
  0x38, 0x5d, 0xe3, 0xba, 0x9c, 0xee, 0x74, 0x3c, 0x74, 0xa1, 0xf3, 0x3b,
  0xf0, 0x59, 0x17, 0x3c, 0x85, 0x2d, 0x11, 0xbd, 0xbb, 0x42, 0x60, 0x3a,
  0x91, 0x7b, 0x60, 0xbc, 0x2b, 0xfa, 0x1e, 0xbc, 0xda, 0xd8, 0xae, 0x3b,
  0xb7, 0x06, 0x15, 0xbd, 0x9a, 0x9b, 0x54, 0x3c, 0xfd, 0x00, 0x21, 0xba,
  0x0c, 0x82, 0x7b, 0xbd, 0x36, 0x27, 0x50, 0xbd, 0x06, 0xeb, 0xff, 0xff,
  0x04, 0x00, 0x00, 0x00, 0x40, 0x00, 0x00, 0x00, 0xf2, 0x87, 0x5a, 0xbe,
  0xac, 0x85, 0x06, 0x3e, 0x1c, 0x5b, 0x68, 0xbe, 0x18, 0xbe, 0x93, 0xbe,
  0xc0, 0xa3, 0x7e, 0xbe, 0x3a, 0xb2, 0x6b, 0xbe, 0x18, 0x75, 0x80, 0xbe,
  0xf5, 0xf5, 0x98, 0xbe, 0xd3, 0x27, 0xaa, 0xbe, 0x19, 0xa6, 0x97, 0xbe,
  0xe7, 0xe1, 0x86, 0xbe, 0xba, 0x4a, 0xb1, 0xbd, 0xda, 0xc6, 0x96, 0xbe,
  0xef, 0xde, 0x83, 0xbe, 0xe0, 0xeb, 0xc1, 0x3c, 0xb8, 0x82, 0x47, 0xbc,
  0x52, 0xeb, 0xff, 0xff, 0x04, 0x00, 0x00, 0x00, 0x40, 0x00, 0x00, 0x00,
  0x37, 0x13, 0xbd, 0x3f, 0x8d, 0x22, 0xd4, 0x3f, 0x27, 0x08, 0xa7, 0x3f,
  0x29, 0x33, 0xc2, 0x3f, 0xb1, 0x27, 0xb3, 0x3f, 0xb0, 0xb0, 0xb3, 0x3f,
  0x85, 0x91, 0xb6, 0x3f, 0x89, 0x37, 0xb5, 0x3f, 0xfe, 0xa6, 0xb3, 0x3f,
  0x9b, 0xbb, 0xa3, 0x3f, 0x05, 0x6d, 0xb1, 0x3f, 0x20, 0xa4, 0xc7, 0x3f,
  0x70, 0x00, 0xbf, 0x3f, 0x97, 0x13, 0xa7, 0x3f, 0x50, 0xb4, 0xdb, 0x3f,
  0xf1, 0x16, 0xd5, 0x3f, 0x9e, 0xeb, 0xff, 0xff, 0x04, 0x00, 0x00, 0x00,
  0x08, 0x00, 0x00, 0x00, 0xff, 0xff, 0xff, 0xff, 0x40, 0x00, 0x00, 0x00,
  0xb2, 0xeb, 0xff, 0xff, 0x04, 0x00, 0x00, 0x00, 0x10, 0x00, 0x00, 0x00,
  0x7a, 0xd9, 0xf2, 0xbd, 0xa6, 0xd2, 0x5a, 0x3d, 0xb3, 0xdd, 0x80, 0xbe,
  0x2f, 0xa0, 0x9b, 0x3e, 0xce, 0xeb, 0xff, 0xff, 0x04, 0x00, 0x00, 0x00,
  0x00, 0x04, 0x00, 0x00, 0x07, 0x91, 0x26, 0x41, 0xaf, 0x01, 0xc6, 0x40,
  0xce, 0x20, 0x5d, 0x40, 0x8b, 0x88, 0xa1, 0xbf, 0x91, 0xf8, 0x83, 0x41,
  0x2b, 0xa8, 0xbe, 0x40, 0x9c, 0xee, 0x43, 0x40, 0x1c, 0x10, 0x31, 0x41,
  0xb4, 0xb4, 0xf6, 0x40, 0x12, 0x82, 0xba, 0x3f, 0x0c, 0x3c, 0x78, 0x41,
  0xf1, 0x45, 0xc2, 0x40, 0x46, 0x7f, 0xf6, 0x40, 0x6d, 0xf7, 0x63, 0x41,
  0x75, 0xef, 0xf7, 0x40, 0x8f, 0x5a, 0xe9, 0x40, 0xaf, 0x8c, 0xa8, 0x40,
  0xbb, 0x58, 0x13, 0x41, 0x45, 0x32, 0x90, 0x3f, 0x51, 0xdf, 0x86, 0x40,
  0xaa, 0x63, 0xdf, 0x3f, 0xa0, 0x6b, 0x93, 0x40, 0x02, 0x33, 0xad, 0xc0,
  0xe8, 0xaf, 0x00, 0x40, 0x3c, 0x25, 0x83, 0xbf, 0x19, 0xa5, 0xc5, 0xc0,
  0x70, 0xf9, 0x7e, 0xc0, 0xeb, 0x51, 0x98, 0xc0, 0xd2, 0x00, 0x35, 0xc0,
  0x8a, 0xa0, 0x62, 0xc0, 0xc4, 0xb9, 0xa3, 0xc0, 0xd9, 0xbd, 0xbb, 0xc1,
  0x1c, 0xcc, 0x60, 0x41, 0x10, 0xbc, 0x44, 0xc0, 0xac, 0x8c, 0x06, 0x41,
  0x4d, 0x6b, 0xd0, 0x40, 0x8c, 0x7f, 0xaa, 0xc0, 0xa2, 0x50, 0x44, 0x41,
  0xfb, 0xbb, 0xd6, 0x40, 0xfc, 0xd6, 0xb1, 0x40, 0x9b, 0x35, 0x6c, 0x40,
  0x1e, 0x00, 0x8d, 0x40, 0x72, 0x30, 0x34, 0x3f, 0xf6, 0x78, 0x89, 0x41,
  0x95, 0xaf, 0x68, 0x40, 0xd8, 0x94, 0x24, 0xbf, 0xf7, 0xb6, 0x1b, 0x41,
  0xde, 0x6d, 0x45, 0x40, 0x24, 0xce, 0xe0, 0x40, 0x9d, 0x42, 0x42, 0x41,
  0x9b, 0x45, 0x96, 0xbf, 0x2e, 0x26, 0x74, 0x40, 0x91, 0x9b, 0xff, 0x40,
  0x78, 0xe8, 0xa7, 0x40, 0xf7, 0x94, 0x4d, 0x40, 0x8d, 0x41, 0x0e, 0x41,
  0x7c, 0xf6, 0x80, 0xbe, 0x31, 0x42, 0x94, 0x3f, 0x48, 0x8b, 0x01, 0x41,
  0xf5, 0x91, 0xd2, 0x3f, 0x2a, 0xed, 0x2c, 0x41, 0x20, 0x08, 0xbd, 0xbf,
  0x40, 0x23, 0xaf, 0xc0, 0xfa, 0xa3, 0x85, 0x41, 0x86, 0xa7, 0x9b, 0xc1,
  0x0e, 0xc3, 0x1e, 0x3f, 0x88, 0xa0, 0x65, 0xc0, 0xb5, 0xb9, 0x76, 0xc0,
  0x1a, 0x13, 0x1d, 0xc1, 0x7f, 0x0a, 0xd3, 0xc0, 0xd3, 0xcb, 0x8c, 0xc0,
  0x5e, 0x35, 0x83, 0xc0, 0xd9, 0x0d, 0xa2, 0xbf, 0xd7, 0xda, 0x1e, 0xc1,
  0x99, 0x4f, 0xd6, 0xc0, 0x8c, 0x60, 0x4e, 0xc0, 0x58, 0xad, 0x3d, 0xc1,
  0x99, 0xb2, 0x8e, 0x3e, 0x51, 0x71, 0x2e, 0xc1, 0x56, 0x73, 0xeb, 0xc0,
  0xbb, 0x32, 0xc1, 0xc0, 0x91, 0x98, 0x9e, 0xc0, 0x58, 0x00, 0xfb, 0xc0,
  0xfa, 0x41, 0x04, 0xc1, 0xb6, 0x22, 0x14, 0xc0, 0xa9, 0x83, 0x46, 0xc1,
  0x62, 0xf4, 0xb6, 0x3f, 0xfe, 0xdf, 0x0f, 0xc1, 0x70, 0xec, 0x62, 0xc0,
  0x94, 0x2f, 0xeb, 0xc0, 0x46, 0x26, 0xd0, 0xbf, 0x41, 0xbe, 0xef, 0xc0,
  0xc2, 0xd2, 0x13, 0xc0, 0x4d, 0x3d, 0xb4, 0xc0, 0x82, 0xfa, 0xb1, 0xbf,
  0x45, 0x8e, 0x07, 0xc1, 0xf4, 0x92, 0x3a, 0x41, 0x35, 0xbd, 0x21, 0xbf,
  0x47, 0xa1, 0x45, 0xc0, 0xf6, 0xad, 0xe0, 0x40, 0xec, 0x25, 0x03, 0x41,
  0x2b, 0x55, 0xa8, 0xbf, 0x7e, 0xd9, 0x9b, 0x40, 0xdf, 0x7b, 0x18, 0x41,
  0xb6, 0x10, 0x8d, 0xbf, 0x18, 0xe5, 0xe7, 0x40, 0x3c, 0xf3, 0x9e, 0xbf,
  0x25, 0xf0, 0x4e, 0x41, 0x38, 0xc0, 0x41, 0xbf, 0x63, 0xf1, 0x1a, 0x41,
  0xc2, 0x72, 0xed, 0x3f, 0xe7, 0x94, 0x3a, 0x41, 0xa3, 0x45, 0xcf, 0xbd,
  0xcb, 0xea, 0x16, 0x41, 0x9e, 0xa7, 0x08, 0x41, 0x2c, 0x22, 0xe6, 0x40,
  0x89, 0x4e, 0x83, 0x40, 0x93, 0xc5, 0x4d, 0x41, 0xa8, 0xfe, 0xde, 0xbe,
  0x4a, 0xfa, 0xd6, 0x40, 0x7d, 0xd4, 0x08, 0x41, 0xe4, 0xb3, 0xed, 0xbe,
  0x81, 0xee, 0x0e, 0x41, 0x04, 0x7e, 0xad, 0x40, 0x0a, 0xf2, 0x9c, 0x40,
  0x9d, 0x5d, 0x8a, 0xbd, 0x25, 0x40, 0x94, 0x40, 0x54, 0x1d, 0x51, 0x41,
  0x20, 0xd1, 0x83, 0xc1, 0x3e, 0x01, 0x81, 0xbf, 0xd3, 0x0a, 0x81, 0xc0,
  0xe0, 0xfd, 0xc8, 0x3f, 0x30, 0x09, 0x22, 0xc1, 0xa4, 0xe7, 0x68, 0xc0,
  0xa9, 0x7e, 0xbe, 0xc0, 0x7f, 0xd2, 0x39, 0xc0, 0xea, 0x0e, 0x22, 0xc1,
  0x9a, 0x67, 0xdd, 0xbf, 0xc5, 0x8d, 0xdf, 0xc0, 0xa1, 0x97, 0xfe, 0xc0,
  0x7c, 0x59, 0x01, 0xc1, 0xd2, 0x1a, 0x7e, 0xc0, 0xbe, 0xd3, 0x5d, 0xc1,
  0x24, 0x4f, 0xc5, 0xbf, 0x22, 0xa1, 0x07, 0xc0, 0x6d, 0x4c, 0xfb, 0xc0,
  0xe6, 0x9a, 0x3c, 0xc1, 0xc4, 0xbf, 0x6e, 0xbf, 0xa6, 0xc6, 0x8c, 0xbf,
  0xe4, 0x2b, 0x47, 0xc1, 0x37, 0x12, 0x9d, 0x40, 0x25, 0x20, 0x0b, 0xc1,
  0x0e, 0xc4, 0xc4, 0xc0, 0xd2, 0x7b, 0x33, 0xc0, 0x24, 0xcc, 0x1c, 0x3f,
  0x65, 0x7f, 0xcb, 0xc0, 0x17, 0x54, 0xab, 0x3f, 0x62, 0x12, 0xb1, 0xc0,
  0xd8, 0x8d, 0x6c, 0x40, 0xb6, 0x41, 0xd4, 0xc0, 0x38, 0xf5, 0x2b, 0xc0,
  0x8c, 0x7f, 0x2e, 0xc0, 0x63, 0xe5, 0x09, 0x40, 0xee, 0x66, 0x05, 0xc1,
  0x57, 0xd5, 0x1a, 0xc0, 0x68, 0x76, 0xbf, 0xc0, 0xf6, 0x0e, 0xb9, 0xc0,
  0xfa, 0x20, 0x0b, 0xc0, 0x23, 0xc9, 0x89, 0xc0, 0xc6, 0x95, 0xe9, 0x3e,
  0x37, 0x49, 0x5d, 0xc1, 0x73, 0x98, 0x7a, 0xc0, 0x83, 0x91, 0x59, 0xc0,
  0x72, 0x32, 0x3e, 0xc1, 0xc5, 0xd1, 0x45, 0xc1, 0xd3, 0x9b, 0xa1, 0xc0,
  0x0e, 0x5b, 0x41, 0xc1, 0x92, 0x7f, 0xf1, 0xc0, 0x13, 0xa5, 0x61, 0xc1,
  0x92, 0x49, 0xaf, 0xc0, 0xd7, 0x98, 0x32, 0xc1, 0xd2, 0x60, 0x19, 0xc1,
  0xad, 0xe2, 0x13, 0xc1, 0x7a, 0xcd, 0xe6, 0xc0, 0xec, 0xfc, 0xdf, 0xc0,
  0xb3, 0xb9, 0x31, 0xc1, 0xac, 0xb4, 0x75, 0xc0, 0x66, 0x32, 0x40, 0xc1,
  0x3b, 0x32, 0xe6, 0xc0, 0x5d, 0xe5, 0x41, 0xc0, 0x65, 0xa6, 0xc5, 0xc0,
  0xb3, 0x01, 0x85, 0xc1, 0xe7, 0xba, 0x7f, 0x41, 0x5c, 0xb5, 0xb3, 0x3c,
  0x5d, 0x59, 0x03, 0x40, 0x26, 0x8a, 0x0d, 0x41, 0xf9, 0x70, 0xe1, 0x3f,
  0x7e, 0xc7, 0x81, 0x41, 0xf9, 0xc2, 0xa4, 0xbf, 0xde, 0x0d, 0x31, 0x41,
  0x6f, 0x03, 0xe3, 0x3f, 0x92, 0xd1, 0x48, 0x41, 0x4e, 0xd5, 0x93, 0x40,
  0x4b, 0xfc, 0xab, 0x40, 0x59, 0x33, 0x7d, 0x41, 0x34, 0x68, 0x32, 0xc0,
  0x47, 0x35, 0x34, 0x41, 0x08, 0x94, 0x49, 0x41, 0xcf, 0x37, 0x78, 0x40,
  0x71, 0x71, 0x9a, 0x40, 0x0f, 0x6c, 0xdf, 0x40, 0x89, 0xcf, 0x4e, 0x41,
  0xb9, 0xa3, 0x83, 0x40, 0x01, 0x5c, 0x94, 0x40, 0x88, 0x0a, 0x4f, 0x41,
  0x2a, 0x75, 0xad, 0x3f, 0xd7, 0xc1, 0x0e, 0x41, 0xa3, 0xcc, 0x73, 0x40,
  0xc4, 0x71, 0x94, 0x3f, 0x31, 0xfc, 0x56, 0x41, 0xde, 0xf2, 0x1a, 0x40,
  0xe2, 0xcc, 0x38, 0xbe, 0x5f, 0xba, 0x4d, 0x40, 0xd5, 0xe2, 0x55, 0x41,
  0xd7, 0x1f, 0x81, 0xc1, 0x38, 0x21, 0xe0, 0x3e, 0xb4, 0x87, 0xa0, 0xc0,
  0xbf, 0x62, 0xa8, 0x3f, 0xbc, 0x4b, 0xba, 0xc0, 0xcf, 0x94, 0xc2, 0xbf,
  0xea, 0xd8, 0x25, 0xc1, 0x1c, 0x45, 0xb2, 0x3e, 0xab, 0x63, 0xa6, 0xc0,
  0x40, 0xe0, 0x3b, 0xc1, 0xf9, 0x95, 0x67, 0x40, 0x88, 0xd2, 0xe3, 0xc0,
  0x99, 0x58, 0xfd, 0xc0, 0x09, 0x0b, 0xa7, 0xc0, 0xf7, 0x33, 0xa3, 0x40,
  0x9c, 0xe4, 0x61, 0x40, 0x29, 0x4a, 0x1b, 0xc1, 0xd3, 0x1f, 0xfb, 0x40,
  0x4a, 0xca, 0xc0, 0x40, 0x8d, 0x7f, 0xe3, 0x3e, 0xc6, 0xe7, 0xbb, 0x40,
  0x37, 0x65, 0xaa, 0x40, 0xd2, 0xec, 0xd2, 0x40, 0xd2, 0xfb, 0xb7, 0xbd,
  0x00, 0xd0, 0x04, 0x41, 0x23, 0x69, 0xfd, 0x40, 0x8a, 0x15, 0xbf, 0x40,
  0x69, 0x6b, 0xa7, 0x41, 0xa6, 0xdc, 0x9a, 0xbf, 0x00, 0xab, 0x4d, 0x3f,
  0x15, 0x1d, 0xf5, 0x3f, 0x6f, 0xe2, 0x17, 0x42, 0xda, 0xef, 0xff, 0xff,
  0x04, 0x00, 0x00, 0x00, 0x00, 0x0f, 0x00, 0x00, 0x77, 0x8e, 0x22, 0xbf,
  0xd5, 0x84, 0x54, 0x3f, 0xb7, 0xf4, 0xf6, 0x3d, 0x06, 0x74, 0x93, 0x40,
  0x5a, 0x6f, 0x5d, 0xc0, 0x5a, 0xc4, 0x0e, 0xc0, 0x0a, 0xa6, 0x1f, 0xbf,
  0xa5, 0xdc, 0x66, 0x40, 0x42, 0x5e, 0x89, 0x3f, 0x96, 0x31, 0xbf, 0xbe,
  0xe0, 0x51, 0x04, 0xc0, 0xed, 0xd2, 0x5d, 0x3f, 0x8d, 0xee, 0x41, 0x40,
  0x6c, 0x62, 0xe7, 0x3f, 0xa0, 0xad, 0xea, 0xbc, 0x95, 0xd4, 0xb4, 0x3e,
  0x1b, 0xc0, 0x81, 0x3e, 0x51, 0xb2, 0x86, 0x3e, 0x8a, 0xe0, 0xdd, 0x3f,
  0x4e, 0xfb, 0x7b, 0xc0, 0xf1, 0x42, 0x21, 0x40, 0x2f, 0x19, 0xf0, 0x3f,
  0xda, 0x12, 0x12, 0x40, 0x23, 0x37, 0x33, 0x3e, 0x3a, 0x30, 0x0c, 0xc0,
  0x46, 0x35, 0x48, 0xbf, 0xf9, 0x43, 0x89, 0xbe, 0x23, 0x94, 0x9a, 0xbe,
  0x23, 0x03, 0xf7, 0xbf, 0x78, 0x6a, 0x00, 0xbf, 0x42, 0x8f, 0xda, 0xbe,
  0xba, 0x24, 0x53, 0xbf, 0xa0, 0x54, 0x7d, 0xbe, 0xcc, 0xf9, 0x6f, 0xbf,
  0x8a, 0x4f, 0x04, 0xbf, 0x56, 0x27, 0x62, 0x3f, 0xbb, 0xa9, 0x82, 0x3f,
  0x45, 0x2f, 0x99, 0xbf, 0x3b, 0x69, 0x94, 0xbe, 0x34, 0xe7, 0xb7, 0x3e,
  0xa5, 0xe0, 0xc4, 0xbe, 0x93, 0xdd, 0x4a, 0xbf, 0x43, 0xc0, 0x52, 0x3e,
  0x91, 0xd5, 0xf3, 0x3d, 0xed, 0xcd, 0xcb, 0xbf, 0xbc, 0x10, 0x46, 0x3f,
  0xeb, 0xc8, 0x30, 0x3f, 0xbe, 0xf0, 0x67, 0xbe, 0x8a, 0xbf, 0xf0, 0xbe,
  0x86, 0x2e, 0x37, 0x3e, 0x77, 0x02, 0x33, 0x3f, 0x6a, 0x68, 0x8b, 0xc0,
  0xa9, 0x4b, 0x05, 0x40, 0x90, 0x86, 0xfa, 0x3f, 0x67, 0x90, 0x81, 0x3d,
  0x97, 0x06, 0xd6, 0xbf, 0x01, 0xe3, 0x5c, 0xbe, 0xe3, 0x17, 0xb6, 0x3e,
  0x84, 0x14, 0x04, 0x40, 0xdd, 0x3b, 0x02, 0xbf, 0xd6, 0x2f, 0x0c, 0xc0,
  0x39, 0xf6, 0xbf, 0x3e, 0xb8, 0xb1, 0x33, 0x3e, 0x1e, 0x05, 0x60, 0x3e,
  0x2d, 0xd5, 0x0f, 0x3f, 0x9a, 0x75, 0xe6, 0x3e, 0x3a, 0xb5, 0xc6, 0x3f,
  0x82, 0xb4, 0x13, 0x40, 0x30, 0xba, 0xf2, 0xbf, 0x36, 0xe7, 0xe0, 0xbc,
  0x71, 0x0b, 0x40, 0xbe, 0x80, 0xc2, 0x1b, 0xbe, 0xb6, 0xa5, 0x2b, 0x40,
  0xad, 0xa6, 0x56, 0xbf, 0x94, 0x9c, 0x18, 0xc0, 0xa7, 0x52, 0x0f, 0xbe,
  0x9b, 0x60, 0xd8, 0x3f, 0xc8, 0x9a, 0xbd, 0x3e, 0xc1, 0xe6, 0x18, 0x3f,
  0xda, 0x71, 0xa7, 0x3e, 0x71, 0x35, 0xcf, 0x3e, 0x47, 0xe1, 0x04, 0xc0,
  0x07, 0x9d, 0xab, 0x3c, 0x60, 0x8b, 0xd6, 0xc0, 0xa5, 0xb1, 0xf4, 0x3f,
  0x63, 0x05, 0xdb, 0x3d, 0x9c, 0x70, 0x9c, 0x3f, 0x8b, 0x0f, 0xeb, 0xbe,
  0xf8, 0x71, 0xfc, 0xbf, 0xc6, 0x97, 0xa6, 0x3e, 0x32, 0xf8, 0x66, 0x40,
  0x2c, 0x98, 0x3b, 0xbf, 0xbf, 0x7c, 0x28, 0xc0, 0x9e, 0x91, 0xd0, 0xbe,
  0xb6, 0x64, 0xc5, 0xbf, 0xb0, 0x9a, 0xba, 0x3e, 0x93, 0x54, 0x50, 0x3e,
  0x44, 0xa1, 0x19, 0x3f, 0x21, 0x1c, 0x27, 0x3f, 0x91, 0x81, 0x7f, 0x3f,
  0x85, 0x2a, 0x30, 0xc0, 0x3a, 0x97, 0x0b, 0xc0, 0xfc, 0xd4, 0x06, 0xbf,
  0x49, 0x7d, 0xa3, 0x3e, 0xb0, 0x48, 0x0a, 0x40, 0x85, 0xac, 0xb7, 0xbe,
  0xd8, 0xba, 0x0e, 0xbf, 0x71, 0xc9, 0x52, 0xbf, 0x99, 0x0b, 0x21, 0x40,
  0xf0, 0x01, 0x59, 0x3f, 0x03, 0xea, 0xd9, 0x3e, 0x7c, 0x54, 0xeb, 0x3d,
  0x3c, 0x1a, 0x06, 0x3f, 0xd6, 0x8e, 0xf7, 0xbd, 0x7a, 0x74, 0x34, 0x3e,
  0x5f, 0xa3, 0x01, 0x40, 0x12, 0x15, 0xb6, 0xbf, 0x43, 0x25, 0xf6, 0xbf,
  0x8e, 0x34, 0xa7, 0xbf, 0xa9, 0xa5, 0xe1, 0xbd, 0x6b, 0xc9, 0x63, 0x40,
  0xbc, 0x02, 0x0d, 0xbe, 0xbc, 0xdf, 0x5a, 0x3c, 0x51, 0x57, 0xa7, 0x3f,
  0xa5, 0x57, 0x8a, 0x3f, 0x4b, 0x0a, 0x2e, 0xbf, 0x25, 0x72, 0x61, 0xbf,
  0xd3, 0xd0, 0x60, 0xbf, 0xa7, 0x2f, 0xe1, 0x3e, 0xea, 0x79, 0x0a, 0x3e,
  0x4b, 0x85, 0x46, 0xbf, 0x57, 0xf5, 0x81, 0x3f, 0x9f, 0x87, 0xd4, 0xbf,
  0x51, 0xec, 0x02, 0xc0, 0x3d, 0x4a, 0x14, 0xbf, 0x38, 0x9d, 0x4a, 0x3f,
  0x7f, 0x44, 0x79, 0x3e, 0xae, 0x42, 0xa3, 0xbf, 0x4f, 0x3f, 0x0d, 0x3f,
  0xde, 0x0f, 0xa0, 0xbe, 0x13, 0xda, 0x1a, 0x40, 0xcb, 0x01, 0xc0, 0xbe,
  0xb0, 0x75, 0x35, 0x3f, 0x11, 0xec, 0x94, 0x3f, 0xc2, 0x85, 0x81, 0x3d,
  0xfe, 0xe6, 0xc2, 0x3f, 0xf3, 0x1d, 0x86, 0xbf, 0x35, 0x0d, 0x77, 0xbf,
  0x18, 0x20, 0x32, 0x3f, 0x1a, 0xd5, 0x0a, 0xbf, 0xe7, 0xf5, 0x6e, 0x3e,
  0x3d, 0xb8, 0x94, 0xbf, 0xd0, 0x3a, 0xe2, 0x3e, 0x57, 0x7d, 0xbc, 0x3e,
  0xad, 0xf2, 0xa6, 0x3f, 0x62, 0xcd, 0x21, 0x3d, 0xfa, 0x7c, 0x84, 0xbf,
  0x6f, 0x54, 0x99, 0xbc, 0x3c, 0xae, 0x17, 0x3e, 0x70, 0xe2, 0x65, 0xbe,
  0x07, 0xbb, 0x89, 0x3e, 0x24, 0xd5, 0x9d, 0xbf, 0x45, 0xeb, 0xd3, 0x3f,
  0x86, 0x59, 0xaf, 0x3f, 0x98, 0xf5, 0x2e, 0xc0, 0xf8, 0x6d, 0xbe, 0xbf,
  0x5b, 0x63, 0x19, 0xc0, 0x6a, 0x3d, 0x7f, 0x3f, 0xb9, 0x2e, 0x55, 0x3e,
  0xbe, 0x6f, 0x80, 0xbf, 0xa2, 0x5a, 0x62, 0xc0, 0xe8, 0x82, 0x95, 0xbd,
  0xce, 0xe9, 0x0d, 0x40, 0x5e, 0x5c, 0xa9, 0x3f, 0xf2, 0xbc, 0x4c, 0xbf,
  0x8f, 0x9d, 0xa0, 0xbf, 0xf7, 0xad, 0xb5, 0x3d, 0xe3, 0x79, 0xe6, 0xbe,
  0x6d, 0x7d, 0xcd, 0xbf, 0x0e, 0xce, 0x37, 0x40, 0xfc, 0x45, 0xef, 0x3f,
  0x60, 0x9d, 0xa1, 0x3f, 0x73, 0x32, 0x0f, 0xbf, 0xb5, 0x52, 0x2f, 0xbf,
  0x58, 0x2e, 0x0d, 0x3f, 0x7b, 0x5c, 0x5d, 0xbf, 0x3f, 0x0b, 0x7d, 0x3e,
  0xfe, 0x4f, 0x85, 0x3e, 0xe9, 0xce, 0xbc, 0x3d, 0x85, 0x22, 0x19, 0x3f,
  0xf1, 0xa1, 0x83, 0x3f, 0x6f, 0x4d, 0x8c, 0x3f, 0x22, 0x4c, 0x33, 0xbd,
  0x2d, 0x09, 0x0d, 0x3f, 0x80, 0x89, 0x86, 0x3e, 0x97, 0x4e, 0x2e, 0x40,
  0x98, 0x6b, 0x90, 0x3e, 0x22, 0x63, 0xc1, 0xbe, 0xbe, 0xd5, 0x86, 0xbf,
  0xf9, 0xc9, 0xc4, 0xbd, 0x03, 0xdc, 0x5f, 0x3f, 0x9d, 0x84, 0xcb, 0x3f,
  0x2c, 0x2b, 0x2b, 0x3e, 0xe9, 0x7e, 0xd4, 0x3e, 0x23, 0xc5, 0xc5, 0xbd,
  0x90, 0xad, 0x5a, 0xbf, 0x7d, 0x0a, 0xf5, 0x3e, 0x70, 0x2c, 0xad, 0x3f,
  0x59, 0x42, 0x7d, 0xbd, 0x2a, 0x9d, 0xcd, 0xbe, 0x38, 0xa5, 0x07, 0x3f,
  0x14, 0xea, 0x9a, 0xbe, 0x9a, 0x3c, 0xcb, 0x3f, 0xe9, 0xe8, 0xc7, 0x3f,
  0xff, 0xb8, 0xa7, 0xbf, 0x29, 0x90, 0xb7, 0xbf, 0xcb, 0x99, 0xd9, 0xbf,
  0x93, 0xa8, 0xa9, 0xbf, 0xce, 0x71, 0x7f, 0x3f, 0xee, 0x36, 0x58, 0x3f,
  0x07, 0x44, 0xd1, 0xbf, 0xff, 0x95, 0x52, 0xbf, 0x61, 0x50, 0x33, 0x3f,
  0x4a, 0xe5, 0x7a, 0xbf, 0x26, 0x33, 0x44, 0x3f, 0x69, 0x43, 0x2e, 0xbf,
  0x83, 0x5a, 0x08, 0xbf, 0xc4, 0xac, 0x1f, 0x40, 0xda, 0xfe, 0xf8, 0xbf,
  0xac, 0xa1, 0x87, 0xbd, 0x25, 0xad, 0xda, 0xbe, 0xc8, 0xee, 0x11, 0xbf,
  0xae, 0xf6, 0x25, 0xbe, 0x70, 0xa9, 0x79, 0xbf, 0x86, 0x64, 0x47, 0xc0,
  0xfa, 0x72, 0xa0, 0xbf, 0x31, 0x20, 0x1e, 0x3f, 0xd9, 0x95, 0x21, 0xbf,
  0xd3, 0xe4, 0xda, 0x3e, 0x1c, 0x5a, 0x20, 0x3f, 0x02, 0xca, 0x3b, 0x3f,
  0x58, 0x2c, 0x98, 0xbf, 0xcf, 0x2e, 0xb9, 0x3f, 0x25, 0xb4, 0xdb, 0x40,
  0xbb, 0xf8, 0x6d, 0xc0, 0xff, 0x91, 0x7f, 0xbe, 0xef, 0x88, 0x1d, 0xc0,
  0xf1, 0x16, 0x8d, 0x3e, 0xd3, 0x0d, 0xf0, 0x3f, 0xcb, 0x7c, 0x0a, 0xc0,
  0xb5, 0x34, 0xef, 0xbf, 0x0f, 0xb3, 0xb0, 0x3f, 0x56, 0x46, 0x2b, 0x40,
  0x23, 0x72, 0xc0, 0x3e, 0x0d, 0x09, 0xfa, 0xbe, 0x77, 0x77, 0x53, 0xbf,
  0x03, 0xcf, 0x66, 0x3f, 0x99, 0xc2, 0xfe, 0xbf, 0x0e, 0xe4, 0x61, 0x3f,
  0x4f, 0xcd, 0xe9, 0xbf, 0xab, 0xe9, 0x49, 0x40, 0xda, 0x06, 0xbe, 0x3f,
  0x4c, 0x70, 0x42, 0x3f, 0xda, 0xda, 0x9d, 0x3f, 0x26, 0x25, 0x36, 0xbf,
  0x9e, 0xab, 0x91, 0xbf, 0xbc, 0x9c, 0xd1, 0x3f, 0x43, 0x15, 0x04, 0xbe,
  0x9e, 0x6d, 0x4f, 0xc0, 0x36, 0xc5, 0xca, 0x3e, 0x8b, 0x73, 0xae, 0x3e,
  0xf3, 0x49, 0xa7, 0xbe, 0xbc, 0x67, 0xc3, 0xbe, 0x78, 0x12, 0x04, 0xbf,
  0x3f, 0x93, 0x78, 0x3f, 0xa7, 0xb8, 0x20, 0xbe, 0xbe, 0x25, 0x80, 0x3f,
  0x00, 0x5d, 0xcc, 0xbf, 0x35, 0x76, 0x68, 0x3f, 0x17, 0x3e, 0x52, 0x3f,
  0xa5, 0x96, 0x09, 0xc0, 0x99, 0x04, 0xe4, 0xbe, 0xee, 0x41, 0xba, 0x3f,
  0xad, 0xd6, 0xed, 0xbf, 0x19, 0xe6, 0xe8, 0xbe, 0x65, 0x56, 0x76, 0xbf,
  0xe8, 0x87, 0xb4, 0x3e, 0xc2, 0x15, 0x08, 0x40, 0x14, 0xc6, 0x3f, 0xbe,
  0x63, 0xa4, 0x0e, 0xbf, 0xa3, 0x1e, 0x2a, 0xc0, 0xee, 0xdd, 0x87, 0xbf,
  0x29, 0xef, 0x55, 0x40, 0xb7, 0x69, 0xce, 0x3f, 0xe4, 0xc4, 0x68, 0x40,
  0x6b, 0x1d, 0x63, 0xc0, 0x9b, 0x7f, 0x46, 0xc0, 0x57, 0x80, 0x00, 0x40,
  0xb6, 0x24, 0x53, 0x40, 0x16, 0xc5, 0xc7, 0xbd, 0xb8, 0x4f, 0x88, 0xc0,
  0x3e, 0xb3, 0x05, 0xbf, 0x27, 0xce, 0xe8, 0x3e, 0x7a, 0x90, 0x73, 0x3e,
  0x47, 0xd6, 0x16, 0xbf, 0x6a, 0xa8, 0x8e, 0x3f, 0xa1, 0xf5, 0x54, 0xbf,
  0x95, 0x64, 0x85, 0xbf, 0x89, 0x53, 0xdf, 0xbf, 0x30, 0x16, 0xf8, 0x3f,
  0xd6, 0x6c, 0x30, 0x3f, 0x37, 0xec, 0x37, 0xc0, 0x3c, 0x3a, 0x39, 0x3d,
  0x76, 0xaf, 0xd5, 0x3f, 0x3d, 0xa1, 0xbd, 0xbf, 0x44, 0x88, 0x69, 0x3f,
  0x5b, 0xf2, 0x83, 0xbe, 0x37, 0xdc, 0xa8, 0xbf, 0xbb, 0xa2, 0xbc, 0xbf,
  0xb0, 0x37, 0x0d, 0xc0, 0x43, 0x3b, 0x10, 0xbe, 0x4f, 0x42, 0xb2, 0x3f,
  0xf8, 0x71, 0x0b, 0xc0, 0x4a, 0x35, 0x9a, 0xbf, 0x7e, 0x61, 0x29, 0xc0,
  0xda, 0x00, 0x37, 0xbe, 0x3a, 0xd6, 0x43, 0x3c, 0x35, 0xfa, 0x0d, 0xc0,
  0x99, 0x66, 0x68, 0xbf, 0x90, 0x46, 0x99, 0x3f, 0xb3, 0x2a, 0xfd, 0x3f,
  0x5f, 0xe7, 0x9f, 0x3e, 0xa5, 0x3a, 0x18, 0xbf, 0x8c, 0xec, 0x31, 0xbf,
  0x69, 0xbf, 0x33, 0xbd, 0xd8, 0x08, 0x2e, 0x3e, 0x39, 0x91, 0x27, 0xbf,
  0x1f, 0x15, 0xee, 0x3e, 0xe0, 0xec, 0x72, 0xbf, 0x29, 0x5f, 0x9e, 0xc0,
  0x3a, 0x06, 0x0c, 0x40, 0x8d, 0xb8, 0x0a, 0x40, 0xca, 0x3a, 0x30, 0x3f,
  0x6a, 0x16, 0xa7, 0x3f, 0x17, 0x4c, 0x6f, 0xbf, 0xd3, 0xba, 0x17, 0x40,
  0xcb, 0x37, 0xd7, 0x3e, 0x39, 0xd6, 0x2a, 0xbf, 0x2b, 0x1e, 0xb3, 0xbf,
  0xde, 0x94, 0xf9, 0xbe, 0xe3, 0xd8, 0xae, 0xbf, 0x55, 0x58, 0x9c, 0xbf,
  0x00, 0xb5, 0x92, 0xbf, 0x96, 0x0e, 0xad, 0x3f, 0x0d, 0x2e, 0xc9, 0x3f,
  0x14, 0x4f, 0xaf, 0x3f, 0x63, 0x37, 0xd6, 0x3f, 0xf2, 0x70, 0x99, 0xbd,
  0xc2, 0xa5, 0x2e, 0x3f, 0x7f, 0x21, 0x2f, 0x3f, 0xfd, 0x71, 0x1e, 0x3f,
  0xfa, 0xa5, 0x40, 0x3f, 0xd1, 0xe5, 0x81, 0xbf, 0xee, 0x5f, 0x6d, 0x3f,
  0xb8, 0xfa, 0x24, 0x3e, 0x06, 0xd6, 0xa1, 0xbe, 0x73, 0xd2, 0xb7, 0xbd,
  0x29, 0x57, 0x26, 0xbf, 0x32, 0x31, 0x9e, 0x3f, 0x32, 0xff, 0x26, 0x40,
  0x75, 0xf6, 0x10, 0xbf, 0x69, 0x05, 0x93, 0x40, 0x49, 0xdd, 0xa1, 0xbf,
  0x4e, 0x1f, 0xf6, 0xbf, 0x17, 0x84, 0xd6, 0x3f, 0x20, 0x86, 0x85, 0xbe,
  0x2a, 0x49, 0x5f, 0x3f, 0x8e, 0x12, 0x8b, 0xbf, 0xd4, 0x8f, 0x5a, 0xc0,
  0x54, 0x1c, 0xcc, 0xbe, 0xcf, 0x1d, 0x83, 0x40, 0x80, 0x18, 0x47, 0x3f,
  0x82, 0x18, 0x93, 0xbf, 0xf7, 0x89, 0x0e, 0xbf, 0xb2, 0x85, 0x2d, 0x3f,
  0xfd, 0x6f, 0x4f, 0xbf, 0x1a, 0xd4, 0xff, 0x3c, 0x80, 0xce, 0x46, 0x3d,
  0xde, 0x4b, 0x89, 0xbf, 0x0d, 0x04, 0xcf, 0xbf, 0xf7, 0xd1, 0x57, 0xbc,
  0xc6, 0x76, 0xa9, 0xbe, 0x96, 0x97, 0x87, 0x3f, 0x49, 0x81, 0x2a, 0xbf,
  0x69, 0x09, 0x17, 0x3f, 0xaf, 0x8c, 0xc2, 0x3e, 0xed, 0x7e, 0xfe, 0xbe,
  0x7b, 0xf0, 0x5a, 0x3f, 0x51, 0x21, 0x23, 0xbf, 0x0a, 0x29, 0x9b, 0xbe,
  0xdd, 0x69, 0x10, 0xbf, 0x4e, 0xc1, 0x40, 0x3e, 0xba, 0x71, 0xd2, 0x3d,
  0x99, 0x4e, 0x42, 0xc0, 0x07, 0x1c, 0xd6, 0xbc, 0x04, 0x2f, 0x67, 0x3f,
  0xdd, 0xc9, 0xae, 0xbf, 0xff, 0x16, 0x8b, 0x3f, 0xb7, 0x5b, 0xc3, 0xbf,
  0xc8, 0x96, 0x78, 0x3d, 0x22, 0xb7, 0x6d, 0xbf, 0x0a, 0x0d, 0xb6, 0x3f,
  0x1e, 0xe9, 0xed, 0x3e, 0x0c, 0xd1, 0xb4, 0xbf, 0xff, 0x96, 0x0e, 0x3e,
  0xcd, 0x96, 0x92, 0xbe, 0xdc, 0xdb, 0x6b, 0x3f, 0x0a, 0x0f, 0x70, 0x3f,
  0x47, 0x62, 0xcb, 0xbf, 0x23, 0xe4, 0x9b, 0xbe, 0x52, 0xd2, 0xef, 0x3f,
  0xc1, 0xde, 0x1b, 0x40, 0x26, 0x14, 0xcb, 0x3f, 0xba, 0x48, 0xed, 0x3e,
  0x50, 0xc1, 0xb9, 0xbe, 0x41, 0x0e, 0xf8, 0x3f, 0x36, 0xf7, 0x45, 0x3e,
  0xe6, 0x9f, 0x12, 0xc0, 0x1b, 0xed, 0x50, 0xc0, 0x76, 0xfd, 0x50, 0xbf,
  0xf7, 0x15, 0x6f, 0x3e, 0x5a, 0x88, 0xa6, 0xbf, 0x59, 0x98, 0x27, 0x3f,
  0xd9, 0x71, 0xc4, 0xbe, 0x87, 0x9c, 0xdf, 0xbf, 0xe4, 0x39, 0x1d, 0xc0,
  0x31, 0x1a, 0x96, 0xbf, 0xc5, 0xcf, 0x31, 0x40, 0x35, 0x69, 0xa6, 0x3f,
  0x72, 0xb4, 0x12, 0xc0, 0x0e, 0xff, 0x5b, 0xbe, 0x86, 0x91, 0x3a, 0x3e,
  0xd3, 0xae, 0xf5, 0xbf, 0x66, 0x1f, 0xf1, 0x3e, 0x28, 0x12, 0x4c, 0xc0,
  0x34, 0xe6, 0x90, 0xbf, 0x80, 0x04, 0x01, 0xc0, 0x29, 0xb3, 0x2b, 0xbf,
  0x25, 0xa8, 0x70, 0xbf, 0xb5, 0xf2, 0x00, 0x3f, 0xc0, 0x8b, 0x58, 0xbf,
  0x86, 0xf3, 0x83, 0xc0, 0xf8, 0x3b, 0x83, 0x40, 0xb2, 0xe5, 0xfc, 0x3f,
  0x3f, 0x51, 0x3d, 0x40, 0xe4, 0x65, 0x8e, 0xbf, 0xe2, 0x89, 0x57, 0xc0,
  0x0f, 0x72, 0xa7, 0x3f, 0x0f, 0xf1, 0x8b, 0x40, 0x37, 0x85, 0xb0, 0xbf,
  0x4f, 0x21, 0x4b, 0xbf, 0xcc, 0x6d, 0x3a, 0xc0, 0x65, 0xe7, 0xbf, 0xbf,
  0xa4, 0x6f, 0x98, 0xbf, 0x7a, 0x9e, 0x18, 0x3f, 0x5f, 0x1c, 0x18, 0xbf,
  0x26, 0x0a, 0x07, 0xc0, 0x7b, 0x0b, 0x00, 0xbf, 0xf3, 0x1c, 0x09, 0x40,
  0x43, 0x85, 0xea, 0xbe, 0x2f, 0xcc, 0x85, 0x3e, 0x0d, 0x3d, 0x3a, 0xbf,
  0xe6, 0x50, 0xeb, 0xbd, 0x52, 0x1e, 0xc7, 0x3e, 0x92, 0x1c, 0xd6, 0x3f,
  0x34, 0xed, 0xf5, 0xbf, 0x79, 0x4b, 0xe9, 0xbe, 0x30, 0x21, 0x1a, 0xbe,
  0x95, 0x1b, 0xe3, 0xbf, 0xa1, 0xe3, 0x89, 0xbf, 0x11, 0x87, 0x1f, 0xbf,
  0x98, 0x7e, 0x4f, 0xbf, 0x02, 0x0b, 0x9c, 0x3d, 0xc5, 0xdd, 0x39, 0xc0,
  0x1f, 0xa9, 0xfb, 0x3e, 0x5c, 0xfa, 0xbe, 0xbf, 0x04, 0x17, 0xb3, 0x3f,
  0x16, 0x86, 0x7f, 0x3f, 0xbf, 0x7f, 0x83, 0xbf, 0x0f, 0xbe, 0xcd, 0x3f,
  0x5a, 0x12, 0x50, 0xc0, 0x80, 0x7a, 0xc1, 0x3f, 0x5b, 0x59, 0x5e, 0xbe,
  0x4f, 0xfb, 0x49, 0xbf, 0x50, 0x0f, 0x9d, 0xbe, 0xbf, 0x72, 0x5a, 0xbf,
  0x2f, 0x33, 0x90, 0xbf, 0x85, 0x27, 0xab, 0x3f, 0x40, 0x69, 0x9c, 0xbd,
  0x2a, 0x3d, 0xa5, 0xbf, 0x4b, 0xb5, 0x81, 0x40, 0x9b, 0xaa, 0x11, 0x40,
  0xbc, 0xe9, 0xf4, 0x3d, 0xa9, 0xf1, 0x4c, 0x3f, 0xe5, 0x82, 0x3a, 0xbf,
  0x26, 0x01, 0x1a, 0xbf, 0x3d, 0x42, 0x0c, 0x40, 0xf5, 0xfc, 0x00, 0xbc,
  0xd4, 0x1a, 0x52, 0x3f, 0xb8, 0x4a, 0xb6, 0xbe, 0xbe, 0x6e, 0xd3, 0x3f,
  0xcf, 0x58, 0x9b, 0x3f, 0xed, 0x79, 0xb0, 0xbf, 0x6b, 0x47, 0x83, 0xbe,
  0x16, 0x25, 0x47, 0xc0, 0x33, 0x85, 0x9e, 0xc0, 0xf9, 0xcd, 0x13, 0x40,
  0xeb, 0xab, 0xbe, 0x3f, 0x95, 0x17, 0x1a, 0x40, 0x0a, 0xe4, 0xbf, 0x3f,
  0x47, 0x62, 0x18, 0xc0, 0xb5, 0x2e, 0x39, 0x40, 0xf9, 0x01, 0x99, 0x40,
  0xae, 0xec, 0x9f, 0xbf, 0xce, 0x21, 0x80, 0xc0, 0xae, 0xd3, 0xd9, 0xbf,
  0x0b, 0x58, 0x89, 0x3e, 0xbd, 0x8a, 0x1e, 0x3f, 0x44, 0xc3, 0x07, 0xc0,
  0x72, 0x7f, 0xb1, 0x3f, 0xf4, 0x37, 0x69, 0xc0, 0xa8, 0xae, 0x89, 0xc0,
  0xb8, 0x99, 0x8a, 0x3e, 0xf9, 0xda, 0x56, 0x40, 0x1f, 0xce, 0x4a, 0x40,
  0x00, 0x85, 0x19, 0xc0, 0xe5, 0x04, 0xd9, 0xbf, 0x66, 0xd3, 0x09, 0x40,
  0xaa, 0xbd, 0x6a, 0x40, 0x57, 0xff, 0xcd, 0x3e, 0xdf, 0x06, 0x64, 0x3f,
  0x1a, 0x4a, 0x2a, 0xc0, 0xad, 0xbe, 0xa5, 0xbe, 0xc9, 0xd6, 0x13, 0xbf,
  0x3d, 0x9f, 0x2f, 0xbf, 0x80, 0x6f, 0xa8, 0xbf, 0x72, 0x21, 0xf4, 0x3e,
  0x24, 0xf4, 0xb6, 0xbf, 0x45, 0x3f, 0xa9, 0xbd, 0x95, 0x38, 0x0c, 0x3f,
  0xd3, 0x31, 0x28, 0x40, 0xcd, 0x14, 0xbc, 0x3f, 0x4e, 0x58, 0x37, 0xbf,
  0x6a, 0x5b, 0x85, 0x3f, 0xa8, 0x15, 0xfe, 0x3e, 0xdd, 0x75, 0x0a, 0xc0,
  0xb2, 0x90, 0x1e, 0xbf, 0xe0, 0x93, 0x14, 0x3d, 0x33, 0xb9, 0xbf, 0x3f,
  0xa6, 0x27, 0xce, 0x3e, 0x07, 0x99, 0x2d, 0x3f, 0x20, 0x75, 0xc7, 0xbe,
  0xc5, 0xb1, 0x75, 0x40, 0x01, 0x97, 0xcf, 0xbe, 0x91, 0x98, 0x28, 0xc0,
  0x33, 0x22, 0x6e, 0xc0, 0xa7, 0x28, 0xee, 0xbf, 0xf8, 0xba, 0xd4, 0x3f,
  0x54, 0xcc, 0x4b, 0xbe, 0xd3, 0x6a, 0x41, 0xc0, 0x3f, 0x05, 0x0d, 0xc0,
  0xa7, 0xc0, 0xf1, 0x3f, 0x60, 0xe0, 0x62, 0xbf, 0x18, 0xab, 0x5f, 0x40,
  0x16, 0x2d, 0x26, 0xbf, 0xc6, 0x9c, 0x85, 0xbe, 0x99, 0xad, 0x3f, 0xbf,
  0x52, 0xe0, 0x3d, 0xbf, 0x44, 0xa1, 0x48, 0x3f, 0x4b, 0xdb, 0x8a, 0x40,
  0x78, 0xab, 0xcd, 0xbf, 0x35, 0x3f, 0xdb, 0xbf, 0x19, 0xf0, 0x31, 0xc0,
  0x63, 0x17, 0xec, 0xbd, 0x6f, 0xe7, 0x37, 0x3f, 0x62, 0xe2, 0x04, 0xbf,
  0xdf, 0xd2, 0x8c, 0xc0, 0xd0, 0x99, 0x55, 0x3f, 0xca, 0x5a, 0x88, 0x40,
  0xc3, 0x93, 0x07, 0x40, 0xbc, 0x4d, 0x67, 0x3e, 0xfc, 0xa9, 0xae, 0xbd,
  0x90, 0xc9, 0x5d, 0x3e, 0xf5, 0xf8, 0x4a, 0xbe, 0x43, 0x5f, 0xc2, 0x3f,
  0xc8, 0x91, 0x82, 0x40, 0x96, 0x74, 0xb7, 0xbf, 0x08, 0x78, 0x39, 0xc0,
  0x08, 0xb0, 0x02, 0xc0, 0xdb, 0x70, 0xa5, 0x3e, 0xbe, 0xcc, 0x13, 0x40,
  0x8e, 0xc3, 0xbe, 0x3e, 0xee, 0xfe, 0x31, 0xc0, 0xbc, 0x61, 0xcd, 0x3f,
  0x67, 0x3c, 0xda, 0x40, 0xbf, 0xbb, 0x8f, 0x3f, 0x17, 0x69, 0x30, 0x3f,
  0xd0, 0x6c, 0x4b, 0x3f, 0x75, 0x0e, 0x4a, 0xbf, 0x49, 0x6f, 0x18, 0xbf,
  0x76, 0x80, 0x05, 0xbf, 0x79, 0x2d, 0xe3, 0x3f, 0x46, 0x46, 0xaf, 0xbe,
  0x1a, 0x9b, 0x12, 0xbe, 0x4c, 0xbf, 0xda, 0x3f, 0xe7, 0x98, 0x23, 0xc0,
  0x36, 0x9f, 0xb1, 0x3f, 0x79, 0x55, 0xd0, 0x3f, 0x4a, 0x20, 0x8f, 0x3f,
  0xf7, 0x18, 0x90, 0xbf, 0x7a, 0x1b, 0x05, 0xc0, 0x05, 0x0d, 0xf0, 0xbf,
  0xdf, 0x15, 0xe3, 0x3f, 0xca, 0x96, 0xc8, 0x3f, 0x65, 0x4d, 0xf4, 0xbe,
  0x7a, 0x98, 0x22, 0xc0, 0xe2, 0x2c, 0x09, 0x40, 0x2d, 0x02, 0x30, 0x40,
  0x3a, 0x15, 0x44, 0x3f, 0x43, 0xa6, 0x5b, 0x3c, 0xe3, 0xf8, 0xbf, 0x3f,
  0x2c, 0x3a, 0x5f, 0xbd, 0xab, 0x87, 0x1d, 0xbf, 0x9d, 0x74, 0x22, 0xbf,
  0xee, 0x98, 0xa5, 0x3e, 0x6e, 0x1f, 0xfd, 0xbf, 0xec, 0xc7, 0xc3, 0xbf,
  0xeb, 0x33, 0xc3, 0x3f, 0xe9, 0xe2, 0x82, 0x40, 0x24, 0xa5, 0x04, 0x40,
  0x15, 0x46, 0xa5, 0x3d, 0x11, 0x4e, 0xb3, 0xbe, 0x33, 0x8e, 0x87, 0xbe,
  0x10, 0xe2, 0x1b, 0xc0, 0xd4, 0x5d, 0x03, 0xbf, 0x69, 0x3d, 0x34, 0x3f,
  0xc0, 0x7a, 0x0a, 0x40, 0x03, 0xd2, 0x2a, 0x3e, 0x6b, 0x64, 0xf9, 0xbf,
  0x7e, 0x0f, 0x79, 0x3e, 0xa6, 0xad, 0xb1, 0x3f, 0xe2, 0xfa, 0xb3, 0xbf,
  0xf1, 0x0f, 0x07, 0xc0, 0x38, 0xb5, 0xca, 0xbe, 0xcd, 0x9b, 0xca, 0x3e,
  0xd1, 0x55, 0x0c, 0x3f, 0xf8, 0x97, 0x61, 0xbf, 0xfb, 0xa6, 0x0d, 0xbf,
  0x0b, 0xb8, 0x3d, 0xc0, 0x2c, 0x2d, 0x59, 0xbf, 0x88, 0xcc, 0xc8, 0x3f,
  0x56, 0xcb, 0x49, 0x40, 0xfe, 0x37, 0x70, 0xbe, 0xe8, 0x5f, 0x82, 0xbf,
  0xae, 0xa3, 0x15, 0xc0, 0x4b, 0xa8, 0x11, 0x40, 0xad, 0x1c, 0x9f, 0x40,
  0xcb, 0xdd, 0xe8, 0xbe, 0x21, 0xa0, 0x34, 0xc0, 0xb7, 0x61, 0x7f, 0xbf,
  0x3e, 0x89, 0x53, 0x3e, 0x6c, 0xe8, 0xb3, 0x3f, 0x52, 0xef, 0x09, 0xbf,
  0x3f, 0xbb, 0x94, 0xbf, 0xd0, 0xe6, 0x3e, 0x3f, 0x1c, 0x24, 0xdc, 0x3f,
  0xb4, 0x86, 0xe0, 0xbf, 0xb7, 0x72, 0x0e, 0xc0, 0xc4, 0x80, 0x91, 0x3c,
  0x88, 0xc4, 0xe2, 0xbf, 0xb2, 0xbd, 0x01, 0x3f, 0x66, 0x9c, 0xa4, 0xbf,
  0xa8, 0xa6, 0x4b, 0xc0, 0xce, 0xd9, 0x5a, 0xc0, 0xf3, 0xfb, 0xfd, 0xbf,
  0x64, 0x12, 0xd0, 0x3f, 0x41, 0x95, 0x7f, 0x40, 0xf5, 0x38, 0x89, 0x40,
  0x6a, 0x61, 0x53, 0xbf, 0x10, 0x73, 0x99, 0x40, 0x97, 0x97, 0x0c, 0xbf,
  0xea, 0xa6, 0x04, 0x41, 0x64, 0x65, 0x62, 0xc0, 0xe3, 0x75, 0xc6, 0x3f,
  0x55, 0x99, 0x71, 0xc0, 0x12, 0x45, 0xc2, 0x3e, 0x3c, 0x97, 0x18, 0x40,
  0x61, 0x6b, 0xd7, 0x3f, 0xdb, 0x37, 0x7b, 0x3e, 0x95, 0x01, 0xe0, 0xbe,
  0x01, 0x21, 0xdf, 0x40, 0x54, 0xd8, 0xe6, 0x3e, 0x90, 0xbc, 0x5b, 0xbf,
  0xa8, 0x07, 0x26, 0xbe, 0x38, 0x86, 0xfd, 0xbe, 0x84, 0x54, 0xd8, 0x3f,
  0xeb, 0x23, 0x95, 0xbf, 0xd9, 0xb0, 0x17, 0x3f, 0xdc, 0xa4, 0x25, 0x3e,
  0xa6, 0x7f, 0x26, 0xbf, 0x6a, 0x19, 0x04, 0xc0, 0x0b, 0x0f, 0xf0, 0x3f,
  0xd6, 0x81, 0x28, 0x40, 0x04, 0x25, 0xd3, 0xbe, 0x41, 0x01, 0x0e, 0x3f,
  0xd3, 0x71, 0xf7, 0x3f, 0x73, 0xd1, 0x36, 0x3f, 0xda, 0x1f, 0xba, 0xbf,
  0xe6, 0x95, 0x62, 0xbf, 0x27, 0x8c, 0x1f, 0xbf, 0x75, 0x63, 0xbb, 0xbf,
  0xb6, 0x7f, 0x8f, 0xbf, 0xc0, 0x96, 0x06, 0xc0, 0x9a, 0xd4, 0xc7, 0xc0,
  0x23, 0x07, 0x8d, 0x40, 0x76, 0xbc, 0x92, 0x40, 0x2b, 0x68, 0x9a, 0x3f,
  0xb7, 0x61, 0x1f, 0xc0, 0x07, 0x98, 0x81, 0xbf, 0x12, 0x43, 0xf4, 0x3f,
  0x42, 0x51, 0x49, 0x40, 0x99, 0xbe, 0x8d, 0xbf, 0xef, 0xb7, 0x2f, 0xc0,
  0x6a, 0x1f, 0x14, 0xc0, 0x25, 0x5a, 0xf6, 0x3f, 0xbb, 0xa4, 0x03, 0x3e,
  0x79, 0x2b, 0xc4, 0xbd, 0x51, 0x45, 0x70, 0x3f, 0xc7, 0x3b, 0x84, 0xbf,
  0x2e, 0x93, 0x30, 0xbf, 0x68, 0x6e, 0xb1, 0x3c, 0x0d, 0xbd, 0x3f, 0x3f,
  0xe2, 0xa9, 0x1f, 0x3f, 0xb9, 0x53, 0xce, 0x3e, 0xc3, 0x7b, 0x26, 0xc0,
  0x48, 0x5b, 0x19, 0x3f, 0xeb, 0x5e, 0x9a, 0x3f, 0xb5, 0x60, 0xd6, 0xbe,
  0xd3, 0xb7, 0x64, 0xbf, 0x50, 0x1a, 0x68, 0x3f, 0xf4, 0x45, 0x20, 0x40,
  0x10, 0xa9, 0x1b, 0x40, 0x8c, 0x7b, 0x25, 0xbf, 0x62, 0x9b, 0xae, 0xbf,
  0x62, 0xe6, 0x89, 0xbe, 0x3f, 0xec, 0x81, 0x40, 0xfa, 0xc2, 0x0f, 0xc0,
  0xb8, 0xce, 0x32, 0xc0, 0xeb, 0x17, 0x92, 0xbf, 0x46, 0xb3, 0xd6, 0x3e,
  0x9a, 0xc1, 0xbb, 0x3d, 0xf4, 0xcd, 0x8a, 0x3f, 0xe7, 0x51, 0x68, 0xc0,
  0x20, 0x5c, 0xb4, 0xbf, 0x35, 0x4a, 0x7e, 0x3f, 0x0b, 0xf7, 0x07, 0x40,
  0x13, 0x8f, 0x91, 0x3f, 0x1c, 0x8b, 0x5a, 0x40, 0x64, 0xe7, 0x86, 0x3f,
  0x6c, 0xc6, 0xa0, 0xbf, 0x0d, 0x4d, 0x23, 0x40, 0xd8, 0x34, 0xdd, 0x3f,
  0x9d, 0xb5, 0x18, 0xc0, 0xcc, 0xca, 0x66, 0xbe, 0x3b, 0x0a, 0x79, 0xbf,
  0x4a, 0x96, 0xd2, 0x3e, 0x35, 0xae, 0x83, 0x3f, 0x16, 0x89, 0xfe, 0xbe,
  0xc9, 0x66, 0x11, 0xc0, 0x1b, 0x02, 0xe4, 0x3e, 0x26, 0x74, 0xdb, 0x3f,
  0x59, 0x44, 0x11, 0x40, 0xf5, 0x5c, 0x90, 0x3c, 0xab, 0x4b, 0x80, 0xbf,
  0xab, 0xe2, 0x81, 0x3f, 0xfe, 0xbe, 0xec, 0xbd, 0x95, 0xaa, 0xbb, 0x3e,
  0x69, 0x78, 0x8f, 0x40, 0xd6, 0x55, 0xdc, 0xbf, 0x8c, 0x8d, 0x75, 0xc0,
  0xdb, 0x1f, 0xc1, 0x3e, 0x01, 0x15, 0xd2, 0x3f, 0xec, 0x5c, 0x56, 0x3f,
  0x48, 0x85, 0x4f, 0xc0, 0xd7, 0x2a, 0x64, 0xc0, 0x55, 0xdd, 0x78, 0x3f,
  0xa9, 0x00, 0x3d, 0x40, 0x68, 0xdf, 0x8d, 0x3f, 0x32, 0xe2, 0x7b, 0xbe,
  0xc6, 0x8e, 0xc1, 0x3f, 0x5f, 0x60, 0xf1, 0x3f, 0x07, 0x5f, 0xd1, 0xbc,
  0xf5, 0xf2, 0x43, 0x40, 0xb3, 0xa6, 0x0c, 0x40, 0x27, 0x87, 0x1d, 0xc0,
  0x86, 0x4c, 0xd9, 0xbf, 0x73, 0x9e, 0x17, 0xc0, 0x18, 0x88, 0xa3, 0xbf,
  0x04, 0x13, 0x4b, 0x40, 0xca, 0x28, 0x03, 0xc0, 0x2a, 0x4c, 0xdc, 0xbf,
  0x5f, 0xbb, 0x47, 0x3f, 0xbf, 0xe8, 0xb1, 0x3e, 0x7f, 0x88, 0x6a, 0x3f,
  0x0e, 0xba, 0x75, 0xbf, 0xa1, 0xa9, 0x5a, 0xbf, 0xcb, 0xef, 0xae, 0x3f,
  0xd0, 0xd6, 0x9a, 0x3e, 0x95, 0x3f, 0x48, 0xbd, 0x8d, 0x96, 0x77, 0xbf,
  0xef, 0xf2, 0xc6, 0x3e, 0x2c, 0x6d, 0x46, 0xc0, 0x1b, 0xa0, 0x30, 0xc0,
  0xfa, 0xba, 0xea, 0x3d, 0x2c, 0x4b, 0xb0, 0x3f, 0x5f, 0x99, 0x83, 0xbd,
  0x97, 0xb1, 0x2a, 0xc0, 0x3c, 0x1b, 0x56, 0x40, 0xd1, 0x2a, 0x28, 0x40,
  0x26, 0x3a, 0xc4, 0x3f, 0x12, 0xf7, 0x72, 0xbf, 0x8b, 0xd9, 0x8d, 0xbf,
  0x47, 0x23, 0x5d, 0xc0, 0xbe, 0x30, 0x12, 0xc0, 0xba, 0xf0, 0xfb, 0xbe,
  0x30, 0xa4, 0xd8, 0x40, 0xdf, 0xdb, 0xac, 0xc0, 0x83, 0xa0, 0xd2, 0xc0,
  0xd5, 0xdf, 0xcd, 0x40, 0x0c, 0x7b, 0x11, 0xc1, 0xb5, 0xcf, 0x77, 0x40,
  0x83, 0x0c, 0xd1, 0x3f, 0x1c, 0x1d, 0xeb, 0xc0, 0xb2, 0x38, 0x47, 0xc1,
  0xfd, 0x12, 0x9c, 0x3f, 0x6b, 0xd2, 0x5f, 0x40, 0x8b, 0xb2, 0x29, 0x41,
  0xbe, 0xa2, 0x0e, 0x41, 0xb9, 0xd7, 0x95, 0xbf, 0xe7, 0xab, 0x4f, 0x40,
  0xc9, 0xb4, 0x78, 0x3c, 0x30, 0x3f, 0x95, 0xbf, 0xb9, 0x7d, 0xd6, 0x3e,
  0xef, 0x1a, 0x4a, 0x3f, 0xba, 0x5c, 0x4f, 0x40, 0xd5, 0x3f, 0x1a, 0xbe,
  0x3a, 0xbf, 0x07, 0xc0, 0xbc, 0x54, 0x76, 0xbd, 0x70, 0x32, 0xdc, 0x3e,
  0x40, 0x85, 0x69, 0xc0, 0x10, 0x9c, 0xb9, 0xbf, 0xab, 0x20, 0x3a, 0xbf,
  0x92, 0xd6, 0x48, 0x3e, 0x7f, 0x71, 0x06, 0x40, 0x09, 0x6c, 0x2b, 0x40,
  0x8c, 0xcb, 0x58, 0x3f, 0x4d, 0x15, 0xec, 0x3f, 0xac, 0x1f, 0x96, 0x3e,
  0x97, 0x2a, 0xbf, 0xbf, 0x16, 0x60, 0xd9, 0xbe, 0xbc, 0xf4, 0x6c, 0xc0,
  0xfb, 0xd9, 0x2f, 0x40, 0x06, 0x50, 0x4a, 0x3d, 0x3c, 0x2e, 0x89, 0xc0,
  0xbc, 0x26, 0xdc, 0xbf, 0x24, 0xe0, 0x95, 0x40, 0x86, 0xef, 0x73, 0x40,
  0xbb, 0x6f, 0xe8, 0x3f, 0x7f, 0x58, 0xb5, 0xc0, 0x59, 0xa9, 0xc8, 0xc0,
  0x12, 0x1a, 0x1b, 0x40, 0x84, 0x1c, 0x50, 0xbf, 0xe0, 0xad, 0xb2, 0xbf,
  0xf7, 0xe3, 0x11, 0xc0, 0x54, 0x5d, 0x44, 0x40, 0x8d, 0x19, 0x33, 0x40,
  0x7e, 0xa5, 0x92, 0xc0, 0xe6, 0x47, 0xda, 0xbf, 0x9e, 0xe0, 0x9d, 0xbc,
  0x64, 0x70, 0xb1, 0xbf, 0x6a, 0x57, 0x35, 0x40, 0x08, 0x41, 0x7d, 0x40,
  0x46, 0xff, 0x75, 0xc0, 0xc0, 0x94, 0x11, 0xc0, 0x9f, 0x0a, 0x64, 0xc0,
  0x51, 0xe2, 0x7d, 0xc0, 0x07, 0xd2, 0x68, 0xbf, 0x82, 0x50, 0xe7, 0x3f,
  0x72, 0xea, 0x95, 0xbd, 0x05, 0xe5, 0xd0, 0xbe, 0x59, 0xfe, 0x4d, 0xbf,
  0x3c, 0xcb, 0x40, 0xbf, 0xae, 0x94, 0xe1, 0x3f, 0x96, 0x19, 0x05, 0x40,
  0x2d, 0x83, 0x73, 0x3e, 0x5c, 0x94, 0xde, 0x3e, 0x75, 0x7e, 0xfc, 0x3e,
  0xdb, 0x0e, 0xdf, 0xbf, 0xa3, 0x2c, 0xc5, 0xbf, 0x79, 0x40, 0xa9, 0xbf,
  0xd5, 0xc4, 0x62, 0x40, 0x90, 0xcd, 0x09, 0x3f, 0xf0, 0xc6, 0x51, 0xbc,
  0xc1, 0xea, 0x3b, 0xbf, 0x93, 0xec, 0x9b, 0x40, 0x60, 0x06, 0xf2, 0x3f,
  0x1c, 0x80, 0x81, 0xc0, 0xba, 0x79, 0x8c, 0xc0, 0x3c, 0x25, 0xd1, 0xbf,
  0xe7, 0x0d, 0x3d, 0x40, 0x35, 0x92, 0xc7, 0x3f, 0x20, 0x7a, 0x2b, 0xc0,
  0x1d, 0x19, 0x90, 0xbf, 0x4c, 0xe2, 0x3b, 0x3e, 0xf7, 0x1c, 0x0a, 0x40,
  0xc9, 0x53, 0x67, 0x40, 0x29, 0xe3, 0x85, 0xbe, 0xcd, 0x17, 0xd1, 0x3e,
  0x47, 0x5b, 0xcf, 0x3f, 0x49, 0xef, 0x28, 0x3d, 0x63, 0x9e, 0x64, 0x3f,
  0xff, 0xcd, 0xeb, 0x3e, 0x5a, 0xb2, 0x9e, 0x3f, 0x82, 0xaa, 0xc4, 0x3f,
  0xa0, 0x6f, 0x3d, 0xc0, 0xef, 0x5d, 0xa1, 0x3f, 0xef, 0x43, 0xe0, 0x3f,
  0xb8, 0x79, 0x4d, 0xbf, 0xe2, 0x65, 0x16, 0x40, 0x42, 0xc0, 0x12, 0x40,
  0xad, 0xea, 0x52, 0xbf, 0x76, 0x9a, 0x88, 0xbf, 0xaf, 0x23, 0x62, 0xc0,
  0x82, 0x16, 0x5f, 0xc0, 0xbf, 0x3c, 0xcc, 0xbd, 0x0d, 0xd1, 0x57, 0xc0,
  0x5c, 0x82, 0x4f, 0x3f, 0xb8, 0xf3, 0x88, 0xc0, 0x7d, 0xdb, 0x09, 0x40,
  0x29, 0x28, 0x17, 0xbf, 0xf1, 0x1b, 0xb7, 0x40, 0xee, 0xf7, 0xe5, 0xbe,
  0xb4, 0xa6, 0x1c, 0x40, 0xfc, 0x49, 0x1e, 0xbf, 0x42, 0xcc, 0xba, 0x3f,
  0x60, 0x62, 0xec, 0xbf, 0x21, 0x09, 0x8c, 0xc0, 0xca, 0x01, 0x08, 0x3f,
  0x82, 0xbd, 0xc7, 0x3f, 0x54, 0xa1, 0xf5, 0x3f, 0xe6, 0xfe, 0xff, 0xff,
  0x04, 0x00, 0x00, 0x00, 0x20, 0x00, 0x00, 0x00, 0x5a, 0x59, 0xc1, 0xbb,
  0x2d, 0x11, 0xce, 0xbc, 0x2c, 0x42, 0x17, 0xbd, 0x7f, 0xb2, 0x0b, 0x3d,
  0xec, 0x82, 0x30, 0xbd, 0x13, 0x75, 0xa4, 0x3c, 0x35, 0x3a, 0xc7, 0x3a,
  0x14, 0xe1, 0x4a, 0x3d, 0x12, 0xff, 0xff, 0xff, 0x04, 0x00, 0x00, 0x00,
  0x40, 0x00, 0x00, 0x00, 0xf0, 0xe6, 0x4e, 0xbf, 0x9b, 0xe6, 0x6b, 0xbf,
  0x7e, 0x80, 0x88, 0xbe, 0xba, 0x0f, 0x2d, 0x3e, 0x90, 0xcf, 0x3e, 0xbe,
  0x43, 0x90, 0x00, 0xbf, 0xac, 0x2f, 0xdc, 0xbe, 0xe0, 0x6c, 0xe4, 0x3d,
  0x7e, 0x93, 0x9e, 0x3e, 0x8b, 0xe2, 0x71, 0xbe, 0x4a, 0x52, 0x68, 0xbe,
  0x82, 0x05, 0x21, 0xbf, 0x92, 0xef, 0x88, 0x3d, 0x2e, 0xb6, 0xb5, 0xbe,
  0xd0, 0xdf, 0xee, 0xbf, 0xb0, 0x22, 0xdd, 0xbf, 0xcc, 0xf3, 0xff, 0xff,
  0xd0, 0xf3, 0xff, 0xff, 0x0f, 0x00, 0x00, 0x00, 0x4d, 0x4c, 0x49, 0x52,
  0x20, 0x43, 0x6f, 0x6e, 0x76, 0x65, 0x72, 0x74, 0x65, 0x64, 0x2e, 0x00,
  0x01, 0x00, 0x00, 0x00, 0x14, 0x00, 0x00, 0x00, 0x00, 0x00, 0x0e, 0x00,
  0x18, 0x00, 0x14, 0x00, 0x10, 0x00, 0x0c, 0x00, 0x08, 0x00, 0x04, 0x00,
  0x0e, 0x00, 0x00, 0x00, 0x14, 0x00, 0x00, 0x00, 0x1c, 0x00, 0x00, 0x00,
  0xc8, 0x02, 0x00, 0x00, 0xcc, 0x02, 0x00, 0x00, 0xd0, 0x02, 0x00, 0x00,
  0x04, 0x00, 0x00, 0x00, 0x6d, 0x61, 0x69, 0x6e, 0x00, 0x00, 0x00, 0x00,
  0x0b, 0x00, 0x00, 0x00, 0x68, 0x02, 0x00, 0x00, 0x04, 0x02, 0x00, 0x00,
  0xd0, 0x01, 0x00, 0x00, 0x70, 0x01, 0x00, 0x00, 0x3c, 0x01, 0x00, 0x00,
  0x08, 0x01, 0x00, 0x00, 0xe4, 0x00, 0x00, 0x00, 0xa0, 0x00, 0x00, 0x00,
  0x78, 0x00, 0x00, 0x00, 0x40, 0x00, 0x00, 0x00, 0x04, 0x00, 0x00, 0x00,
  0x32, 0xfe, 0xff, 0xff, 0x1c, 0x00, 0x00, 0x00, 0x00, 0x00, 0x00, 0x09,
  0x1c, 0x00, 0x00, 0x00, 0x20, 0x00, 0x00, 0x00, 0x08, 0x00, 0x00, 0x00,
  0x00, 0x00, 0x06, 0x00, 0x08, 0x00, 0x04, 0x00, 0x06, 0x00, 0x00, 0x00,
  0x00, 0x00, 0x80, 0x3f, 0x01, 0x00, 0x00, 0x00, 0x14, 0x00, 0x00, 0x00,
  0x01, 0x00, 0x00, 0x00, 0x13, 0x00, 0x00, 0x00, 0x6a, 0xfe, 0xff, 0xff,
  0x14, 0x00, 0x00, 0x00, 0x00, 0x00, 0x00, 0x08, 0x10, 0x00, 0x00, 0x00,
  0x14, 0x00, 0x00, 0x00, 0x07, 0x00, 0x00, 0x00, 0xa4, 0xf4, 0xff, 0xff,
  0x01, 0x00, 0x00, 0x00, 0x13, 0x00, 0x00, 0x00, 0x03, 0x00, 0x00, 0x00,
  0x12, 0x00, 0x00, 0x00, 0x09, 0x00, 0x00, 0x00, 0x05, 0x00, 0x00, 0x00,
  0xca, 0xfe, 0xff, 0xff, 0x0c, 0x00, 0x00, 0x00, 0x10, 0x00, 0x00, 0x00,
  0x06, 0x00, 0x00, 0x00, 0x01, 0x00, 0x00, 0x00, 0x12, 0x00, 0x00, 0x00,
  0x02, 0x00, 0x00, 0x00, 0x11, 0x00, 0x00, 0x00, 0x06, 0x00, 0x00, 0x00,
  0xc2, 0xfe, 0xff, 0xff, 0x14, 0x00, 0x00, 0x00, 0x00, 0x00, 0x00, 0x05,
  0x24, 0x00, 0x00, 0x00, 0x28, 0x00, 0x00, 0x00, 0x03, 0x00, 0x00, 0x00,
  0x3e, 0xff, 0xff, 0xff, 0x01, 0x00, 0x00, 0x00, 0x08, 0x00, 0x00, 0x00,
  0x01, 0x00, 0x00, 0x00, 0x08, 0x00, 0x00, 0x00, 0x00, 0x00, 0x00, 0x01,
  0x01, 0x00, 0x00, 0x00, 0x11, 0x00, 0x00, 0x00, 0x01, 0x00, 0x00, 0x00,
  0x10, 0x00, 0x00, 0x00, 0x2e, 0xff, 0xff, 0xff, 0x0c, 0x00, 0x00, 0x00,
  0x10, 0x00, 0x00, 0x00, 0x02, 0x00, 0x00, 0x00, 0x01, 0x00, 0x00, 0x00,
  0x10, 0x00, 0x00, 0x00, 0x01, 0x00, 0x00, 0x00, 0x0f, 0x00, 0x00, 0x00,
  0x22, 0xff, 0xff, 0xff, 0x14, 0x00, 0x00, 0x00, 0x00, 0x00, 0x00, 0x0b,
  0x10, 0x00, 0x00, 0x00, 0x14, 0x00, 0x00, 0x00, 0x05, 0x00, 0x00, 0x00,
  0x5c, 0xf5, 0xff, 0xff, 0x01, 0x00, 0x00, 0x00, 0x0f, 0x00, 0x00, 0x00,
  0x02, 0x00, 0x00, 0x00, 0x0e, 0x00, 0x00, 0x00, 0x08, 0x00, 0x00, 0x00,
  0x52, 0xff, 0xff, 0xff, 0x14, 0x00, 0x00, 0x00, 0x00, 0x00, 0x00, 0x15,
  0x10, 0x00, 0x00, 0x00, 0x14, 0x00, 0x00, 0x00, 0x04, 0x00, 0x00, 0x00,
  0x8c, 0xf5, 0xff, 0xff, 0x01, 0x00, 0x00, 0x00, 0x0e, 0x00, 0x00, 0x00,
  0x02, 0x00, 0x00, 0x00, 0x0d, 0x00, 0x00, 0x00, 0x07, 0x00, 0x00, 0x00,
  0x82, 0xff, 0xff, 0xff, 0x24, 0x00, 0x00, 0x00, 0x00, 0x00, 0x00, 0x05,
  0x34, 0x00, 0x00, 0x00, 0x38, 0x00, 0x00, 0x00, 0x03, 0x00, 0x00, 0x00,
  0x00, 0x00, 0x0e, 0x00, 0x18, 0x00, 0x17, 0x00, 0x10, 0x00, 0x0c, 0x00,
  0x08, 0x00, 0x04, 0x00, 0x0e, 0x00, 0x00, 0x00, 0x01, 0x00, 0x00, 0x00,
  0x04, 0x00, 0x00, 0x00, 0x01, 0x00, 0x00, 0x00, 0x04, 0x00, 0x00, 0x00,
  0x00, 0x00, 0x00, 0x01, 0x01, 0x00, 0x00, 0x00, 0x0d, 0x00, 0x00, 0x00,
  0x01, 0x00, 0x00, 0x00, 0x0c, 0x00, 0x00, 0x00, 0x00, 0x00, 0x0a, 0x00,
  0x10, 0x00, 0x0c, 0x00, 0x08, 0x00, 0x04, 0x00, 0x0a, 0x00, 0x00, 0x00,
  0x0c, 0x00, 0x00, 0x00, 0x10, 0x00, 0x00, 0x00, 0x02, 0x00, 0x00, 0x00,
  0x01, 0x00, 0x00, 0x00, 0x0c, 0x00, 0x00, 0x00, 0x01, 0x00, 0x00, 0x00,
  0x0b, 0x00, 0x00, 0x00, 0x00, 0x00, 0x0e, 0x00, 0x18, 0x00, 0x14, 0x00,
  0x10, 0x00, 0x0c, 0x00, 0x0b, 0x00, 0x04, 0x00, 0x0e, 0x00, 0x00, 0x00,
  0x20, 0x00, 0x00, 0x00, 0x00, 0x00, 0x00, 0x02, 0x2c, 0x00, 0x00, 0x00,
  0x30, 0x00, 0x00, 0x00, 0x01, 0x00, 0x00, 0x00, 0x0c, 0x00, 0x14, 0x00,
  0x13, 0x00, 0x0c, 0x00, 0x08, 0x00, 0x04, 0x00, 0x0c, 0x00, 0x00, 0x00,
  0x02, 0x00, 0x00, 0x00, 0x01, 0x00, 0x00, 0x00, 0x01, 0x00, 0x00, 0x00,
  0x00, 0x00, 0x00, 0x01, 0x01, 0x00, 0x00, 0x00, 0x0b, 0x00, 0x00, 0x00,
  0x03, 0x00, 0x00, 0x00, 0x0a, 0x00, 0x00, 0x00, 0x03, 0x00, 0x00, 0x00,
  0x01, 0x00, 0x00, 0x00, 0x00, 0x00, 0x0e, 0x00, 0x16, 0x00, 0x00, 0x00,
  0x10, 0x00, 0x0c, 0x00, 0x0b, 0x00, 0x04, 0x00, 0x0e, 0x00, 0x00, 0x00,
  0x1c, 0x00, 0x00, 0x00, 0x00, 0x00, 0x00, 0x01, 0x20, 0x00, 0x00, 0x00,
  0x24, 0x00, 0x00, 0x00, 0x00, 0x00, 0x0a, 0x00, 0x0c, 0x00, 0x00, 0x00,
  0x08, 0x00, 0x04, 0x00, 0x0a, 0x00, 0x00, 0x00, 0x01, 0x00, 0x00, 0x00,
  0x01, 0x00, 0x00, 0x00, 0x01, 0x00, 0x00, 0x00, 0x0a, 0x00, 0x00, 0x00,
  0x03, 0x00, 0x00, 0x00, 0x00, 0x00, 0x00, 0x00, 0x04, 0x00, 0x00, 0x00,
  0x02, 0x00, 0x00, 0x00, 0x01, 0x00, 0x00, 0x00, 0x14, 0x00, 0x00, 0x00,
  0x01, 0x00, 0x00, 0x00, 0x00, 0x00, 0x00, 0x00, 0x15, 0x00, 0x00, 0x00,
  0x64, 0x08, 0x00, 0x00, 0xf0, 0x07, 0x00, 0x00, 0x80, 0x07, 0x00, 0x00,
  0xf8, 0x06, 0x00, 0x00, 0xac, 0x06, 0x00, 0x00, 0x5c, 0x06, 0x00, 0x00,
  0x18, 0x06, 0x00, 0x00, 0xa4, 0x05, 0x00, 0x00, 0x48, 0x05, 0x00, 0x00,
  0x04, 0x05, 0x00, 0x00, 0x74, 0x04, 0x00, 0x00, 0xd4, 0x03, 0x00, 0x00,
  0x6c, 0x03, 0x00, 0x00, 0xfc, 0x02, 0x00, 0x00, 0x7c, 0x02, 0x00, 0x00,
  0xfc, 0x01, 0x00, 0x00, 0x94, 0x01, 0x00, 0x00, 0x20, 0x01, 0x00, 0x00,
  0xc8, 0x00, 0x00, 0x00, 0x60, 0x00, 0x00, 0x00, 0x04, 0x00, 0x00, 0x00,
  0x06, 0xf8, 0xff, 0xff, 0x00, 0x00, 0x00, 0x01, 0x14, 0x00, 0x00, 0x00,
  0x1c, 0x00, 0x00, 0x00, 0x1c, 0x00, 0x00, 0x00, 0x15, 0x00, 0x00, 0x00,
  0x34, 0x00, 0x00, 0x00, 0x02, 0x00, 0x00, 0x00, 0xff, 0xff, 0xff, 0xff,
  0x04, 0x00, 0x00, 0x00, 0x64, 0xf7, 0xff, 0xff, 0x19, 0x00, 0x00, 0x00,
  0x53, 0x74, 0x61, 0x74, 0x65, 0x66, 0x75, 0x6c, 0x50, 0x61, 0x72, 0x74,
  0x69, 0x74, 0x69, 0x6f, 0x6e, 0x65, 0x64, 0x43, 0x61, 0x6c, 0x6c, 0x3a,
  0x30, 0x00, 0x00, 0x00, 0x02, 0x00, 0x00, 0x00, 0x01, 0x00, 0x00, 0x00,
  0x04, 0x00, 0x00, 0x00, 0x5e, 0xf8, 0xff, 0xff, 0x00, 0x00, 0x00, 0x01,
  0x14, 0x00, 0x00, 0x00, 0x1c, 0x00, 0x00, 0x00, 0x1c, 0x00, 0x00, 0x00,
  0x14, 0x00, 0x00, 0x00, 0x40, 0x00, 0x00, 0x00, 0x02, 0x00, 0x00, 0x00,
  0xff, 0xff, 0xff, 0xff, 0x04, 0x00, 0x00, 0x00, 0xbc, 0xf7, 0xff, 0xff,
  0x26, 0x00, 0x00, 0x00, 0x6d, 0x6f, 0x64, 0x65, 0x6c, 0x2f, 0x64, 0x65,
  0x6e, 0x73, 0x65, 0x2f, 0x4d, 0x61, 0x74, 0x4d, 0x75, 0x6c, 0x3b, 0x6d,
  0x6f, 0x64, 0x65, 0x6c, 0x2f, 0x64, 0x65, 0x6e, 0x73, 0x65, 0x2f, 0x42,
  0x69, 0x61, 0x73, 0x41, 0x64, 0x64, 0x00, 0x00, 0x02, 0x00, 0x00, 0x00,
  0x01, 0x00, 0x00, 0x00, 0x04, 0x00, 0x00, 0x00, 0xc2, 0xf8, 0xff, 0xff,
  0x00, 0x00, 0x00, 0x01, 0x14, 0x00, 0x00, 0x00, 0x1c, 0x00, 0x00, 0x00,
  0x1c, 0x00, 0x00, 0x00, 0x13, 0x00, 0x00, 0x00, 0x30, 0x00, 0x00, 0x00,
  0x02, 0x00, 0x00, 0x00, 0xff, 0xff, 0xff, 0xff, 0x40, 0x00, 0x00, 0x00,
  0x20, 0xf8, 0xff, 0xff, 0x15, 0x00, 0x00, 0x00, 0x6d, 0x6f, 0x64, 0x65,
  0x6c, 0x2f, 0x66, 0x6c, 0x61, 0x74, 0x74, 0x65, 0x6e, 0x2f, 0x52, 0x65,
  0x73, 0x68, 0x61, 0x70, 0x65, 0x00, 0x00, 0x00, 0x02, 0x00, 0x00, 0x00,
  0x01, 0x00, 0x00, 0x00, 0x40, 0x00, 0x00, 0x00, 0x16, 0xf9, 0xff, 0xff,
  0x00, 0x00, 0x00, 0x01, 0x14, 0x00, 0x00, 0x00, 0x24, 0x00, 0x00, 0x00,
  0x24, 0x00, 0x00, 0x00, 0x12, 0x00, 0x00, 0x00, 0x44, 0x00, 0x00, 0x00,
  0x04, 0x00, 0x00, 0x00, 0xff, 0xff, 0xff, 0xff, 0x01, 0x00, 0x00, 0x00,
  0x04, 0x00, 0x00, 0x00, 0x10, 0x00, 0x00, 0x00, 0x7c, 0xf8, 0xff, 0xff,
  0x21, 0x00, 0x00, 0x00, 0x6d, 0x6f, 0x64, 0x65, 0x6c, 0x2f, 0x61, 0x76,
  0x65, 0x72, 0x61, 0x67, 0x65, 0x5f, 0x70, 0x6f, 0x6f, 0x6c, 0x69, 0x6e,
  0x67, 0x32, 0x64, 0x5f, 0x31, 0x2f, 0x41, 0x76, 0x67, 0x50, 0x6f, 0x6f,
  0x6c, 0x00, 0x00, 0x00, 0x04, 0x00, 0x00, 0x00, 0x01, 0x00, 0x00, 0x00,
  0x01, 0x00, 0x00, 0x00, 0x04, 0x00, 0x00, 0x00, 0x10, 0x00, 0x00, 0x00,
  0x86, 0xf9, 0xff, 0xff, 0x00, 0x00, 0x00, 0x01, 0x14, 0x00, 0x00, 0x00,
  0x24, 0x00, 0x00, 0x00, 0x24, 0x00, 0x00, 0x00, 0x11, 0x00, 0x00, 0x00,
  0x38, 0x00, 0x00, 0x00, 0x04, 0x00, 0x00, 0x00, 0xff, 0xff, 0xff, 0xff,
  0x01, 0x00, 0x00, 0x00, 0x25, 0x00, 0x00, 0x00, 0x10, 0x00, 0x00, 0x00,
  0xec, 0xf8, 0xff, 0xff, 0x16, 0x00, 0x00, 0x00, 0x6d, 0x6f, 0x64, 0x65,
  0x6c, 0x2f, 0x61, 0x63, 0x74, 0x69, 0x76, 0x61, 0x74, 0x69, 0x6f, 0x6e,
  0x5f, 0x31, 0x2f, 0x45, 0x6c, 0x75, 0x00, 0x00, 0x04, 0x00, 0x00, 0x00,
  0x01, 0x00, 0x00, 0x00, 0x01, 0x00, 0x00, 0x00, 0x25, 0x00, 0x00, 0x00,
  0x10, 0x00, 0x00, 0x00, 0xea, 0xf9, 0xff, 0xff, 0x00, 0x00, 0x00, 0x01,
  0x14, 0x00, 0x00, 0x00, 0x24, 0x00, 0x00, 0x00, 0x24, 0x00, 0x00, 0x00,
  0x10, 0x00, 0x00, 0x00, 0x50, 0x00, 0x00, 0x00, 0x04, 0x00, 0x00, 0x00,
  0xff, 0xff, 0xff, 0xff, 0x01, 0x00, 0x00, 0x00, 0x25, 0x00, 0x00, 0x00,
  0x10, 0x00, 0x00, 0x00, 0x50, 0xf9, 0xff, 0xff, 0x2d, 0x00, 0x00, 0x00,
  0x6d, 0x6f, 0x64, 0x65, 0x6c, 0x2f, 0x62, 0x61, 0x74, 0x63, 0x68, 0x5f,
  0x6e, 0x6f, 0x72, 0x6d, 0x61, 0x6c, 0x69, 0x7a, 0x61, 0x74, 0x69, 0x6f,
  0x6e, 0x5f, 0x32, 0x2f, 0x46, 0x75, 0x73, 0x65, 0x64, 0x42, 0x61, 0x74,
  0x63, 0x68, 0x4e, 0x6f, 0x72, 0x6d, 0x56, 0x33, 0x33, 0x00, 0x00, 0x00,
  0x04, 0x00, 0x00, 0x00, 0x01, 0x00, 0x00, 0x00, 0x01, 0x00, 0x00, 0x00,
  0x25, 0x00, 0x00, 0x00, 0x10, 0x00, 0x00, 0x00, 0x66, 0xfa, 0xff, 0xff,
  0x00, 0x00, 0x00, 0x01, 0x14, 0x00, 0x00, 0x00, 0x24, 0x00, 0x00, 0x00,
  0x24, 0x00, 0x00, 0x00, 0x0f, 0x00, 0x00, 0x00, 0x50, 0x00, 0x00, 0x00,
  0x04, 0x00, 0x00, 0x00, 0xff, 0xff, 0xff, 0xff, 0x01, 0x00, 0x00, 0x00,
  0x25, 0x00, 0x00, 0x00, 0x10, 0x00, 0x00, 0x00, 0xcc, 0xf9, 0xff, 0xff,
  0x2d, 0x00, 0x00, 0x00, 0x6d, 0x6f, 0x64, 0x65, 0x6c, 0x2f, 0x62, 0x61,
  0x74, 0x63, 0x68, 0x5f, 0x6e, 0x6f, 0x72, 0x6d, 0x61, 0x6c, 0x69, 0x7a,
  0x61, 0x74, 0x69, 0x6f, 0x6e, 0x5f, 0x32, 0x2f, 0x46, 0x75, 0x73, 0x65,
  0x64, 0x42, 0x61, 0x74, 0x63, 0x68, 0x4e, 0x6f, 0x72, 0x6d, 0x56, 0x33,
  0x32, 0x00, 0x00, 0x00, 0x04, 0x00, 0x00, 0x00, 0x01, 0x00, 0x00, 0x00,
  0x01, 0x00, 0x00, 0x00, 0x25, 0x00, 0x00, 0x00, 0x10, 0x00, 0x00, 0x00,
  0xe2, 0xfa, 0xff, 0xff, 0x00, 0x00, 0x00, 0x01, 0x14, 0x00, 0x00, 0x00,
  0x24, 0x00, 0x00, 0x00, 0x24, 0x00, 0x00, 0x00, 0x0e, 0x00, 0x00, 0x00,
  0x40, 0x00, 0x00, 0x00, 0x04, 0x00, 0x00, 0x00, 0xff, 0xff, 0xff, 0xff,
  0x01, 0x00, 0x00, 0x00, 0x25, 0x00, 0x00, 0x00, 0x10, 0x00, 0x00, 0x00,
  0x48, 0xfa, 0xff, 0xff, 0x1f, 0x00, 0x00, 0x00, 0x6d, 0x6f, 0x64, 0x65,
  0x6c, 0x2f, 0x61, 0x76, 0x65, 0x72, 0x61, 0x67, 0x65, 0x5f, 0x70, 0x6f,
  0x6f, 0x6c, 0x69, 0x6e, 0x67, 0x32, 0x64, 0x2f, 0x41, 0x76, 0x67, 0x50,
  0x6f, 0x6f, 0x6c, 0x00, 0x04, 0x00, 0x00, 0x00, 0x01, 0x00, 0x00, 0x00,
  0x01, 0x00, 0x00, 0x00, 0x25, 0x00, 0x00, 0x00, 0x10, 0x00, 0x00, 0x00,
  0x4e, 0xfb, 0xff, 0xff, 0x00, 0x00, 0x00, 0x01, 0x14, 0x00, 0x00, 0x00,
  0x24, 0x00, 0x00, 0x00, 0x24, 0x00, 0x00, 0x00, 0x0d, 0x00, 0x00, 0x00,
  0x38, 0x00, 0x00, 0x00, 0x04, 0x00, 0x00, 0x00, 0xff, 0xff, 0xff, 0xff,
  0x01, 0x00, 0x00, 0x00, 0x97, 0x00, 0x00, 0x00, 0x10, 0x00, 0x00, 0x00,
  0xb4, 0xfa, 0xff, 0xff, 0x14, 0x00, 0x00, 0x00, 0x6d, 0x6f, 0x64, 0x65,
  0x6c, 0x2f, 0x61, 0x63, 0x74, 0x69, 0x76, 0x61, 0x74, 0x69, 0x6f, 0x6e,
  0x2f, 0x45, 0x6c, 0x75, 0x00, 0x00, 0x00, 0x00, 0x04, 0x00, 0x00, 0x00,
  0x01, 0x00, 0x00, 0x00, 0x01, 0x00, 0x00, 0x00, 0x97, 0x00, 0x00, 0x00,
  0x10, 0x00, 0x00, 0x00, 0xb2, 0xfb, 0xff, 0xff, 0x00, 0x00, 0x00, 0x01,
  0x14, 0x00, 0x00, 0x00, 0x24, 0x00, 0x00, 0x00, 0x24, 0x00, 0x00, 0x00,
  0x0c, 0x00, 0x00, 0x00, 0x70, 0x00, 0x00, 0x00, 0x04, 0x00, 0x00, 0x00,
  0xff, 0xff, 0xff, 0xff, 0x01, 0x00, 0x00, 0x00, 0x97, 0x00, 0x00, 0x00,
  0x10, 0x00, 0x00, 0x00, 0x18, 0xfb, 0xff, 0xff, 0x4e, 0x00, 0x00, 0x00,
  0x6d, 0x6f, 0x64, 0x65, 0x6c, 0x2f, 0x62, 0x61, 0x74, 0x63, 0x68, 0x5f,
  0x6e, 0x6f, 0x72, 0x6d, 0x61, 0x6c, 0x69, 0x7a, 0x61, 0x74, 0x69, 0x6f,
  0x6e, 0x5f, 0x31, 0x2f, 0x46, 0x75, 0x73, 0x65, 0x64, 0x42, 0x61, 0x74,
  0x63, 0x68, 0x4e, 0x6f, 0x72, 0x6d, 0x56, 0x33, 0x3b, 0x6d, 0x6f, 0x64,
  0x65, 0x6c, 0x2f, 0x64, 0x65, 0x70, 0x74, 0x68, 0x77, 0x69, 0x73, 0x65,
  0x5f, 0x63, 0x6f, 0x6e, 0x76, 0x32, 0x64, 0x2f, 0x64, 0x65, 0x70, 0x74,
  0x68, 0x77, 0x69, 0x73, 0x65, 0x31, 0x00, 0x00, 0x04, 0x00, 0x00, 0x00,
  0x01, 0x00, 0x00, 0x00, 0x01, 0x00, 0x00, 0x00, 0x97, 0x00, 0x00, 0x00,
  0x10, 0x00, 0x00, 0x00, 0x4e, 0xfc, 0xff, 0xff, 0x00, 0x00, 0x00, 0x01,
  0x14, 0x00, 0x00, 0x00, 0x24, 0x00, 0x00, 0x00, 0x24, 0x00, 0x00, 0x00,
  0x0b, 0x00, 0x00, 0x00, 0x60, 0x00, 0x00, 0x00, 0x04, 0x00, 0x00, 0x00,
  0xff, 0xff, 0xff, 0xff, 0x3c, 0x00, 0x00, 0x00, 0x97, 0x00, 0x00, 0x00,
  0x08, 0x00, 0x00, 0x00, 0xb4, 0xfb, 0xff, 0xff, 0x3e, 0x00, 0x00, 0x00,
  0x6d, 0x6f, 0x64, 0x65, 0x6c, 0x2f, 0x62, 0x61, 0x74, 0x63, 0x68, 0x5f,
  0x6e, 0x6f, 0x72, 0x6d, 0x61, 0x6c, 0x69, 0x7a, 0x61, 0x74, 0x69, 0x6f,
  0x6e, 0x2f, 0x46, 0x75, 0x73, 0x65, 0x64, 0x42, 0x61, 0x74, 0x63, 0x68,
  0x4e, 0x6f, 0x72, 0x6d, 0x56, 0x33, 0x3b, 0x6d, 0x6f, 0x64, 0x65, 0x6c,
  0x2f, 0x63, 0x6f, 0x6e, 0x76, 0x32, 0x64, 0x2f, 0x43, 0x6f, 0x6e, 0x76,
  0x32, 0x44, 0x00, 0x00, 0x04, 0x00, 0x00, 0x00, 0x01, 0x00, 0x00, 0x00,
  0x3c, 0x00, 0x00, 0x00, 0x97, 0x00, 0x00, 0x00, 0x08, 0x00, 0x00, 0x00,
  0x4a, 0xfd, 0xff, 0xff, 0x00, 0x00, 0x00, 0x01, 0x10, 0x00, 0x00, 0x00,
  0x10, 0x00, 0x00, 0x00, 0x0a, 0x00, 0x00, 0x00, 0x20, 0x00, 0x00, 0x00,
  0x28, 0xfc, 0xff, 0xff, 0x12, 0x00, 0x00, 0x00, 0x6d, 0x6f, 0x64, 0x65,
  0x6c, 0x2f, 0x64, 0x65, 0x6e, 0x73, 0x65, 0x2f, 0x4d, 0x61, 0x74, 0x4d,
  0x75, 0x6c, 0x00, 0x00, 0x02, 0x00, 0x00, 0x00, 0x04, 0x00, 0x00, 0x00,
  0x40, 0x00, 0x00, 0x00, 0x8a, 0xfd, 0xff, 0xff, 0x00, 0x00, 0x00, 0x01,
  0x10, 0x00, 0x00, 0x00, 0x10, 0x00, 0x00, 0x00, 0x09, 0x00, 0x00, 0x00,
  0x3c, 0x00, 0x00, 0x00, 0x68, 0xfc, 0xff, 0xff, 0x2d, 0x00, 0x00, 0x00,
  0x6d, 0x6f, 0x64, 0x65, 0x6c, 0x2f, 0x62, 0x61, 0x74, 0x63, 0x68, 0x5f,
  0x6e, 0x6f, 0x72, 0x6d, 0x61, 0x6c, 0x69, 0x7a, 0x61, 0x74, 0x69, 0x6f,
  0x6e, 0x5f, 0x32, 0x2f, 0x46, 0x75, 0x73, 0x65, 0x64, 0x42, 0x61, 0x74,
  0x63, 0x68, 0x4e, 0x6f, 0x72, 0x6d, 0x56, 0x33, 0x31, 0x00, 0x00, 0x00,
  0x01, 0x00, 0x00, 0x00, 0x10, 0x00, 0x00, 0x00, 0xe2, 0xfd, 0xff, 0xff,
  0x00, 0x00, 0x00, 0x01, 0x10, 0x00, 0x00, 0x00, 0x10, 0x00, 0x00, 0x00,
  0x08, 0x00, 0x00, 0x00, 0x3c, 0x00, 0x00, 0x00, 0xc0, 0xfc, 0xff, 0xff,
  0x2c, 0x00, 0x00, 0x00, 0x6d, 0x6f, 0x64, 0x65, 0x6c, 0x2f, 0x62, 0x61,
  0x74, 0x63, 0x68, 0x5f, 0x6e, 0x6f, 0x72, 0x6d, 0x61, 0x6c, 0x69, 0x7a,
  0x61, 0x74, 0x69, 0x6f, 0x6e, 0x5f, 0x32, 0x2f, 0x46, 0x75, 0x73, 0x65,
  0x64, 0x42, 0x61, 0x74, 0x63, 0x68, 0x4e, 0x6f, 0x72, 0x6d, 0x56, 0x33,
  0x00, 0x00, 0x00, 0x00, 0x01, 0x00, 0x00, 0x00, 0x10, 0x00, 0x00, 0x00,
  0x00, 0x00, 0x16, 0x00, 0x1c, 0x00, 0x18, 0x00, 0x17, 0x00, 0x10, 0x00,
  0x0c, 0x00, 0x08, 0x00, 0x00, 0x00, 0x00, 0x00, 0x00, 0x00, 0x07, 0x00,
  0x16, 0x00, 0x00, 0x00, 0x00, 0x00, 0x00, 0x01, 0x14, 0x00, 0x00, 0x00,
  0x14, 0x00, 0x00, 0x00, 0x07, 0x00, 0x00, 0x00, 0x00, 0x00, 0x00, 0x02,
  0x20, 0x00, 0x00, 0x00, 0x34, 0xfd, 0xff, 0xff, 0x13, 0x00, 0x00, 0x00,
  0x6d, 0x6f, 0x64, 0x65, 0x6c, 0x2f, 0x66, 0x6c, 0x61, 0x74, 0x74, 0x65,
  0x6e, 0x2f, 0x43, 0x6f, 0x6e, 0x73, 0x74, 0x00, 0x01, 0x00, 0x00, 0x00,
  0x02, 0x00, 0x00, 0x00, 0x92, 0xfe, 0xff, 0xff, 0x00, 0x00, 0x00, 0x01,
  0x10, 0x00, 0x00, 0x00, 0x10, 0x00, 0x00, 0x00, 0x06, 0x00, 0x00, 0x00,
  0x30, 0x00, 0x00, 0x00, 0x70, 0xfd, 0xff, 0xff, 0x22, 0x00, 0x00, 0x00,
  0x6d, 0x6f, 0x64, 0x65, 0x6c, 0x2f, 0x64, 0x65, 0x6e, 0x73, 0x65, 0x2f,
  0x42, 0x69, 0x61, 0x73, 0x41, 0x64, 0x64, 0x2f, 0x52, 0x65, 0x61, 0x64,
  0x56, 0x61, 0x72, 0x69, 0x61, 0x62, 0x6c, 0x65, 0x4f, 0x70, 0x00, 0x00,
  0x01, 0x00, 0x00, 0x00, 0x04, 0x00, 0x00, 0x00, 0xde, 0xfe, 0xff, 0xff,
  0x00, 0x00, 0x00, 0x01, 0x10, 0x00, 0x00, 0x00, 0x10, 0x00, 0x00, 0x00,
  0x05, 0x00, 0x00, 0x00, 0x20, 0x00, 0x00, 0x00, 0xbc, 0xfd, 0xff, 0xff,
  0x13, 0x00, 0x00, 0x00, 0x6d, 0x6f, 0x64, 0x65, 0x6c, 0x2f, 0x63, 0x6f,
  0x6e, 0x76, 0x32, 0x64, 0x2f, 0x43, 0x6f, 0x6e, 0x76, 0x32, 0x44, 0x00,
  0x04, 0x00, 0x00, 0x00, 0x08, 0x00, 0x00, 0x00, 0x01, 0x00, 0x00, 0x00,
  0x20, 0x00, 0x00, 0x00, 0x01, 0x00, 0x00, 0x00, 0x26, 0xff, 0xff, 0xff,
  0x00, 0x00, 0x00, 0x01, 0x10, 0x00, 0x00, 0x00, 0x10, 0x00, 0x00, 0x00,
  0x04, 0x00, 0x00, 0x00, 0x5c, 0x00, 0x00, 0x00, 0x04, 0xfe, 0xff, 0xff,
  0x4d, 0x00, 0x00, 0x00, 0x6d, 0x6f, 0x64, 0x65, 0x6c, 0x2f, 0x62, 0x61,
  0x74, 0x63, 0x68, 0x5f, 0x6e, 0x6f, 0x72, 0x6d, 0x61, 0x6c, 0x69, 0x7a,
  0x61, 0x74, 0x69, 0x6f, 0x6e, 0x5f, 0x31, 0x2f, 0x46, 0x75, 0x73, 0x65,
  0x64, 0x42, 0x61, 0x74, 0x63, 0x68, 0x4e, 0x6f, 0x72, 0x6d, 0x56, 0x33,
  0x3b, 0x6d, 0x6f, 0x64, 0x65, 0x6c, 0x2f, 0x64, 0x65, 0x70, 0x74, 0x68,
  0x77, 0x69, 0x73, 0x65, 0x5f, 0x63, 0x6f, 0x6e, 0x76, 0x32, 0x64, 0x2f,
  0x64, 0x65, 0x70, 0x74, 0x68, 0x77, 0x69, 0x73, 0x65, 0x00, 0x00, 0x00,
  0x04, 0x00, 0x00, 0x00, 0x01, 0x00, 0x00, 0x00, 0x3c, 0x00, 0x00, 0x00,
  0x01, 0x00, 0x00, 0x00, 0x10, 0x00, 0x00, 0x00, 0xaa, 0xff, 0xff, 0xff,
  0x00, 0x00, 0x00, 0x01, 0x10, 0x00, 0x00, 0x00, 0x10, 0x00, 0x00, 0x00,
  0x03, 0x00, 0x00, 0x00, 0x38, 0x00, 0x00, 0x00, 0x88, 0xfe, 0xff, 0xff,
  0x2a, 0x00, 0x00, 0x00, 0x6d, 0x6f, 0x64, 0x65, 0x6c, 0x2f, 0x62, 0x61,
  0x74, 0x63, 0x68, 0x5f, 0x6e, 0x6f, 0x72, 0x6d, 0x61, 0x6c, 0x69, 0x7a,
  0x61, 0x74, 0x69, 0x6f, 0x6e, 0x2f, 0x46, 0x75, 0x73, 0x65, 0x64, 0x42,
  0x61, 0x74, 0x63, 0x68, 0x4e, 0x6f, 0x72, 0x6d, 0x56, 0x33, 0x00, 0x00,
  0x01, 0x00, 0x00, 0x00, 0x08, 0x00, 0x00, 0x00, 0x00, 0x00, 0x16, 0x00,
  0x18, 0x00, 0x14, 0x00, 0x00, 0x00, 0x10, 0x00, 0x0c, 0x00, 0x08, 0x00,
  0x00, 0x00, 0x00, 0x00, 0x00, 0x00, 0x07, 0x00, 0x16, 0x00, 0x00, 0x00,
  0x00, 0x00, 0x00, 0x01, 0x10, 0x00, 0x00, 0x00, 0x10, 0x00, 0x00, 0x00,
  0x02, 0x00, 0x00, 0x00, 0x3c, 0x00, 0x00, 0x00, 0xf4, 0xfe, 0xff, 0xff,
  0x2c, 0x00, 0x00, 0x00, 0x6d, 0x6f, 0x64, 0x65, 0x6c, 0x2f, 0x62, 0x61,
  0x74, 0x63, 0x68, 0x5f, 0x6e, 0x6f, 0x72, 0x6d, 0x61, 0x6c, 0x69, 0x7a,
  0x61, 0x74, 0x69, 0x6f, 0x6e, 0x5f, 0x31, 0x2f, 0x46, 0x75, 0x73, 0x65,
  0x64, 0x42, 0x61, 0x74, 0x63, 0x68, 0x4e, 0x6f, 0x72, 0x6d, 0x56, 0x33,
  0x00, 0x00, 0x00, 0x00, 0x01, 0x00, 0x00, 0x00, 0x10, 0x00, 0x00, 0x00,
  0x00, 0x00, 0x16, 0x00, 0x1c, 0x00, 0x18, 0x00, 0x00, 0x00, 0x14, 0x00,
  0x10, 0x00, 0x0c, 0x00, 0x00, 0x00, 0x00, 0x00, 0x08, 0x00, 0x07, 0x00,
  0x16, 0x00, 0x00, 0x00, 0x00, 0x00, 0x00, 0x01, 0x14, 0x00, 0x00, 0x00,
  0x24, 0x00, 0x00, 0x00, 0x24, 0x00, 0x00, 0x00, 0x01, 0x00, 0x00, 0x00,
  0x3c, 0x00, 0x00, 0x00, 0x04, 0x00, 0x00, 0x00, 0xff, 0xff, 0xff, 0xff,
  0x3c, 0x00, 0x00, 0x00, 0x97, 0x00, 0x00, 0x00, 0x01, 0x00, 0x00, 0x00,
  0x7c, 0xff, 0xff, 0xff, 0x19, 0x00, 0x00, 0x00, 0x73, 0x65, 0x72, 0x76,
  0x69, 0x6e, 0x67, 0x5f, 0x64, 0x65, 0x66, 0x61, 0x75, 0x6c, 0x74, 0x5f,
  0x69, 0x6e, 0x70, 0x75, 0x74, 0x5f, 0x31, 0x3a, 0x30, 0x00, 0x00, 0x00,
  0x04, 0x00, 0x00, 0x00, 0x01, 0x00, 0x00, 0x00, 0x3c, 0x00, 0x00, 0x00,
  0x97, 0x00, 0x00, 0x00, 0x01, 0x00, 0x00, 0x00, 0x09, 0x00, 0x00, 0x00,
  0x8c, 0x00, 0x00, 0x00, 0x70, 0x00, 0x00, 0x00, 0x60, 0x00, 0x00, 0x00,
  0x50, 0x00, 0x00, 0x00, 0x40, 0x00, 0x00, 0x00, 0x38, 0x00, 0x00, 0x00,
  0x24, 0x00, 0x00, 0x00, 0x14, 0x00, 0x00, 0x00, 0x04, 0x00, 0x00, 0x00,
  0xa4, 0xff, 0xff, 0xff, 0x19, 0x00, 0x00, 0x00, 0x00, 0x00, 0x00, 0x19,
  0xb0, 0xff, 0xff, 0xff, 0x09, 0x00, 0x00, 0x00, 0x00, 0x00, 0x00, 0x09,
  0xbc, 0xff, 0xff, 0xff, 0x16, 0x00, 0x00, 0x00, 0x00, 0x00, 0x00, 0x16,
  0x04, 0x00, 0x04, 0x00, 0x04, 0x00, 0x00, 0x00, 0xd0, 0xff, 0xff, 0xff,
  0x12, 0x00, 0x00, 0x00, 0x00, 0x00, 0x00, 0x12, 0xdc, 0xff, 0xff, 0xff,
  0x01, 0x00, 0x00, 0x00, 0x00, 0x00, 0x00, 0x01, 0xe8, 0xff, 0xff, 0xff,
  0x6f, 0x00, 0x00, 0x00, 0x00, 0x00, 0x00, 0x6f, 0xf4, 0xff, 0xff, 0xff,
  0x04, 0x00, 0x00, 0x00, 0x00, 0x00, 0x00, 0x04, 0x0c, 0x00, 0x0c, 0x00,
  0x0b, 0x00, 0x00, 0x00, 0x00, 0x00, 0x04, 0x00, 0x0c, 0x00, 0x00, 0x00,
  0x03, 0x00, 0x00, 0x00, 0x00, 0x00, 0x00, 0x03
};
unsigned int EEGnet_btchA2_tflite_len = 9980;
