unsigned char EEGNet_og_q_tflite[] = {
  0x1c, 0x00, 0x00, 0x00, 0x54, 0x46, 0x4c, 0x33, 0x14, 0x00, 0x20, 0x00,
  0x1c, 0x00, 0x18, 0x00, 0x14, 0x00, 0x10, 0x00, 0x0c, 0x00, 0x00, 0x00,
  0x08, 0x00, 0x04, 0x00, 0x14, 0x00, 0x00, 0x00, 0x1c, 0x00, 0x00, 0x00,
  0x80, 0x00, 0x00, 0x00, 0x08, 0x01, 0x00, 0x00, 0x4c, 0x13, 0x00, 0x00,
  0x5c, 0x13, 0x00, 0x00, 0x2c, 0x2a, 0x00, 0x00, 0x03, 0x00, 0x00, 0x00,
  0x01, 0x00, 0x00, 0x00, 0x04, 0x00, 0x00, 0x00, 0x8e, 0xe7, 0xff, 0xff,
  0x0c, 0x00, 0x00, 0x00, 0x1c, 0x00, 0x00, 0x00, 0x38, 0x00, 0x00, 0x00,
  0x0f, 0x00, 0x00, 0x00, 0x73, 0x65, 0x72, 0x76, 0x69, 0x6e, 0x67, 0x5f,
  0x64, 0x65, 0x66, 0x61, 0x75, 0x6c, 0x74, 0x00, 0x01, 0x00, 0x00, 0x00,
  0x04, 0x00, 0x00, 0x00, 0x6c, 0xff, 0xff, 0xff, 0x25, 0x00, 0x00, 0x00,
  0x04, 0x00, 0x00, 0x00, 0x07, 0x00, 0x00, 0x00, 0x73, 0x6f, 0x66, 0x74,
  0x6d, 0x61, 0x78, 0x00, 0x01, 0x00, 0x00, 0x00, 0x04, 0x00, 0x00, 0x00,
  0x46, 0xec, 0xff, 0xff, 0x04, 0x00, 0x00, 0x00, 0x07, 0x00, 0x00, 0x00,
  0x69, 0x6e, 0x70, 0x75, 0x74, 0x5f, 0x31, 0x00, 0x03, 0x00, 0x00, 0x00,
  0x64, 0x00, 0x00, 0x00, 0x2c, 0x00, 0x00, 0x00, 0x04, 0x00, 0x00, 0x00,
  0xb0, 0xff, 0xff, 0xff, 0x29, 0x00, 0x00, 0x00, 0x04, 0x00, 0x00, 0x00,
  0x13, 0x00, 0x00, 0x00, 0x43, 0x4f, 0x4e, 0x56, 0x45, 0x52, 0x53, 0x49,
  0x4f, 0x4e, 0x5f, 0x4d, 0x45, 0x54, 0x41, 0x44, 0x41, 0x54, 0x41, 0x00,
  0xd4, 0xff, 0xff, 0xff, 0x28, 0x00, 0x00, 0x00, 0x04, 0x00, 0x00, 0x00,
  0x19, 0x00, 0x00, 0x00, 0x72, 0x65, 0x64, 0x75, 0x63, 0x65, 0x64, 0x5f,
  0x70, 0x72, 0x65, 0x63, 0x69, 0x73, 0x69, 0x6f, 0x6e, 0x5f, 0x73, 0x75,
  0x70, 0x70, 0x6f, 0x72, 0x74, 0x00, 0x00, 0x00, 0x08, 0x00, 0x0c, 0x00,
  0x08, 0x00, 0x04, 0x00, 0x08, 0x00, 0x00, 0x00, 0x27, 0x00, 0x00, 0x00,
  0x04, 0x00, 0x00, 0x00, 0x13, 0x00, 0x00, 0x00, 0x6d, 0x69, 0x6e, 0x5f,
  0x72, 0x75, 0x6e, 0x74, 0x69, 0x6d, 0x65, 0x5f, 0x76, 0x65, 0x72, 0x73,
  0x69, 0x6f, 0x6e, 0x00, 0x2a, 0x00, 0x00, 0x00, 0x40, 0x12, 0x00, 0x00,
  0x38, 0x12, 0x00, 0x00, 0x20, 0x12, 0x00, 0x00, 0x00, 0x12, 0x00, 0x00,
  0xe0, 0x11, 0x00, 0x00, 0xb0, 0x11, 0x00, 0x00, 0x90, 0x11, 0x00, 0x00,
  0x00, 0x0a, 0x00, 0x00, 0xd0, 0x09, 0x00, 0x00, 0xc0, 0x07, 0x00, 0x00,
  0xb0, 0x05, 0x00, 0x00, 0xa0, 0x03, 0x00, 0x00, 0x88, 0x03, 0x00, 0x00,
  0x78, 0x01, 0x00, 0x00, 0x70, 0x01, 0x00, 0x00, 0x68, 0x01, 0x00, 0x00,
  0x60, 0x01, 0x00, 0x00, 0x58, 0x01, 0x00, 0x00, 0x50, 0x01, 0x00, 0x00,
  0x48, 0x01, 0x00, 0x00, 0x40, 0x01, 0x00, 0x00, 0x38, 0x01, 0x00, 0x00,
  0x30, 0x01, 0x00, 0x00, 0x28, 0x01, 0x00, 0x00, 0x20, 0x01, 0x00, 0x00,
  0x18, 0x01, 0x00, 0x00, 0x10, 0x01, 0x00, 0x00, 0x08, 0x01, 0x00, 0x00,
  0x00, 0x01, 0x00, 0x00, 0xf8, 0x00, 0x00, 0x00, 0xf0, 0x00, 0x00, 0x00,
  0xe8, 0x00, 0x00, 0x00, 0xe0, 0x00, 0x00, 0x00, 0xd8, 0x00, 0x00, 0x00,
  0xd0, 0x00, 0x00, 0x00, 0xc8, 0x00, 0x00, 0x00, 0xc0, 0x00, 0x00, 0x00,
  0xb8, 0x00, 0x00, 0x00, 0xb0, 0x00, 0x00, 0x00, 0x90, 0x00, 0x00, 0x00,
  0x74, 0x00, 0x00, 0x00, 0x04, 0x00, 0x00, 0x00, 0x92, 0xed, 0xff, 0xff,
  0x04, 0x00, 0x00, 0x00, 0x60, 0x00, 0x00, 0x00, 0x0c, 0x00, 0x00, 0x00,
  0x08, 0x00, 0x0e, 0x00, 0x08, 0x00, 0x04, 0x00, 0x08, 0x00, 0x00, 0x00,
  0x14, 0x00, 0x00, 0x00, 0x30, 0x00, 0x00, 0x00, 0x00, 0x00, 0x0a, 0x00,
  0x0c, 0x00, 0x08, 0x00, 0x00, 0x00, 0x07, 0x00, 0x0a, 0x00, 0x00, 0x00,
  0x00, 0x00, 0x00, 0x01, 0x04, 0x00, 0x00, 0x00, 0x01, 0x00, 0x00, 0x00,
  0xe9, 0x03, 0x00, 0x00, 0x00, 0x00, 0x0a, 0x00, 0x10, 0x00, 0x0c, 0x00,
  0x08, 0x00, 0x04, 0x00, 0x0a, 0x00, 0x00, 0x00, 0x02, 0x00, 0x00, 0x00,
  0x02, 0x00, 0x00, 0x00, 0x04, 0x00, 0x00, 0x00, 0x06, 0x00, 0x00, 0x00,
  0x32, 0x2e, 0x31, 0x33, 0x2e, 0x30, 0x00, 0x00, 0xfe, 0xed, 0xff, 0xff,
  0x04, 0x00, 0x00, 0x00, 0x0b, 0x00, 0x00, 0x00, 0x66, 0x70, 0x31, 0x36,
  0x61, 0x63, 0x63, 0x66, 0x70, 0x33, 0x32, 0x00, 0x16, 0xee, 0xff, 0xff,
  0x04, 0x00, 0x00, 0x00, 0x10, 0x00, 0x00, 0x00, 0x31, 0x2e, 0x31, 0x35,
  0x2e, 0x30, 0x00, 0x00, 0x00, 0x00, 0x00, 0x00, 0x00, 0x00, 0x00, 0x00,
  0x58, 0xd8, 0xff, 0xff, 0x5c, 0xd8, 0xff, 0xff, 0x60, 0xd8, 0xff, 0xff,
  0x64, 0xd8, 0xff, 0xff, 0x68, 0xd8, 0xff, 0xff, 0x6c, 0xd8, 0xff, 0xff,
  0x70, 0xd8, 0xff, 0xff, 0x74, 0xd8, 0xff, 0xff, 0x78, 0xd8, 0xff, 0xff,
  0x7c, 0xd8, 0xff, 0xff, 0x80, 0xd8, 0xff, 0xff, 0x84, 0xd8, 0xff, 0xff,
  0x88, 0xd8, 0xff, 0xff, 0x8c, 0xd8, 0xff, 0xff, 0x90, 0xd8, 0xff, 0xff,
  0x94, 0xd8, 0xff, 0xff, 0x98, 0xd8, 0xff, 0xff, 0x9c, 0xd8, 0xff, 0xff,
  0xa0, 0xd8, 0xff, 0xff, 0xa4, 0xd8, 0xff, 0xff, 0xa8, 0xd8, 0xff, 0xff,
  0xac, 0xd8, 0xff, 0xff, 0xb0, 0xd8, 0xff, 0xff, 0xb4, 0xd8, 0xff, 0xff,
  0xb8, 0xd8, 0xff, 0xff, 0x96, 0xee, 0xff, 0xff, 0x04, 0x00, 0x00, 0x00,
  0x00, 0x02, 0x00, 0x00, 0x5b, 0x27, 0x96, 0xa5, 0x5f, 0xa5, 0xf5, 0xa9,
  0x62, 0xa9, 0x12, 0x1e, 0x64, 0x27, 0xf3, 0x26, 0xdf, 0x24, 0x61, 0x28,
  0x3e, 0xab, 0xc7, 0xa9, 0xba, 0xa8, 0xfe, 0xa8, 0x36, 0xa8, 0x85, 0xaa,
  0x6e, 0xa7, 0x77, 0x9e, 0xf9, 0x9c, 0x3a, 0x1e, 0x5d, 0x23, 0x51, 0xa6,
  0x60, 0xa8, 0xb7, 0xa7, 0x7d, 0xa4, 0x86, 0xa4, 0xb6, 0x1f, 0xaa, 0x1d,
  0x38, 0x9a, 0xb9, 0x81, 0x12, 0x1a, 0x5c, 0x23, 0x0a, 0x25, 0x5e, 0x1d,
  0x0b, 0x9f, 0x27, 0x9f, 0xfb, 0xa1, 0x90, 0x1c, 0x29, 0x26, 0x44, 0x23,
  0xde, 0x25, 0x9d, 0x21, 0x31, 0xa5, 0xaa, 0xa2, 0xb6, 0xa1, 0x04, 0xa3,
  0xc3, 0x9e, 0x44, 0xa4, 0xcc, 0xa8, 0xea, 0xa8, 0x46, 0xaa, 0x86, 0x2b,
  0xc9, 0x2a, 0x5f, 0xab, 0x36, 0xa9, 0x99, 0xa9, 0x62, 0xa3, 0xcc, 0xa8,
  0xbe, 0x2a, 0xe8, 0x2a, 0x51, 0xa8, 0x25, 0xa8, 0x2a, 0x2b, 0xbc, 0x2a,
  0xb9, 0x21, 0x51, 0xaa, 0xd8, 0xa9, 0x50, 0x9d, 0x76, 0xa3, 0x5e, 0xa7,
  0x7a, 0x21, 0xb7, 0x23, 0x37, 0x25, 0x75, 0x1d, 0xf4, 0x1c, 0xf8, 0x99,
  0xb1, 0xa8, 0xe2, 0xa8, 0xc6, 0x22, 0x78, 0x9e, 0xda, 0xa9, 0xa2, 0x99,
  0x67, 0x22, 0xea, 0x20, 0x3b, 0x96, 0xa1, 0xa1, 0x52, 0xa8, 0x9b, 0xa9,
  0x9a, 0xaa, 0x3a, 0xaa, 0xe8, 0x1d, 0x40, 0x1a, 0xc4, 0x1e, 0x51, 0x22,
  0x6d, 0xa1, 0xb9, 0x19, 0xe2, 0x23, 0xc3, 0xa1, 0x24, 0xa4, 0xaf, 0x9f,
  0xb3, 0x9c, 0xe8, 0x1e, 0x7d, 0x20, 0xd2, 0x24, 0xdd, 0x22, 0xd7, 0x25,
  0x30, 0x17, 0x49, 0x11, 0xca, 0xa1, 0xf2, 0xa5, 0x50, 0x16, 0x1a, 0x9a,
  0x71, 0xa9, 0xc9, 0x29, 0x4a, 0x2b, 0x4b, 0xaa, 0xba, 0xaa, 0xec, 0x2a,
  0x62, 0xa8, 0xf2, 0xa9, 0x79, 0xab, 0xa9, 0xaa, 0x8b, 0xaa, 0x06, 0xaa,
  0x5e, 0x2a, 0x58, 0x2a, 0x17, 0xab, 0xc1, 0xa9, 0x29, 0xac, 0x43, 0x2a,
  0x4e, 0x2a, 0xdd, 0xa8, 0xe0, 0xa9, 0xef, 0x29, 0x54, 0xac, 0xc6, 0xab,
  0x65, 0xac, 0x60, 0xac, 0xc5, 0xa9, 0x7e, 0xa9, 0x59, 0x2a, 0x8e, 0x2a,
  0xe5, 0xa9, 0x87, 0xa8, 0x76, 0x24, 0x31, 0x25, 0x83, 0x1f, 0x0b, 0xa6,
  0xfc, 0xa7, 0x93, 0x25, 0x9a, 0x23, 0x33, 0x24, 0x09, 0x24, 0x47, 0x24,
  0x90, 0xa7, 0x3c, 0xa6, 0xba, 0x21, 0xe9, 0x1f, 0x91, 0xa0, 0xae, 0xa8,
  0x74, 0xa8, 0x12, 0x1c, 0xad, 0x1f, 0x90, 0x24, 0x92, 0x24, 0xd5, 0x9d,
  0x41, 0xa7, 0xf1, 0xa8, 0x53, 0xa7, 0x93, 0xa7, 0x58, 0x22, 0xb7, 0x1e,
  0x8d, 0x20, 0x8d, 0x21, 0x48, 0x1d, 0x38, 0x21, 0x4e, 0x24, 0x9f, 0x98,
  0x58, 0xa1, 0xb3, 0xa6, 0x61, 0xa4, 0x1d, 0x09, 0x0f, 0x24, 0x6a, 0x24,
  0xb6, 0x22, 0x66, 0x24, 0xf7, 0xa5, 0x2a, 0xa5, 0xd8, 0xa1, 0x7c, 0xa5,
  0x30, 0xa2, 0x16, 0xa5, 0xa7, 0xaa, 0x85, 0xa8, 0xe7, 0xa8, 0x5b, 0x2a,
  0x61, 0x2b, 0xd8, 0xaa, 0x57, 0xaa, 0x6e, 0xab, 0x02, 0xa8, 0x4a, 0xaa,
  0xfd, 0x2a, 0x83, 0x2a, 0x39, 0xa8, 0x57, 0xa8, 0x65, 0x2a, 0xa7, 0x2a,
  0x78, 0x23, 0x5a, 0xa3, 0x1c, 0xa5, 0xa2, 0x86, 0x75, 0x21, 0x80, 0x9d,
  0x97, 0x22, 0x12, 0x24, 0xa3, 0x23, 0x6e, 0x22, 0xb7, 0x1f, 0xc7, 0x21,
  0xef, 0xa4, 0xe6, 0xa7, 0x95, 0x22, 0x08, 0x1d, 0xeb, 0xa9, 0xb8, 0x14,
  0x60, 0x20, 0xb4, 0x9d, 0xa2, 0x9d, 0xeb, 0xa1, 0xfb, 0xa9, 0x26, 0xa9,
  0xea, 0xa9, 0x2b, 0xaa, 0x0f, 0x18, 0x78, 0x1e, 0xe8, 0x1d, 0x23, 0x22,
  0x0c, 0x10, 0xde, 0x1b, 0x25, 0x25, 0x67, 0xa9, 0x85, 0xa9, 0xdc, 0xa4,
  0xf0, 0xa1, 0xf2, 0xa7, 0x69, 0x25, 0x9d, 0x26, 0x93, 0x26, 0x19, 0x26,
  0x04, 0x99, 0x1a, 0xa4, 0xe9, 0xa9, 0xc8, 0xa8, 0xc5, 0x9c, 0x77, 0xa3,
  0xa2, 0xf0, 0xff, 0xff, 0x04, 0x00, 0x00, 0x00, 0x08, 0x00, 0x00, 0x00,
  0x8e, 0xaf, 0xa7, 0x2e, 0xfc, 0x21, 0x48, 0x9c, 0xb6, 0xf0, 0xff, 0xff,
  0x04, 0x00, 0x00, 0x00, 0x00, 0x02, 0x00, 0x00, 0x2f, 0xa4, 0xf3, 0x2a,
  0xc0, 0xab, 0x4a, 0x24, 0xff, 0x29, 0x1e, 0x2f, 0x00, 0xac, 0x55, 0xb4,
  0x9c, 0x24, 0x7d, 0xad, 0xa3, 0x12, 0x6c, 0x30, 0x13, 0x2c, 0xb6, 0xa5,
  0x3e, 0xb4, 0x94, 0xb0, 0x0d, 0x2a, 0x39, 0x2f, 0xe1, 0xaf, 0xb2, 0x2d,
  0x37, 0x2c, 0x6d, 0x31, 0xe2, 0xa4, 0x18, 0xb3, 0x03, 0xab, 0x60, 0xac,
  0x16, 0xa7, 0x78, 0x31, 0x7a, 0x20, 0x6a, 0x94, 0xe8, 0xb2, 0x1d, 0xa6,
  0xfd, 0x2e, 0x9e, 0x30, 0x03, 0xb1, 0x5a, 0x31, 0xed, 0x2e, 0x5b, 0x32,
  0x6d, 0x20, 0xde, 0xb0, 0x68, 0xad, 0x65, 0xad, 0x59, 0x9c, 0x52, 0x31,
  0x98, 0x23, 0x4f, 0x24, 0xfd, 0xb0, 0x9f, 0x27, 0xde, 0x30, 0x99, 0x30,
  0x4c, 0xb1, 0xba, 0x31, 0x52, 0x30, 0xe1, 0x31, 0x9a, 0x28, 0xf9, 0xaf,
  0xd3, 0xaa, 0xf1, 0xab, 0x77, 0x21, 0xe7, 0x2e, 0x96, 0x2c, 0xa3, 0x2a,
  0xa1, 0xaf, 0x80, 0x2d, 0x25, 0x30, 0xf8, 0x2f, 0x58, 0xb1, 0x43, 0x31,
  0xf5, 0x30, 0x10, 0x2f, 0x4d, 0x27, 0x43, 0xaf, 0x0c, 0xa0, 0xc1, 0xa6,
  0xa5, 0x24, 0xf5, 0x2d, 0x9b, 0x2e, 0x6b, 0x2e, 0xdf, 0x1b, 0x41, 0x2f,
  0x66, 0x2e, 0x0b, 0x2e, 0x80, 0xb0, 0x61, 0x30, 0x5e, 0x31, 0x75, 0x30,
  0xce, 0x82, 0xd5, 0xae, 0x8d, 0x1e, 0x25, 0x22, 0x58, 0x2c, 0xd4, 0x30,
  0x2c, 0x30, 0x8a, 0x30, 0x76, 0x29, 0xb9, 0x2d, 0x16, 0x2f, 0x8a, 0x2e,
  0x04, 0xaf, 0xda, 0x2f, 0x5a, 0x31, 0x3f, 0x30, 0x4a, 0xa8, 0xbd, 0xac,
  0x9f, 0xa8, 0x97, 0x25, 0x0e, 0x16, 0x3d, 0x31, 0x58, 0x30, 0xb7, 0x31,
  0x09, 0xa6, 0x1f, 0x29, 0x4c, 0x30, 0x3e, 0x2e, 0x5e, 0xad, 0x3d, 0x30,
  0xd1, 0x30, 0x92, 0x30, 0xb9, 0xac, 0x44, 0xaa, 0x11, 0xab, 0xce, 0x24,
  0x1f, 0x29, 0x97, 0x31, 0x92, 0x2f, 0x87, 0x31, 0x80, 0x26, 0x1b, 0x25,
  0x45, 0x30, 0x64, 0x2c, 0x15, 0xad, 0x82, 0x30, 0xc3, 0x31, 0x57, 0x31,
  0xf5, 0xae, 0x8f, 0x22, 0xfd, 0xa9, 0xf0, 0x2c, 0x42, 0x2a, 0xe7, 0x2a,
  0x0c, 0x30, 0xed, 0x32, 0xed, 0x2e, 0x82, 0x2a, 0xfc, 0x2d, 0xaf, 0x27,
  0xb6, 0xa9, 0x64, 0x2f, 0xa6, 0x32, 0x49, 0x31, 0x63, 0xb0, 0x4e, 0x29,
  0x78, 0xa8, 0x3a, 0x31, 0xad, 0x2c, 0x1c, 0xaa, 0x93, 0x32, 0x3d, 0x33,
  0x81, 0x2f, 0x3e, 0x2d, 0x46, 0x2a, 0x7f, 0xa6, 0xcc, 0xa9, 0x91, 0x2a,
  0x70, 0x32, 0x6e, 0x30, 0x8e, 0xb1, 0x73, 0x29, 0x17, 0xa5, 0x4c, 0x31,
  0x4f, 0x2d, 0xd2, 0xab, 0xe1, 0x33, 0x25, 0x33, 0x8b, 0x30, 0x88, 0x2d,
  0x00, 0x92, 0x2c, 0xaa, 0xb2, 0xa9, 0x96, 0x23, 0x50, 0x31, 0xec, 0x2d,
  0x30, 0xb3, 0x4c, 0x2b, 0x70, 0xa8, 0x0b, 0x31, 0xfa, 0x2a, 0xe4, 0x1a,
  0x37, 0x32, 0x7d, 0x32, 0xbb, 0x30, 0xec, 0x2b, 0xd5, 0x9d, 0x97, 0xa9,
  0x73, 0xa4, 0xce, 0xa4, 0x07, 0x31, 0x12, 0x31, 0x43, 0xb3, 0xf8, 0x2c,
  0x15, 0xac, 0x77, 0x30, 0xec, 0x29, 0x05, 0x2f, 0x1c, 0x31, 0x04, 0x32,
  0x41, 0x2c, 0xb5, 0x2b, 0x51, 0x28, 0x13, 0xa5, 0xc1, 0xa9, 0xc8, 0x20,
  0x7d, 0x30, 0xb2, 0x2f, 0x5a, 0xb2, 0xfd, 0x2c, 0xe6, 0xac, 0xfd, 0x2c,
  0x8e, 0x20, 0x10, 0x2b, 0xd5, 0x2e, 0x9e, 0x30, 0x64, 0xa1, 0x1b, 0x2a,
  0xc6, 0xa3, 0x3b, 0xaa, 0x2e, 0xaa, 0xde, 0xa4, 0xc1, 0x30, 0x8e, 0x2e,
  0xbc, 0xb1, 0xe4, 0x2c, 0x0f, 0xa6, 0x6e, 0x2c, 0x59, 0x28, 0x8a, 0x26,
  0x90, 0x2d, 0x0d, 0x2f, 0xdc, 0x2b, 0x9d, 0x2a, 0xca, 0xaf, 0xf7, 0xae,
  0x77, 0x98, 0x1b, 0xae, 0x67, 0x31, 0x11, 0x2c, 0xd7, 0xb1, 0x85, 0x2d,
  0x9b, 0x97, 0x01, 0x2d, 0xf3, 0x1d, 0x62, 0xa5, 0x99, 0x2e, 0xa4, 0x2f,
  0x8f, 0x24, 0x11, 0x2a, 0xc2, 0xf2, 0xff, 0xff, 0x04, 0x00, 0x00, 0x00,
  0x00, 0x02, 0x00, 0x00, 0x3e, 0x3f, 0x7a, 0x3e, 0x55, 0xbd, 0x81, 0x3d,
  0x91, 0xb4, 0xf4, 0xb6, 0x61, 0x33, 0xbb, 0xbd, 0x9c, 0xbb, 0x13, 0xb8,
  0x3b, 0x38, 0x21, 0xb6, 0xf7, 0xb7, 0x24, 0xb9, 0x06, 0x3f, 0xd7, 0xbd,
  0x33, 0xb6, 0x8f, 0xb6, 0x02, 0x38, 0x99, 0xad, 0xf1, 0xb9, 0xe6, 0x3c,
  0x92, 0xbe, 0x12, 0x35, 0x61, 0x3b, 0x71, 0xb4, 0x48, 0x35, 0x8e, 0x3e,
  0x4b, 0x3d, 0x28, 0xb9, 0x52, 0xb9, 0x32, 0x3a, 0xcc, 0xb8, 0xaf, 0xb8,
  0xaa, 0x39, 0x7b, 0xaf, 0x59, 0xba, 0x1a, 0x3c, 0xc6, 0xbe, 0x22, 0x38,
  0xb1, 0x39, 0x20, 0xb1, 0x0f, 0x39, 0x8a, 0x3c, 0x5b, 0x3d, 0xe3, 0xb9,
  0xc6, 0xbc, 0xed, 0x35, 0x4d, 0xba, 0xbd, 0xb8, 0xa5, 0xad, 0x6d, 0xbb,
  0x69, 0x3d, 0x07, 0xbb, 0xe3, 0x3a, 0x4f, 0x38, 0x2f, 0xbc, 0xa2, 0x3b,
  0xa2, 0xba, 0x7d, 0xb8, 0x89, 0xb9, 0xfc, 0x3d, 0xaa, 0xae, 0x1d, 0x38,
  0x2e, 0xb6, 0xd4, 0xba, 0xe1, 0xae, 0x39, 0xbb, 0x9c, 0x3d, 0xe3, 0xba,
  0xe0, 0x3a, 0x89, 0x36, 0x9e, 0x2d, 0x41, 0x3e, 0x67, 0x34, 0x70, 0xba,
  0xa2, 0xb8, 0xab, 0x3d, 0x84, 0x34, 0x8d, 0x39, 0xe0, 0xad, 0x44, 0xb2,
  0xf1, 0x34, 0x83, 0x3b, 0x21, 0xba, 0x50, 0x3e, 0x85, 0xbe, 0x6b, 0x2a,
  0xf7, 0x33, 0xa1, 0xba, 0x5e, 0xba, 0xb0, 0x3c, 0x0b, 0x3d, 0x31, 0xbc,
  0xa2, 0xb9, 0x35, 0xb8, 0x93, 0x3d, 0xcf, 0x3d, 0x9e, 0xbc, 0x5c, 0x3f,
  0x7b, 0xb5, 0x93, 0xb6, 0x3d, 0x30, 0xed, 0xbd, 0xdb, 0xbd, 0x8b, 0xba,
  0x95, 0x23, 0xfb, 0xb6, 0x68, 0xb8, 0x8d, 0xb8, 0xee, 0x3c, 0x38, 0xbf,
  0xea, 0x3e, 0x21, 0x3f, 0xbd, 0xbc, 0xac, 0x3d, 0x51, 0xb6, 0xc1, 0xb7,
  0xad, 0x34, 0x14, 0xbd, 0x98, 0xb9, 0xcd, 0xbb, 0x0e, 0xbe, 0xbe, 0xb4,
  0x67, 0xb8, 0xd8, 0xb8, 0x6e, 0x3e, 0x29, 0xbe, 0x0b, 0x3f, 0x11, 0x3f,
  0xba, 0xbf, 0xb4, 0x38, 0x17, 0xa8, 0xec, 0xb8, 0x16, 0x38, 0x99, 0xbd,
  0xd8, 0xb2, 0x7f, 0xb3, 0xa8, 0x34, 0x09, 0xba, 0x2c, 0xb8, 0x54, 0xb2,
  0xa5, 0x40, 0x84, 0xb8, 0xac, 0x3f, 0x8b, 0x3f, 0xb7, 0xbd, 0x58, 0x3c,
  0xd1, 0xb5, 0x81, 0xb6, 0x84, 0x34, 0xb2, 0xbd, 0x83, 0xb5, 0x14, 0xb8,
  0x59, 0xbf, 0xf0, 0xb6, 0x1b, 0xb8, 0x26, 0xb8, 0x4e, 0x40, 0x74, 0xbb,
  0x76, 0xb7, 0x6a, 0xb7, 0x7b, 0xb7, 0xcc, 0xbd, 0xac, 0x3c, 0x57, 0xbb,
  0x00, 0x3c, 0x78, 0x38, 0x1b, 0x30, 0x00, 0x3f, 0x74, 0x39, 0x4b, 0xbb,
  0xd9, 0xb8, 0x7f, 0x3d, 0xdb, 0x35, 0x38, 0x39, 0x8a, 0xbb, 0x0d, 0xb7,
  0x89, 0xa7, 0x81, 0xb9, 0x55, 0x3e, 0x2d, 0xb9, 0x68, 0x3a, 0x05, 0x33,
  0xf7, 0xbb, 0xa1, 0x3b, 0x38, 0xb8, 0x77, 0xb9, 0x4f, 0xb8, 0xb5, 0x3d,
  0xda, 0xb0, 0xec, 0xac, 0x4c, 0xba, 0x63, 0xba, 0xda, 0x3b, 0x33, 0x2e,
  0x45, 0xba, 0x06, 0x3d, 0x92, 0xbd, 0xe1, 0x37, 0xcf, 0x3d, 0x7d, 0x34,
  0xd2, 0x3d, 0x7a, 0x3e, 0xa9, 0x3d, 0xc5, 0xba, 0x92, 0xbc, 0xf3, 0x36,
  0x26, 0xb8, 0x3f, 0xbc, 0xbd, 0x39, 0x1d, 0xb8, 0xbd, 0xb9, 0x8c, 0x3c,
  0xf6, 0xbc, 0x5d, 0x39, 0x3a, 0x3e, 0x06, 0x2f, 0x64, 0x3e, 0x70, 0x3f,
  0xd8, 0x3d, 0x2e, 0xbb, 0xe6, 0xbc, 0x61, 0x3c, 0xa5, 0xb4, 0xc9, 0xb0,
  0x35, 0xb8, 0x5c, 0xba, 0x5b, 0x3e, 0x12, 0xba, 0xc6, 0x3a, 0xc8, 0x31,
  0x79, 0x36, 0x2e, 0x39, 0x9c, 0xbe, 0x90, 0xbd, 0x79, 0xb9, 0xf4, 0x3d,
  0xc4, 0x3b, 0xbf, 0x39, 0xe3, 0xb8, 0x6a, 0xbb, 0x4d, 0xb0, 0x1a, 0xbc,
  0xee, 0x3c, 0x4b, 0xba, 0xcb, 0x3b, 0x6d, 0x38, 0x92, 0x37, 0xe8, 0x3e,
  0x45, 0xb8, 0xe6, 0xba, 0x09, 0xba, 0x46, 0x3e, 0x92, 0x32, 0x84, 0x3c,
  0xce, 0xf4, 0xff, 0xff, 0x04, 0x00, 0x00, 0x00, 0x00, 0x02, 0x00, 0x00,
  0xd4, 0xbf, 0xb3, 0xc0, 0xbc, 0xc5, 0x5c, 0x40, 0x54, 0xc5, 0x05, 0x32,
  0x0c, 0xc4, 0x4e, 0x40, 0x8a, 0x3b, 0x98, 0x36, 0x91, 0xc0, 0x7e, 0x40,
  0x8f, 0xc2, 0x8e, 0xc0, 0x7e, 0xb6, 0x70, 0xc4, 0x05, 0xc4, 0xa3, 0xc0,
  0x1a, 0xc5, 0xe2, 0xc2, 0xd2, 0xc4, 0x29, 0xc8, 0x46, 0xbe, 0xc7, 0xc7,
  0x29, 0xc4, 0x33, 0xc4, 0xb3, 0xc7, 0x86, 0xc5, 0xa2, 0xc5, 0x93, 0xbb,
  0x50, 0xc5, 0x05, 0xc8, 0xf6, 0x40, 0xbe, 0xb4, 0x5a, 0x3e, 0x16, 0x39,
  0xee, 0x39, 0x91, 0x40, 0xfd, 0xb0, 0xb1, 0x40, 0xac, 0xbd, 0x6c, 0x42,
  0x84, 0x42, 0x84, 0x29, 0x1c, 0x45, 0x58, 0x40, 0x98, 0xba, 0xa2, 0x45,
  0xd5, 0x45, 0x74, 0x3a, 0x7d, 0x3e, 0x82, 0x47, 0xd5, 0x3c, 0xdd, 0x47,
  0xe8, 0x45, 0x78, 0xb9, 0x32, 0x45, 0x08, 0x3c, 0x88, 0x46, 0x88, 0x41,
  0x67, 0x45, 0xaa, 0xc4, 0x60, 0x45, 0x0b, 0x46, 0x32, 0x46, 0xa6, 0x49,
  0x51, 0x48, 0x53, 0x47, 0x8c, 0xc3, 0x04, 0x48, 0x3e, 0xbc, 0x1f, 0x3a,
  0xda, 0x38, 0xe9, 0xc4, 0x0d, 0x43, 0x0e, 0xc6, 0x8e, 0x38, 0x7c, 0xc7,
  0xcf, 0xc9, 0x9e, 0xc6, 0x79, 0xc8, 0xa6, 0xc6, 0x86, 0xc9, 0x4d, 0xc1,
  0xeb, 0xc1, 0x63, 0xc8, 0x08, 0x39, 0x7a, 0xc0, 0x83, 0xbe, 0x28, 0x41,
  0x29, 0x47, 0xdf, 0xc5, 0xba, 0x3b, 0x5f, 0x47, 0x5d, 0x46, 0xda, 0x4c,
  0xfb, 0xc4, 0xbf, 0xc4, 0x10, 0xb1, 0xd7, 0xc3, 0xef, 0xba, 0xaf, 0xc2,
  0xe7, 0xc8, 0x5a, 0xc4, 0x4e, 0xc6, 0x41, 0xc6, 0x53, 0xc8, 0x48, 0xc1,
  0xe9, 0xc7, 0x9b, 0xc7, 0xf0, 0xc7, 0x0e, 0xc4, 0x2e, 0xc9, 0x84, 0xc6,
  0x77, 0xc5, 0x1f, 0xc0, 0x53, 0xc7, 0xad, 0xc7, 0x42, 0x3a, 0x44, 0xc5,
  0xa5, 0xc0, 0x7d, 0xc5, 0x89, 0x3b, 0x1e, 0xbe, 0xda, 0xc3, 0xf2, 0x3f,
  0x26, 0xba, 0x65, 0x45, 0x64, 0x42, 0xcf, 0x41, 0xf0, 0x43, 0x86, 0x42,
  0x8e, 0x42, 0x19, 0x42, 0x32, 0x3c, 0xee, 0x41, 0xad, 0x42, 0x26, 0xbf,
  0x5d, 0x44, 0x73, 0xaa, 0xe3, 0x42, 0x1f, 0xbd, 0x20, 0xbc, 0x37, 0x40,
  0x46, 0xc0, 0x0a, 0xc0, 0x62, 0x3d, 0xee, 0x3d, 0x48, 0x41, 0x97, 0xc0,
  0xa6, 0x45, 0x1a, 0x43, 0x08, 0x43, 0xf0, 0x3b, 0xf9, 0x25, 0x08, 0x46,
  0xe0, 0x42, 0x69, 0x39, 0xe7, 0xbd, 0x19, 0x40, 0x70, 0xc5, 0x4b, 0xc3,
  0xfb, 0x3e, 0x09, 0x3a, 0x8b, 0xc0, 0xb2, 0x3d, 0x19, 0xc4, 0x40, 0x3f,
  0x90, 0xc0, 0x71, 0xb3, 0x23, 0x31, 0x5f, 0x3b, 0x2d, 0x42, 0x8f, 0xb7,
  0xb0, 0x3c, 0xe5, 0x3e, 0xd2, 0xc4, 0xf2, 0x42, 0xc8, 0xc1, 0x18, 0xc5,
  0x2f, 0x42, 0x45, 0x42, 0xa2, 0xb9, 0x17, 0xb4, 0xb4, 0xc0, 0x30, 0x40,
  0xa6, 0xc0, 0x80, 0xb5, 0x49, 0xc2, 0xc3, 0x45, 0xdf, 0x40, 0x62, 0x4a,
  0x24, 0x4b, 0x17, 0x45, 0xfd, 0x3b, 0x51, 0x3e, 0xf3, 0x44, 0xb0, 0xc4,
  0x2f, 0x45, 0x1f, 0x39, 0x89, 0xbe, 0x95, 0xbe, 0xf9, 0xc0, 0xf8, 0xbc,
  0xf6, 0xc8, 0x7b, 0xc4, 0xc7, 0xc7, 0x75, 0xc7, 0x86, 0xbf, 0x7b, 0xc8,
  0xe9, 0xb1, 0xf0, 0xbe, 0x7f, 0xba, 0x11, 0xc1, 0x23, 0x40, 0xd4, 0xb5,
  0x3d, 0x45, 0x25, 0x45, 0x56, 0x41, 0x22, 0x45, 0xf9, 0x41, 0x98, 0x45,
  0x7d, 0x47, 0xc1, 0x4a, 0x9d, 0x45, 0x82, 0x47, 0xac, 0x44, 0xde, 0x3a,
  0xb5, 0x44, 0xa6, 0x36, 0xc5, 0x44, 0x98, 0x2f, 0xae, 0x43, 0xf4, 0x38,
  0x4e, 0x45, 0x34, 0x3c, 0x86, 0x46, 0x43, 0xbf, 0xfd, 0x44, 0x46, 0x46,
  0xb9, 0xbf, 0x4c, 0x3c, 0x36, 0x45, 0xa6, 0xbf, 0xe7, 0x38, 0xef, 0x40,
  0x1d, 0x44, 0x67, 0x42, 0xad, 0x3a, 0x28, 0x44, 0x6f, 0xad, 0xb3, 0x41,
  0xb3, 0xa8, 0x70, 0x3f, 0x7c, 0x3e, 0xfc, 0x40, 0xda, 0xf6, 0xff, 0xff,
  0x04, 0x00, 0x00, 0x00, 0x20, 0x00, 0x00, 0x00, 0x90, 0x35, 0x2c, 0x3c,
  0xfa, 0x3b, 0x54, 0x3c, 0x11, 0x3c, 0x4a, 0x3d, 0x19, 0x37, 0x23, 0x33,
  0xa8, 0x38, 0xb7, 0x34, 0x70, 0x3b, 0xe0, 0x3c, 0xa2, 0x3b, 0xca, 0x3b,
  0x34, 0x3e, 0x24, 0x3c, 0x06, 0xf7, 0xff, 0xff, 0x04, 0x00, 0x00, 0x00,
  0x80, 0x07, 0x00, 0x00, 0x51, 0x2d, 0x62, 0x36, 0x65, 0xb9, 0xda, 0x3c,
  0x2d, 0xb8, 0x7f, 0x3a, 0x0a, 0x3a, 0xb9, 0xba, 0x40, 0xb8, 0xb1, 0x3d,
  0x18, 0x3a, 0x14, 0xb4, 0x64, 0x34, 0x5e, 0x2e, 0x03, 0x41, 0xc6, 0xba,
  0x46, 0xb8, 0x01, 0x3c, 0xf1, 0xbb, 0x02, 0x35, 0x20, 0xb4, 0xf7, 0xb8,
  0xe3, 0xab, 0x9a, 0x38, 0x3f, 0xbc, 0xe6, 0xba, 0x92, 0x37, 0xff, 0x30,
  0x2a, 0x2e, 0xc8, 0xb0, 0x9b, 0x39, 0x38, 0x37, 0x00, 0xba, 0x25, 0xba,
  0x70, 0x39, 0x67, 0xbe, 0x9b, 0x3b, 0xab, 0x35, 0xd4, 0xb7, 0x2e, 0xab,
  0x2b, 0xb1, 0x53, 0xbc, 0xd2, 0x3e, 0x13, 0x34, 0x91, 0xb8, 0x0a, 0x3c,
  0xd1, 0xba, 0xd4, 0xb4, 0x7a, 0x3d, 0x21, 0xb9, 0x30, 0xb6, 0xde, 0xbc,
  0x4b, 0xbc, 0x68, 0xb4, 0xa7, 0xbd, 0x08, 0xbd, 0xd6, 0xb7, 0xdb, 0x3b,
  0x19, 0xba, 0xe7, 0xb9, 0xcf, 0x3a, 0x62, 0xb7, 0xeb, 0xbf, 0xba, 0x3b,
  0x8f, 0xc0, 0x32, 0xbd, 0x03, 0x38, 0xda, 0x37, 0x06, 0xba, 0x2e, 0x32,
  0xb5, 0x35, 0xec, 0xb4, 0x2a, 0xbc, 0x94, 0x37, 0x36, 0x3c, 0xde, 0xba,
  0xd9, 0x36, 0x00, 0xbf, 0x32, 0x3a, 0x6c, 0xbb, 0x0a, 0x3d, 0xb6, 0x3b,
  0x90, 0xb9, 0x14, 0xb8, 0x57, 0x35, 0x65, 0x9f, 0xaf, 0x39, 0xe8, 0xb6,
  0x37, 0xbb, 0x9a, 0x3d, 0x76, 0xbd, 0xdb, 0x3d, 0xbb, 0x3a, 0x6a, 0x36,
  0x52, 0xc3, 0x08, 0x3c, 0x8e, 0x31, 0x48, 0xb7, 0xc4, 0x37, 0xd7, 0x3d,
  0xbe, 0x39, 0x5f, 0xb9, 0x78, 0xb7, 0x48, 0x3b, 0x62, 0x30, 0x9b, 0xb4,
  0xce, 0xbd, 0xfe, 0xb6, 0x4b, 0x2b, 0xe8, 0x28, 0x3e, 0xb0, 0xa5, 0x35,
  0xa1, 0xb4, 0x14, 0xb8, 0x6e, 0x40, 0x4a, 0x3b, 0x6f, 0x2e, 0xd2, 0xbd,
  0xac, 0x3c, 0x4e, 0x38, 0x0a, 0x28, 0x03, 0xba, 0x4d, 0xc1, 0x22, 0xbd,
  0xb9, 0xbe, 0x2c, 0x31, 0x4e, 0xb9, 0x85, 0xb9, 0x7f, 0x33, 0x71, 0x3b,
  0x2a, 0xbc, 0x59, 0xb9, 0xcc, 0x25, 0xbc, 0x35, 0x39, 0xb4, 0xaa, 0xb9,
  0xc7, 0xbc, 0x1c, 0xbb, 0x42, 0x3a, 0x5a, 0xc1, 0x34, 0xb1, 0xe7, 0x37,
  0x55, 0x38, 0x32, 0x32, 0x25, 0x3d, 0x49, 0xbb, 0x84, 0x39, 0xc9, 0x37,
  0xb1, 0xb8, 0x17, 0x2f, 0x42, 0xba, 0x55, 0xb9, 0x2c, 0xbd, 0xf1, 0x31,
  0xd9, 0xbb, 0xb1, 0x33, 0xf7, 0xb4, 0x1e, 0xba, 0x51, 0xbc, 0x9b, 0x39,
  0xe5, 0x37, 0xcb, 0xbc, 0xeb, 0x3c, 0x9d, 0x40, 0xa0, 0x3c, 0x5a, 0xa8,
  0x07, 0x32, 0xf0, 0x36, 0x55, 0xb1, 0x07, 0xb9, 0xd7, 0xb9, 0xb9, 0x3c,
  0xfb, 0xb2, 0x00, 0x3d, 0x4f, 0x42, 0x82, 0xb5, 0xa4, 0x29, 0xc1, 0x30,
  0x37, 0x3f, 0x4d, 0x33, 0xb5, 0xb1, 0x3c, 0x36, 0x78, 0x38, 0x38, 0x3c,
  0xe2, 0x38, 0xb7, 0xbf, 0x1d, 0x3c, 0x8b, 0x3c, 0x06, 0xbc, 0x8c, 0x3c,
  0xbe, 0x3f, 0x51, 0xbc, 0x26, 0xb4, 0x82, 0xb1, 0xc2, 0xba, 0xfe, 0xb7,
  0x4c, 0x39, 0xf0, 0x36, 0x12, 0xbf, 0x92, 0x3b, 0xa6, 0x3c, 0xc3, 0x37,
  0x27, 0xbb, 0xa4, 0x38, 0xc6, 0xb8, 0x5a, 0xb0, 0x87, 0x3d, 0x50, 0xba,
  0x44, 0xb3, 0x5e, 0x3b, 0xef, 0xc0, 0x8a, 0xbd, 0x67, 0x37, 0x9b, 0x36,
  0x8b, 0x3d, 0x3a, 0xb4, 0x78, 0x30, 0xef, 0xba, 0x4a, 0xbd, 0xc1, 0x25,
  0x92, 0x39, 0x46, 0x38, 0xc5, 0x39, 0x18, 0xba, 0x25, 0xb9, 0x83, 0x34,
  0xbf, 0xbd, 0xe1, 0x3c, 0x0c, 0x3b, 0x60, 0x29, 0xc4, 0xbb, 0x99, 0x3d,
  0xf1, 0xa4, 0x3a, 0xbc, 0x18, 0xc0, 0x1d, 0x3a, 0x42, 0xac, 0xc6, 0x38,
  0x8f, 0xb9, 0xcc, 0xb6, 0xb6, 0xbf, 0xdd, 0xbc, 0x00, 0x39, 0x04, 0x3f,
  0xed, 0xb6, 0x60, 0xb9, 0x62, 0x3f, 0x16, 0xa7, 0x34, 0x34, 0x49, 0x39,
  0x22, 0x3f, 0xb3, 0xc0, 0x40, 0xb2, 0x57, 0xb1, 0xce, 0x3d, 0xc1, 0xb5,
  0x88, 0x30, 0xd1, 0x3d, 0x64, 0xbc, 0xb7, 0x3c, 0xae, 0x38, 0x7b, 0x3c,
  0xfb, 0x40, 0x46, 0xba, 0x26, 0xba, 0x5b, 0x42, 0x80, 0xb8, 0x9f, 0xb7,
  0x9f, 0x3d, 0x2b, 0x37, 0xb8, 0xc0, 0x58, 0x3c, 0xef, 0xb7, 0x6d, 0xb5,
  0x6a, 0x38, 0x49, 0x3c, 0x5d, 0xba, 0x61, 0x3e, 0x61, 0xb1, 0x63, 0xbe,
  0xf7, 0xbc, 0xfe, 0x3d, 0x39, 0x3e, 0x99, 0x3f, 0xa7, 0x2a, 0x7c, 0xb4,
  0x8c, 0xbf, 0xb2, 0x3b, 0x46, 0x41, 0x1c, 0x3e, 0xaf, 0xbd, 0xf2, 0xbf,
  0x1d, 0xaf, 0xc2, 0xb5, 0x72, 0xbb, 0xdd, 0x35, 0xeb, 0xb7, 0x59, 0xb8,
  0x78, 0xb1, 0x2e, 0x2e, 0x6e, 0x3a, 0x85, 0xb8, 0x88, 0xc0, 0xcc, 0x3a,
  0x73, 0x33, 0x41, 0x40, 0x12, 0x23, 0x10, 0xbc, 0x32, 0xb8, 0xa2, 0xc0,
  0x5b, 0x3f, 0x5f, 0x3d, 0x6b, 0x38, 0xe8, 0x2c, 0xd3, 0xb6, 0x1b, 0xb9,
  0x61, 0xbd, 0x87, 0xbc, 0x0f, 0xc0, 0x56, 0x18, 0x1b, 0xb5, 0xb4, 0xbf,
  0xbf, 0x3c, 0xb8, 0x3a, 0x5a, 0xbe, 0x30, 0xae, 0xc9, 0x38, 0x86, 0xb9,
  0x71, 0x3d, 0x2d, 0xbc, 0x84, 0xbc, 0x15, 0xc0, 0x43, 0xb6, 0xab, 0xba,
  0xb6, 0xbc, 0xa1, 0x31, 0xce, 0x3f, 0xc3, 0x39, 0xbb, 0xb6, 0x4f, 0xc1,
  0xd7, 0xb9, 0x92, 0x2c, 0x0a, 0x37, 0xd3, 0x36, 0x2e, 0x3b, 0x20, 0x3d,
  0xe7, 0xba, 0x29, 0xa0, 0xfc, 0xb5, 0xec, 0x2c, 0x75, 0xb7, 0x57, 0x39,
  0x74, 0xb4, 0x9a, 0xb9, 0xd2, 0x3c, 0xf9, 0xb3, 0xe1, 0xba, 0x2c, 0xb3,
  0x85, 0xb1, 0x0e, 0x2c, 0x64, 0xbb, 0x9b, 0xb2, 0xb7, 0xaa, 0x06, 0xb5,
  0x43, 0x2e, 0x7c, 0xbf, 0x9d, 0x40, 0x14, 0x38, 0x4e, 0xc0, 0xdc, 0xc0,
  0x7c, 0x42, 0xaf, 0x3d, 0x4e, 0x2e, 0x37, 0xb0, 0x7a, 0xb9, 0xbe, 0xb7,
  0x4d, 0x37, 0x47, 0x3f, 0x13, 0x40, 0x6f, 0x3d, 0xec, 0x3d, 0xee, 0xb8,
  0x93, 0xba, 0xc5, 0x34, 0x9b, 0xb4, 0x64, 0xb0, 0x31, 0xbd, 0xd9, 0x3e,
  0x05, 0x3c, 0xa2, 0xb8, 0x3e, 0x39, 0x0a, 0x3a, 0x2e, 0x3b, 0x7d, 0x34,
  0xa8, 0xbc, 0x63, 0x3d, 0xd0, 0xba, 0xb5, 0xaf, 0x41, 0xae, 0x37, 0xbe,
  0xb0, 0xbb, 0x54, 0xb5, 0xc1, 0xbb, 0x49, 0xb6, 0x3f, 0xb1, 0x61, 0x1e,
  0x34, 0xb7, 0xa0, 0x34, 0x27, 0x3a, 0x09, 0xbd, 0x81, 0x36, 0x47, 0xc0,
  0xb8, 0x32, 0xc5, 0xad, 0xfc, 0x3d, 0x97, 0xb5, 0x6c, 0x41, 0xcb, 0x3b,
  0x01, 0x38, 0x82, 0xb8, 0x71, 0xbb, 0xc2, 0xbd, 0x38, 0x2d, 0xe6, 0x35,
  0x00, 0xbd, 0xe9, 0x3f, 0x38, 0x36, 0x8d, 0xbf, 0x29, 0x39, 0xdc, 0x38,
  0x37, 0xbf, 0x30, 0x3a, 0xc6, 0x39, 0x88, 0x3e, 0xa6, 0xc1, 0x7c, 0xc0,
  0x26, 0x3d, 0xd9, 0x26, 0xba, 0xb3, 0x0e, 0xbd, 0x06, 0xad, 0x7c, 0xbb,
  0x65, 0x39, 0x3d, 0xaf, 0xfe, 0xb6, 0xd8, 0x35, 0x75, 0x38, 0x43, 0xb6,
  0xb7, 0x39, 0x09, 0x40, 0xf0, 0xbd, 0x29, 0xb8, 0x27, 0x38, 0x8b, 0x36,
  0x0b, 0xb0, 0x28, 0x35, 0x25, 0xad, 0x01, 0xb2, 0x34, 0xbd, 0xf3, 0xbc,
  0xf6, 0x3c, 0x48, 0x34, 0x3f, 0xc3, 0x48, 0x39, 0xcf, 0xb2, 0xe0, 0x3c,
  0x2e, 0x2b, 0x34, 0xbd, 0xcd, 0xba, 0xfe, 0xae, 0xe9, 0x37, 0xe7, 0xb7,
  0xb3, 0x3a, 0x1f, 0x41, 0x81, 0xbb, 0xde, 0x3a, 0xf5, 0xb8, 0x15, 0xbd,
  0xdb, 0x38, 0x5b, 0x3d, 0x98, 0x3d, 0x89, 0xbc, 0x65, 0x38, 0x50, 0xb8,
  0xc0, 0xaf, 0x22, 0xbc, 0xca, 0x34, 0xb9, 0x36, 0x97, 0xb8, 0x47, 0x34,
  0xba, 0x3c, 0xba, 0xb4, 0x7b, 0xbc, 0x1a, 0x3c, 0x68, 0x41, 0x97, 0x3d,
  0x34, 0x41, 0x47, 0x3c, 0xae, 0xbd, 0xe2, 0xbc, 0xae, 0xbc, 0xa8, 0xac,
  0x54, 0xbc, 0x8e, 0xb4, 0xbc, 0x37, 0x88, 0x3b, 0x63, 0x3e, 0x32, 0x35,
  0xdd, 0xac, 0xb8, 0x38, 0x23, 0xbf, 0x6a, 0x36, 0x95, 0x3a, 0xfa, 0x40,
  0x50, 0xc0, 0xea, 0xc1, 0xac, 0x36, 0xe4, 0x3b, 0x1d, 0x3b, 0xf8, 0xbc,
  0x2a, 0xb8, 0xe1, 0x37, 0x74, 0x3e, 0xb6, 0xbd, 0x10, 0xb3, 0x6e, 0xbc,
  0x7e, 0xbc, 0xe6, 0x3f, 0x3b, 0x3e, 0x93, 0x34, 0x73, 0x37, 0x48, 0xc0,
  0x46, 0xb5, 0x21, 0xb7, 0xde, 0xbd, 0x32, 0xbc, 0xe1, 0x30, 0x19, 0x3d,
  0x87, 0xbc, 0x98, 0x3d, 0x29, 0x1d, 0x8a, 0xa0, 0x2c, 0x36, 0x69, 0x3d,
  0x10, 0x28, 0x4a, 0xb8, 0x7c, 0xb8, 0x88, 0xb9, 0x43, 0xb4, 0x86, 0x3c,
  0x23, 0xbc, 0x02, 0xc0, 0xb6, 0x34, 0x7d, 0x3f, 0x39, 0xbf, 0x6b, 0x3d,
  0xae, 0x38, 0x6b, 0x27, 0x80, 0xbb, 0xe3, 0x38, 0x31, 0xbd, 0xb9, 0xbd,
  0x30, 0xb3, 0x5d, 0x38, 0xa9, 0x23, 0x22, 0x33, 0x12, 0x3a, 0x1d, 0xbc,
  0x5e, 0x30, 0x23, 0xc0, 0x88, 0x41, 0x70, 0x3c, 0x16, 0xb6, 0x82, 0xb8,
  0x92, 0xac, 0x37, 0xc0, 0x01, 0xbf, 0xa3, 0xbd, 0xef, 0x3e, 0x20, 0x35,
  0xee, 0xae, 0x0f, 0xb4, 0x0e, 0xbb, 0x2d, 0x3e, 0xd9, 0xb7, 0xde, 0xbd,
  0x07, 0xbe, 0x1a, 0x3f, 0x1b, 0xbc, 0x1c, 0xae, 0x6e, 0x43, 0x2e, 0xb9,
  0x29, 0xbb, 0x09, 0xc0, 0x3f, 0x41, 0x95, 0xb9, 0x36, 0x3f, 0x5f, 0xbb,
  0x1f, 0xbb, 0x97, 0xae, 0x04, 0xb9, 0x57, 0xc1, 0x64, 0x35, 0x1b, 0xaa,
  0xe3, 0xb6, 0x0f, 0x40, 0xe2, 0x3f, 0x93, 0xb9, 0x27, 0xb6, 0xf5, 0x3c,
  0x2e, 0xb9, 0x88, 0xc1, 0x00, 0x3a, 0x1f, 0x3a, 0x80, 0xbd, 0x55, 0x3e,
  0xde, 0x3a, 0x01, 0x35, 0x45, 0x32, 0x07, 0x3d, 0xcc, 0x30, 0xde, 0x34,
  0xa7, 0xaf, 0x3a, 0x26, 0x3e, 0xbe, 0x82, 0xb2, 0x0a, 0xba, 0x8c, 0x3f,
  0x09, 0x2a, 0xee, 0x34, 0x09, 0xc1, 0xb7, 0xbd, 0xe0, 0xb2, 0xab, 0x3a,
  0x51, 0x3c, 0x49, 0x41, 0x4e, 0x3f, 0x72, 0x3b, 0x9b, 0xbc, 0x92, 0x33,
  0x03, 0xb5, 0x1f, 0x3d, 0x5d, 0x35, 0x31, 0xac, 0x11, 0x38, 0xa8, 0x3b,
  0xda, 0xbe, 0xc7, 0xbb, 0x76, 0x3a, 0x60, 0xb2, 0x6e, 0xb3, 0xa6, 0x3c,
  0xca, 0x3c, 0x76, 0xba, 0x7e, 0xc1, 0x33, 0xbc, 0xd0, 0x41, 0x1e, 0xa4,
  0xc7, 0xbd, 0x47, 0xb5, 0xe3, 0x3c, 0xbb, 0x39, 0x87, 0xb4, 0x1c, 0xba,
  0x00, 0x3c, 0xea, 0x41, 0xa8, 0x3c, 0xa4, 0x3c, 0x8e, 0x3c, 0x02, 0x38,
  0x2f, 0xb8, 0x09, 0x3c, 0x90, 0xb2, 0x22, 0xbd, 0xcb, 0xbc, 0x3a, 0x3c,
  0xfe, 0x3d, 0xdc, 0x3c, 0x79, 0xbc, 0x88, 0x3b, 0xe7, 0x3b, 0x86, 0xb4,
  0x8f, 0xbe, 0xf0, 0x44, 0x41, 0xb8, 0x62, 0x3f, 0x6a, 0xbd, 0x7a, 0xb4,
  0x75, 0xbc, 0xf4, 0xb8, 0xc1, 0x43, 0x9e, 0x35, 0x1d, 0xbf, 0x0a, 0x3b,
  0x9a, 0xae, 0xcd, 0x3a, 0x9f, 0xba, 0xf1, 0xb1, 0xde, 0xbd, 0x90, 0x3f,
  0x99, 0x3e, 0xbb, 0xbd, 0xca, 0x44, 0xbd, 0xb7, 0x22, 0xbf, 0x10, 0xc0,
  0xd0, 0x3f, 0x47, 0x3e, 0xf5, 0xb9, 0xdd, 0x30, 0xda, 0x3c, 0x49, 0x40,
  0xa2, 0xb4, 0xce, 0xbf, 0x51, 0x20, 0x4a, 0xb9, 0xe2, 0xbc, 0xa2, 0xbf,
  0x8f, 0x38, 0xff, 0xb8, 0xd6, 0x39, 0xe7, 0x40, 0xda, 0xb9, 0xab, 0xc0,
  0x73, 0x3c, 0x2f, 0x3e, 0x58, 0xbe, 0xd1, 0x3c, 0x79, 0x34, 0x75, 0xbd,
  0x50, 0xbc, 0xe4, 0x3c, 0x31, 0x3c, 0xcb, 0x3a, 0x6c, 0x2d, 0x00, 0x3b,
  0x75, 0x3d, 0x68, 0x3c, 0x25, 0xb9, 0xb4, 0xbf, 0xdb, 0x3c, 0xa1, 0x3e,
  0x3c, 0xbd, 0x57, 0x3d, 0xc0, 0xb7, 0x4d, 0x38, 0xf8, 0xa9, 0x89, 0x37,
  0x9e, 0x3d, 0x86, 0xb6, 0x74, 0x40, 0x08, 0x3c, 0xd9, 0xb9, 0xd6, 0xbf,
  0x29, 0x3d, 0xea, 0x3b, 0x20, 0x40, 0x03, 0x40, 0xd8, 0xbd, 0xa0, 0xbb,
  0xd7, 0x36, 0x7d, 0x38, 0x34, 0xbe, 0xc6, 0xaf, 0x1b, 0x40, 0x4e, 0x40,
  0x3c, 0xc0, 0xea, 0x22, 0x8e, 0x38, 0xaf, 0xbf, 0x36, 0xbc, 0x51, 0x3e,
  0x13, 0x35, 0x71, 0x3e, 0x12, 0x3b, 0x45, 0xaf, 0x04, 0x34, 0x93, 0x40,
  0x99, 0xb1, 0x8b, 0x3d, 0x41, 0x3b, 0x12, 0x3d, 0xcb, 0xc0, 0x17, 0x2e,
  0xfa, 0xc0, 0xc7, 0xc0, 0x5e, 0x3a, 0x19, 0x40, 0xc6, 0x37, 0x44, 0xbc,
  0xd8, 0x3e, 0x5f, 0xb8, 0x98, 0x30, 0x86, 0x2f, 0x92, 0x3a, 0x39, 0x35,
  0x9a, 0xb5, 0x40, 0xba, 0x15, 0x42, 0x14, 0x30, 0x27, 0xb9, 0x4f, 0x2c,
  0x6c, 0xb4, 0x3c, 0x40, 0x42, 0xbb, 0x7f, 0xb7, 0x12, 0x3e, 0x13, 0x3d,
  0x23, 0xbd, 0x8f, 0xbe, 0x73, 0x36, 0x4b, 0xbe, 0x8f, 0xb6, 0x7d, 0xbb,
  0xe8, 0x3d, 0xde, 0xba, 0x77, 0xbc, 0x43, 0x3c, 0x03, 0xb9, 0x54, 0x22,
  0xbe, 0x3c, 0xcc, 0xb9, 0x31, 0x3a, 0x55, 0x3e, 0xbf, 0xbd, 0x6f, 0xb5,
  0x7a, 0x35, 0x88, 0x34, 0x7e, 0xbe, 0x55, 0x3e, 0xda, 0x33, 0xb4, 0x35,
  0x38, 0x44, 0xac, 0x3d, 0x8f, 0xc3, 0xc8, 0xbc, 0xe9, 0x47, 0x33, 0x40,
  0x4d, 0xc8, 0xaa, 0xbd, 0x13, 0xa3, 0xf2, 0x29, 0x30, 0xb4, 0x9d, 0x49,
  0x83, 0xb4, 0x44, 0x46, 0x46, 0xc7, 0x9b, 0xb3, 0x5d, 0x3d, 0x60, 0x37,
  0x6f, 0x37, 0x25, 0x39, 0x22, 0xc5, 0x1d, 0xba, 0x60, 0xbc, 0x2d, 0x3b,
  0x30, 0xba, 0x4f, 0xbb, 0xaf, 0x3e, 0x18, 0x3f, 0x4e, 0xbd, 0xc3, 0xc1,
  0x8d, 0xb0, 0x55, 0xb8, 0xba, 0xbd, 0xf8, 0xbf, 0x29, 0xbd, 0x90, 0x39,
  0x0b, 0xbe, 0x96, 0xc2, 0x10, 0x44, 0x29, 0x34, 0x96, 0xa8, 0x29, 0xc0,
  0x4a, 0xa6, 0xb3, 0xc5, 0x54, 0xbd, 0xda, 0xbf, 0x4e, 0x44, 0x0a, 0xbc,
  0x10, 0x3f, 0xd6, 0x3d, 0x0b, 0xb7, 0x16, 0x3d, 0x9c, 0xba, 0x5a, 0xbf,
  0x72, 0x42, 0x82, 0x41, 0xa1, 0xbd, 0x22, 0xa9, 0x66, 0xa9, 0x96, 0xc4,
  0x81, 0xc3, 0xa9, 0x31, 0xd7, 0x40, 0x85, 0xbc, 0x37, 0x27, 0x46, 0xb1,
  0x63, 0x38, 0xd4, 0x34, 0x1b, 0xc2, 0x32, 0x36, 0x31, 0xc0, 0x07, 0xc2,
  0x07, 0x3b, 0xc0, 0xbc, 0x0e, 0xbb, 0x3c, 0x42, 0xcc, 0x3b, 0x4c, 0xc1,
  0x2f, 0xc2, 0x1e, 0x39, 0xbc, 0xb1, 0x9c, 0xb5, 0x8b, 0x40, 0x45, 0x38,
  0x8a, 0x3a, 0x7d, 0xb6, 0x46, 0x3c, 0x0e, 0xb9, 0x5c, 0x39, 0x6c, 0xbd,
  0x2b, 0x40, 0x78, 0xbd, 0xcd, 0x3c, 0xb0, 0x33, 0xef, 0x3d, 0x9e, 0xba,
  0xd2, 0xb4, 0x34, 0x35, 0x75, 0x3d, 0x26, 0x3c, 0xa4, 0x3e, 0xfa, 0xbe,
  0x01, 0x42, 0x36, 0x2c, 0xe4, 0xae, 0xd3, 0x34, 0x7c, 0xc0, 0xc1, 0xc4,
  0x82, 0xbe, 0x76, 0x3e, 0x04, 0xbf, 0x21, 0xbd, 0xca, 0x2c, 0x0c, 0x36,
  0x74, 0xc0, 0x43, 0xb2, 0xbd, 0x41, 0xf5, 0x38, 0x9b, 0xc0, 0x84, 0xc1,
  0x6b, 0x3e, 0xa4, 0x40, 0x1d, 0xbb, 0xf9, 0x41, 0x62, 0x3a, 0xad, 0x42,
  0x46, 0xc5, 0x77, 0xba, 0x92, 0xfe, 0xff, 0xff, 0x04, 0x00, 0x00, 0x00,
  0x10, 0x00, 0x00, 0x00, 0xe2, 0x22, 0x88, 0xa1, 0x34, 0xa6, 0xa4, 0x99,
  0x2b, 0x06, 0xc7, 0x25, 0x75, 0x16, 0xc3, 0x95, 0xae, 0xfe, 0xff, 0xff,
  0x04, 0x00, 0x00, 0x00, 0x20, 0x00, 0x00, 0x00, 0x55, 0xb7, 0x1a, 0xb3,
  0x18, 0xb5, 0x41, 0xb4, 0x24, 0xbc, 0x1c, 0xb9, 0x8b, 0xbc, 0x13, 0xb3,
  0x7f, 0xae, 0xc6, 0xa7, 0x3c, 0xad, 0x95, 0xb8, 0xaf, 0xba, 0xf4, 0xbb,
  0x20, 0xac, 0xbb, 0x22, 0xda, 0xfe, 0xff, 0xff, 0x04, 0x00, 0x00, 0x00,
  0x10, 0x00, 0x00, 0x00, 0x00, 0x00, 0x00, 0x00, 0x03, 0x00, 0x00, 0x00,
  0x01, 0x00, 0x00, 0x00, 0x02, 0x00, 0x00, 0x00, 0xf6, 0xfe, 0xff, 0xff,
  0x04, 0x00, 0x00, 0x00, 0x10, 0x00, 0x00, 0x00, 0x00, 0x00, 0x00, 0x00,
  0x02, 0x00, 0x00, 0x00, 0x03, 0x00, 0x00, 0x00, 0x01, 0x00, 0x00, 0x00,
  0x12, 0xff, 0xff, 0xff, 0x04, 0x00, 0x00, 0x00, 0x08, 0x00, 0x00, 0x00,
  0xff, 0xff, 0xff, 0xff, 0x40, 0x00, 0x00, 0x00, 0x4c, 0xe9, 0xff, 0xff,
  0x50, 0xe9, 0xff, 0xff, 0x0f, 0x00, 0x00, 0x00, 0x4d, 0x4c, 0x49, 0x52,
  0x20, 0x43, 0x6f, 0x6e, 0x76, 0x65, 0x72, 0x74, 0x65, 0x64, 0x2e, 0x00,
  0x01, 0x00, 0x00, 0x00, 0x14, 0x00, 0x00, 0x00, 0x00, 0x00, 0x0e, 0x00,
  0x18, 0x00, 0x14, 0x00, 0x10, 0x00, 0x0c, 0x00, 0x08, 0x00, 0x04, 0x00,
  0x0e, 0x00, 0x00, 0x00, 0x14, 0x00, 0x00, 0x00, 0x1c, 0x00, 0x00, 0x00,
  0x3c, 0x06, 0x00, 0x00, 0x40, 0x06, 0x00, 0x00, 0x44, 0x06, 0x00, 0x00,
  0x04, 0x00, 0x00, 0x00, 0x6d, 0x61, 0x69, 0x6e, 0x00, 0x00, 0x00, 0x00,
  0x19, 0x00, 0x00, 0x00, 0x04, 0x06, 0x00, 0x00, 0xd8, 0x05, 0x00, 0x00,
  0xb8, 0x05, 0x00, 0x00, 0x98, 0x05, 0x00, 0x00, 0x78, 0x05, 0x00, 0x00,
  0x58, 0x05, 0x00, 0x00, 0x38, 0x05, 0x00, 0x00, 0x18, 0x05, 0x00, 0x00,
  0xf8, 0x04, 0x00, 0x00, 0xd0, 0x04, 0x00, 0x00, 0x84, 0x04, 0x00, 0x00,
  0x20, 0x04, 0x00, 0x00, 0xf8, 0x03, 0x00, 0x00, 0xd4, 0x03, 0x00, 0x00,
  0x2c, 0x03, 0x00, 0x00, 0x34, 0x02, 0x00, 0x00, 0x0c, 0x02, 0x00, 0x00,
  0xbc, 0x01, 0x00, 0x00, 0x94, 0x01, 0x00, 0x00, 0x70, 0x01, 0x00, 0x00,
  0xc8, 0x00, 0x00, 0x00, 0xa0, 0x00, 0x00, 0x00, 0x78, 0x00, 0x00, 0x00,
  0x40, 0x00, 0x00, 0x00, 0x04, 0x00, 0x00, 0x00, 0xc6, 0xfb, 0xff, 0xff,
  0x1c, 0x00, 0x00, 0x00, 0x00, 0x00, 0x00, 0x09, 0x1c, 0x00, 0x00, 0x00,
  0x20, 0x00, 0x00, 0x00, 0x09, 0x00, 0x00, 0x00, 0x00, 0x00, 0x06, 0x00,
  0x08, 0x00, 0x04, 0x00, 0x06, 0x00, 0x00, 0x00, 0x00, 0x00, 0x80, 0x3f,
  0x01, 0x00, 0x00, 0x00, 0x25, 0x00, 0x00, 0x00, 0x01, 0x00, 0x00, 0x00,
  0x24, 0x00, 0x00, 0x00, 0xfe, 0xfb, 0xff, 0xff, 0x14, 0x00, 0x00, 0x00,
  0x00, 0x00, 0x00, 0x08, 0x10, 0x00, 0x00, 0x00, 0x14, 0x00, 0x00, 0x00,
  0x08, 0x00, 0x00, 0x00, 0x5c, 0xea, 0xff, 0xff, 0x01, 0x00, 0x00, 0x00,
  0x24, 0x00, 0x00, 0x00, 0x03, 0x00, 0x00, 0x00, 0x23, 0x00, 0x00, 0x00,
  0x15, 0x00, 0x00, 0x00, 0x14, 0x00, 0x00, 0x00, 0xe6, 0xfb, 0xff, 0xff,
  0x0c, 0x00, 0x00, 0x00, 0x10, 0x00, 0x00, 0x00, 0x07, 0x00, 0x00, 0x00,
  0x01, 0x00, 0x00, 0x00, 0x23, 0x00, 0x00, 0x00, 0x02, 0x00, 0x00, 0x00,
  0x22, 0x00, 0x00, 0x00, 0x01, 0x00, 0x00, 0x00, 0x0a, 0xfc, 0xff, 0xff,
  0x0c, 0x00, 0x00, 0x00, 0x10, 0x00, 0x00, 0x00, 0x01, 0x00, 0x00, 0x00,
  0x01, 0x00, 0x00, 0x00, 0x22, 0x00, 0x00, 0x00, 0x02, 0x00, 0x00, 0x00,
  0x21, 0x00, 0x00, 0x00, 0x02, 0x00, 0x00, 0x00, 0xc4, 0xfd, 0xff, 0xff,
  0x10, 0x00, 0x00, 0x00, 0x8c, 0x00, 0x00, 0x00, 0x90, 0x00, 0x00, 0x00,
  0x05, 0x00, 0x00, 0x00, 0x7c, 0x00, 0x00, 0x00, 0x07, 0x41, 0x76, 0x67,
  0x50, 0x6f, 0x6f, 0x6c, 0x00, 0x69, 0x12, 0x07, 0x41, 0x76, 0x67, 0x50,
  0x6f, 0x6f, 0x6c, 0x1a, 0x00, 0x2a, 0x07, 0x0a, 0x01, 0x54, 0x12, 0x02,
  0x30, 0x01, 0x2a, 0x12, 0x0a, 0x07, 0x70, 0x61, 0x64, 0x64, 0x69, 0x6e,
  0x67, 0x12, 0x07, 0x12, 0x05, 0x56, 0x41, 0x4c, 0x49, 0x44, 0x2a, 0x15,
  0x0a, 0x0b, 0x64, 0x61, 0x74, 0x61, 0x5f, 0x66, 0x6f, 0x72, 0x6d, 0x61,
  0x74, 0x12, 0x06, 0x12, 0x04, 0x4e, 0x43, 0x48, 0x57, 0x2a, 0x13, 0x0a,
  0x07, 0x73, 0x74, 0x72, 0x69, 0x64, 0x65, 0x73, 0x12, 0x08, 0x0a, 0x06,
  0x1a, 0x04, 0x01, 0x01, 0x01, 0x08, 0x2a, 0x11, 0x0a, 0x05, 0x6b, 0x73,
  0x69, 0x7a, 0x65, 0x12, 0x08, 0x0a, 0x06, 0x1a, 0x04, 0x01, 0x01, 0x01,
  0x08, 0x32, 0x00, 0x00, 0x02, 0x74, 0x6c, 0x14, 0x14, 0x04, 0x28, 0x01,
  0x01, 0x00, 0x00, 0x00, 0x21, 0x00, 0x00, 0x00, 0x01, 0x00, 0x00, 0x00,
  0x20, 0x00, 0x00, 0x00, 0xd2, 0xfc, 0xff, 0xff, 0x0c, 0x00, 0x00, 0x00,
  0x10, 0x00, 0x00, 0x00, 0x04, 0x00, 0x00, 0x00, 0x01, 0x00, 0x00, 0x00,
  0x20, 0x00, 0x00, 0x00, 0x01, 0x00, 0x00, 0x00, 0x1f, 0x00, 0x00, 0x00,
  0xf2, 0xfc, 0xff, 0xff, 0x0c, 0x00, 0x00, 0x00, 0x10, 0x00, 0x00, 0x00,
  0x01, 0x00, 0x00, 0x00, 0x01, 0x00, 0x00, 0x00, 0x1f, 0x00, 0x00, 0x00,
  0x02, 0x00, 0x00, 0x00, 0x1e, 0x00, 0x00, 0x00, 0x03, 0x00, 0x00, 0x00,
  0x62, 0xfd, 0xff, 0xff, 0x20, 0x00, 0x00, 0x00, 0x00, 0x00, 0x00, 0x01,
  0x28, 0x00, 0x00, 0x00, 0x2c, 0x00, 0x00, 0x00, 0x02, 0x00, 0x00, 0x00,
  0x00, 0x00, 0x0a, 0x00, 0x10, 0x00, 0x0f, 0x00, 0x08, 0x00, 0x04, 0x00,
  0x0a, 0x00, 0x00, 0x00, 0x01, 0x00, 0x00, 0x00, 0x01, 0x00, 0x00, 0x00,
  0x00, 0x00, 0x00, 0x01, 0x01, 0x00, 0x00, 0x00, 0x1e, 0x00, 0x00, 0x00,
  0x03, 0x00, 0x00, 0x00, 0x1d, 0x00, 0x00, 0x00, 0x12, 0x00, 0x00, 0x00,
  0x10, 0x00, 0x00, 0x00, 0x62, 0xfd, 0xff, 0xff, 0x0c, 0x00, 0x00, 0x00,
  0x10, 0x00, 0x00, 0x00, 0x01, 0x00, 0x00, 0x00, 0x01, 0x00, 0x00, 0x00,
  0x1d, 0x00, 0x00, 0x00, 0x02, 0x00, 0x00, 0x00, 0x1c, 0x00, 0x00, 0x00,
  0x02, 0x00, 0x00, 0x00, 0x1c, 0xff, 0xff, 0xff, 0x10, 0x00, 0x00, 0x00,
  0xc8, 0x00, 0x00, 0x00, 0xcc, 0x00, 0x00, 0x00, 0x06, 0x00, 0x00, 0x00,
  0xb6, 0x00, 0x00, 0x00, 0x15, 0x44, 0x65, 0x70, 0x74, 0x68, 0x77, 0x69,
  0x73, 0x65, 0x43, 0x6f, 0x6e, 0x76, 0x32, 0x64, 0x4e, 0x61, 0x74, 0x69,
  0x76, 0x65, 0x00, 0x95, 0x12, 0x15, 0x44, 0x65, 0x70, 0x74, 0x68, 0x77,
  0x69, 0x73, 0x65, 0x43, 0x6f, 0x6e, 0x76, 0x32, 0x64, 0x4e, 0x61, 0x74,
  0x69, 0x76, 0x65, 0x1a, 0x00, 0x1a, 0x00, 0x2a, 0x07, 0x0a, 0x01, 0x54,
  0x12, 0x02, 0x30, 0x01, 0x2a, 0x13, 0x0a, 0x07, 0x73, 0x74, 0x72, 0x69,
  0x64, 0x65, 0x73, 0x12, 0x08, 0x0a, 0x06, 0x1a, 0x04, 0x01, 0x01, 0x01,
  0x01, 0x2a, 0x15, 0x0a, 0x09, 0x64, 0x69, 0x6c, 0x61, 0x74, 0x69, 0x6f,
  0x6e, 0x73, 0x12, 0x08, 0x0a, 0x06, 0x1a, 0x04, 0x01, 0x01, 0x01, 0x01,
  0x2a, 0x15, 0x0a, 0x0b, 0x64, 0x61, 0x74, 0x61, 0x5f, 0x66, 0x6f, 0x72,
  0x6d, 0x61, 0x74, 0x12, 0x06, 0x12, 0x04, 0x4e, 0x43, 0x48, 0x57, 0x2a,
  0x11, 0x0a, 0x07, 0x70, 0x61, 0x64, 0x64, 0x69, 0x6e, 0x67, 0x12, 0x06,
  0x12, 0x04, 0x53, 0x41, 0x4d, 0x45, 0x2a, 0x17, 0x0a, 0x11, 0x65, 0x78,
  0x70, 0x6c, 0x69, 0x63, 0x69, 0x74, 0x5f, 0x70, 0x61, 0x64, 0x64, 0x69,
  0x6e, 0x67, 0x73, 0x12, 0x02, 0x0a, 0x00, 0x32, 0x00, 0x00, 0x02, 0xae,
  0x98, 0x14, 0x14, 0x04, 0x28, 0x01, 0x00, 0x00, 0x01, 0x00, 0x00, 0x00,
  0x1c, 0x00, 0x00, 0x00, 0x02, 0x00, 0x00, 0x00, 0x1b, 0x00, 0x00, 0x00,
  0x13, 0x00, 0x00, 0x00, 0x10, 0x00, 0x14, 0x00, 0x10, 0x00, 0x0c, 0x00,
  0x08, 0x00, 0x00, 0x00, 0x00, 0x00, 0x04, 0x00, 0x10, 0x00, 0x00, 0x00,
  0x10, 0x00, 0x00, 0x00, 0x8c, 0x00, 0x00, 0x00, 0x90, 0x00, 0x00, 0x00,
  0x05, 0x00, 0x00, 0x00, 0x7c, 0x00, 0x00, 0x00, 0x07, 0x41, 0x76, 0x67,
  0x50, 0x6f, 0x6f, 0x6c, 0x00, 0x69, 0x12, 0x07, 0x41, 0x76, 0x67, 0x50,
  0x6f, 0x6f, 0x6c, 0x1a, 0x00, 0x2a, 0x12, 0x0a, 0x07, 0x70, 0x61, 0x64,
  0x64, 0x69, 0x6e, 0x67, 0x12, 0x07, 0x12, 0x05, 0x56, 0x41, 0x4c, 0x49,
  0x44, 0x2a, 0x11, 0x0a, 0x05, 0x6b, 0x73, 0x69, 0x7a, 0x65, 0x12, 0x08,
  0x0a, 0x06, 0x1a, 0x04, 0x01, 0x01, 0x01, 0x04, 0x2a, 0x15, 0x0a, 0x0b,
  0x64, 0x61, 0x74, 0x61, 0x5f, 0x66, 0x6f, 0x72, 0x6d, 0x61, 0x74, 0x12,
  0x06, 0x12, 0x04, 0x4e, 0x43, 0x48, 0x57, 0x2a, 0x13, 0x0a, 0x07, 0x73,
  0x74, 0x72, 0x69, 0x64, 0x65, 0x73, 0x12, 0x08, 0x0a, 0x06, 0x1a, 0x04,
  0x01, 0x01, 0x01, 0x04, 0x2a, 0x07, 0x0a, 0x01, 0x54, 0x12, 0x02, 0x30,
  0x01, 0x32, 0x00, 0x00, 0x02, 0x74, 0x6c, 0x14, 0x14, 0x04, 0x28, 0x01,
  0x01, 0x00, 0x00, 0x00, 0x1b, 0x00, 0x00, 0x00, 0x01, 0x00, 0x00, 0x00,
  0x1a, 0x00, 0x00, 0x00, 0x1e, 0xff, 0xff, 0xff, 0x0c, 0x00, 0x00, 0x00,
  0x10, 0x00, 0x00, 0x00, 0x04, 0x00, 0x00, 0x00, 0x01, 0x00, 0x00, 0x00,
  0x1a, 0x00, 0x00, 0x00, 0x01, 0x00, 0x00, 0x00, 0x19, 0x00, 0x00, 0x00,
  0x3e, 0xff, 0xff, 0xff, 0x0c, 0x00, 0x00, 0x00, 0x10, 0x00, 0x00, 0x00,
  0x01, 0x00, 0x00, 0x00, 0x01, 0x00, 0x00, 0x00, 0x19, 0x00, 0x00, 0x00,
  0x02, 0x00, 0x00, 0x00, 0x18, 0x00, 0x00, 0x00, 0x03, 0x00, 0x00, 0x00,
  0xae, 0xff, 0xff, 0xff, 0x20, 0x00, 0x00, 0x00, 0x00, 0x00, 0x00, 0x02,
  0x2c, 0x00, 0x00, 0x00, 0x30, 0x00, 0x00, 0x00, 0x03, 0x00, 0x00, 0x00,
  0x0c, 0x00, 0x14, 0x00, 0x13, 0x00, 0x0c, 0x00, 0x08, 0x00, 0x04, 0x00,
  0x0c, 0x00, 0x00, 0x00, 0x02, 0x00, 0x00, 0x00, 0x01, 0x00, 0x00, 0x00,
  0x01, 0x00, 0x00, 0x00, 0x00, 0x00, 0x00, 0x01, 0x01, 0x00, 0x00, 0x00,
  0x18, 0x00, 0x00, 0x00, 0x03, 0x00, 0x00, 0x00, 0x17, 0x00, 0x00, 0x00,
  0x0f, 0x00, 0x00, 0x00, 0x0d, 0x00, 0x00, 0x00, 0x00, 0x00, 0x0e, 0x00,
  0x18, 0x00, 0x14, 0x00, 0x10, 0x00, 0x0c, 0x00, 0x0b, 0x00, 0x04, 0x00,
  0x0e, 0x00, 0x00, 0x00, 0x14, 0x00, 0x00, 0x00, 0x00, 0x00, 0x00, 0x01,
  0x18, 0x00, 0x00, 0x00, 0x1c, 0x00, 0x00, 0x00, 0x02, 0x00, 0x00, 0x00,
  0xca, 0xfe, 0xff, 0xff, 0x01, 0x00, 0x00, 0x00, 0x01, 0x00, 0x00, 0x00,
  0x01, 0x00, 0x00, 0x00, 0x17, 0x00, 0x00, 0x00, 0x03, 0x00, 0x00, 0x00,
  0x16, 0x00, 0x00, 0x00, 0x11, 0x00, 0x00, 0x00, 0x0e, 0x00, 0x00, 0x00,
  0x00, 0x00, 0x0a, 0x00, 0x10, 0x00, 0x0c, 0x00, 0x08, 0x00, 0x04, 0x00,
  0x0a, 0x00, 0x00, 0x00, 0x0c, 0x00, 0x00, 0x00, 0x10, 0x00, 0x00, 0x00,
  0x01, 0x00, 0x00, 0x00, 0x01, 0x00, 0x00, 0x00, 0x16, 0x00, 0x00, 0x00,
  0x02, 0x00, 0x00, 0x00, 0x00, 0x00, 0x00, 0x00, 0x02, 0x00, 0x00, 0x00,
  0x1e, 0xff, 0xff, 0xff, 0x08, 0x00, 0x00, 0x00, 0x0c, 0x00, 0x00, 0x00,
  0x01, 0x00, 0x00, 0x00, 0x15, 0x00, 0x00, 0x00, 0x01, 0x00, 0x00, 0x00,
  0x0c, 0x00, 0x00, 0x00, 0x3a, 0xff, 0xff, 0xff, 0x08, 0x00, 0x00, 0x00,
  0x0c, 0x00, 0x00, 0x00, 0x01, 0x00, 0x00, 0x00, 0x14, 0x00, 0x00, 0x00,
  0x01, 0x00, 0x00, 0x00, 0x0b, 0x00, 0x00, 0x00, 0x56, 0xff, 0xff, 0xff,
  0x08, 0x00, 0x00, 0x00, 0x0c, 0x00, 0x00, 0x00, 0x01, 0x00, 0x00, 0x00,
  0x13, 0x00, 0x00, 0x00, 0x01, 0x00, 0x00, 0x00, 0x0a, 0x00, 0x00, 0x00,
  0x72, 0xff, 0xff, 0xff, 0x08, 0x00, 0x00, 0x00, 0x0c, 0x00, 0x00, 0x00,
  0x01, 0x00, 0x00, 0x00, 0x12, 0x00, 0x00, 0x00, 0x01, 0x00, 0x00, 0x00,
  0x09, 0x00, 0x00, 0x00, 0x8e, 0xff, 0xff, 0xff, 0x08, 0x00, 0x00, 0x00,
  0x0c, 0x00, 0x00, 0x00, 0x01, 0x00, 0x00, 0x00, 0x11, 0x00, 0x00, 0x00,
  0x01, 0x00, 0x00, 0x00, 0x08, 0x00, 0x00, 0x00, 0xaa, 0xff, 0xff, 0xff,
  0x08, 0x00, 0x00, 0x00, 0x0c, 0x00, 0x00, 0x00, 0x01, 0x00, 0x00, 0x00,
  0x10, 0x00, 0x00, 0x00, 0x01, 0x00, 0x00, 0x00, 0x07, 0x00, 0x00, 0x00,
  0xc6, 0xff, 0xff, 0xff, 0x08, 0x00, 0x00, 0x00, 0x0c, 0x00, 0x00, 0x00,
  0x01, 0x00, 0x00, 0x00, 0x0f, 0x00, 0x00, 0x00, 0x01, 0x00, 0x00, 0x00,
  0x06, 0x00, 0x00, 0x00, 0xe2, 0xff, 0xff, 0xff, 0x08, 0x00, 0x00, 0x00,
  0x0c, 0x00, 0x00, 0x00, 0x01, 0x00, 0x00, 0x00, 0x0e, 0x00, 0x00, 0x00,
  0x01, 0x00, 0x00, 0x00, 0x05, 0x00, 0x00, 0x00, 0x00, 0x00, 0x0a, 0x00,
  0x0c, 0x00, 0x00, 0x00, 0x08, 0x00, 0x04, 0x00, 0x0a, 0x00, 0x00, 0x00,
  0x08, 0x00, 0x00, 0x00, 0x0c, 0x00, 0x00, 0x00, 0x01, 0x00, 0x00, 0x00,
  0x0d, 0x00, 0x00, 0x00, 0x01, 0x00, 0x00, 0x00, 0x04, 0x00, 0x00, 0x00,
  0x01, 0x00, 0x00, 0x00, 0x25, 0x00, 0x00, 0x00, 0x01, 0x00, 0x00, 0x00,
  0x00, 0x00, 0x00, 0x00, 0x26, 0x00, 0x00, 0x00, 0xf4, 0x0f, 0x00, 0x00,
  0x98, 0x0f, 0x00, 0x00, 0x28, 0x0f, 0x00, 0x00, 0xc8, 0x0e, 0x00, 0x00,
  0x68, 0x0e, 0x00, 0x00, 0x0c, 0x0e, 0x00, 0x00, 0x58, 0x0d, 0x00, 0x00,
  0xf8, 0x0c, 0x00, 0x00, 0xa8, 0x0c, 0x00, 0x00, 0x44, 0x0c, 0x00, 0x00,
  0xd0, 0x0b, 0x00, 0x00, 0x7c, 0x0b, 0x00, 0x00, 0x34, 0x0b, 0x00, 0x00,
  0xd8, 0x0a, 0x00, 0x00, 0x68, 0x0a, 0x00, 0x00, 0xb8, 0x09, 0x00, 0x00,
  0x5c, 0x09, 0x00, 0x00, 0x0c, 0x09, 0x00, 0x00, 0xa8, 0x08, 0x00, 0x00,
  0x38, 0x08, 0x00, 0x00, 0xe8, 0x07, 0x00, 0x00, 0xa4, 0x07, 0x00, 0x00,
  0x3c, 0x07, 0x00, 0x00, 0xac, 0x06, 0x00, 0x00, 0xe4, 0x05, 0x00, 0x00,
  0x64, 0x05, 0x00, 0x00, 0xfc, 0x04, 0x00, 0x00, 0x8c, 0x04, 0x00, 0x00,
  0x08, 0x04, 0x00, 0x00, 0x8c, 0x03, 0x00, 0x00, 0xe4, 0x02, 0x00, 0x00,
  0x64, 0x02, 0x00, 0x00, 0xfc, 0x01, 0x00, 0x00, 0x88, 0x01, 0x00, 0x00,
  0x20, 0x01, 0x00, 0x00, 0xc8, 0x00, 0x00, 0x00, 0x60, 0x00, 0x00, 0x00,
  0x04, 0x00, 0x00, 0x00, 0xba, 0xf0, 0xff, 0xff, 0x00, 0x00, 0x00, 0x01,
  0x14, 0x00, 0x00, 0x00, 0x1c, 0x00, 0x00, 0x00, 0x1c, 0x00, 0x00, 0x00,
  0x26, 0x00, 0x00, 0x00, 0x34, 0x00, 0x00, 0x00, 0x02, 0x00, 0x00, 0x00,
  0xff, 0xff, 0xff, 0xff, 0x04, 0x00, 0x00, 0x00, 0x9c, 0xf0, 0xff, 0xff,
  0x19, 0x00, 0x00, 0x00, 0x53, 0x74, 0x61, 0x74, 0x65, 0x66, 0x75, 0x6c,
  0x50, 0x61, 0x72, 0x74, 0x69, 0x74, 0x69, 0x6f, 0x6e, 0x65, 0x64, 0x43,
  0x61, 0x6c, 0x6c, 0x3a, 0x30, 0x00, 0x00, 0x00, 0x02, 0x00, 0x00, 0x00,
  0x01, 0x00, 0x00, 0x00, 0x04, 0x00, 0x00, 0x00, 0x12, 0xf1, 0xff, 0xff,
  0x00, 0x00, 0x00, 0x01, 0x14, 0x00, 0x00, 0x00, 0x1c, 0x00, 0x00, 0x00,
  0x1c, 0x00, 0x00, 0x00, 0x25, 0x00, 0x00, 0x00, 0x40, 0x00, 0x00, 0x00,
  0x02, 0x00, 0x00, 0x00, 0xff, 0xff, 0xff, 0xff, 0x04, 0x00, 0x00, 0x00,
  0xf4, 0xf0, 0xff, 0xff, 0x26, 0x00, 0x00, 0x00, 0x6d, 0x6f, 0x64, 0x65,
  0x6c, 0x2f, 0x64, 0x65, 0x6e, 0x73, 0x65, 0x2f, 0x4d, 0x61, 0x74, 0x4d,
  0x75, 0x6c, 0x3b, 0x6d, 0x6f, 0x64, 0x65, 0x6c, 0x2f, 0x64, 0x65, 0x6e,
  0x73, 0x65, 0x2f, 0x42, 0x69, 0x61, 0x73, 0x41, 0x64, 0x64, 0x00, 0x00,
  0x02, 0x00, 0x00, 0x00, 0x01, 0x00, 0x00, 0x00, 0x04, 0x00, 0x00, 0x00,
  0x76, 0xf1, 0xff, 0xff, 0x00, 0x00, 0x00, 0x01, 0x14, 0x00, 0x00, 0x00,
  0x1c, 0x00, 0x00, 0x00, 0x1c, 0x00, 0x00, 0x00, 0x24, 0x00, 0x00, 0x00,
  0x30, 0x00, 0x00, 0x00, 0x02, 0x00, 0x00, 0x00, 0xff, 0xff, 0xff, 0xff,
  0x40, 0x00, 0x00, 0x00, 0x58, 0xf1, 0xff, 0xff, 0x15, 0x00, 0x00, 0x00,
  0x6d, 0x6f, 0x64, 0x65, 0x6c, 0x2f, 0x66, 0x6c, 0x61, 0x74, 0x74, 0x65,
  0x6e, 0x2f, 0x52, 0x65, 0x73, 0x68, 0x61, 0x70, 0x65, 0x00, 0x00, 0x00,
  0x02, 0x00, 0x00, 0x00, 0x01, 0x00, 0x00, 0x00, 0x40, 0x00, 0x00, 0x00,
  0xca, 0xf1, 0xff, 0xff, 0x00, 0x00, 0x00, 0x01, 0x14, 0x00, 0x00, 0x00,
  0x24, 0x00, 0x00, 0x00, 0x24, 0x00, 0x00, 0x00, 0x23, 0x00, 0x00, 0x00,
  0x38, 0x00, 0x00, 0x00, 0x04, 0x00, 0x00, 0x00, 0xff, 0xff, 0xff, 0xff,
  0x01, 0x00, 0x00, 0x00, 0x04, 0x00, 0x00, 0x00, 0x10, 0x00, 0x00, 0x00,
  0xb4, 0xf1, 0xff, 0xff, 0x17, 0x00, 0x00, 0x00, 0x6d, 0x6f, 0x64, 0x65,
  0x6c, 0x2f, 0x66, 0x6c, 0x61, 0x74, 0x74, 0x65, 0x6e, 0x2f, 0x74, 0x72,
  0x61, 0x6e, 0x73, 0x70, 0x6f, 0x73, 0x65, 0x00, 0x04, 0x00, 0x00, 0x00,
  0x01, 0x00, 0x00, 0x00, 0x01, 0x00, 0x00, 0x00, 0x04, 0x00, 0x00, 0x00,
  0x10, 0x00, 0x00, 0x00, 0x2e, 0xf2, 0xff, 0xff, 0x00, 0x00, 0x00, 0x01,
  0x14, 0x00, 0x00, 0x00, 0x24, 0x00, 0x00, 0x00, 0x24, 0x00, 0x00, 0x00,
  0x22, 0x00, 0x00, 0x00, 0x44, 0x00, 0x00, 0x00, 0x04, 0x00, 0x00, 0x00,
  0xff, 0xff, 0xff, 0xff, 0x10, 0x00, 0x00, 0x00, 0x01, 0x00, 0x00, 0x00,
  0x04, 0x00, 0x00, 0x00, 0x18, 0xf2, 0xff, 0xff, 0x21, 0x00, 0x00, 0x00,
  0x6d, 0x6f, 0x64, 0x65, 0x6c, 0x2f, 0x61, 0x76, 0x65, 0x72, 0x61, 0x67,
  0x65, 0x5f, 0x70, 0x6f, 0x6f, 0x6c, 0x69, 0x6e, 0x67, 0x32, 0x64, 0x5f,
  0x31, 0x2f, 0x41, 0x76, 0x67, 0x50, 0x6f, 0x6f, 0x6c, 0x00, 0x00, 0x00,
  0x04, 0x00, 0x00, 0x00, 0x01, 0x00, 0x00, 0x00, 0x10, 0x00, 0x00, 0x00,
  0x01, 0x00, 0x00, 0x00, 0x04, 0x00, 0x00, 0x00, 0x9e, 0xf2, 0xff, 0xff,
  0x00, 0x00, 0x00, 0x01, 0x14, 0x00, 0x00, 0x00, 0x24, 0x00, 0x00, 0x00,
  0x24, 0x00, 0x00, 0x00, 0x21, 0x00, 0x00, 0x00, 0x38, 0x00, 0x00, 0x00,
  0x04, 0x00, 0x00, 0x00, 0xff, 0xff, 0xff, 0xff, 0x10, 0x00, 0x00, 0x00,
  0x01, 0x00, 0x00, 0x00, 0x25, 0x00, 0x00, 0x00, 0x88, 0xf2, 0xff, 0xff,
  0x16, 0x00, 0x00, 0x00, 0x6d, 0x6f, 0x64, 0x65, 0x6c, 0x2f, 0x61, 0x63,
  0x74, 0x69, 0x76, 0x61, 0x74, 0x69, 0x6f, 0x6e, 0x5f, 0x31, 0x2f, 0x45,
  0x6c, 0x75, 0x00, 0x00, 0x04, 0x00, 0x00, 0x00, 0x01, 0x00, 0x00, 0x00,
  0x10, 0x00, 0x00, 0x00, 0x01, 0x00, 0x00, 0x00, 0x25, 0x00, 0x00, 0x00,
  0x02, 0xf3, 0xff, 0xff, 0x00, 0x00, 0x00, 0x01, 0x14, 0x00, 0x00, 0x00,
  0x24, 0x00, 0x00, 0x00, 0x24, 0x00, 0x00, 0x00, 0x20, 0x00, 0x00, 0x00,
  0x50, 0x00, 0x00, 0x00, 0x04, 0x00, 0x00, 0x00, 0xff, 0xff, 0xff, 0xff,
  0x10, 0x00, 0x00, 0x00, 0x01, 0x00, 0x00, 0x00, 0x25, 0x00, 0x00, 0x00,
  0xec, 0xf2, 0xff, 0xff, 0x2d, 0x00, 0x00, 0x00, 0x6d, 0x6f, 0x64, 0x65,
  0x6c, 0x2f, 0x62, 0x61, 0x74, 0x63, 0x68, 0x5f, 0x6e, 0x6f, 0x72, 0x6d,
  0x61, 0x6c, 0x69, 0x7a, 0x61, 0x74, 0x69, 0x6f, 0x6e, 0x5f, 0x32, 0x2f,
  0x46, 0x75, 0x73, 0x65, 0x64, 0x42, 0x61, 0x74, 0x63, 0x68, 0x4e, 0x6f,
  0x72, 0x6d, 0x56, 0x33, 0x32, 0x00, 0x00, 0x00, 0x04, 0x00, 0x00, 0x00,
  0x01, 0x00, 0x00, 0x00, 0x10, 0x00, 0x00, 0x00, 0x01, 0x00, 0x00, 0x00,
  0x25, 0x00, 0x00, 0x00, 0x7e, 0xf3, 0xff, 0xff, 0x00, 0x00, 0x00, 0x01,
  0x14, 0x00, 0x00, 0x00, 0x24, 0x00, 0x00, 0x00, 0x24, 0x00, 0x00, 0x00,
  0x1f, 0x00, 0x00, 0x00, 0x78, 0x00, 0x00, 0x00, 0x04, 0x00, 0x00, 0x00,
  0xff, 0xff, 0xff, 0xff, 0x01, 0x00, 0x00, 0x00, 0x25, 0x00, 0x00, 0x00,
  0x10, 0x00, 0x00, 0x00, 0x68, 0xf3, 0xff, 0xff, 0x54, 0x00, 0x00, 0x00,
  0x6d, 0x6f, 0x64, 0x65, 0x6c, 0x2f, 0x62, 0x61, 0x74, 0x63, 0x68, 0x5f,
  0x6e, 0x6f, 0x72, 0x6d, 0x61, 0x6c, 0x69, 0x7a, 0x61, 0x74, 0x69, 0x6f,
  0x6e, 0x5f, 0x32, 0x2f, 0x46, 0x75, 0x73, 0x65, 0x64, 0x42, 0x61, 0x74,
  0x63, 0x68, 0x4e, 0x6f, 0x72, 0x6d, 0x56, 0x33, 0x3b, 0x6d, 0x6f, 0x64,
  0x65, 0x6c, 0x2f, 0x73, 0x65, 0x70, 0x61, 0x72, 0x61, 0x62, 0x6c, 0x65,
  0x5f, 0x63, 0x6f, 0x6e, 0x76, 0x32, 0x64, 0x2f, 0x73, 0x65, 0x70, 0x61,
  0x72, 0x61, 0x62, 0x6c, 0x65, 0x5f, 0x63, 0x6f, 0x6e, 0x76, 0x32, 0x64,
  0x00, 0x00, 0x00, 0x00, 0x04, 0x00, 0x00, 0x00, 0x01, 0x00, 0x00, 0x00,
  0x01, 0x00, 0x00, 0x00, 0x25, 0x00, 0x00, 0x00, 0x10, 0x00, 0x00, 0x00,
  0x22, 0xf4, 0xff, 0xff, 0x00, 0x00, 0x00, 0x01, 0x14, 0x00, 0x00, 0x00,
  0x24, 0x00, 0x00, 0x00, 0x24, 0x00, 0x00, 0x00, 0x1e, 0x00, 0x00, 0x00,
  0x4c, 0x00, 0x00, 0x00, 0x04, 0x00, 0x00, 0x00, 0xff, 0xff, 0xff, 0xff,
  0x01, 0x00, 0x00, 0x00, 0x25, 0x00, 0x00, 0x00, 0x10, 0x00, 0x00, 0x00,
  0x0c, 0xf4, 0xff, 0xff, 0x28, 0x00, 0x00, 0x00, 0x6d, 0x6f, 0x64, 0x65,
  0x6c, 0x2f, 0x73, 0x65, 0x70, 0x61, 0x72, 0x61, 0x62, 0x6c, 0x65, 0x5f,
  0x63, 0x6f, 0x6e, 0x76, 0x32, 0x64, 0x2f, 0x73, 0x65, 0x70, 0x61, 0x72,
  0x61, 0x62, 0x6c, 0x65, 0x5f, 0x63, 0x6f, 0x6e, 0x76, 0x32, 0x64, 0x32,
  0x00, 0x00, 0x00, 0x00, 0x04, 0x00, 0x00, 0x00, 0x01, 0x00, 0x00, 0x00,
  0x01, 0x00, 0x00, 0x00, 0x25, 0x00, 0x00, 0x00, 0x10, 0x00, 0x00, 0x00,
  0x9a, 0xf4, 0xff, 0xff, 0x00, 0x00, 0x00, 0x01, 0x14, 0x00, 0x00, 0x00,
  0x24, 0x00, 0x00, 0x00, 0x24, 0x00, 0x00, 0x00, 0x1d, 0x00, 0x00, 0x00,
  0x54, 0x00, 0x00, 0x00, 0x04, 0x00, 0x00, 0x00, 0xff, 0xff, 0xff, 0xff,
  0x10, 0x00, 0x00, 0x00, 0x01, 0x00, 0x00, 0x00, 0x25, 0x00, 0x00, 0x00,
  0x84, 0xf4, 0xff, 0xff, 0x31, 0x00, 0x00, 0x00, 0x6d, 0x6f, 0x64, 0x65,
  0x6c, 0x2f, 0x73, 0x65, 0x70, 0x61, 0x72, 0x61, 0x62, 0x6c, 0x65, 0x5f,
  0x63, 0x6f, 0x6e, 0x76, 0x32, 0x64, 0x2f, 0x73, 0x65, 0x70, 0x61, 0x72,
  0x61, 0x62, 0x6c, 0x65, 0x5f, 0x63, 0x6f, 0x6e, 0x76, 0x32, 0x64, 0x2f,
  0x64, 0x65, 0x70, 0x74, 0x68, 0x77, 0x69, 0x73, 0x65, 0x00, 0x00, 0x00,
  0x04, 0x00, 0x00, 0x00, 0x01, 0x00, 0x00, 0x00, 0x10, 0x00, 0x00, 0x00,
  0x01, 0x00, 0x00, 0x00, 0x25, 0x00, 0x00, 0x00, 0x1a, 0xf5, 0xff, 0xff,
  0x00, 0x00, 0x00, 0x01, 0x14, 0x00, 0x00, 0x00, 0x24, 0x00, 0x00, 0x00,
  0x24, 0x00, 0x00, 0x00, 0x1c, 0x00, 0x00, 0x00, 0x40, 0x00, 0x00, 0x00,
  0x04, 0x00, 0x00, 0x00, 0xff, 0xff, 0xff, 0xff, 0x10, 0x00, 0x00, 0x00,
  0x01, 0x00, 0x00, 0x00, 0x25, 0x00, 0x00, 0x00, 0x04, 0xf5, 0xff, 0xff,
  0x1f, 0x00, 0x00, 0x00, 0x6d, 0x6f, 0x64, 0x65, 0x6c, 0x2f, 0x61, 0x76,
  0x65, 0x72, 0x61, 0x67, 0x65, 0x5f, 0x70, 0x6f, 0x6f, 0x6c, 0x69, 0x6e,
  0x67, 0x32, 0x64, 0x2f, 0x41, 0x76, 0x67, 0x50, 0x6f, 0x6f, 0x6c, 0x00,
  0x04, 0x00, 0x00, 0x00, 0x01, 0x00, 0x00, 0x00, 0x10, 0x00, 0x00, 0x00,
  0x01, 0x00, 0x00, 0x00, 0x25, 0x00, 0x00, 0x00, 0x86, 0xf5, 0xff, 0xff,
  0x00, 0x00, 0x00, 0x01, 0x14, 0x00, 0x00, 0x00, 0x24, 0x00, 0x00, 0x00,
  0x24, 0x00, 0x00, 0x00, 0x1b, 0x00, 0x00, 0x00, 0x38, 0x00, 0x00, 0x00,
  0x04, 0x00, 0x00, 0x00, 0xff, 0xff, 0xff, 0xff, 0x10, 0x00, 0x00, 0x00,
  0x01, 0x00, 0x00, 0x00, 0x97, 0x00, 0x00, 0x00, 0x70, 0xf5, 0xff, 0xff,
  0x14, 0x00, 0x00, 0x00, 0x6d, 0x6f, 0x64, 0x65, 0x6c, 0x2f, 0x61, 0x63,
  0x74, 0x69, 0x76, 0x61, 0x74, 0x69, 0x6f, 0x6e, 0x2f, 0x45, 0x6c, 0x75,
  0x00, 0x00, 0x00, 0x00, 0x04, 0x00, 0x00, 0x00, 0x01, 0x00, 0x00, 0x00,
  0x10, 0x00, 0x00, 0x00, 0x01, 0x00, 0x00, 0x00, 0x97, 0x00, 0x00, 0x00,
  0xea, 0xf5, 0xff, 0xff, 0x00, 0x00, 0x00, 0x01, 0x14, 0x00, 0x00, 0x00,
  0x24, 0x00, 0x00, 0x00, 0x24, 0x00, 0x00, 0x00, 0x1a, 0x00, 0x00, 0x00,
  0x50, 0x00, 0x00, 0x00, 0x04, 0x00, 0x00, 0x00, 0xff, 0xff, 0xff, 0xff,
  0x10, 0x00, 0x00, 0x00, 0x01, 0x00, 0x00, 0x00, 0x97, 0x00, 0x00, 0x00,
  0xd4, 0xf5, 0xff, 0xff, 0x2d, 0x00, 0x00, 0x00, 0x6d, 0x6f, 0x64, 0x65,
  0x6c, 0x2f, 0x62, 0x61, 0x74, 0x63, 0x68, 0x5f, 0x6e, 0x6f, 0x72, 0x6d,
  0x61, 0x6c, 0x69, 0x7a, 0x61, 0x74, 0x69, 0x6f, 0x6e, 0x5f, 0x31, 0x2f,
  0x46, 0x75, 0x73, 0x65, 0x64, 0x42, 0x61, 0x74, 0x63, 0x68, 0x4e, 0x6f,
  0x72, 0x6d, 0x56, 0x33, 0x33, 0x00, 0x00, 0x00, 0x04, 0x00, 0x00, 0x00,
  0x01, 0x00, 0x00, 0x00, 0x10, 0x00, 0x00, 0x00, 0x01, 0x00, 0x00, 0x00,
  0x97, 0x00, 0x00, 0x00, 0x66, 0xf6, 0xff, 0xff, 0x00, 0x00, 0x00, 0x01,
  0x14, 0x00, 0x00, 0x00, 0x24, 0x00, 0x00, 0x00, 0x24, 0x00, 0x00, 0x00,
  0x19, 0x00, 0x00, 0x00, 0x98, 0x00, 0x00, 0x00, 0x04, 0x00, 0x00, 0x00,
  0xff, 0xff, 0xff, 0xff, 0x01, 0x00, 0x00, 0x00, 0x97, 0x00, 0x00, 0x00,
  0x10, 0x00, 0x00, 0x00, 0x50, 0xf6, 0xff, 0xff, 0x75, 0x00, 0x00, 0x00,
  0x6d, 0x6f, 0x64, 0x65, 0x6c, 0x2f, 0x62, 0x61, 0x74, 0x63, 0x68, 0x5f,
  0x6e, 0x6f, 0x72, 0x6d, 0x61, 0x6c, 0x69, 0x7a, 0x61, 0x74, 0x69, 0x6f,
  0x6e, 0x5f, 0x31, 0x2f, 0x46, 0x75, 0x73, 0x65, 0x64, 0x42, 0x61, 0x74,
  0x63, 0x68, 0x4e, 0x6f, 0x72, 0x6d, 0x56, 0x33, 0x3b, 0x6d, 0x6f, 0x64,
  0x65, 0x6c, 0x2f, 0x73, 0x65, 0x70, 0x61, 0x72, 0x61, 0x62, 0x6c, 0x65,
  0x5f, 0x63, 0x6f, 0x6e, 0x76, 0x32, 0x64, 0x2f, 0x73, 0x65, 0x70, 0x61,
  0x72, 0x61, 0x62, 0x6c, 0x65, 0x5f, 0x63, 0x6f, 0x6e, 0x76, 0x32, 0x64,
  0x3b, 0x6d, 0x6f, 0x64, 0x65, 0x6c, 0x2f, 0x64, 0x65, 0x70, 0x74, 0x68,
  0x77, 0x69, 0x73, 0x65, 0x5f, 0x63, 0x6f, 0x6e, 0x76, 0x32, 0x64, 0x2f,
  0x64, 0x65, 0x70, 0x74, 0x68, 0x77, 0x69, 0x73, 0x65, 0x00, 0x00, 0x00,
  0x04, 0x00, 0x00, 0x00, 0x01, 0x00, 0x00, 0x00, 0x01, 0x00, 0x00, 0x00,
  0x97, 0x00, 0x00, 0x00, 0x10, 0x00, 0x00, 0x00, 0x2a, 0xf7, 0xff, 0xff,
  0x00, 0x00, 0x00, 0x01, 0x14, 0x00, 0x00, 0x00, 0x24, 0x00, 0x00, 0x00,
  0x24, 0x00, 0x00, 0x00, 0x18, 0x00, 0x00, 0x00, 0x60, 0x00, 0x00, 0x00,
  0x04, 0x00, 0x00, 0x00, 0xff, 0xff, 0xff, 0xff, 0x3c, 0x00, 0x00, 0x00,
  0x97, 0x00, 0x00, 0x00, 0x08, 0x00, 0x00, 0x00, 0x14, 0xf7, 0xff, 0xff,
  0x3e, 0x00, 0x00, 0x00, 0x6d, 0x6f, 0x64, 0x65, 0x6c, 0x2f, 0x62, 0x61,
  0x74, 0x63, 0x68, 0x5f, 0x6e, 0x6f, 0x72, 0x6d, 0x61, 0x6c, 0x69, 0x7a,
  0x61, 0x74, 0x69, 0x6f, 0x6e, 0x2f, 0x46, 0x75, 0x73, 0x65, 0x64, 0x42,
  0x61, 0x74, 0x63, 0x68, 0x4e, 0x6f, 0x72, 0x6d, 0x56, 0x33, 0x3b, 0x6d,
  0x6f, 0x64, 0x65, 0x6c, 0x2f, 0x63, 0x6f, 0x6e, 0x76, 0x32, 0x64, 0x2f,
  0x43, 0x6f, 0x6e, 0x76, 0x32, 0x44, 0x00, 0x00, 0x04, 0x00, 0x00, 0x00,
  0x01, 0x00, 0x00, 0x00, 0x3c, 0x00, 0x00, 0x00, 0x97, 0x00, 0x00, 0x00,
  0x08, 0x00, 0x00, 0x00, 0xb6, 0xf7, 0xff, 0xff, 0x00, 0x00, 0x00, 0x01,
  0x14, 0x00, 0x00, 0x00, 0x24, 0x00, 0x00, 0x00, 0x24, 0x00, 0x00, 0x00,
  0x17, 0x00, 0x00, 0x00, 0x38, 0x00, 0x00, 0x00, 0x04, 0x00, 0x00, 0x00,
  0xff, 0xff, 0xff, 0xff, 0x3c, 0x00, 0x00, 0x00, 0x97, 0x00, 0x00, 0x00,
  0x01, 0x00, 0x00, 0x00, 0xa0, 0xf7, 0xff, 0xff, 0x14, 0x00, 0x00, 0x00,
  0x6d, 0x6f, 0x64, 0x65, 0x6c, 0x2f, 0x63, 0x6f, 0x6e, 0x76, 0x32, 0x64,
  0x2f, 0x43, 0x6f, 0x6e, 0x76, 0x32, 0x44, 0x32, 0x00, 0x00, 0x00, 0x00,
  0x04, 0x00, 0x00, 0x00, 0x01, 0x00, 0x00, 0x00, 0x3c, 0x00, 0x00, 0x00,
  0x97, 0x00, 0x00, 0x00, 0x01, 0x00, 0x00, 0x00, 0x02, 0xfd, 0xff, 0xff,
  0x00, 0x00, 0x00, 0x01, 0x10, 0x00, 0x00, 0x00, 0x10, 0x00, 0x00, 0x00,
  0x16, 0x00, 0x00, 0x00, 0x20, 0x00, 0x00, 0x00, 0xec, 0xf7, 0xff, 0xff,
  0x13, 0x00, 0x00, 0x00, 0x6d, 0x6f, 0x64, 0x65, 0x6c, 0x2f, 0x64, 0x65,
  0x6e, 0x73, 0x65, 0x2f, 0x4d, 0x61, 0x74, 0x4d, 0x75, 0x6c, 0x31, 0x00,
  0x02, 0x00, 0x00, 0x00, 0x04, 0x00, 0x00, 0x00, 0x40, 0x00, 0x00, 0x00,
  0x42, 0xfd, 0xff, 0xff, 0x00, 0x00, 0x00, 0x01, 0x10, 0x00, 0x00, 0x00,
  0x10, 0x00, 0x00, 0x00, 0x15, 0x00, 0x00, 0x00, 0x30, 0x00, 0x00, 0x00,
  0x2c, 0xf8, 0xff, 0xff, 0x23, 0x00, 0x00, 0x00, 0x6d, 0x6f, 0x64, 0x65,
  0x6c, 0x2f, 0x64, 0x65, 0x6e, 0x73, 0x65, 0x2f, 0x42, 0x69, 0x61, 0x73,
  0x41, 0x64, 0x64, 0x2f, 0x52, 0x65, 0x61, 0x64, 0x56, 0x61, 0x72, 0x69,
  0x61, 0x62, 0x6c, 0x65, 0x4f, 0x70, 0x31, 0x00, 0x01, 0x00, 0x00, 0x00,
  0x04, 0x00, 0x00, 0x00, 0x8e, 0xfd, 0xff, 0xff, 0x00, 0x00, 0x00, 0x01,
  0x10, 0x00, 0x00, 0x00, 0x10, 0x00, 0x00, 0x00, 0x14, 0x00, 0x00, 0x00,
  0x44, 0x00, 0x00, 0x00, 0x78, 0xf8, 0xff, 0xff, 0x37, 0x00, 0x00, 0x00,
  0x6d, 0x6f, 0x64, 0x65, 0x6c, 0x2f, 0x73, 0x65, 0x70, 0x61, 0x72, 0x61,
  0x62, 0x6c, 0x65, 0x5f, 0x63, 0x6f, 0x6e, 0x76, 0x32, 0x64, 0x2f, 0x73,
  0x65, 0x70, 0x61, 0x72, 0x61, 0x62, 0x6c, 0x65, 0x5f, 0x63, 0x6f, 0x6e,
  0x76, 0x32, 0x64, 0x2f, 0x52, 0x65, 0x61, 0x64, 0x56, 0x61, 0x72, 0x69,
  0x61, 0x62, 0x6c, 0x65, 0x4f, 0x70, 0x31, 0x00, 0x04, 0x00, 0x00, 0x00,
  0x01, 0x00, 0x00, 0x00, 0x10, 0x00, 0x00, 0x00, 0x10, 0x00, 0x00, 0x00,
  0x01, 0x00, 0x00, 0x00, 0xfa, 0xfd, 0xff, 0xff, 0x00, 0x00, 0x00, 0x01,
  0x10, 0x00, 0x00, 0x00, 0x10, 0x00, 0x00, 0x00, 0x13, 0x00, 0x00, 0x00,
  0x38, 0x00, 0x00, 0x00, 0xe4, 0xf8, 0xff, 0xff, 0x28, 0x00, 0x00, 0x00,
  0x6d, 0x6f, 0x64, 0x65, 0x6c, 0x2f, 0x73, 0x65, 0x70, 0x61, 0x72, 0x61,
  0x62, 0x6c, 0x65, 0x5f, 0x63, 0x6f, 0x6e, 0x76, 0x32, 0x64, 0x2f, 0x73,
  0x65, 0x70, 0x61, 0x72, 0x61, 0x62, 0x6c, 0x65, 0x5f, 0x63, 0x6f, 0x6e,
  0x76, 0x32, 0x64, 0x31, 0x00, 0x00, 0x00, 0x00, 0x04, 0x00, 0x00, 0x00,
  0x10, 0x00, 0x00, 0x00, 0x01, 0x00, 0x00, 0x00, 0x01, 0x00, 0x00, 0x00,
  0x10, 0x00, 0x00, 0x00, 0x5a, 0xfe, 0xff, 0xff, 0x00, 0x00, 0x00, 0x01,
  0x10, 0x00, 0x00, 0x00, 0x10, 0x00, 0x00, 0x00, 0x12, 0x00, 0x00, 0x00,
  0x24, 0x00, 0x00, 0x00, 0x44, 0xf9, 0xff, 0xff, 0x14, 0x00, 0x00, 0x00,
  0x6d, 0x6f, 0x64, 0x65, 0x6c, 0x2f, 0x63, 0x6f, 0x6e, 0x76, 0x32, 0x64,
  0x2f, 0x43, 0x6f, 0x6e, 0x76, 0x32, 0x44, 0x31, 0x00, 0x00, 0x00, 0x00,
  0x04, 0x00, 0x00, 0x00, 0x08, 0x00, 0x00, 0x00, 0x01, 0x00, 0x00, 0x00,
  0x20, 0x00, 0x00, 0x00, 0x01, 0x00, 0x00, 0x00, 0xa6, 0xfe, 0xff, 0xff,
  0x00, 0x00, 0x00, 0x01, 0x10, 0x00, 0x00, 0x00, 0x10, 0x00, 0x00, 0x00,
  0x11, 0x00, 0x00, 0x00, 0x3c, 0x00, 0x00, 0x00, 0x90, 0xf9, 0xff, 0xff,
  0x2d, 0x00, 0x00, 0x00, 0x6d, 0x6f, 0x64, 0x65, 0x6c, 0x2f, 0x62, 0x61,
  0x74, 0x63, 0x68, 0x5f, 0x6e, 0x6f, 0x72, 0x6d, 0x61, 0x6c, 0x69, 0x7a,
  0x61, 0x74, 0x69, 0x6f, 0x6e, 0x5f, 0x32, 0x2f, 0x46, 0x75, 0x73, 0x65,
  0x64, 0x42, 0x61, 0x74, 0x63, 0x68, 0x4e, 0x6f, 0x72, 0x6d, 0x56, 0x33,
  0x31, 0x00, 0x00, 0x00, 0x01, 0x00, 0x00, 0x00, 0x10, 0x00, 0x00, 0x00,
  0xfe, 0xfe, 0xff, 0xff, 0x00, 0x00, 0x00, 0x01, 0x10, 0x00, 0x00, 0x00,
  0x10, 0x00, 0x00, 0x00, 0x10, 0x00, 0x00, 0x00, 0x84, 0x00, 0x00, 0x00,
  0xe8, 0xf9, 0xff, 0xff, 0x76, 0x00, 0x00, 0x00, 0x6d, 0x6f, 0x64, 0x65,
  0x6c, 0x2f, 0x62, 0x61, 0x74, 0x63, 0x68, 0x5f, 0x6e, 0x6f, 0x72, 0x6d,
  0x61, 0x6c, 0x69, 0x7a, 0x61, 0x74, 0x69, 0x6f, 0x6e, 0x5f, 0x31, 0x2f,
  0x46, 0x75, 0x73, 0x65, 0x64, 0x42, 0x61, 0x74, 0x63, 0x68, 0x4e, 0x6f,
  0x72, 0x6d, 0x56, 0x33, 0x3b, 0x6d, 0x6f, 0x64, 0x65, 0x6c, 0x2f, 0x64,
  0x65, 0x70, 0x74, 0x68, 0x77, 0x69, 0x73, 0x65, 0x5f, 0x63, 0x6f, 0x6e,
  0x76, 0x32, 0x64, 0x2f, 0x64, 0x65, 0x70, 0x74, 0x68, 0x77, 0x69, 0x73,
  0x65, 0x3b, 0x6d, 0x6f, 0x64, 0x65, 0x6c, 0x2f, 0x73, 0x65, 0x70, 0x61,
  0x72, 0x61, 0x62, 0x6c, 0x65, 0x5f, 0x63, 0x6f, 0x6e, 0x76, 0x32, 0x64,
  0x2f, 0x73, 0x65, 0x70, 0x61, 0x72, 0x61, 0x62, 0x6c, 0x65, 0x5f, 0x63,
  0x6f, 0x6e, 0x76, 0x32, 0x64, 0x31, 0x00, 0x00, 0x04, 0x00, 0x00, 0x00,
  0x01, 0x00, 0x00, 0x00, 0x3c, 0x00, 0x00, 0x00, 0x01, 0x00, 0x00, 0x00,
  0x10, 0x00, 0x00, 0x00, 0xaa, 0xff, 0xff, 0xff, 0x00, 0x00, 0x00, 0x01,
  0x10, 0x00, 0x00, 0x00, 0x10, 0x00, 0x00, 0x00, 0x0f, 0x00, 0x00, 0x00,
  0x38, 0x00, 0x00, 0x00, 0x94, 0xfa, 0xff, 0xff, 0x2b, 0x00, 0x00, 0x00,
  0x6d, 0x6f, 0x64, 0x65, 0x6c, 0x2f, 0x62, 0x61, 0x74, 0x63, 0x68, 0x5f,
  0x6e, 0x6f, 0x72, 0x6d, 0x61, 0x6c, 0x69, 0x7a, 0x61, 0x74, 0x69, 0x6f,
  0x6e, 0x2f, 0x46, 0x75, 0x73, 0x65, 0x64, 0x42, 0x61, 0x74, 0x63, 0x68,
  0x4e, 0x6f, 0x72, 0x6d, 0x56, 0x33, 0x31, 0x00, 0x01, 0x00, 0x00, 0x00,
  0x08, 0x00, 0x00, 0x00, 0x00, 0x00, 0x16, 0x00, 0x18, 0x00, 0x14, 0x00,
  0x00, 0x00, 0x10, 0x00, 0x0c, 0x00, 0x08, 0x00, 0x00, 0x00, 0x00, 0x00,
  0x00, 0x00, 0x07, 0x00, 0x16, 0x00, 0x00, 0x00, 0x00, 0x00, 0x00, 0x01,
  0x10, 0x00, 0x00, 0x00, 0x10, 0x00, 0x00, 0x00, 0x0e, 0x00, 0x00, 0x00,
  0x3c, 0x00, 0x00, 0x00, 0x00, 0xfb, 0xff, 0xff, 0x2d, 0x00, 0x00, 0x00,
  0x6d, 0x6f, 0x64, 0x65, 0x6c, 0x2f, 0x62, 0x61, 0x74, 0x63, 0x68, 0x5f,
  0x6e, 0x6f, 0x72, 0x6d, 0x61, 0x6c, 0x69, 0x7a, 0x61, 0x74, 0x69, 0x6f,
  0x6e, 0x5f, 0x31, 0x2f, 0x46, 0x75, 0x73, 0x65, 0x64, 0x42, 0x61, 0x74,
  0x63, 0x68, 0x4e, 0x6f, 0x72, 0x6d, 0x56, 0x33, 0x32, 0x00, 0x00, 0x00,
  0x01, 0x00, 0x00, 0x00, 0x10, 0x00, 0x00, 0x00, 0xde, 0xfb, 0xff, 0xff,
  0x00, 0x00, 0x00, 0x01, 0x14, 0x00, 0x00, 0x00, 0x14, 0x00, 0x00, 0x00,
  0x0d, 0x00, 0x00, 0x00, 0x00, 0x00, 0x00, 0x01, 0x20, 0x00, 0x00, 0x00,
  0x5c, 0xfb, 0xff, 0xff, 0x12, 0x00, 0x00, 0x00, 0x6d, 0x6f, 0x64, 0x65,
  0x6c, 0x2f, 0x64, 0x65, 0x6e, 0x73, 0x65, 0x2f, 0x4d, 0x61, 0x74, 0x4d,
  0x75, 0x6c, 0x00, 0x00, 0x02, 0x00, 0x00, 0x00, 0x04, 0x00, 0x00, 0x00,
  0x40, 0x00, 0x00, 0x00, 0x22, 0xfc, 0xff, 0xff, 0x00, 0x00, 0x00, 0x01,
  0x14, 0x00, 0x00, 0x00, 0x14, 0x00, 0x00, 0x00, 0x0c, 0x00, 0x00, 0x00,
  0x00, 0x00, 0x00, 0x01, 0x30, 0x00, 0x00, 0x00, 0xa0, 0xfb, 0xff, 0xff,
  0x22, 0x00, 0x00, 0x00, 0x6d, 0x6f, 0x64, 0x65, 0x6c, 0x2f, 0x64, 0x65,
  0x6e, 0x73, 0x65, 0x2f, 0x42, 0x69, 0x61, 0x73, 0x41, 0x64, 0x64, 0x2f,
  0x52, 0x65, 0x61, 0x64, 0x56, 0x61, 0x72, 0x69, 0x61, 0x62, 0x6c, 0x65,
  0x4f, 0x70, 0x00, 0x00, 0x01, 0x00, 0x00, 0x00, 0x04, 0x00, 0x00, 0x00,
  0x72, 0xfc, 0xff, 0xff, 0x00, 0x00, 0x00, 0x01, 0x14, 0x00, 0x00, 0x00,
  0x14, 0x00, 0x00, 0x00, 0x0b, 0x00, 0x00, 0x00, 0x00, 0x00, 0x00, 0x01,
  0x44, 0x00, 0x00, 0x00, 0xf0, 0xfb, 0xff, 0xff, 0x36, 0x00, 0x00, 0x00,
  0x6d, 0x6f, 0x64, 0x65, 0x6c, 0x2f, 0x73, 0x65, 0x70, 0x61, 0x72, 0x61,
  0x62, 0x6c, 0x65, 0x5f, 0x63, 0x6f, 0x6e, 0x76, 0x32, 0x64, 0x2f, 0x73,
  0x65, 0x70, 0x61, 0x72, 0x61, 0x62, 0x6c, 0x65, 0x5f, 0x63, 0x6f, 0x6e,
  0x76, 0x32, 0x64, 0x2f, 0x52, 0x65, 0x61, 0x64, 0x56, 0x61, 0x72, 0x69,
  0x61, 0x62, 0x6c, 0x65, 0x4f, 0x70, 0x00, 0x00, 0x04, 0x00, 0x00, 0x00,
  0x01, 0x00, 0x00, 0x00, 0x10, 0x00, 0x00, 0x00, 0x10, 0x00, 0x00, 0x00,
  0x01, 0x00, 0x00, 0x00, 0xe2, 0xfc, 0xff, 0xff, 0x00, 0x00, 0x00, 0x01,
  0x14, 0x00, 0x00, 0x00, 0x14, 0x00, 0x00, 0x00, 0x0a, 0x00, 0x00, 0x00,
  0x00, 0x00, 0x00, 0x01, 0x34, 0x00, 0x00, 0x00, 0x60, 0xfc, 0xff, 0xff,
  0x27, 0x00, 0x00, 0x00, 0x6d, 0x6f, 0x64, 0x65, 0x6c, 0x2f, 0x73, 0x65,
  0x70, 0x61, 0x72, 0x61, 0x62, 0x6c, 0x65, 0x5f, 0x63, 0x6f, 0x6e, 0x76,
  0x32, 0x64, 0x2f, 0x73, 0x65, 0x70, 0x61, 0x72, 0x61, 0x62, 0x6c, 0x65,
  0x5f, 0x63, 0x6f, 0x6e, 0x76, 0x32, 0x64, 0x00, 0x04, 0x00, 0x00, 0x00,
  0x10, 0x00, 0x00, 0x00, 0x01, 0x00, 0x00, 0x00, 0x01, 0x00, 0x00, 0x00,
  0x10, 0x00, 0x00, 0x00, 0x42, 0xfd, 0xff, 0xff, 0x00, 0x00, 0x00, 0x01,
  0x14, 0x00, 0x00, 0x00, 0x14, 0x00, 0x00, 0x00, 0x09, 0x00, 0x00, 0x00,
  0x00, 0x00, 0x00, 0x01, 0x20, 0x00, 0x00, 0x00, 0xc0, 0xfc, 0xff, 0xff,
  0x13, 0x00, 0x00, 0x00, 0x6d, 0x6f, 0x64, 0x65, 0x6c, 0x2f, 0x63, 0x6f,
  0x6e, 0x76, 0x32, 0x64, 0x2f, 0x43, 0x6f, 0x6e, 0x76, 0x32, 0x44, 0x00,
  0x04, 0x00, 0x00, 0x00, 0x08, 0x00, 0x00, 0x00, 0x01, 0x00, 0x00, 0x00,
  0x20, 0x00, 0x00, 0x00, 0x01, 0x00, 0x00, 0x00, 0x8e, 0xfd, 0xff, 0xff,
  0x00, 0x00, 0x00, 0x01, 0x14, 0x00, 0x00, 0x00, 0x14, 0x00, 0x00, 0x00,
  0x08, 0x00, 0x00, 0x00, 0x00, 0x00, 0x00, 0x01, 0x3c, 0x00, 0x00, 0x00,
  0x0c, 0xfd, 0xff, 0xff, 0x2c, 0x00, 0x00, 0x00, 0x6d, 0x6f, 0x64, 0x65,
  0x6c, 0x2f, 0x62, 0x61, 0x74, 0x63, 0x68, 0x5f, 0x6e, 0x6f, 0x72, 0x6d,
  0x61, 0x6c, 0x69, 0x7a, 0x61, 0x74, 0x69, 0x6f, 0x6e, 0x5f, 0x32, 0x2f,
  0x46, 0x75, 0x73, 0x65, 0x64, 0x42, 0x61, 0x74, 0x63, 0x68, 0x4e, 0x6f,
  0x72, 0x6d, 0x56, 0x33, 0x00, 0x00, 0x00, 0x00, 0x01, 0x00, 0x00, 0x00,
  0x10, 0x00, 0x00, 0x00, 0xea, 0xfd, 0xff, 0xff, 0x00, 0x00, 0x00, 0x01,
  0x14, 0x00, 0x00, 0x00, 0x14, 0x00, 0x00, 0x00, 0x07, 0x00, 0x00, 0x00,
  0x00, 0x00, 0x00, 0x01, 0x84, 0x00, 0x00, 0x00, 0x68, 0xfd, 0xff, 0xff,
  0x75, 0x00, 0x00, 0x00, 0x6d, 0x6f, 0x64, 0x65, 0x6c, 0x2f, 0x62, 0x61,
  0x74, 0x63, 0x68, 0x5f, 0x6e, 0x6f, 0x72, 0x6d, 0x61, 0x6c, 0x69, 0x7a,
  0x61, 0x74, 0x69, 0x6f, 0x6e, 0x5f, 0x31, 0x2f, 0x46, 0x75, 0x73, 0x65,
  0x64, 0x42, 0x61, 0x74, 0x63, 0x68, 0x4e, 0x6f, 0x72, 0x6d, 0x56, 0x33,
  0x3b, 0x6d, 0x6f, 0x64, 0x65, 0x6c, 0x2f, 0x64, 0x65, 0x70, 0x74, 0x68,
  0x77, 0x69, 0x73, 0x65, 0x5f, 0x63, 0x6f, 0x6e, 0x76, 0x32, 0x64, 0x2f,
  0x64, 0x65, 0x70, 0x74, 0x68, 0x77, 0x69, 0x73, 0x65, 0x3b, 0x6d, 0x6f,
  0x64, 0x65, 0x6c, 0x2f, 0x73, 0x65, 0x70, 0x61, 0x72, 0x61, 0x62, 0x6c,
  0x65, 0x5f, 0x63, 0x6f, 0x6e, 0x76, 0x32, 0x64, 0x2f, 0x73, 0x65, 0x70,
  0x61, 0x72, 0x61, 0x62, 0x6c, 0x65, 0x5f, 0x63, 0x6f, 0x6e, 0x76, 0x32,
  0x64, 0x00, 0x00, 0x00, 0x04, 0x00, 0x00, 0x00, 0x01, 0x00, 0x00, 0x00,
  0x3c, 0x00, 0x00, 0x00, 0x01, 0x00, 0x00, 0x00, 0x10, 0x00, 0x00, 0x00,
  0x9a, 0xfe, 0xff, 0xff, 0x00, 0x00, 0x00, 0x01, 0x14, 0x00, 0x00, 0x00,
  0x14, 0x00, 0x00, 0x00, 0x06, 0x00, 0x00, 0x00, 0x00, 0x00, 0x00, 0x01,
  0x38, 0x00, 0x00, 0x00, 0x18, 0xfe, 0xff, 0xff, 0x2a, 0x00, 0x00, 0x00,
  0x6d, 0x6f, 0x64, 0x65, 0x6c, 0x2f, 0x62, 0x61, 0x74, 0x63, 0x68, 0x5f,
  0x6e, 0x6f, 0x72, 0x6d, 0x61, 0x6c, 0x69, 0x7a, 0x61, 0x74, 0x69, 0x6f,
  0x6e, 0x2f, 0x46, 0x75, 0x73, 0x65, 0x64, 0x42, 0x61, 0x74, 0x63, 0x68,
  0x4e, 0x6f, 0x72, 0x6d, 0x56, 0x33, 0x00, 0x00, 0x01, 0x00, 0x00, 0x00,
  0x08, 0x00, 0x00, 0x00, 0xf2, 0xfe, 0xff, 0xff, 0x00, 0x00, 0x00, 0x01,
  0x14, 0x00, 0x00, 0x00, 0x14, 0x00, 0x00, 0x00, 0x05, 0x00, 0x00, 0x00,
  0x00, 0x00, 0x00, 0x01, 0x3c, 0x00, 0x00, 0x00, 0x70, 0xfe, 0xff, 0xff,
  0x2d, 0x00, 0x00, 0x00, 0x6d, 0x6f, 0x64, 0x65, 0x6c, 0x2f, 0x62, 0x61,
  0x74, 0x63, 0x68, 0x5f, 0x6e, 0x6f, 0x72, 0x6d, 0x61, 0x6c, 0x69, 0x7a,
  0x61, 0x74, 0x69, 0x6f, 0x6e, 0x5f, 0x31, 0x2f, 0x46, 0x75, 0x73, 0x65,
  0x64, 0x42, 0x61, 0x74, 0x63, 0x68, 0x4e, 0x6f, 0x72, 0x6d, 0x56, 0x33,
  0x31, 0x00, 0x00, 0x00, 0x01, 0x00, 0x00, 0x00, 0x10, 0x00, 0x00, 0x00,
  0x4e, 0xff, 0xff, 0xff, 0x00, 0x00, 0x00, 0x01, 0x14, 0x00, 0x00, 0x00,
  0x14, 0x00, 0x00, 0x00, 0x04, 0x00, 0x00, 0x00, 0x00, 0x00, 0x00, 0x02,
  0x3c, 0x00, 0x00, 0x00, 0xcc, 0xfe, 0xff, 0xff, 0x2c, 0x00, 0x00, 0x00,
  0x6d, 0x6f, 0x64, 0x65, 0x6c, 0x2f, 0x62, 0x61, 0x74, 0x63, 0x68, 0x5f,
  0x6e, 0x6f, 0x72, 0x6d, 0x61, 0x6c, 0x69, 0x7a, 0x61, 0x74, 0x69, 0x6f,
  0x6e, 0x5f, 0x31, 0x2f, 0x46, 0x75, 0x73, 0x65, 0x64, 0x42, 0x61, 0x74,
  0x63, 0x68, 0x4e, 0x6f, 0x72, 0x6d, 0x56, 0x33, 0x00, 0x00, 0x00, 0x00,
  0x01, 0x00, 0x00, 0x00, 0x04, 0x00, 0x00, 0x00, 0xaa, 0xff, 0xff, 0xff,
  0x00, 0x00, 0x00, 0x01, 0x14, 0x00, 0x00, 0x00, 0x14, 0x00, 0x00, 0x00,
  0x03, 0x00, 0x00, 0x00, 0x00, 0x00, 0x00, 0x02, 0x34, 0x00, 0x00, 0x00,
  0x28, 0xff, 0xff, 0xff, 0x25, 0x00, 0x00, 0x00, 0x6d, 0x6f, 0x64, 0x65,
  0x6c, 0x2f, 0x64, 0x65, 0x70, 0x74, 0x68, 0x77, 0x69, 0x73, 0x65, 0x5f,
  0x63, 0x6f, 0x6e, 0x76, 0x32, 0x64, 0x2f, 0x74, 0x72, 0x61, 0x6e, 0x73,
  0x70, 0x6f, 0x73, 0x65, 0x2f, 0x70, 0x65, 0x72, 0x6d, 0x00, 0x00, 0x00,
  0x01, 0x00, 0x00, 0x00, 0x04, 0x00, 0x00, 0x00, 0x00, 0x00, 0x16, 0x00,
  0x1c, 0x00, 0x18, 0x00, 0x17, 0x00, 0x10, 0x00, 0x0c, 0x00, 0x08, 0x00,
  0x00, 0x00, 0x00, 0x00, 0x00, 0x00, 0x07, 0x00, 0x16, 0x00, 0x00, 0x00,
  0x00, 0x00, 0x00, 0x01, 0x14, 0x00, 0x00, 0x00, 0x14, 0x00, 0x00, 0x00,
  0x02, 0x00, 0x00, 0x00, 0x00, 0x00, 0x00, 0x02, 0x20, 0x00, 0x00, 0x00,
  0x94, 0xff, 0xff, 0xff, 0x13, 0x00, 0x00, 0x00, 0x6d, 0x6f, 0x64, 0x65,
  0x6c, 0x2f, 0x66, 0x6c, 0x61, 0x74, 0x74, 0x65, 0x6e, 0x2f, 0x43, 0x6f,
  0x6e, 0x73, 0x74, 0x00, 0x01, 0x00, 0x00, 0x00, 0x02, 0x00, 0x00, 0x00,
  0x00, 0x00, 0x16, 0x00, 0x1c, 0x00, 0x18, 0x00, 0x00, 0x00, 0x14, 0x00,
  0x10, 0x00, 0x0c, 0x00, 0x00, 0x00, 0x00, 0x00, 0x08, 0x00, 0x07, 0x00,
  0x16, 0x00, 0x00, 0x00, 0x00, 0x00, 0x00, 0x01, 0x14, 0x00, 0x00, 0x00,
  0x28, 0x00, 0x00, 0x00, 0x28, 0x00, 0x00, 0x00, 0x01, 0x00, 0x00, 0x00,
  0x40, 0x00, 0x00, 0x00, 0x04, 0x00, 0x00, 0x00, 0xff, 0xff, 0xff, 0xff,
  0x01, 0x00, 0x00, 0x00, 0x3c, 0x00, 0x00, 0x00, 0x97, 0x00, 0x00, 0x00,
  0x04, 0x00, 0x04, 0x00, 0x04, 0x00, 0x00, 0x00, 0x19, 0x00, 0x00, 0x00,
  0x73, 0x65, 0x72, 0x76, 0x69, 0x6e, 0x67, 0x5f, 0x64, 0x65, 0x66, 0x61,
  0x75, 0x6c, 0x74, 0x5f, 0x69, 0x6e, 0x70, 0x75, 0x74, 0x5f, 0x31, 0x3a,
  0x30, 0x00, 0x00, 0x00, 0x04, 0x00, 0x00, 0x00, 0x01, 0x00, 0x00, 0x00,
  0x01, 0x00, 0x00, 0x00, 0x3c, 0x00, 0x00, 0x00, 0x97, 0x00, 0x00, 0x00,
  0x0a, 0x00, 0x00, 0x00, 0xf0, 0x00, 0x00, 0x00, 0xd4, 0x00, 0x00, 0x00,
  0xb8, 0x00, 0x00, 0x00, 0xa8, 0x00, 0x00, 0x00, 0x98, 0x00, 0x00, 0x00,
  0x74, 0x00, 0x00, 0x00, 0x34, 0x00, 0x00, 0x00, 0x24, 0x00, 0x00, 0x00,
  0x14, 0x00, 0x00, 0x00, 0x04, 0x00, 0x00, 0x00, 0x5c, 0xff, 0xff, 0xff,
  0x19, 0x00, 0x00, 0x00, 0x00, 0x00, 0x00, 0x19, 0x68, 0xff, 0xff, 0xff,
  0x09, 0x00, 0x00, 0x00, 0x00, 0x00, 0x00, 0x09, 0x74, 0xff, 0xff, 0xff,
  0x16, 0x00, 0x00, 0x00, 0x00, 0x00, 0x00, 0x16, 0xd0, 0xff, 0xff, 0xff,
  0x20, 0x00, 0x00, 0x00, 0x08, 0x00, 0x00, 0x00, 0x00, 0x00, 0x00, 0x20,
  0x19, 0x00, 0x00, 0x00, 0x46, 0x6c, 0x65, 0x78, 0x44, 0x65, 0x70, 0x74,
  0x68, 0x77, 0x69, 0x73, 0x65, 0x43, 0x6f, 0x6e, 0x76, 0x32, 0x64, 0x4e,
  0x61, 0x74, 0x69, 0x76, 0x65, 0x00, 0x00, 0x00, 0x0c, 0x00, 0x10, 0x00,
  0x0f, 0x00, 0x08, 0x00, 0x00, 0x00, 0x04, 0x00, 0x0c, 0x00, 0x00, 0x00,
  0x20, 0x00, 0x00, 0x00, 0x08, 0x00, 0x00, 0x00, 0x00, 0x00, 0x00, 0x20,
  0x0b, 0x00, 0x00, 0x00, 0x46, 0x6c, 0x65, 0x78, 0x41, 0x76, 0x67, 0x50,
  0x6f, 0x6f, 0x6c, 0x00, 0xdc, 0xff, 0xff, 0xff, 0x6f, 0x00, 0x00, 0x00,
  0x00, 0x00, 0x00, 0x6f, 0xe8, 0xff, 0xff, 0xff, 0x04, 0x00, 0x00, 0x00,
  0x00, 0x00, 0x00, 0x04, 0xf4, 0xff, 0xff, 0xff, 0x03, 0x00, 0x00, 0x00,
  0x00, 0x00, 0x00, 0x03, 0x0c, 0x00, 0x0c, 0x00, 0x0b, 0x00, 0x00, 0x00,
  0x00, 0x00, 0x04, 0x00, 0x0c, 0x00, 0x00, 0x00, 0x27, 0x00, 0x00, 0x00,
  0x00, 0x00, 0x00, 0x27, 0x0c, 0x00, 0x10, 0x00, 0x0f, 0x00, 0x00, 0x00,
  0x08, 0x00, 0x04, 0x00, 0x0c, 0x00, 0x00, 0x00, 0x06, 0x00, 0x00, 0x00,
  0x03, 0x00, 0x00, 0x00, 0x00, 0x00, 0x00, 0x06
};
unsigned int EEGNet_og_q_tflite_len = 11108;
