unsigned char my_EEGnet_ogA_1_q_tflite[] = {
  0x1c, 0x00, 0x00, 0x00, 0x54, 0x46, 0x4c, 0x33, 0x14, 0x00, 0x20, 0x00,
  0x1c, 0x00, 0x18, 0x00, 0x14, 0x00, 0x10, 0x00, 0x0c, 0x00, 0x00, 0x00,
  0x08, 0x00, 0x04, 0x00, 0x14, 0x00, 0x00, 0x00, 0x1c, 0x00, 0x00, 0x00,
  0x80, 0x00, 0x00, 0x00, 0x08, 0x01, 0x00, 0x00, 0x5c, 0x58, 0x00, 0x00,
  0x6c, 0x58, 0x00, 0x00, 0x10, 0x67, 0x00, 0x00, 0x03, 0x00, 0x00, 0x00,
  0x01, 0x00, 0x00, 0x00, 0x04, 0x00, 0x00, 0x00, 0x12, 0xa6, 0xff, 0xff,
  0x0c, 0x00, 0x00, 0x00, 0x1c, 0x00, 0x00, 0x00, 0x38, 0x00, 0x00, 0x00,
  0x0f, 0x00, 0x00, 0x00, 0x73, 0x65, 0x72, 0x76, 0x69, 0x6e, 0x67, 0x5f,
  0x64, 0x65, 0x66, 0x61, 0x75, 0x6c, 0x74, 0x00, 0x01, 0x00, 0x00, 0x00,
  0x04, 0x00, 0x00, 0x00, 0x6c, 0xff, 0xff, 0xff, 0x1a, 0x00, 0x00, 0x00,
  0x04, 0x00, 0x00, 0x00, 0x07, 0x00, 0x00, 0x00, 0x73, 0x6f, 0x66, 0x74,
  0x6d, 0x61, 0x78, 0x00, 0x01, 0x00, 0x00, 0x00, 0x04, 0x00, 0x00, 0x00,
  0x56, 0xa7, 0xff, 0xff, 0x04, 0x00, 0x00, 0x00, 0x07, 0x00, 0x00, 0x00,
  0x69, 0x6e, 0x70, 0x75, 0x74, 0x5f, 0x37, 0x00, 0x03, 0x00, 0x00, 0x00,
  0x64, 0x00, 0x00, 0x00, 0x2c, 0x00, 0x00, 0x00, 0x04, 0x00, 0x00, 0x00,
  0xb0, 0xff, 0xff, 0xff, 0x1e, 0x00, 0x00, 0x00, 0x04, 0x00, 0x00, 0x00,
  0x13, 0x00, 0x00, 0x00, 0x43, 0x4f, 0x4e, 0x56, 0x45, 0x52, 0x53, 0x49,
  0x4f, 0x4e, 0x5f, 0x4d, 0x45, 0x54, 0x41, 0x44, 0x41, 0x54, 0x41, 0x00,
  0xd4, 0xff, 0xff, 0xff, 0x1d, 0x00, 0x00, 0x00, 0x04, 0x00, 0x00, 0x00,
  0x19, 0x00, 0x00, 0x00, 0x72, 0x65, 0x64, 0x75, 0x63, 0x65, 0x64, 0x5f,
  0x70, 0x72, 0x65, 0x63, 0x69, 0x73, 0x69, 0x6f, 0x6e, 0x5f, 0x73, 0x75,
  0x70, 0x70, 0x6f, 0x72, 0x74, 0x00, 0x00, 0x00, 0x08, 0x00, 0x0c, 0x00,
  0x08, 0x00, 0x04, 0x00, 0x08, 0x00, 0x00, 0x00, 0x1c, 0x00, 0x00, 0x00,
  0x04, 0x00, 0x00, 0x00, 0x13, 0x00, 0x00, 0x00, 0x6d, 0x69, 0x6e, 0x5f,
  0x72, 0x75, 0x6e, 0x74, 0x69, 0x6d, 0x65, 0x5f, 0x76, 0x65, 0x72, 0x73,
  0x69, 0x6f, 0x6e, 0x00, 0x1f, 0x00, 0x00, 0x00, 0x50, 0x57, 0x00, 0x00,
  0x48, 0x57, 0x00, 0x00, 0x30, 0x57, 0x00, 0x00, 0x00, 0x57, 0x00, 0x00,
  0xe0, 0x56, 0x00, 0x00, 0x50, 0x4f, 0x00, 0x00, 0x40, 0x4d, 0x00, 0x00,
  0x28, 0x4d, 0x00, 0x00, 0xf8, 0x4c, 0x00, 0x00, 0xc8, 0x4c, 0x00, 0x00,
  0x38, 0x01, 0x00, 0x00, 0x30, 0x01, 0x00, 0x00, 0x28, 0x01, 0x00, 0x00,
  0x20, 0x01, 0x00, 0x00, 0x18, 0x01, 0x00, 0x00, 0x10, 0x01, 0x00, 0x00,
  0x08, 0x01, 0x00, 0x00, 0x00, 0x01, 0x00, 0x00, 0xf8, 0x00, 0x00, 0x00,
  0xf0, 0x00, 0x00, 0x00, 0xe8, 0x00, 0x00, 0x00, 0xe0, 0x00, 0x00, 0x00,
  0xd8, 0x00, 0x00, 0x00, 0xd0, 0x00, 0x00, 0x00, 0xc8, 0x00, 0x00, 0x00,
  0xc0, 0x00, 0x00, 0x00, 0xb8, 0x00, 0x00, 0x00, 0xb0, 0x00, 0x00, 0x00,
  0x90, 0x00, 0x00, 0x00, 0x74, 0x00, 0x00, 0x00, 0x04, 0x00, 0x00, 0x00,
  0x76, 0xa8, 0xff, 0xff, 0x04, 0x00, 0x00, 0x00, 0x60, 0x00, 0x00, 0x00,
  0x0c, 0x00, 0x00, 0x00, 0x08, 0x00, 0x0e, 0x00, 0x08, 0x00, 0x04, 0x00,
  0x08, 0x00, 0x00, 0x00, 0x14, 0x00, 0x00, 0x00, 0x30, 0x00, 0x00, 0x00,
  0x00, 0x00, 0x0a, 0x00, 0x0c, 0x00, 0x08, 0x00, 0x00, 0x00, 0x07, 0x00,
  0x0a, 0x00, 0x00, 0x00, 0x00, 0x00, 0x00, 0x01, 0x04, 0x00, 0x00, 0x00,
  0x01, 0x00, 0x00, 0x00, 0xe9, 0x03, 0x00, 0x00, 0x00, 0x00, 0x0a, 0x00,
  0x10, 0x00, 0x0c, 0x00, 0x08, 0x00, 0x04, 0x00, 0x0a, 0x00, 0x00, 0x00,
  0x02, 0x00, 0x00, 0x00, 0x02, 0x00, 0x00, 0x00, 0x04, 0x00, 0x00, 0x00,
  0x06, 0x00, 0x00, 0x00, 0x32, 0x2e, 0x31, 0x33, 0x2e, 0x30, 0x00, 0x00,
  0xe2, 0xa8, 0xff, 0xff, 0x04, 0x00, 0x00, 0x00, 0x0b, 0x00, 0x00, 0x00,
  0x66, 0x70, 0x31, 0x36, 0x61, 0x63, 0x63, 0x66, 0x70, 0x33, 0x32, 0x00,
  0xfa, 0xa8, 0xff, 0xff, 0x04, 0x00, 0x00, 0x00, 0x10, 0x00, 0x00, 0x00,
  0x31, 0x2e, 0x31, 0x35, 0x2e, 0x30, 0x00, 0x00, 0x00, 0x00, 0x00, 0x00,
  0x00, 0x00, 0x00, 0x00, 0xc0, 0x9a, 0xff, 0xff, 0xc4, 0x9a, 0xff, 0xff,
  0xc8, 0x9a, 0xff, 0xff, 0xcc, 0x9a, 0xff, 0xff, 0xd0, 0x9a, 0xff, 0xff,
  0xd4, 0x9a, 0xff, 0xff, 0xd8, 0x9a, 0xff, 0xff, 0xdc, 0x9a, 0xff, 0xff,
  0xe0, 0x9a, 0xff, 0xff, 0xe4, 0x9a, 0xff, 0xff, 0xe8, 0x9a, 0xff, 0xff,
  0xec, 0x9a, 0xff, 0xff, 0xf0, 0x9a, 0xff, 0xff, 0xf4, 0x9a, 0xff, 0xff,
  0xf8, 0x9a, 0xff, 0xff, 0xfc, 0x9a, 0xff, 0xff, 0x00, 0x9b, 0xff, 0xff,
  0x5a, 0xa9, 0xff, 0xff, 0x04, 0x00, 0x00, 0x00, 0x80, 0x4b, 0x00, 0x00,
  0x21, 0xa0, 0x1a, 0xa3, 0x2d, 0x20, 0x64, 0x19, 0xd0, 0x1d, 0xe5, 0xa0,
  0xc4, 0xa1, 0x9b, 0x1b, 0x6c, 0x19, 0x9b, 0x1d, 0x75, 0x9d, 0x25, 0x10,
  0x43, 0x9b, 0x4c, 0x1b, 0x70, 0xa0, 0x11, 0x9a, 0x8a, 0x98, 0x91, 0xa2,
  0x5b, 0x1a, 0x42, 0x18, 0xd8, 0x99, 0xb9, 0x9e, 0x60, 0xa0, 0x35, 0x1f,
  0x78, 0x19, 0x29, 0x15, 0x96, 0x99, 0x10, 0x1a, 0xd0, 0x9a, 0xd9, 0x1d,
  0xa3, 0xa3, 0xe0, 0x9a, 0x11, 0x9b, 0x68, 0xa1, 0x91, 0x8e, 0x84, 0x12,
  0x26, 0x97, 0x16, 0x91, 0x3f, 0x9f, 0x87, 0x15, 0x10, 0x19, 0xb2, 0x94,
  0xba, 0x9c, 0x86, 0x94, 0xe3, 0xa0, 0xcc, 0x15, 0xd9, 0x9f, 0x63, 0x9e,
  0xd5, 0x9c, 0xa4, 0x9f, 0x24, 0x1c, 0xec, 0x14, 0x0b, 0x9e, 0x39, 0x1b,
  0x39, 0x98, 0x54, 0x1f, 0x41, 0x9c, 0x7e, 0x95, 0x8b, 0x99, 0x2d, 0x99,
  0x55, 0xa2, 0xb4, 0x1c, 0x98, 0x9e, 0x5a, 0x9c, 0x6a, 0x9c, 0x3d, 0x9c,
  0x26, 0x1a, 0x99, 0x04, 0xaa, 0x98, 0x1b, 0x22, 0x8f, 0x11, 0x08, 0x99,
  0xb0, 0x16, 0x40, 0x11, 0x16, 0x16, 0xa1, 0x97, 0xfb, 0x99, 0x46, 0x1e,
  0x24, 0x9c, 0x7c, 0x9a, 0x0f, 0xa0, 0x08, 0xa0, 0x43, 0x1a, 0x8c, 0x9f,
  0x47, 0x99, 0xda, 0x20, 0x5e, 0x21, 0xa1, 0x9d, 0x3c, 0x1d, 0xf4, 0x1f,
  0x07, 0x19, 0xb7, 0x9c, 0x37, 0xa0, 0x8f, 0x18, 0xe4, 0xa0, 0x92, 0x9d,
  0xa9, 0xa2, 0x90, 0xa1, 0xe0, 0x9a, 0xbb, 0x9f, 0xa5, 0x0d, 0x81, 0x21,
  0x1d, 0x20, 0x2a, 0x99, 0xd5, 0x1e, 0xb3, 0x1d, 0x16, 0x94, 0xfc, 0xa0,
  0x1d, 0xa0, 0xa9, 0x0d, 0x9e, 0x9b, 0x4d, 0x9a, 0xde, 0xa2, 0xb5, 0x9e,
  0x82, 0x1c, 0xb4, 0x9d, 0xed, 0x19, 0xc6, 0x1e, 0x86, 0x21, 0xeb, 0x9f,
  0xa7, 0x81, 0xb9, 0x1e, 0x6e, 0x83, 0x9d, 0x9c, 0x4c, 0x9e, 0x60, 0x18,
  0xf7, 0x9d, 0xc5, 0x9b, 0xa0, 0x9f, 0xf0, 0xa1, 0xf5, 0x8f, 0x5d, 0x9a,
  0xcc, 0x1e, 0x1d, 0x04, 0x12, 0x24, 0xe4, 0xa1, 0x59, 0x1f, 0x01, 0x1e,
  0x7e, 0x80, 0xe9, 0x9d, 0x8c, 0xa0, 0xe6, 0x1e, 0xdc, 0x9f, 0x1f, 0x9c,
  0xe7, 0x9f, 0x66, 0xa2, 0x7e, 0x9b, 0x56, 0x9e, 0x41, 0x1f, 0x13, 0x9f,
  0x0c, 0x20, 0x85, 0xa0, 0x99, 0x1e, 0xd6, 0x1d, 0x46, 0x14, 0xbb, 0x18,
  0xa6, 0xa1, 0x3a, 0x20, 0x8a, 0x9d, 0xc7, 0x9c, 0xa0, 0xa0, 0xc4, 0xa1,
  0xc5, 0x12, 0x83, 0x99, 0xb0, 0x20, 0x20, 0xa0, 0x54, 0x1e, 0x7d, 0x9a,
  0xd7, 0x1e, 0x76, 0x1c, 0x89, 0x96, 0x77, 0x08, 0x35, 0xa3, 0xb0, 0x18,
  0x2a, 0x9b, 0xd4, 0x9d, 0x57, 0xa3, 0x87, 0xa1, 0x36, 0x9d, 0xae, 0xa0,
  0x3c, 0x23, 0x0b, 0xa0, 0x4b, 0x21, 0x50, 0x99, 0x0f, 0x1d, 0x43, 0x1e,
  0xfd, 0x19, 0xfb, 0x9d, 0xda, 0xa3, 0x74, 0x1f, 0x41, 0x9c, 0xc2, 0x9c,
  0x3f, 0xa0, 0x81, 0xa1, 0x57, 0xa0, 0x6a, 0x9d, 0x22, 0x20, 0x87, 0xa1,
  0xed, 0x1d, 0xc7, 0x9e, 0xcb, 0x1c, 0x94, 0x1d, 0x3f, 0x1e, 0xab, 0x9e,
  0xec, 0x9f, 0x0b, 0x20, 0x12, 0x9c, 0xf5, 0x9d, 0x26, 0xa2, 0xd0, 0x9f,
  0xe3, 0x9d, 0xf3, 0xa0, 0x9d, 0x1d, 0x5c, 0xa2, 0xa4, 0x1e, 0xa9, 0x9d,
  0x8b, 0x9a, 0xc0, 0x14, 0xe8, 0x1c, 0x10, 0x9e, 0xbd, 0xa2, 0x0b, 0x1d,
  0x45, 0x9c, 0x6a, 0x9e, 0xb2, 0xa1, 0x9a, 0xa1, 0xd8, 0x9c, 0xb0, 0x9c,
  0x59, 0x11, 0xad, 0x9d, 0xf8, 0x8e, 0x6a, 0x15, 0x5d, 0x9b, 0xb3, 0x95,
  0xd4, 0x18, 0x22, 0x19, 0xa2, 0x9e, 0x11, 0x1f, 0x77, 0x95, 0x6c, 0x9d,
  0x92, 0xa0, 0x8b, 0xa3, 0x52, 0x9c, 0x20, 0xa0, 0xd1, 0x9b, 0x82, 0x98,
  0x8c, 0x9a, 0xe3, 0x1a, 0xc0, 0x9f, 0x96, 0xa0, 0xdc, 0x1b, 0xc7, 0x1c,
  0x88, 0xa0, 0xb0, 0x20, 0x9f, 0x99, 0x63, 0x9a, 0x5d, 0xa0, 0x9a, 0xa1,
  0x8b, 0x98, 0xa3, 0xa3, 0x6a, 0x9e, 0xd3, 0x1a, 0x05, 0x9c, 0x67, 0x1c,
  0xd1, 0x98, 0x23, 0x9c, 0x7d, 0x1c, 0xd7, 0x20, 0xfa, 0x9d, 0x20, 0x21,
  0x62, 0x99, 0x19, 0x9b, 0x01, 0x9d, 0x0c, 0x9c, 0x33, 0x94, 0x0f, 0xa0,
  0x06, 0xa0, 0xe1, 0x20, 0xe5, 0x94, 0x2b, 0x16, 0x1f, 0x99, 0xb3, 0x98,
  0x0b, 0x8e, 0x26, 0x1c, 0x77, 0xa3, 0x61, 0x1f, 0x73, 0x99, 0x81, 0x09,
  0x59, 0x9e, 0x3e, 0x9c, 0xdb, 0x99, 0x9c, 0x9f, 0xe0, 0x9d, 0xa2, 0x22,
  0x1b, 0x9f, 0x1b, 0x1f, 0x04, 0x0a, 0x06, 0x9d, 0xd9, 0x9c, 0xc0, 0x20,
  0x73, 0xa1, 0x5c, 0x21, 0x95, 0x8c, 0x8e, 0x1c, 0x5b, 0x9b, 0xdd, 0x8f,
  0x15, 0x9a, 0x03, 0x9e, 0xd7, 0x9a, 0x34, 0x21, 0xc1, 0xa0, 0x7e, 0x22,
  0xde, 0x12, 0x9a, 0x07, 0x54, 0x9c, 0x48, 0x1d, 0x25, 0xa0, 0x50, 0x21,
  0x53, 0x16, 0xe3, 0x1e, 0x2f, 0x9a, 0x5e, 0x1b, 0x57, 0x19, 0x09, 0x9f,
  0xb2, 0x9c, 0xe7, 0x1d, 0xf2, 0xa2, 0xc0, 0x23, 0xc0, 0x03, 0xbf, 0x94,
  0x58, 0x9e, 0xc3, 0x1a, 0x21, 0x9f, 0x04, 0x1f, 0xb0, 0x08, 0x2b, 0x1e,
  0x2f, 0x20, 0xd0, 0x0b, 0x0d, 0x17, 0x23, 0x9c, 0x9f, 0x13, 0x61, 0x1e,
  0x36, 0x9f, 0xd2, 0x18, 0xe3, 0x96, 0x44, 0x92, 0xbf, 0x9c, 0xb8, 0x1d,
  0x7a, 0xa0, 0x1a, 0x20, 0x15, 0x18, 0x5d, 0x1f, 0x55, 0x1b, 0x47, 0x14,
  0x7b, 0x17, 0xb3, 0x8c, 0xd5, 0x1c, 0x59, 0x8c, 0xb1, 0xa0, 0x1b, 0x18,
  0x63, 0x9a, 0x10, 0x99, 0xe0, 0xa2, 0x34, 0x85, 0xe6, 0x9d, 0x31, 0x20,
  0x82, 0x1c, 0xe5, 0x21, 0x8a, 0x21, 0xbd, 0x18, 0x39, 0x09, 0x82, 0x12,
  0xdc, 0x20, 0xdd, 0x8e, 0x18, 0xa2, 0x61, 0x1c, 0x5e, 0x9c, 0x19, 0x9b,
  0x5d, 0xa0, 0xa3, 0x99, 0x12, 0x9f, 0xe8, 0x21, 0xfa, 0x13, 0xdb, 0x1f,
  0x3e, 0x1b, 0xe4, 0x1d, 0x62, 0x99, 0x12, 0x98, 0xcf, 0x21, 0xbe, 0xa0,
  0x1c, 0xa0, 0xee, 0x1e, 0x86, 0x99, 0xc8, 0x98, 0xa8, 0xa3, 0x97, 0x0e,
  0x4c, 0x9d, 0x5a, 0x21, 0xfe, 0x1c, 0x6d, 0x1f, 0x43, 0x21, 0x55, 0x20,
  0xbc, 0x99, 0x33, 0x99, 0xae, 0x1f, 0x93, 0xa0, 0xfe, 0x97, 0x30, 0x0b,
  0x3b, 0x97, 0x50, 0x95, 0xe0, 0xa1, 0xa5, 0x0c, 0x34, 0x97, 0x2b, 0x21,
  0x6f, 0x14, 0x25, 0x21, 0xb2, 0x20, 0x0a, 0x1c, 0x39, 0x9a, 0xc5, 0x1c,
  0x5c, 0x20, 0xb4, 0xa0, 0x3e, 0x97, 0xfa, 0xa0, 0x70, 0x9b, 0x6b, 0x15,
  0xb3, 0xa3, 0xe4, 0x90, 0x01, 0x14, 0xa8, 0x1d, 0x5e, 0x1c, 0xef, 0x1e,
  0x4d, 0x20, 0x4a, 0x1e, 0x17, 0x9e, 0x34, 0x19, 0x8a, 0x9c, 0xdb, 0x9d,
  0xa3, 0x1c, 0x94, 0x9d, 0x7b, 0x9b, 0x8e, 0x10, 0x0e, 0xa4, 0x8b, 0x13,
  0x95, 0x14, 0x07, 0x95, 0xab, 0x88, 0x92, 0x21, 0x30, 0x1e, 0x0e, 0x21,
  0xf1, 0x9c, 0xe4, 0x92, 0xbd, 0x97, 0x1a, 0x96, 0x3f, 0x9e, 0x2d, 0xa0,
  0xfd, 0xa0, 0xd1, 0x05, 0x1a, 0xa3, 0x10, 0x9b, 0xae, 0x1f, 0x9f, 0x9a,
  0x15, 0x98, 0xe8, 0x1e, 0xd7, 0x1c, 0xad, 0x1e, 0xc3, 0x9d, 0x3b, 0x1c,
  0x3b, 0x99, 0x06, 0x1b, 0x17, 0x86, 0x53, 0x96, 0xe9, 0x99, 0x79, 0x9c,
  0xe7, 0xa1, 0xf8, 0x9e, 0x90, 0x1c, 0xc1, 0xa0, 0xae, 0x9c, 0xc4, 0x20,
  0x37, 0x1f, 0xda, 0x1e, 0xd1, 0x9c, 0x39, 0x1d, 0x57, 0xa0, 0x10, 0x1b,
  0x85, 0x18, 0x10, 0xa0, 0xde, 0xa1, 0x0c, 0x9e, 0x72, 0xa0, 0xdd, 0xa1,
  0x0e, 0x0c, 0x9b, 0x9d, 0x4f, 0x9f, 0x58, 0x1b, 0x0b, 0x1f, 0x0c, 0x20,
  0x1d, 0x9c, 0x4e, 0x1f, 0x9f, 0xa0, 0xa5, 0x1f, 0x1b, 0x9e, 0xa6, 0x9e,
  0x53, 0xa1, 0x49, 0xa0, 0xc4, 0xa1, 0x37, 0x9d, 0xbe, 0x1b, 0x00, 0x17,
  0xe2, 0x9f, 0x24, 0x1e, 0x8e, 0x21, 0x1d, 0x20, 0xf7, 0x99, 0xcb, 0x20,
  0x71, 0xa3, 0xf0, 0x1d, 0x5e, 0x9a, 0xb5, 0x0b, 0xe9, 0x9b, 0xce, 0xa0,
  0x19, 0x9f, 0xed, 0xa0, 0x38, 0x16, 0x8c, 0x9c, 0xfb, 0xa1, 0x19, 0x1e,
  0x76, 0x1d, 0x48, 0x1d, 0xb8, 0x9c, 0x6b, 0x1d, 0xb9, 0xa1, 0x0f, 0x1f,
  0x24, 0x98, 0x46, 0x12, 0xdf, 0x9a, 0x22, 0x9e, 0x59, 0x9d, 0x65, 0xa1,
  0x63, 0x1d, 0x1e, 0x9e, 0xdf, 0x9f, 0x7f, 0x0c, 0x60, 0x1f, 0x3f, 0x1c,
  0x84, 0x9f, 0x9d, 0x1c, 0x76, 0x9c, 0xa6, 0x1a, 0xb1, 0x19, 0xfd, 0x8f,
  0x94, 0x96, 0x53, 0xa1, 0xf2, 0x98, 0x22, 0xa2, 0x76, 0x1e, 0x0a, 0xa0,
  0x22, 0xa0, 0x46, 0x92, 0xa9, 0x14, 0x35, 0x1f, 0x9b, 0xa0, 0x7d, 0x20,
  0xc4, 0x95, 0x78, 0x1e, 0x9d, 0x18, 0x1b, 0x9e, 0xeb, 0x99, 0x2a, 0xa0,
  0x64, 0x03, 0x26, 0xa2, 0x6f, 0x1c, 0x09, 0x9b, 0x45, 0xa2, 0xc5, 0x07,
  0x71, 0x1e, 0xed, 0x1d, 0xde, 0x9d, 0xd2, 0x1e, 0xed, 0x8e, 0x50, 0x1c,
  0x7e, 0x90, 0xed, 0x9a, 0x5e, 0x9e, 0x05, 0x9f, 0x9d, 0x1a, 0x90, 0x9e,
  0xe2, 0x18, 0x31, 0x9f, 0x82, 0xa2, 0xbb, 0x9c, 0x5b, 0x17, 0xc8, 0x19,
  0x5b, 0x9d, 0x42, 0x1b, 0x3c, 0x11, 0x6e, 0x1d, 0x77, 0x98, 0x8d, 0x14,
  0x2d, 0x9e, 0xfe, 0xa0, 0x9a, 0x1a, 0xa4, 0x95, 0x55, 0x19, 0x7a, 0x9e,
  0x7a, 0xa2, 0x4f, 0x9c, 0xc5, 0x1d, 0xb9, 0x20, 0xd7, 0x93, 0xde, 0x1c,
  0x51, 0x15, 0xe8, 0x16, 0x28, 0x8c, 0x62, 0x1e, 0xc0, 0xa0, 0x2c, 0xa2,
  0x58, 0x1c, 0x57, 0x94, 0x2c, 0x1e, 0x31, 0xa0, 0x3c, 0xa0, 0xde, 0x9e,
  0xe1, 0x19, 0xd2, 0x1a, 0x88, 0x90, 0xc1, 0x1c, 0xed, 0x99, 0xe2, 0x9b,
  0x27, 0x9a, 0x17, 0x9e, 0x25, 0x9c, 0xa4, 0xa2, 0x48, 0x0d, 0x34, 0x18,
  0x39, 0x20, 0xa1, 0xa0, 0x1b, 0x9e, 0x1d, 0xa3, 0x5d, 0x93, 0x0f, 0x16,
  0xa0, 0x98, 0x74, 0x18, 0x0c, 0x16, 0xf0, 0x9c, 0x81, 0x1a, 0x8b, 0x9c,
  0xb4, 0xa1, 0x19, 0xa1, 0x97, 0x21, 0x10, 0x19, 0xd5, 0x1e, 0x4e, 0xa0,
  0xb1, 0x99, 0xf3, 0x9f, 0x73, 0x9d, 0xff, 0x17, 0xf4, 0x0e, 0xbd, 0x94,
  0xde, 0x18, 0xaa, 0x99, 0x8e, 0x0b, 0x94, 0x9a, 0x56, 0x9f, 0x15, 0xa2,
  0x14, 0x20, 0xbd, 0x19, 0x35, 0x1a, 0x0d, 0xa1, 0xae, 0x9e, 0x34, 0xa1,
  0x00, 0x9a, 0x69, 0x8f, 0x8e, 0x96, 0x58, 0x10, 0x5c, 0x16, 0x5f, 0x9b,
  0x6b, 0x1c, 0x72, 0x1d, 0x2b, 0x9e, 0x02, 0x9e, 0x3f, 0x20, 0x9d, 0x22,
  0x6c, 0x20, 0x30, 0xa1, 0x5b, 0xa0, 0x88, 0xa0, 0xd2, 0x02, 0x4b, 0x97,
  0x64, 0x8c, 0xf8, 0x1a, 0xe4, 0x9c, 0xc1, 0x18, 0xe0, 0x1c, 0xb9, 0x96,
  0x55, 0xa0, 0xa7, 0xa1, 0x8d, 0x1d, 0xdb, 0x1a, 0xd0, 0x18, 0xea, 0xa0,
  0x99, 0x97, 0xfa, 0x9e, 0x37, 0x8c, 0x6f, 0x92, 0xe6, 0x99, 0x7f, 0x95,
  0xa8, 0x9d, 0x1e, 0x1e, 0x4e, 0x1c, 0xbf, 0xa1, 0x7d, 0x9d, 0x43, 0x9e,
  0x7a, 0x20, 0xb6, 0x18, 0xb6, 0x18, 0xeb, 0xa0, 0xc7, 0x8b, 0x4c, 0xa0,
  0x3d, 0xa0, 0x4d, 0x0e, 0x29, 0x89, 0xea, 0x03, 0x5a, 0x9d, 0xe2, 0x19,
  0xb4, 0x1b, 0xa1, 0xa0, 0x37, 0x9f, 0xbf, 0x9d, 0x9d, 0x1b, 0x23, 0x20,
  0xc2, 0x17, 0x79, 0xa1, 0x6e, 0x94, 0x8f, 0x9d, 0x6d, 0xa1, 0x51, 0x94,
  0xdb, 0x11, 0x01, 0x98, 0x85, 0x9d, 0xeb, 0x15, 0xeb, 0x1d, 0x5b, 0x9a,
  0xb9, 0x98, 0x0e, 0x98, 0x44, 0x1f, 0x97, 0x18, 0x6e, 0x1d, 0xb4, 0x9e,
  0xbb, 0x1b, 0xf7, 0x9a, 0x71, 0xa1, 0x49, 0x18, 0x56, 0x9b, 0xf7, 0x99,
  0xdb, 0x9f, 0x43, 0x8a, 0x57, 0x16, 0x17, 0x16, 0x2e, 0x11, 0x00, 0x98,
  0xe7, 0x1d, 0x8b, 0x1a, 0x92, 0x1c, 0xa0, 0xa0, 0x17, 0x1e, 0xaf, 0x9e,
  0xbe, 0x9e, 0xba, 0x09, 0xa1, 0x1c, 0xe9, 0x9f, 0x3a, 0x9d, 0x9a, 0x1c,
  0xd9, 0x15, 0x61, 0x9c, 0x29, 0x90, 0x73, 0x18, 0xea, 0x18, 0xed, 0x18,
  0x14, 0x1e, 0xa5, 0x9b, 0x93, 0x1a, 0x3c, 0x9c, 0x6c, 0x19, 0x39, 0x9f,
  0xb8, 0x1c, 0xb9, 0x98, 0xa4, 0x8d, 0x3b, 0x1b, 0x1b, 0x1c, 0x1b, 0x9b,
  0x2d, 0x1c, 0x2c, 0x17, 0x65, 0x95, 0x2d, 0x9e, 0x21, 0x19, 0xe7, 0xa0,
  0x8f, 0x19, 0x08, 0x9b, 0xf4, 0x99, 0x6b, 0x9d, 0x31, 0x1a, 0x08, 0x9c,
  0x6b, 0x91, 0xb4, 0x91, 0xc6, 0x16, 0x46, 0x1b, 0x16, 0x1c, 0x3a, 0x16,
  0xf6, 0x18, 0x5d, 0x19, 0x81, 0x07, 0x3e, 0x9b, 0xe4, 0x1c, 0x60, 0x12,
  0x2f, 0xa1, 0xc4, 0x9a, 0x38, 0x1d, 0xdc, 0x9b, 0x08, 0x1c, 0xe8, 0x95,
  0x2c, 0x86, 0x8c, 0x21, 0x8c, 0x1f, 0x19, 0x1e, 0x16, 0x9c, 0x68, 0x13,
  0xf6, 0x18, 0xf5, 0x9b, 0x50, 0x8a, 0xc7, 0x93, 0x7a, 0x9d, 0xe1, 0x9b,
  0xf6, 0x1b, 0x12, 0x9a, 0x5f, 0x10, 0x1d, 0xa0, 0x1b, 0x93, 0xf2, 0x1b,
  0xfa, 0x21, 0x9b, 0x1c, 0xea, 0x9f, 0x96, 0x09, 0x55, 0x1a, 0x3d, 0x9c,
  0x6a, 0x0f, 0x5d, 0x0a, 0xbc, 0x9d, 0x12, 0x9c, 0x33, 0x99, 0x40, 0x91,
  0x40, 0x1c, 0xec, 0x99, 0x2b, 0x19, 0xff, 0x1b, 0x22, 0x22, 0x1d, 0x21,
  0x36, 0x9f, 0x3c, 0x9a, 0x41, 0x99, 0x37, 0x97, 0x6f, 0x15, 0xe2, 0x1c,
  0x96, 0x9a, 0xf6, 0x99, 0x5e, 0x1a, 0x0b, 0x9a, 0x32, 0x16, 0x09, 0x18,
  0xf0, 0x99, 0x2b, 0x1b, 0x5a, 0x21, 0x55, 0x20, 0x5d, 0xa0, 0xba, 0x98,
  0xa4, 0x9b, 0x4b, 0x8f, 0x42, 0x15, 0x2b, 0x19, 0x3e, 0x17, 0x3b, 0x9e,
  0x2a, 0x93, 0xc2, 0x98, 0x28, 0x9b, 0x43, 0x1f, 0x79, 0x9a, 0x52, 0x20,
  0xa2, 0x1d, 0xdd, 0x1a, 0x4d, 0x9e, 0x32, 0x16, 0x6a, 0x99, 0x05, 0x12,
  0xaf, 0x16, 0x19, 0x1d, 0xb7, 0x0c, 0x38, 0x9f, 0x5f, 0x93, 0x53, 0x9c,
  0x31, 0x1c, 0xa5, 0x1f, 0x49, 0x9c, 0x4b, 0x1a, 0xd6, 0x1c, 0x2e, 0x14,
  0xf5, 0x9d, 0x19, 0x14, 0x8f, 0x9d, 0x7c, 0x96, 0x03, 0x91, 0xd7, 0x1a,
  0xa4, 0x98, 0xac, 0xa2, 0xc4, 0x11, 0x44, 0x92, 0x1f, 0x97, 0x8e, 0x1d,
  0x5a, 0x99, 0xa6, 0x99, 0xe0, 0x00, 0x30, 0x0f, 0x57, 0x92, 0x9f, 0x18,
  0x7e, 0x9b, 0x21, 0x19, 0xf6, 0x98, 0x60, 0x1b, 0xbb, 0x10, 0xab, 0xa1,
  0xee, 0x92, 0xf4, 0x93, 0x57, 0x94, 0x56, 0x1a, 0x7c, 0x1a, 0x56, 0x95,
  0x66, 0x08, 0x05, 0x19, 0x1f, 0x80, 0x53, 0x1a, 0x4f, 0x9b, 0x57, 0x15,
  0xe7, 0x99, 0x18, 0x18, 0xd1, 0x9a, 0x17, 0xa1, 0xcf, 0x84, 0x5d, 0x1c,
  0xbe, 0x9d, 0x14, 0x1d, 0x23, 0x1f, 0x42, 0x93, 0x2a, 0x03, 0x99, 0x06,
  0x35, 0x16, 0x98, 0x97, 0x6e, 0x94, 0x33, 0x96, 0x5a, 0x90, 0xff, 0x14,
  0x22, 0x9d, 0x80, 0xa0, 0x3b, 0x19, 0x8d, 0x11, 0x68, 0x98, 0xfc, 0x1a,
  0x00, 0x1f, 0xbf, 0x15, 0xee, 0x9b, 0xa6, 0x19, 0xa7, 0x1c, 0x4c, 0x97,
  0x9b, 0x97, 0x92, 0x96, 0xfe, 0x8e, 0x9a, 0x1c, 0x6d, 0x11, 0x0e, 0x9c,
  0xfe, 0x1a, 0xc6, 0x04, 0x97, 0x18, 0x35, 0x97, 0x28, 0x20, 0xb3, 0x9b,
  0x99, 0x92, 0x02, 0x15, 0xc6, 0x98, 0x39, 0x9c, 0x0f, 0x9d, 0xa0, 0x8e,
  0x7d, 0x99, 0xc5, 0x1d, 0xde, 0x1d, 0x3a, 0x9c, 0xab, 0x1a, 0x0a, 0x1d,
  0x5b, 0x17, 0x39, 0x9a, 0x3c, 0x1d, 0x21, 0x9b, 0x90, 0x99, 0x49, 0x01,
  0x25, 0x94, 0xa6, 0x9c, 0xb1, 0x9c, 0x05, 0x98, 0x33, 0x90, 0x74, 0x99,
  0x13, 0x97, 0x73, 0x9d, 0x5b, 0x1f, 0xd2, 0x20, 0x26, 0x1c, 0x9e, 0x99,
  0xad, 0x1f, 0x27, 0x9c, 0x91, 0x90, 0x4a, 0x8d, 0x46, 0x9c, 0x8b, 0x97,
  0xe2, 0x99, 0x6b, 0x18, 0xe6, 0x9d, 0x39, 0x19, 0xc4, 0x14, 0xff, 0xa0,
  0x96, 0x80, 0x72, 0x1e, 0xa8, 0x1f, 0xa9, 0x9e, 0x68, 0x1d, 0xf2, 0x19,
  0xbf, 0x14, 0x91, 0x97, 0xf8, 0x14, 0x99, 0x14, 0x44, 0x9d, 0x44, 0x18,
  0x4e, 0x16, 0xa7, 0x0c, 0xce, 0x9c, 0x88, 0xa2, 0x7e, 0x98, 0x9d, 0x0c,
  0x7a, 0x1d, 0x51, 0x9f, 0x95, 0x19, 0xb8, 0x95, 0xf2, 0x9a, 0x16, 0x06,
  0x0c, 0x98, 0xbc, 0x9d, 0xc8, 0x95, 0x57, 0x19, 0xe0, 0x8c, 0xb2, 0x1b,
  0x41, 0x86, 0x8d, 0x9a, 0xc0, 0x98, 0x03, 0x91, 0x0b, 0x1c, 0xb1, 0x9a,
  0x9c, 0x1c, 0x96, 0x16, 0x70, 0x98, 0x60, 0x17, 0x6f, 0x9c, 0x14, 0x9e,
  0x24, 0x9d, 0x74, 0x18, 0x8c, 0x9c, 0x8b, 0x16, 0x14, 0x1c, 0x6e, 0xa0,
  0xc6, 0x98, 0x08, 0x19, 0x61, 0x1a, 0xee, 0x94, 0xcd, 0x1a, 0xcb, 0x12,
  0x8f, 0x03, 0xbb, 0x17, 0xdf, 0x00, 0x67, 0x9b, 0xc0, 0x9c, 0xaa, 0x18,
  0xf4, 0x9c, 0xd1, 0x17, 0xe9, 0x1a, 0x51, 0x94, 0xd2, 0x94, 0x08, 0x16,
  0xaa, 0x12, 0xe2, 0x8c, 0x41, 0x1b, 0x38, 0x19, 0x55, 0x97, 0x70, 0x9e,
  0x40, 0x1a, 0xc4, 0x9a, 0x9d, 0x9d, 0xcc, 0x1b, 0x9a, 0x1b, 0x83, 0x96,
  0x4e, 0x1d, 0xe6, 0x98, 0x7c, 0x98, 0x13, 0x14, 0x67, 0x1c, 0xf3, 0x94,
  0x12, 0x17, 0xca, 0x1d, 0x7b, 0x9d, 0x13, 0x9b, 0x3a, 0x0e, 0x7c, 0x9b,
  0x3d, 0xa1, 0xdf, 0x82, 0xce, 0x99, 0x2b, 0x1c, 0xb8, 0x1c, 0x79, 0x9c,
  0xde, 0x9b, 0x8d, 0x16, 0x03, 0x9d, 0xc9, 0x09, 0x12, 0x14, 0xb4, 0x0f,
  0xb8, 0x93, 0x17, 0x9f, 0xc0, 0x08, 0x36, 0x95, 0xbf, 0xa0, 0x91, 0x17,
  0x58, 0x94, 0x1c, 0x15, 0x6d, 0x12, 0x69, 0x84, 0x07, 0x9d, 0x8b, 0x15,
  0x84, 0x91, 0xba, 0x1d, 0xa9, 0x8f, 0x3d, 0x1a, 0x08, 0x9a, 0x34, 0x9c,
  0xaa, 0x12, 0xa3, 0x9a, 0x15, 0x9d, 0x2d, 0x1c, 0x25, 0x9d, 0x45, 0x8c,
  0x43, 0x19, 0x77, 0x98, 0xce, 0x99, 0x22, 0x19, 0x72, 0x1a, 0x00, 0x17,
  0x7d, 0x9e, 0x28, 0x1c, 0x58, 0x9d, 0xaa, 0x14, 0xb5, 0x8c, 0x06, 0x9c,
  0x4e, 0xa2, 0xdc, 0x1d, 0xb2, 0x10, 0xed, 0x97, 0xaa, 0x98, 0x22, 0x9b,
  0x2d, 0x9a, 0x96, 0x94, 0xfb, 0x94, 0xfb, 0x12, 0xb0, 0x9e, 0xdf, 0x19,
  0x9b, 0x97, 0x70, 0x98, 0x43, 0x9d, 0x2e, 0x99, 0x98, 0x9e, 0xf7, 0x1c,
  0x71, 0x9d, 0xf9, 0x90, 0x44, 0x13, 0x92, 0x99, 0x97, 0x99, 0x49, 0x98,
  0x2d, 0x94, 0x14, 0x19, 0xf6, 0x9c, 0x6e, 0x1b, 0xbc, 0x98, 0xc2, 0x99,
  0x22, 0x97, 0xf8, 0x98, 0x4f, 0xa0, 0xc8, 0x1d, 0x2d, 0x94, 0x5c, 0x9e,
  0x0f, 0x90, 0x9e, 0x1c, 0xb0, 0x98, 0xbe, 0x91, 0x7d, 0x0c, 0x6a, 0x14,
  0x54, 0x9d, 0xfb, 0x1a, 0x28, 0x95, 0xad, 0x97, 0x2c, 0x9d, 0xf0, 0x00,
  0xb1, 0x9d, 0x71, 0x1c, 0x42, 0x14, 0xf1, 0x9a, 0x9b, 0x93, 0xc4, 0x1d,
  0xcd, 0x98, 0x6e, 0x0f, 0x32, 0x19, 0xea, 0x99, 0x50, 0x15, 0x92, 0x0d,
  0x01, 0x98, 0x91, 0x8d, 0xe9, 0x9b, 0xfd, 0x1c, 0x81, 0xa3, 0xbd, 0x1a,
  0xd0, 0x1a, 0x30, 0x9c, 0x8c, 0x14, 0x68, 0x17, 0xfe, 0x93, 0xff, 0x96,
  0xe2, 0x19, 0x40, 0x9c, 0x7c, 0x95, 0x08, 0x99, 0x89, 0x9d, 0x96, 0x96,
  0x84, 0x9a, 0x18, 0x0a, 0x76, 0x98, 0xf2, 0x1b, 0xc3, 0x19, 0x63, 0x82,
  0x0c, 0x1c, 0x83, 0x18, 0x9d, 0x9a, 0xc8, 0x17, 0xda, 0x18, 0xf5, 0x9c,
  0x0d, 0x95, 0x73, 0x8e, 0x0e, 0x8d, 0x7a, 0x03, 0x14, 0x99, 0xd7, 0x91,
  0xf2, 0x9b, 0x86, 0x81, 0x76, 0x96, 0xe0, 0x99, 0xb7, 0x0b, 0x4c, 0x1b,
  0x26, 0x94, 0x17, 0x98, 0x0a, 0x19, 0x71, 0x9f, 0x19, 0x14, 0x44, 0x9a,
  0xe7, 0x04, 0xba, 0x8f, 0x04, 0x8f, 0xe3, 0x0d, 0x58, 0x9d, 0x41, 0x92,
  0x52, 0x1d, 0xd4, 0x97, 0x7c, 0x18, 0x0f, 0x0f, 0x4a, 0x97, 0x30, 0x98,
  0x67, 0x87, 0xf7, 0x9b, 0x27, 0x1c, 0x7c, 0x14, 0x6e, 0x18, 0x5c, 0x95,
  0x09, 0x18, 0xfa, 0x95, 0x3c, 0x0a, 0xa5, 0x19, 0x0c, 0x9a, 0xb7, 0x92,
  0xca, 0x9d, 0x46, 0x1d, 0xad, 0x10, 0x00, 0x11, 0x8e, 0x96, 0xc4, 0x0f,
  0xcd, 0x1c, 0x37, 0x12, 0x5c, 0x90, 0xa0, 0x9d, 0x1a, 0x92, 0xb3, 0x14,
  0xc7, 0x0f, 0x70, 0x1c, 0x09, 0x9a, 0x4c, 0x9c, 0xc3, 0x99, 0x96, 0x1b,
  0x3a, 0x99, 0xe9, 0x18, 0xb2, 0x14, 0x49, 0x19, 0x2c, 0x15, 0xb8, 0x91,
  0xe3, 0x98, 0xbb, 0x9e, 0x1d, 0x15, 0xc4, 0x99, 0x06, 0x1c, 0x65, 0x97,
  0x4d, 0x12, 0xf7, 0x9a, 0xbb, 0x9c, 0x7a, 0x90, 0xb4, 0x15, 0x0e, 0x90,
  0x9c, 0x1c, 0x85, 0x97, 0x8d, 0x90, 0x73, 0x9b, 0x74, 0x8d, 0xb3, 0x9e,
  0x0e, 0x1c, 0x3a, 0x9a, 0x2c, 0x11, 0x1d, 0x95, 0x07, 0x15, 0x0a, 0x9c,
  0x93, 0x94, 0x9d, 0x97, 0x45, 0x96, 0x98, 0xa1, 0xf0, 0x1c, 0x9a, 0x95,
  0x3c, 0x8d, 0x13, 0x9b, 0x19, 0x9c, 0x79, 0x9b, 0x32, 0x12, 0xec, 0x98,
  0x36, 0x1e, 0x91, 0x13, 0xec, 0x0f, 0xab, 0x98, 0xbd, 0x0e, 0xcf, 0x12,
  0xe2, 0x9a, 0x46, 0x98, 0xbc, 0x1b, 0x0c, 0x95, 0xc1, 0x16, 0xa1, 0x19,
  0x15, 0x92, 0x5b, 0x99, 0x5b, 0x16, 0xeb, 0x12, 0x05, 0x1a, 0x01, 0x15,
  0xd8, 0x9a, 0x04, 0x93, 0x86, 0x8c, 0x80, 0x89, 0x84, 0x8c, 0xb6, 0x9b,
  0x92, 0x18, 0xa5, 0x16, 0x73, 0x9b, 0x7f, 0x1b, 0x7f, 0x9d, 0xac, 0x9a,
  0x1e, 0x1a, 0x76, 0x98, 0xc8, 0x1c, 0x25, 0x1c, 0x19, 0x9d, 0x2e, 0x0f,
  0x91, 0x9c, 0x48, 0x18, 0xea, 0x8f, 0x2e, 0x9a, 0x45, 0x95, 0x42, 0x19,
  0xc2, 0x9c, 0x52, 0x93, 0x99, 0x9c, 0x70, 0x9e, 0x88, 0x1b, 0xb1, 0x1f,
  0x56, 0x1f, 0x13, 0x1d, 0x29, 0x9e, 0x62, 0x94, 0x51, 0x8e, 0xcf, 0x9c,
  0xf8, 0x9a, 0xd8, 0x99, 0x58, 0x1a, 0x21, 0x18, 0x95, 0x0e, 0xcc, 0xa0,
  0x37, 0x9b, 0x26, 0x97, 0x6f, 0x9c, 0x8d, 0x98, 0xb0, 0x1c, 0xf8, 0x98,
  0x66, 0x9b, 0x64, 0x96, 0xbf, 0x9b, 0x6b, 0x1a, 0xec, 0x97, 0xb8, 0x9a,
  0xdc, 0x97, 0x7b, 0x8f, 0x9e, 0x95, 0x38, 0x15, 0x5d, 0x15, 0xc2, 0x92,
  0x25, 0x09, 0xbb, 0x93, 0xd3, 0x1f, 0x66, 0x9a, 0xd6, 0x99, 0xe1, 0x94,
  0x12, 0x9c, 0xb6, 0x1f, 0x9d, 0x82, 0xca, 0x98, 0x77, 0x18, 0xed, 0x99,
  0xfc, 0x98, 0xde, 0x19, 0x07, 0x17, 0xae, 0x95, 0xc0, 0x85, 0x87, 0x81,
  0x90, 0x20, 0xf4, 0x9a, 0x09, 0x19, 0x63, 0x95, 0x6f, 0x99, 0xb8, 0x1c,
  0x67, 0x19, 0xe3, 0x15, 0x52, 0x1e, 0x90, 0x97, 0xbb, 0x99, 0xff, 0x16,
  0x17, 0x11, 0x7e, 0x94, 0x15, 0x9a, 0xaf, 0x9a, 0xb1, 0x19, 0x5b, 0x81,
  0x32, 0x1a, 0xc6, 0x90, 0xe5, 0x9f, 0xd7, 0x98, 0x49, 0x94, 0xd7, 0x08,
  0xdb, 0x1e, 0x03, 0x90, 0xc3, 0x99, 0xcd, 0x1a, 0x78, 0x18, 0x48, 0x19,
  0x87, 0x1c, 0x55, 0x9d, 0xf5, 0x1c, 0x7c, 0x05, 0x79, 0x1f, 0xf5, 0x98,
  0x93, 0x9c, 0xdd, 0x1a, 0x8f, 0x99, 0x4e, 0x94, 0xf5, 0x18, 0xda, 0x8d,
  0xae, 0x87, 0xb9, 0x1b, 0x78, 0x91, 0xc5, 0x1b, 0x7d, 0x18, 0xa1, 0x9e,
  0x41, 0x1c, 0x07, 0x1b, 0xdc, 0x1b, 0x29, 0x19, 0x23, 0x9c, 0x11, 0x1e,
  0x14, 0x9d, 0xa8, 0x97, 0x59, 0x9b, 0x3c, 0x19, 0xe9, 0x96, 0x20, 0x1b,
  0x5f, 0x9a, 0x40, 0x94, 0x63, 0x8f, 0xa5, 0xa1, 0x14, 0x20, 0x64, 0x95,
  0x77, 0x1c, 0xd9, 0x9c, 0x18, 0x99, 0xee, 0x1b, 0x96, 0x14, 0x76, 0x18,
  0xec, 0x98, 0x09, 0x1c, 0x62, 0x98, 0xaa, 0x1c, 0x05, 0x94, 0x58, 0x16,
  0xf0, 0x1a, 0x81, 0x9c, 0xd8, 0x1d, 0x92, 0x98, 0x06, 0x20, 0xc4, 0x1b,
  0x5a, 0x96, 0xea, 0x1d, 0x9f, 0x9b, 0x8f, 0x0c, 0x0e, 0x9a, 0x46, 0x18,
  0x53, 0x9a, 0x18, 0x1c, 0x5d, 0x94, 0x35, 0x95, 0xb9, 0x0a, 0x5a, 0x9f,
  0x7e, 0x19, 0x4a, 0x9f, 0x85, 0x1d, 0x2a, 0x0c, 0x47, 0x16, 0x54, 0x8f,
  0xe9, 0x92, 0xf5, 0x9c, 0xce, 0x94, 0xd2, 0x1d, 0x9c, 0x98, 0x03, 0x9a,
  0x0d, 0x9d, 0x0c, 0x16, 0xcc, 0x9a, 0x9b, 0x98, 0x3d, 0x1d, 0x71, 0xa1,
  0x2b, 0x1b, 0xef, 0x92, 0x30, 0x10, 0xfd, 0x19, 0xac, 0x96, 0x04, 0x98,
  0xf7, 0x96, 0xf3, 0x09, 0x38, 0x98, 0xdb, 0x11, 0x24, 0x98, 0xdc, 0x94,
  0xe3, 0x97, 0x50, 0x9b, 0xdc, 0x19, 0x1d, 0x9c, 0x68, 0x1d, 0xfe, 0x19,
  0x1d, 0x91, 0x9b, 0x09, 0xcb, 0x98, 0xf4, 0x98, 0xcf, 0x9b, 0x4b, 0x8f,
  0x67, 0x06, 0xce, 0x1a, 0x0f, 0x9d, 0x89, 0x1c, 0xe1, 0x0f, 0xe6, 0x1e,
  0x31, 0x1c, 0x5c, 0x9f, 0xb6, 0x21, 0xf9, 0x15, 0x48, 0x9d, 0x92, 0x14,
  0x1e, 0x14, 0xae, 0x9b, 0xc0, 0x94, 0xc2, 0x9e, 0x98, 0x99, 0xd2, 0x8b,
  0xf2, 0x98, 0x8c, 0x93, 0xaa, 0x19, 0x21, 0x1c, 0x02, 0x95, 0xa8, 0x9c,
  0x69, 0x1b, 0x26, 0x14, 0x2c, 0x95, 0x4e, 0x15, 0x9f, 0x1a, 0x47, 0x0a,
  0x0c, 0x18, 0x35, 0x9b, 0x17, 0x1b, 0x9c, 0x18, 0x14, 0x9d, 0x95, 0x13,
  0x58, 0x97, 0x42, 0x0b, 0xa0, 0x88, 0xe2, 0x8b, 0xda, 0x1c, 0x6c, 0x83,
  0x12, 0x1d, 0x31, 0x17, 0xe6, 0x1f, 0x6f, 0x0e, 0x65, 0x11, 0xed, 0x99,
  0xc3, 0x19, 0x45, 0x17, 0x57, 0x9a, 0xdd, 0x9a, 0x24, 0x18, 0x95, 0x95,
  0x43, 0x97, 0x50, 0xa0, 0xc9, 0x1d, 0x82, 0x18, 0x4d, 0x9a, 0xd3, 0x0f,
  0xb9, 0x1c, 0xf5, 0x18, 0x4c, 0x15, 0xe6, 0x03, 0xd7, 0x10, 0x11, 0x1e,
  0x72, 0x12, 0x00, 0x16, 0x40, 0x18, 0xcb, 0x1b, 0x62, 0x13, 0x4e, 0x96,
  0x93, 0x1c, 0x85, 0x1f, 0x3d, 0x14, 0xb3, 0x1c, 0x1c, 0x1b, 0xb2, 0x84,
  0x73, 0x0d, 0x5a, 0x17, 0xfd, 0x17, 0x1c, 0x12, 0xcb, 0x02, 0x22, 0x18,
  0xa2, 0x13, 0xe0, 0x16, 0xf5, 0x14, 0x59, 0x9c, 0x4c, 0x0d, 0xb5, 0x97,
  0x5f, 0x1c, 0xf2, 0x16, 0x53, 0x1a, 0xe2, 0x1b, 0x43, 0x8d, 0x5b, 0x9c,
  0x07, 0x11, 0x87, 0x9b, 0x95, 0x1e, 0x7e, 0x17, 0xea, 0x18, 0xab, 0x1c,
  0xc2, 0x90, 0x65, 0x9c, 0xbd, 0x11, 0x4c, 0x1a, 0x91, 0x18, 0x6a, 0x9b,
  0x66, 0x1c, 0x02, 0x1f, 0x03, 0x1a, 0xa5, 0x99, 0x7c, 0x8c, 0xe6, 0x99,
  0xb0, 0x1f, 0xab, 0x1c, 0xbb, 0x19, 0x6a, 0x91, 0xeb, 0x17, 0x4f, 0x9b,
  0x18, 0x14, 0x5a, 0x92, 0xa5, 0x03, 0x82, 0x99, 0xcf, 0x0f, 0x27, 0x20,
  0x2d, 0x97, 0x8c, 0x1c, 0xd4, 0x15, 0x10, 0x9b, 0x32, 0x1e, 0xcd, 0x94,
  0x1e, 0x0e, 0x3e, 0x16, 0xe0, 0x82, 0x5c, 0x99, 0xf4, 0x90, 0x5c, 0x12,
  0x41, 0x9b, 0x1a, 0x9f, 0x8d, 0x18, 0x91, 0x21, 0x65, 0x9a, 0xa4, 0x1d,
  0xe1, 0x1a, 0x10, 0xa0, 0x92, 0x1d, 0xc0, 0x18, 0xa2, 0x96, 0x65, 0x84,
  0xfa, 0x8d, 0x94, 0x9a, 0x98, 0x91, 0x96, 0x15, 0xb2, 0x9a, 0x98, 0x9a,
  0x1c, 0x18, 0xb4, 0x15, 0xd9, 0x93, 0x9e, 0x1a, 0x3b, 0x1f, 0xda, 0x9a,
  0xf9, 0x14, 0xb9, 0x9b, 0x4d, 0x99, 0xe7, 0x06, 0xea, 0x9b, 0x30, 0x9d,
  0xbb, 0x13, 0xf1, 0x94, 0x8b, 0x18, 0xad, 0x9d, 0x38, 0x1b, 0xb1, 0x19,
  0x64, 0x99, 0x61, 0x1a, 0xb6, 0x21, 0x4e, 0x99, 0x6b, 0x1c, 0x86, 0x8d,
  0xb1, 0x10, 0x3b, 0x9c, 0xe6, 0x14, 0x1e, 0x9a, 0x1e, 0x15, 0xf0, 0x90,
  0xfd, 0x1e, 0x5c, 0x98, 0xa1, 0x1f, 0x59, 0x21, 0x6c, 0x93, 0xd2, 0x1c,
  0xe2, 0x20, 0x9f, 0x9f, 0xbc, 0x1d, 0xd0, 0x9b, 0x62, 0x9f, 0xea, 0x9a,
  0x9e, 0x1a, 0xcb, 0x9a, 0x94, 0x87, 0x7d, 0x98, 0x8b, 0x1d, 0xce, 0x94,
  0x82, 0x19, 0x81, 0x1f, 0xd0, 0x96, 0x38, 0x1a, 0x98, 0x20, 0xed, 0x82,
  0x39, 0x1c, 0x3e, 0x0a, 0x71, 0x19, 0x8d, 0x9d, 0x9a, 0x9c, 0x04, 0x8d,
  0x2e, 0x90, 0x36, 0x9c, 0x07, 0x20, 0xd3, 0x8d, 0x49, 0x1c, 0x2e, 0x20,
  0xd8, 0x8c, 0x05, 0x19, 0x67, 0x20, 0x9a, 0x13, 0x10, 0x1e, 0x9d, 0x1d,
  0xbc, 0x8c, 0xab, 0x99, 0x5e, 0x99, 0x35, 0x18, 0xd4, 0x06, 0x83, 0x16,
  0x91, 0x19, 0x51, 0x11, 0x3d, 0x8e, 0xfa, 0x1d, 0x16, 0x13, 0xfb, 0x9c,
  0x4f, 0x1e, 0x35, 0x19, 0x3a, 0x88, 0xa2, 0x17, 0x5d, 0x92, 0x85, 0x9d,
  0x6b, 0x9c, 0x42, 0x92, 0x6f, 0x15, 0xaf, 0x98, 0x7d, 0x21, 0xd4, 0x9c,
  0x0c, 0x1e, 0xc9, 0x21, 0x55, 0x0a, 0x47, 0x9e, 0xf2, 0x17, 0xfe, 0x17,
  0x86, 0x1c, 0xee, 0x17, 0x36, 0x9d, 0x66, 0x9c, 0x2a, 0x1b, 0x25, 0x97,
  0x7f, 0x18, 0xac, 0x18, 0x02, 0x18, 0x19, 0x9d, 0x61, 0x92, 0x2c, 0x1f,
  0xbc, 0x14, 0x4b, 0xa1, 0xf8, 0x19, 0xa7, 0x9b, 0x92, 0x1e, 0xcb, 0x1e,
  0x05, 0x90, 0xc7, 0x9d, 0xc1, 0x96, 0xbf, 0x17, 0xab, 0x89, 0x70, 0x90,
  0x56, 0x1a, 0xcc, 0x9d, 0xa2, 0x94, 0x54, 0x20, 0x51, 0x19, 0xb2, 0x99,
  0xc6, 0x17, 0xef, 0x10, 0x52, 0x1c, 0x45, 0x0e, 0xed, 0x91, 0x77, 0xa0,
  0x69, 0x1b, 0xe9, 0x15, 0xf5, 0x1d, 0xb0, 0x8c, 0x06, 0x1d, 0xaa, 0x98,
  0xfb, 0x9c, 0x19, 0x1d, 0xe0, 0x1a, 0xbb, 0x98, 0xa1, 0x9b, 0x7d, 0x1b,
  0x98, 0x1a, 0x54, 0x16, 0x4b, 0x88, 0x60, 0xa0, 0x50, 0x94, 0xdd, 0x13,
  0xea, 0x1e, 0x0a, 0x8b, 0xc3, 0x1c, 0x9f, 0x9c, 0xc2, 0x9b, 0x8e, 0x1e,
  0x3c, 0x1a, 0x00, 0xa1, 0x48, 0x1b, 0x11, 0x19, 0xca, 0x16, 0xa4, 0x1c,
  0xc6, 0x04, 0xef, 0xa0, 0xa3, 0x12, 0x75, 0x17, 0x31, 0x1e, 0xe9, 0x95,
  0xf0, 0x1b, 0xf6, 0x9b, 0x29, 0x9f, 0x56, 0x21, 0x79, 0x19, 0x5d, 0x9d,
  0x5e, 0x18, 0xf6, 0x1f, 0xc0, 0x18, 0x01, 0x98, 0x5a, 0x13, 0x41, 0x9d,
  0x0f, 0x9d, 0x59, 0x16, 0xd1, 0x1a, 0x04, 0x9f, 0x6f, 0x16, 0x71, 0xa1,
  0xba, 0x9c, 0x79, 0x1e, 0x20, 0x89, 0xdc, 0x9c, 0xc2, 0x1d, 0x19, 0x20,
  0x46, 0x05, 0x2a, 0x8c, 0x6f, 0x1b, 0x7e, 0x9c, 0x19, 0x9f, 0x84, 0x15,
  0xb4, 0x16, 0xfe, 0x99, 0xce, 0x9c, 0x43, 0x9e, 0x48, 0xa0, 0xa5, 0x19,
  0x97, 0x95, 0x28, 0x1c, 0xcb, 0x1e, 0x4c, 0x20, 0x7c, 0x98, 0x2a, 0x9d,
  0x16, 0x1d, 0x70, 0x96, 0x33, 0x9c, 0xcc, 0x0a, 0x90, 0x1d, 0x23, 0x9d,
  0xbf, 0x92, 0x3f, 0x9c, 0x1a, 0xa1, 0xa9, 0x12, 0xe6, 0x16, 0xd0, 0x1a,
  0x2a, 0x1c, 0x1e, 0x1e, 0xa5, 0x9c, 0xa9, 0x99, 0x62, 0x94, 0x8c, 0x93,
  0x4d, 0x9b, 0xdc, 0x9a, 0xaf, 0x1c, 0x4f, 0x9e, 0xdf, 0x1d, 0x94, 0xa0,
  0x02, 0xa1, 0x3e, 0x19, 0x0d, 0x1d, 0x88, 0x19, 0x41, 0x20, 0xc2, 0x1e,
  0x5f, 0xa0, 0xec, 0xa0, 0x30, 0x1a, 0xe5, 0x98, 0xf6, 0x9d, 0x87, 0x94,
  0xb6, 0x1c, 0xb8, 0x9e, 0x6b, 0x1d, 0xc2, 0x17, 0x2f, 0x9c, 0xee, 0x18,
  0x47, 0x95, 0xbe, 0x99, 0x31, 0x1b, 0x25, 0x1d, 0x62, 0x9f, 0xf2, 0x9f,
  0x46, 0x1e, 0x00, 0x1c, 0x62, 0x9c, 0x88, 0x96, 0xf9, 0x93, 0x34, 0x9e,
  0x13, 0x20, 0x5d, 0x9e, 0x07, 0x9e, 0x9c, 0x18, 0x54, 0x94, 0xa7, 0x95,
  0x24, 0x16, 0xfd, 0x1b, 0x50, 0xa1, 0x28, 0xa0, 0xbf, 0x1e, 0x28, 0x17,
  0x37, 0x96, 0xf7, 0x9d, 0xe0, 0x1c, 0xc0, 0x9c, 0xcb, 0x1a, 0x02, 0x98,
  0xf5, 0x9d, 0xfb, 0x1c, 0x53, 0x16, 0x01, 0xa0, 0x00, 0x1c, 0x27, 0x1d,
  0xbf, 0xa0, 0x7a, 0x9c, 0xac, 0x20, 0x68, 0x81, 0xce, 0xa1, 0x6b, 0x80,
  0x16, 0x1a, 0xfc, 0x9e, 0xaf, 0x95, 0x45, 0x9e, 0x6a, 0x9d, 0x2c, 0x21,
  0x7a, 0x1f, 0x27, 0x9f, 0x20, 0x8d, 0x91, 0x04, 0xfe, 0x9f, 0xd9, 0x9f,
  0x0f, 0x21, 0x7d, 0x95, 0xa8, 0x9d, 0x9e, 0x13, 0x0e, 0x1a, 0x9f, 0xa0,
  0x07, 0x99, 0xfe, 0xa0, 0x32, 0x9e, 0xf6, 0x18, 0xa0, 0x1e, 0xdd, 0x9e,
  0xd0, 0x18, 0xac, 0x9b, 0x2b, 0x9f, 0x65, 0x99, 0x15, 0x20, 0x99, 0x15,
  0xaa, 0x9b, 0x97, 0x15, 0x4e, 0x20, 0x5d, 0x98, 0xf4, 0x89, 0xd6, 0x9d,
  0x1d, 0x9b, 0x79, 0x1c, 0xf2, 0x19, 0x69, 0x99, 0xa3, 0x19, 0x36, 0xa2,
  0x53, 0x9d, 0x48, 0x9d, 0x95, 0x1e, 0x38, 0x97, 0x9c, 0x9e, 0x7d, 0x18,
  0xc3, 0x1f, 0xca, 0x9e, 0xe6, 0x1c, 0x2e, 0x9c, 0x00, 0x9b, 0x8c, 0x94,
  0xbc, 0x1c, 0x95, 0x9a, 0x96, 0x1e, 0x8f, 0x9d, 0x57, 0x9d, 0xe3, 0x9c,
  0x92, 0x1f, 0xb1, 0x9e, 0xba, 0x9d, 0x13, 0x18, 0x7f, 0x1f, 0xa2, 0x9d,
  0x5c, 0x1e, 0x33, 0x96, 0x2d, 0xa1, 0x14, 0x94, 0xba, 0x1c, 0xed, 0x16,
  0x51, 0x1f, 0x42, 0x99, 0x47, 0x9e, 0x26, 0x9d, 0x2a, 0x20, 0x83, 0x9a,
  0x7a, 0x9c, 0x41, 0x9a, 0x36, 0x20, 0x7b, 0x9c, 0x12, 0x1b, 0xc0, 0x18,
  0xd8, 0x9e, 0x58, 0x1c, 0x46, 0x18, 0xc7, 0x9e, 0x2d, 0x21, 0x6f, 0x9d,
  0xdd, 0x98, 0x1b, 0x99, 0xa8, 0x22, 0x7f, 0x95, 0x18, 0xa2, 0x7c, 0x00,
  0x63, 0x21, 0x35, 0x9a, 0xd9, 0x17, 0xaa, 0x9a, 0x08, 0x9f, 0xc2, 0x1b,
  0xc3, 0x1c, 0x68, 0x12, 0x9f, 0x20, 0x7c, 0xa2, 0x18, 0x94, 0x06, 0x1a,
  0x09, 0x22, 0xce, 0x9b, 0x5a, 0x9c, 0x86, 0x0e, 0xe3, 0x21, 0x5e, 0x9d,
  0x66, 0x18, 0x17, 0x9c, 0xea, 0x9c, 0x90, 0x16, 0x76, 0x14, 0x8c, 0x99,
  0xbc, 0x1d, 0x6f, 0x9b, 0x6c, 0x99, 0x02, 0x9a, 0xa2, 0x20, 0x6e, 0x9f,
  0xee, 0x9e, 0xc3, 0x1a, 0x16, 0x21, 0x49, 0x9d, 0x04, 0x93, 0x8f, 0x9c,
  0x91, 0xa1, 0x16, 0x1d, 0x1e, 0x11, 0x5f, 0x1e, 0xf9, 0x20, 0x05, 0x1b,
  0x51, 0x9b, 0x91, 0x9c, 0xbe, 0x1d, 0x3a, 0x98, 0xa5, 0x9e, 0xc3, 0x03,
  0x7f, 0x22, 0xde, 0x9d, 0x53, 0x95, 0x40, 0x10, 0x0e, 0xa0, 0xd8, 0x1d,
  0x23, 0x14, 0xe9, 0x1e, 0xe9, 0x19, 0x5b, 0x9c, 0x89, 0x90, 0x81, 0x97,
  0x5b, 0x1b, 0x61, 0x16, 0x22, 0xa0, 0x4b, 0x1d, 0xbd, 0x1e, 0xb1, 0x01,
  0x8c, 0x94, 0x26, 0x8d, 0x1a, 0x9e, 0x98, 0x94, 0xe2, 0x97, 0x2c, 0x1d,
  0xcc, 0x85, 0x22, 0x8c, 0x38, 0x98, 0x88, 0x95, 0x52, 0x1e, 0x55, 0x0f,
  0x02, 0xa1, 0x8c, 0x95, 0x18, 0x1f, 0x74, 0x9e, 0x2e, 0x9b, 0xa7, 0x0c,
  0xcf, 0x9e, 0x43, 0x18, 0xee, 0x17, 0x35, 0x91, 0xe2, 0x18, 0x22, 0x1a,
  0x29, 0x9c, 0xac, 0x9c, 0x9f, 0x1b, 0x26, 0x01, 0xed, 0x9b, 0xe7, 0x1d,
  0x7a, 0x1d, 0xc4, 0x95, 0xec, 0x8e, 0xb8, 0x15, 0x18, 0x9e, 0x13, 0x1c,
  0xfa, 0x9c, 0xd6, 0x98, 0x94, 0x97, 0x2c, 0x1c, 0xc0, 0x9c, 0x0f, 0x95,
  0x4b, 0x94, 0x50, 0x19, 0xb1, 0x92, 0xce, 0x1e, 0xc6, 0x1a, 0x94, 0x98,
  0xdd, 0x8c, 0x2e, 0x99, 0xbd, 0x9f, 0xac, 0x1c, 0x40, 0x17, 0x22, 0x9f,
  0x36, 0x9b, 0x76, 0x1f, 0xc4, 0x99, 0xc3, 0x94, 0xab, 0x19, 0xf8, 0x8f,
  0xcb, 0x8a, 0xcf, 0x1f, 0x9d, 0x21, 0x0e, 0x97, 0x80, 0x97, 0x65, 0x10,
  0x3f, 0xa2, 0x45, 0x1a, 0x8e, 0x0e, 0xf8, 0x9d, 0xd7, 0x8d, 0x69, 0x1e,
  0xc0, 0x98, 0x76, 0x95, 0x7c, 0x0c, 0x11, 0x1a, 0x37, 0x90, 0xe4, 0x1f,
  0x43, 0x20, 0x9d, 0x96, 0x4f, 0x9d, 0xc0, 0x9a, 0xf4, 0x9d, 0xe5, 0x06,
  0xc9, 0x1b, 0x19, 0x9e, 0x5b, 0x16, 0x47, 0x21, 0x4b, 0x99, 0x54, 0x92,
  0x29, 0x10, 0xad, 0x14, 0xc9, 0x8b, 0x02, 0x1b, 0xe9, 0x1f, 0xaf, 0x97,
  0x97, 0x9e, 0x19, 0x94, 0xd4, 0x9f, 0x69, 0x17, 0xa3, 0x1e, 0x65, 0x9c,
  0xed, 0x9b, 0xcf, 0x1d, 0xaf, 0x98, 0xaf, 0x9a, 0x05, 0x9a, 0x9b, 0x09,
  0xe0, 0x9c, 0x5c, 0x1f, 0xc3, 0x22, 0x4a, 0x12, 0x0f, 0xa0, 0x20, 0x9c,
  0xd2, 0x9e, 0xe7, 0x1d, 0x4c, 0x1d, 0x9e, 0x9c, 0x95, 0x1a, 0x42, 0x20,
  0xb5, 0x82, 0x10, 0x9b, 0xf7, 0x89, 0x03, 0x1d, 0xa0, 0x15, 0xd4, 0x1e,
  0x03, 0x1e, 0x97, 0x96, 0x59, 0x9d, 0x7f, 0x0c, 0xf5, 0xa0, 0x43, 0x18,
  0x81, 0x1d, 0x32, 0x1c, 0x5e, 0x99, 0x32, 0x21, 0xf9, 0x92, 0xdd, 0x94,
  0x6a, 0x9b, 0xce, 0x1d, 0xe1, 0x19, 0x1c, 0x19, 0x84, 0x1d, 0xb0, 0x9d,
  0x5a, 0x15, 0xc9, 0x10, 0x7d, 0x9a, 0x63, 0x22, 0x76, 0x8e, 0x39, 0x1e,
  0x76, 0x19, 0x39, 0x18, 0xb2, 0x8e, 0x8f, 0x99, 0x39, 0x99, 0x04, 0x1e,
  0x2d, 0x19, 0x34, 0x19, 0x9c, 0x1c, 0xfa, 0x10, 0xb2, 0x8e, 0x2b, 0x0f,
  0xa8, 0x0e, 0x62, 0x22, 0x77, 0x11, 0x2b, 0x1c, 0x16, 0x9c, 0x36, 0x1b,
  0x6c, 0x99, 0x3b, 0x9e, 0xed, 0x98, 0x7e, 0x22, 0xc4, 0x91, 0x5c, 0x1d,
  0x90, 0x1c, 0x7b, 0x10, 0xeb, 0x9a, 0x74, 0x18, 0xd0, 0x9c, 0x38, 0x20,
  0xe2, 0x1c, 0x40, 0x1f, 0xad, 0x9b, 0xca, 0x1a, 0xfa, 0x9d, 0x7b, 0x98,
  0xab, 0x97, 0x86, 0x21, 0xcb, 0x1e, 0xf1, 0x1e, 0xc3, 0x20, 0x7a, 0x90,
  0x94, 0x9e, 0xd6, 0x93, 0x74, 0x98, 0xd3, 0x21, 0xbd, 0x89, 0xba, 0x20,
  0x5a, 0x98, 0x2f, 0x01, 0xc4, 0x97, 0xd5, 0x9c, 0xab, 0x99, 0x02, 0x20,
  0x6e, 0x92, 0x46, 0x21, 0xbf, 0x20, 0x5b, 0x15, 0xca, 0x20, 0x4e, 0x1d,
  0xaa, 0xa0, 0x5e, 0x9c, 0xae, 0x1a, 0xcb, 0x1c, 0x1d, 0x1c, 0xa5, 0x9e,
  0x02, 0xa0, 0x2f, 0xa0, 0xac, 0x9a, 0x51, 0x96, 0xfb, 0x1f, 0x0a, 0x99,
  0xa0, 0x1e, 0x19, 0x9d, 0xad, 0x1c, 0x4c, 0x22, 0x2d, 0x9e, 0xcf, 0x9d,
  0x0a, 0x21, 0xca, 0x1f, 0x18, 0x91, 0xff, 0x9d, 0xd6, 0xa0, 0x6f, 0x9f,
  0xc7, 0x19, 0x4d, 0x9d, 0xce, 0x1e, 0xea, 0x9c, 0xcd, 0x1f, 0xaf, 0x9c,
  0xd5, 0x1b, 0x50, 0x0e, 0x3c, 0x92, 0xd5, 0x98, 0x5a, 0x1e, 0xb0, 0x10,
  0x68, 0x98, 0x3b, 0x95, 0xc1, 0x9e, 0x84, 0x9d, 0xd2, 0x15, 0x60, 0x0f,
  0xe6, 0x22, 0x39, 0x94, 0x31, 0x20, 0x4d, 0xa1, 0xe1, 0x10, 0x77, 0x19,
  0xca, 0x9c, 0xb5, 0x9b, 0x8b, 0x1f, 0xfc, 0x8d, 0xc9, 0x99, 0x97, 0x9b,
  0x9d, 0x16, 0xf5, 0x9b, 0xee, 0x9c, 0xa2, 0x19, 0xdc, 0x22, 0x49, 0x99,
  0xe6, 0x1c, 0x26, 0x9f, 0x29, 0x0a, 0x44, 0x94, 0xce, 0x9d, 0xf1, 0x9e,
  0x20, 0x15, 0xa4, 0xa0, 0x7d, 0x95, 0x5f, 0x1f, 0x5c, 0x9d, 0xc4, 0x9d,
  0xbe, 0xa1, 0xc6, 0x12, 0xda, 0x16, 0x3e, 0x9b, 0xd7, 0x1a, 0x38, 0xa0,
  0x3b, 0x1d, 0x39, 0x1a, 0x0a, 0x9e, 0x22, 0x15, 0xa8, 0x1a, 0x57, 0xa0,
  0xc8, 0xa1, 0xde, 0x20, 0xec, 0x9d, 0x3d, 0x9f, 0xc5, 0xa1, 0x59, 0x19,
  0x9b, 0x1f, 0xbb, 0x08, 0x59, 0x1f, 0x5b, 0x9d, 0xa2, 0x03, 0xe4, 0x9b,
  0x2e, 0x99, 0x16, 0x9d, 0x7a, 0x92, 0x17, 0xa0, 0x2b, 0xa0, 0x0d, 0x1d,
  0x86, 0x9e, 0x48, 0x9e, 0x56, 0x9f, 0x2b, 0x1f, 0x76, 0x21, 0x0d, 0x18,
  0x2b, 0x9b, 0x1a, 0xa0, 0x67, 0x11, 0x9a, 0x99, 0x39, 0x9d, 0x13, 0x93,
  0x58, 0x9b, 0xec, 0x9b, 0x26, 0xa4, 0x6f, 0x21, 0xd6, 0x13, 0x9c, 0x9f,
  0xa2, 0xa1, 0xa9, 0x80, 0x43, 0x20, 0x89, 0x09, 0x8d, 0x95, 0x71, 0xa0,
  0xcc, 0x9e, 0xe9, 0x96, 0xf7, 0x98, 0xa0, 0x9b, 0x88, 0x9f, 0x35, 0x11,
  0x70, 0xa4, 0x20, 0x21, 0x9c, 0x9b, 0x1b, 0x9d, 0x06, 0x9f, 0x4a, 0x1c,
  0x2b, 0x1c, 0x7a, 0x96, 0x06, 0x21, 0xab, 0xa0, 0x1d, 0x98, 0x14, 0x19,
  0x78, 0x12, 0x96, 0x9a, 0xd0, 0xa1, 0xef, 0x1c, 0xcb, 0x9f, 0xe7, 0x1f,
  0xdb, 0x9d, 0xc0, 0x9d, 0x20, 0xa2, 0x41, 0x94, 0x91, 0x22, 0xc0, 0x9b,
  0xa2, 0x1e, 0x76, 0x9c, 0x9b, 0x9e, 0x31, 0x95, 0xd6, 0x9a, 0x43, 0x9d,
  0x30, 0xa1, 0x97, 0x1f, 0x7d, 0x9c, 0xd3, 0x19, 0x7f, 0x9e, 0x36, 0x98,
  0xfb, 0x9f, 0x18, 0x1a, 0xd7, 0x22, 0x96, 0x1a, 0xad, 0x1b, 0xc9, 0x99,
  0x31, 0xa0, 0x63, 0x98, 0xa9, 0x97, 0xb9, 0x0a, 0x27, 0xa2, 0x38, 0x20,
  0x85, 0x9f, 0x91, 0x1d, 0x62, 0x9e, 0x0c, 0x9d, 0x14, 0x9f, 0x9e, 0x1c,
  0xb8, 0x23, 0x85, 0x97, 0xde, 0x17, 0x0a, 0x96, 0x20, 0x9f, 0x7c, 0x95,
  0xff, 0x1d, 0x6f, 0x9a, 0xe7, 0x9b, 0x37, 0x21, 0xa7, 0x9d, 0x10, 0x20,
  0x5a, 0x9b, 0xeb, 0x99, 0x0d, 0xa1, 0xa6, 0x1d, 0x36, 0x1f, 0xa7, 0x98,
  0xda, 0x16, 0xe4, 0x1a, 0xdb, 0xa1, 0x75, 0x9c, 0x97, 0x18, 0xc4, 0x98,
  0xfa, 0x9a, 0xac, 0x22, 0xaa, 0x9c, 0x93, 0x1d, 0x52, 0x19, 0x6d, 0x0c,
  0x0c, 0xa1, 0x94, 0x1e, 0x13, 0x23, 0x76, 0x16, 0x2b, 0x1c, 0xbc, 0x1d,
  0xcf, 0xa1, 0x14, 0x95, 0x17, 0x18, 0x55, 0x9a, 0x0b, 0x1c, 0x2b, 0x1f,
  0x86, 0x18, 0x17, 0x99, 0x47, 0x0f, 0x49, 0x18, 0xa7, 0x9d, 0xab, 0x10,
  0xf7, 0x1e, 0xaa, 0x08, 0xfc, 0x95, 0x6c, 0x1c, 0xee, 0x9d, 0x70, 0x1a,
  0xb6, 0x18, 0x7b, 0x94, 0x41, 0x1f, 0xff, 0x1e, 0x9e, 0x1a, 0x98, 0x9e,
  0x57, 0x94, 0x67, 0x1d, 0x5b, 0x9a, 0xc8, 0x9c, 0x65, 0x1d, 0x1f, 0x95,
  0x54, 0x9c, 0x93, 0x1e, 0xdd, 0x95, 0x6c, 0x18, 0x8a, 0x19, 0xb1, 0x12,
  0x40, 0x20, 0x01, 0x93, 0x7b, 0x99, 0x4f, 0x9c, 0x6a, 0x98, 0x1b, 0x16,
  0x9f, 0x99, 0xbe, 0xa0, 0x88, 0x19, 0xea, 0x99, 0xbf, 0x9b, 0xc4, 0x1f,
  0x69, 0x9f, 0x49, 0xa0, 0x8a, 0x18, 0xc0, 0x16, 0xb8, 0x1d, 0xfc, 0x9d,
  0x6c, 0x9a, 0x54, 0x9f, 0x44, 0x15, 0xc1, 0x97, 0x32, 0x17, 0x8b, 0x9c,
  0x25, 0x21, 0x3a, 0x92, 0x0e, 0x15, 0x04, 0x1e, 0x48, 0x9e, 0x22, 0x9c,
  0x2f, 0x0d, 0xf1, 0x19, 0x3b, 0x1f, 0x2a, 0xa0, 0xb8, 0x9c, 0x91, 0xa2,
  0x9c, 0x99, 0xe0, 0x1c, 0xfa, 0x1c, 0x60, 0xa0, 0x57, 0x1e, 0x1a, 0x9a,
  0xbb, 0x9c, 0x4f, 0x1c, 0xdb, 0x9f, 0x29, 0x9e, 0x14, 0x1d, 0x84, 0x9c,
  0x33, 0x0d, 0xb3, 0x9f, 0xa2, 0x9e, 0xb1, 0xa4, 0xe4, 0x8f, 0x18, 0x16,
  0x50, 0x12, 0x3c, 0x9e, 0xe5, 0x17, 0x40, 0x9c, 0x32, 0x9b, 0x3b, 0x18,
  0x48, 0xa1, 0x9d, 0x9d, 0x39, 0x10, 0xe7, 0x1f, 0x48, 0x17, 0x89, 0x9a,
  0x4e, 0x8b, 0x76, 0xa4, 0xf4, 0x9a, 0xbc, 0x9b, 0x4a, 0x12, 0xa0, 0x9f,
  0x0f, 0x11, 0x36, 0x95, 0x55, 0x9c, 0x0c, 0x19, 0xd5, 0xa1, 0xa6, 0x95,
  0x79, 0x12, 0x32, 0x20, 0xf8, 0x9b, 0xb0, 0x9f, 0x03, 0x9a, 0x0a, 0x9e,
  0x86, 0x14, 0x64, 0x94, 0x45, 0x1d, 0xa0, 0xa1, 0x71, 0x1d, 0xe3, 0x98,
  0x3a, 0x9d, 0x62, 0x19, 0x46, 0x9f, 0x54, 0x96, 0x89, 0x11, 0x48, 0x1d,
  0xf1, 0xa0, 0xde, 0x1a, 0x52, 0x94, 0x37, 0x9b, 0xce, 0x1d, 0xf8, 0x1b,
  0x4a, 0x1d, 0xe1, 0x9e, 0xb2, 0x99, 0x43, 0x9b, 0x34, 0xa1, 0x33, 0x94,
  0x46, 0xa2, 0x76, 0x9d, 0xd7, 0x14, 0x9b, 0x0a, 0xc1, 0xa1, 0xed, 0x91,
  0x85, 0x15, 0x59, 0x99, 0xe3, 0x17, 0xb5, 0x1e, 0x83, 0x19, 0xb4, 0x9c,
  0xe1, 0x91, 0xed, 0x9c, 0xd1, 0x9d, 0x9b, 0x17, 0x38, 0x9b, 0xdd, 0x9d,
  0xc8, 0x1c, 0x1d, 0x20, 0x95, 0xa3, 0xfe, 0x1c, 0x13, 0x9e, 0x0a, 0x9c,
  0xf1, 0x1a, 0xf5, 0x1b, 0x99, 0x20, 0xe5, 0xa1, 0x89, 0x98, 0x95, 0x9b,
  0x2c, 0xa0, 0x8b, 0x12, 0xa8, 0x9e, 0xe1, 0x9d, 0x85, 0x17, 0x04, 0x20,
  0x3e, 0x9d, 0x4a, 0x1e, 0x71, 0x95, 0xef, 0x18, 0xc6, 0x1a, 0x68, 0x1c,
  0x9c, 0x21, 0x14, 0xa1, 0x2d, 0x9e, 0x57, 0x9f, 0x60, 0x9d, 0x22, 0x03,
  0x6d, 0x9c, 0xdc, 0x11, 0xef, 0x13, 0xc4, 0x91, 0x86, 0xa0, 0xfc, 0x1d,
  0x96, 0x91, 0x83, 0x20, 0x96, 0x12, 0xf8, 0x15, 0x1a, 0x1f, 0x4c, 0xa0,
  0x0f, 0xa0, 0x57, 0x9b, 0x41, 0xa1, 0xad, 0x17, 0x9e, 0x98, 0xdb, 0x98,
  0x29, 0x1a, 0x11, 0x19, 0xcf, 0x1b, 0xf0, 0x1e, 0x03, 0x9f, 0x16, 0x1e,
  0xff, 0x18, 0xc4, 0x92, 0x76, 0x14, 0x5e, 0xa0, 0x49, 0x9e, 0x5d, 0x15,
  0x8b, 0xa0, 0x8c, 0x99, 0x1c, 0x14, 0xbd, 0x9d, 0x9f, 0x18, 0xf0, 0x1d,
  0x04, 0x1a, 0x65, 0x12, 0xdc, 0x1a, 0xe4, 0x20, 0x1f, 0x1c, 0xcc, 0x97,
  0x4a, 0x1a, 0x80, 0x9a, 0xf2, 0xa1, 0x88, 0x15, 0xc0, 0xa0, 0xf0, 0x15,
  0x15, 0x13, 0x4c, 0x9b, 0xf7, 0x98, 0x1c, 0x1a, 0xbe, 0x19, 0x5e, 0x8e,
  0x2c, 0x90, 0x15, 0x13, 0xe9, 0x12, 0xd4, 0x18, 0xc4, 0x1b, 0x74, 0x94,
  0xbb, 0x9f, 0x39, 0x0d, 0x39, 0xa2, 0x0a, 0x9d, 0xcc, 0x94, 0x6d, 0x98,
  0xfa, 0x92, 0x31, 0x92, 0x30, 0x21, 0xac, 0x97, 0x44, 0x99, 0x43, 0x1e,
  0x99, 0x20, 0x34, 0x1a, 0x13, 0x97, 0xbf, 0x93, 0x72, 0x9f, 0x29, 0x9d,
  0x3f, 0xa0, 0x15, 0x0f, 0x74, 0x10, 0x36, 0x97, 0xd1, 0x94, 0x18, 0x9a,
  0xf9, 0x20, 0x57, 0xa0, 0x6a, 0x1c, 0x29, 0x1c, 0xc2, 0x18, 0xb1, 0x11,
  0xa2, 0x20, 0xa6, 0x8b, 0xe4, 0xa0, 0x1d, 0xa0, 0x24, 0xa2, 0x7b, 0x9c,
  0x67, 0x9d, 0x19, 0x98, 0x13, 0x93, 0xa7, 0x9d, 0x2f, 0x24, 0xda, 0xa1,
  0xa4, 0x0f, 0xdf, 0x97, 0xe6, 0x9a, 0xb1, 0x98, 0x50, 0x19, 0x56, 0x18,
  0xf2, 0x9d, 0x75, 0x9b, 0x87, 0xa1, 0x5e, 0x9e, 0xa6, 0x0d, 0xa2, 0x95,
  0x49, 0x02, 0x4a, 0x10, 0x3a, 0x21, 0x2b, 0xa0, 0xca, 0x16, 0x1a, 0x9a,
  0x4e, 0x98, 0xdb, 0x9f, 0x27, 0x0f, 0xe1, 0x12, 0xc0, 0xa0, 0x12, 0x9e,
  0x77, 0xa2, 0x88, 0x9e, 0xcd, 0x17, 0x55, 0x90, 0x12, 0x8a, 0x71, 0x12,
  0x17, 0x1b, 0x90, 0x9c, 0xda, 0x9e, 0x79, 0x0e, 0x94, 0x9e, 0x78, 0x9b,
  0x92, 0x9c, 0xb1, 0x1b, 0xda, 0x9f, 0x00, 0x9e, 0x4c, 0x9f, 0x1f, 0xa0,
  0xde, 0x1c, 0xc8, 0x99, 0x63, 0x0f, 0x32, 0x99, 0x2d, 0x9d, 0x5b, 0x9c,
  0x1a, 0x93, 0xb5, 0x19, 0x43, 0x9d, 0xdd, 0xa0, 0xfc, 0x99, 0x70, 0x1b,
  0x68, 0x9e, 0x68, 0xa0, 0x3c, 0x9c, 0xb1, 0xa0, 0xf8, 0x17, 0x64, 0x90,
  0x7c, 0x8a, 0x55, 0x9c, 0x41, 0xa1, 0xb3, 0x9a, 0x71, 0x19, 0x30, 0x1c,
  0xd8, 0x9f, 0x5f, 0xa1, 0xa2, 0xa0, 0x4c, 0x18, 0x1c, 0x9f, 0x41, 0x9c,
  0x0d, 0x9c, 0x92, 0x9f, 0x6e, 0x1c, 0xe4, 0x16, 0x7a, 0x9b, 0xd3, 0x95,
  0xdb, 0xa1, 0x0f, 0x9d, 0x7d, 0x8a, 0x37, 0x9c, 0xe9, 0xa0, 0xe4, 0x9f,
  0xd1, 0xa1, 0xc9, 0x8d, 0xfe, 0x98, 0x1f, 0x9e, 0xe9, 0x94, 0x9a, 0xa0,
  0x6c, 0x13, 0x3f, 0x9b, 0x90, 0x9e, 0x1f, 0x9c, 0x0f, 0xa0, 0xdb, 0x99,
  0x22, 0x16, 0x06, 0x9e, 0xa6, 0x9c, 0x12, 0x9d, 0xb6, 0xa0, 0xd5, 0x12,
  0x0a, 0x9c, 0x0f, 0x9d, 0xb7, 0x97, 0x45, 0xa2, 0x8c, 0x1c, 0x68, 0x0c,
  0x72, 0x9a, 0xd8, 0x9d, 0x32, 0x9b, 0x58, 0x17, 0xe4, 0x1c, 0x4a, 0x1e,
  0x73, 0xa2, 0xbe, 0xa2, 0x09, 0x99, 0x28, 0x9b, 0xa8, 0x9b, 0xdd, 0x9e,
  0xd3, 0x97, 0xcd, 0x9d, 0xc5, 0x1f, 0x8c, 0x1b, 0x0e, 0x15, 0x5a, 0x99,
  0x53, 0x9d, 0xdc, 0x15, 0x47, 0x98, 0xf8, 0x1d, 0xf5, 0x99, 0x2f, 0x9e,
  0xc3, 0x9f, 0x44, 0x90, 0x77, 0x9d, 0x6a, 0x9d, 0x07, 0x8c, 0x1e, 0xa1,
  0x10, 0x21, 0xe2, 0x14, 0xa0, 0x99, 0xbc, 0x96, 0x73, 0x98, 0x8f, 0x1e,
  0xa0, 0x95, 0x14, 0x1c, 0x2e, 0x94, 0x5b, 0x9e, 0x43, 0x9d, 0x3b, 0x91,
  0x28, 0x13, 0x76, 0x99, 0x87, 0x05, 0x33, 0xa1, 0xca, 0x20, 0xeb, 0x1a,
  0x1d, 0x0e, 0x68, 0x9a, 0x1d, 0x0d, 0x01, 0x1d, 0xc6, 0x9c, 0x31, 0x9c,
  0x96, 0x83, 0x94, 0x9d, 0x76, 0x9d, 0x94, 0xa0, 0x5b, 0x9f, 0x52, 0x98,
  0x0e, 0x9a, 0x02, 0xa0, 0x00, 0x19, 0x7d, 0x1e, 0x3b, 0x9c, 0x99, 0xa0,
  0xa7, 0x19, 0x78, 0x98, 0x3a, 0x9c, 0x0e, 0x1e, 0x1b, 0x1f, 0xbf, 0x9c,
  0xf1, 0x9b, 0x6f, 0x11, 0x28, 0x15, 0x31, 0x99, 0xdc, 0x12, 0xbb, 0xa0,
  0x9b, 0x18, 0x5b, 0x1a, 0x17, 0x17, 0xcc, 0x9d, 0x79, 0x1e, 0xef, 0x9e,
  0xa5, 0x9c, 0xb2, 0x1f, 0x1a, 0x94, 0xe5, 0x99, 0x05, 0x9e, 0xf5, 0x18,
  0xd6, 0x17, 0x4e, 0x97, 0xdd, 0x11, 0x62, 0x9f, 0x9a, 0x21, 0x96, 0x18,
  0xe5, 0x95, 0x2c, 0xa1, 0x9a, 0x1d, 0x91, 0x9d, 0xce, 0x9d, 0x1a, 0x1f,
  0x15, 0x18, 0xf2, 0x91, 0xbc, 0x96, 0x4c, 0x99, 0x5d, 0x19, 0x52, 0x9a,
  0x70, 0x95, 0x00, 0xa2, 0xbd, 0x21, 0xf3, 0x11, 0x19, 0x9a, 0x52, 0xa3,
  0xf1, 0x1f, 0x55, 0x93, 0x09, 0x9f, 0x77, 0x8f, 0x92, 0x1c, 0x17, 0x9a,
  0x1f, 0x9d, 0xef, 0x18, 0xa2, 0x95, 0xba, 0x9c, 0x7c, 0x9a, 0xd2, 0xa1,
  0x4a, 0x20, 0x38, 0x11, 0x74, 0x99, 0xab, 0xa3, 0x55, 0x1d, 0xac, 0x10,
  0xe2, 0x9b, 0x8d, 0x99, 0x6d, 0x98, 0x52, 0x9e, 0x76, 0x9b, 0x34, 0x18,
  0x38, 0x96, 0x03, 0x9a, 0x93, 0x99, 0x1b, 0x9e, 0xec, 0x1c, 0x6a, 0x17,
  0xfa, 0x97, 0x98, 0xa0, 0xcc, 0x18, 0xac, 0x98, 0x88, 0x9b, 0x83, 0x19,
  0x39, 0x97, 0xa4, 0x9f, 0xf1, 0x92, 0xe0, 0x16, 0x06, 0x94, 0x05, 0x9c,
  0xf8, 0x9b, 0x11, 0x9b, 0xed, 0x9d, 0x2f, 0x1b, 0x50, 0x9b, 0xb5, 0xa2,
  0xf8, 0x92, 0xa0, 0x9c, 0xee, 0x9c, 0xe4, 0x1a, 0x99, 0x9c, 0xb8, 0x9e,
  0x46, 0x1b, 0x68, 0x20, 0x95, 0x19, 0xe9, 0x1a, 0xd7, 0x16, 0x3e, 0x9b,
  0x67, 0x9b, 0x4b, 0x91, 0xc8, 0x14, 0xc2, 0xa1, 0x05, 0x9e, 0xa1, 0x91,
  0xb0, 0x9c, 0xc7, 0xa0, 0x53, 0x9d, 0x28, 0xa1, 0x98, 0x11, 0xde, 0x92,
  0x05, 0x1c, 0xc7, 0x85, 0xf6, 0x92, 0x84, 0x9b, 0x04, 0x1e, 0x82, 0x94,
  0x13, 0x9b, 0x68, 0xa2, 0x36, 0x9d, 0xd4, 0x06, 0xfe, 0x9b, 0x9c, 0xa3,
  0x41, 0xa1, 0x6c, 0xa2, 0xd2, 0x1a, 0x5a, 0x13, 0x01, 0x18, 0x99, 0x18,
  0xbf, 0x13, 0x23, 0x98, 0xb9, 0x93, 0xe2, 0x99, 0x45, 0x95, 0x87, 0xa1,
  0x5d, 0x9d, 0x8d, 0x1d, 0xcc, 0x99, 0xec, 0x9c, 0xf3, 0xa1, 0x1d, 0xa0,
  0x0c, 0x1d, 0x38, 0x19, 0xeb, 0x93, 0x86, 0x94, 0xf4, 0x16, 0x5d, 0x8e,
  0xbe, 0x95, 0xdb, 0x98, 0x7d, 0x1e, 0xcd, 0xa2, 0x1f, 0xa0, 0x95, 0x1b,
  0xd0, 0x9d, 0x4a, 0x92, 0x54, 0xa1, 0x8a, 0x9e, 0xfe, 0x18, 0x03, 0x1b,
  0xf6, 0x1d, 0x13, 0x1c, 0x43, 0x17, 0x5d, 0x98, 0xef, 0x9d, 0xc7, 0x99,
  0xcd, 0x94, 0xbc, 0xa0, 0x87, 0x17, 0x95, 0x98, 0xce, 0x8d, 0xec, 0x9b,
  0x2c, 0x9f, 0x3d, 0x9c, 0x74, 0x20, 0x9b, 0x09, 0x08, 0x1e, 0x0c, 0x17,
  0x73, 0x1a, 0xad, 0x11, 0x9a, 0xa0, 0xd8, 0x94, 0xf4, 0x19, 0x3d, 0xa0,
  0x41, 0x19, 0x97, 0x9f, 0xf5, 0x18, 0xc5, 0xa0, 0x47, 0x96, 0x71, 0x19,
  0x03, 0x1b, 0xad, 0x9d, 0x65, 0x1d, 0x82, 0x12, 0xa4, 0x15, 0xbd, 0x9b,
  0xa8, 0x9b, 0x62, 0x19, 0xc0, 0x1a, 0xbf, 0x97, 0xc7, 0x9d, 0x9d, 0x9f,
  0x4d, 0x1d, 0xe4, 0x97, 0xf9, 0x9b, 0x1c, 0x1a, 0x25, 0x1d, 0xe5, 0x9b,
  0xfb, 0x1f, 0x33, 0x1c, 0xc4, 0x19, 0x21, 0x83, 0xce, 0x11, 0x97, 0x1c,
  0x1f, 0x16, 0x3b, 0xa0, 0x23, 0x1c, 0x24, 0x9d, 0xbe, 0x1d, 0x13, 0x19,
  0x84, 0x1c, 0x55, 0x1b, 0x94, 0x9c, 0x04, 0xa0, 0x6d, 0x1a, 0x72, 0x18,
  0x3a, 0x1e, 0xf3, 0x1a, 0xc6, 0x97, 0x62, 0x1e, 0x64, 0x18, 0x03, 0x9d,
  0x8c, 0x1b, 0x8b, 0x95, 0x8a, 0x9c, 0x99, 0x93, 0x82, 0x1c, 0x86, 0x1a,
  0x44, 0x99, 0x8f, 0xa0, 0x78, 0x19, 0x10, 0x18, 0x2a, 0x1f, 0xd8, 0x1b,
  0x5b, 0x97, 0x7d, 0x06, 0x56, 0x19, 0x27, 0xa1, 0xc2, 0x1d, 0x06, 0x9e,
  0xc8, 0x9f, 0xe6, 0x1a, 0xb0, 0x19, 0x47, 0x1d, 0x13, 0xa0, 0x31, 0x9e,
  0x10, 0x18, 0x9e, 0x1d, 0x14, 0x1b, 0xc0, 0x1b, 0x67, 0xa0, 0x55, 0x98,
  0x19, 0x0b, 0xdb, 0x9a, 0x8e, 0x1f, 0x78, 0x9b, 0xb6, 0x9d, 0x71, 0x1a,
  0xb1, 0x1f, 0xd9, 0x1a, 0x3a, 0x9d, 0x6f, 0x9f, 0x9f, 0x1b, 0x23, 0x1e,
  0x2b, 0x18, 0xdb, 0x15, 0x49, 0xa0, 0xb1, 0x98, 0x6f, 0x9a, 0x6a, 0x9d,
  0xc5, 0x82, 0x95, 0x15, 0x47, 0xa0, 0x6d, 0x18, 0x96, 0x19, 0xd8, 0x1a,
  0xb6, 0x9e, 0x2a, 0x9b, 0x29, 0x1e, 0xfc, 0x1c, 0x13, 0x1f, 0xd8, 0x18,
  0x6b, 0xa1, 0xe4, 0x97, 0x6c, 0x97, 0x57, 0x98, 0xd8, 0x90, 0xce, 0x1b,
  0xf0, 0x9d, 0x50, 0x19, 0xda, 0x1c, 0x9e, 0x1c, 0x03, 0x9f, 0x93, 0x15,
  0x91, 0x1e, 0x7f, 0x1f, 0xe5, 0x1c, 0x82, 0x1d, 0x2b, 0x95, 0x8a, 0x14,
  0x99, 0x9e, 0x38, 0xa0, 0x5f, 0x99, 0x42, 0x87, 0x6f, 0x9e, 0xfb, 0x1d,
  0xff, 0x1a, 0x6f, 0x1c, 0xe4, 0x9f, 0xb1, 0x97, 0xf5, 0x18, 0xd5, 0x1a,
  0x1c, 0x20, 0xeb, 0x15, 0xc6, 0x87, 0x99, 0x1a, 0xb0, 0x10, 0xbf, 0x0c,
  0x62, 0x9f, 0x40, 0x19, 0x32, 0x9c, 0xf4, 0x93, 0x8a, 0x09, 0xc7, 0x1c,
  0x34, 0xa0, 0x52, 0x98, 0x19, 0x1c, 0x98, 0x19, 0x01, 0x13, 0x75, 0x18,
  0x25, 0x15, 0xd9, 0x0b, 0xb0, 0x19, 0x0e, 0x1d, 0xb2, 0x9c, 0x4f, 0x8a,
  0x0e, 0x9a, 0x16, 0x1d, 0x55, 0x11, 0xa1, 0x90, 0x13, 0x9f, 0xed, 0x1b,
  0x62, 0x12, 0xfd, 0x0c, 0x39, 0x18, 0x59, 0x99, 0x97, 0x9d, 0x3e, 0x19,
  0x49, 0x13, 0x3c, 0x1a, 0xff, 0x97, 0x25, 0x96, 0xbe, 0x98, 0xaa, 0x0c,
  0x41, 0x8c, 0x9e, 0x9c, 0x37, 0x94, 0x1c, 0x1e, 0xd2, 0x1c, 0x50, 0x18,
  0xe9, 0x1d, 0x02, 0x94, 0x2e, 0xa1, 0xf4, 0x14, 0xa9, 0x15, 0x21, 0x16,
  0x6d, 0x99, 0x80, 0x13, 0xb2, 0x9b, 0xee, 0x0f, 0x6d, 0x9c, 0xec, 0x9f,
  0x87, 0x9b, 0xc6, 0x1d, 0x66, 0x1c, 0x44, 0x19, 0x97, 0x1c, 0xad, 0x14,
  0x15, 0xa0, 0x3d, 0x15, 0xd5, 0x97, 0x3c, 0x16, 0x5c, 0x98, 0x69, 0x08,
  0xb7, 0x93, 0xdc, 0x9c, 0x2a, 0x9d, 0x4d, 0x9b, 0xc4, 0x9a, 0xdc, 0x14,
  0x99, 0x1c, 0xec, 0x07, 0x35, 0x9d, 0xd8, 0x18, 0x60, 0xa0, 0xdf, 0x11,
  0x8f, 0x99, 0x0b, 0x19, 0x33, 0x96, 0x79, 0x19, 0x9c, 0x18, 0xa9, 0x9f,
  0xbb, 0x89, 0x33, 0x9f, 0x9b, 0x96, 0xa0, 0x1f, 0x2f, 0x20, 0xb1, 0x1d,
  0x24, 0x1c, 0xb8, 0x9a, 0x08, 0xa1, 0x8a, 0x1e, 0x0d, 0x83, 0x67, 0x16,
  0xc4, 0x1c, 0x60, 0x14, 0x33, 0x1a, 0x81, 0x98, 0x98, 0x9c, 0xa8, 0x9d,
  0x2b, 0x90, 0x87, 0x18, 0x13, 0x1b, 0x5c, 0x1b, 0x0a, 0x99, 0x11, 0x94,
  0x8b, 0x9d, 0x31, 0x99, 0x57, 0xa0, 0x99, 0x15, 0x1a, 0x12, 0x10, 0x9a,
  0xa6, 0x19, 0x02, 0x9c, 0x79, 0x9b, 0x76, 0x9c, 0x26, 0x98, 0xf3, 0x1a,
  0x70, 0x9a, 0xa8, 0x15, 0x34, 0x9f, 0x6a, 0x94, 0xb4, 0x9a, 0xb8, 0x8f,
  0xd9, 0x91, 0xa1, 0x90, 0x8c, 0x10, 0xf6, 0x0b, 0xb5, 0x1f, 0x6a, 0xa0,
  0x09, 0x14, 0x55, 0xa0, 0x6b, 0x16, 0x25, 0x1f, 0x7d, 0x1d, 0x4e, 0x08,
  0x4d, 0x9e, 0x98, 0x88, 0x28, 0x19, 0x28, 0x1d, 0xaf, 0x11, 0x5e, 0x1b,
  0xde, 0x18, 0x86, 0x17, 0xca, 0x20, 0x76, 0xa0, 0x70, 0x99, 0x52, 0x9f,
  0x19, 0x1e, 0x04, 0x1a, 0xe7, 0x1b, 0x92, 0x01, 0xf8, 0x9b, 0x51, 0x98,
  0x72, 0x90, 0x29, 0x1d, 0xb7, 0x17, 0x0c, 0x1d, 0x3e, 0x1d, 0x8f, 0x99,
  0x44, 0x1c, 0xdf, 0x9f, 0xed, 0x9b, 0x8b, 0x96, 0xb0, 0x1a, 0x97, 0x1f,
  0xca, 0x1d, 0x26, 0x10, 0x80, 0x9f, 0xab, 0x1c, 0xd6, 0x95, 0x95, 0x9b,
  0xb3, 0x9a, 0xd9, 0x1a, 0x5d, 0x1b, 0xf5, 0x9c, 0xbf, 0x1c, 0x91, 0x9d,
  0x7d, 0x9f, 0xac, 0x9c, 0x87, 0x1f, 0xc2, 0x0f, 0x93, 0x98, 0x5f, 0x11,
  0xb4, 0xa0, 0xc1, 0x19, 0x84, 0x15, 0xd6, 0x9b, 0x5b, 0x9c, 0xa3, 0x19,
  0x6c, 0x14, 0x65, 0x85, 0x6c, 0x02, 0xbd, 0x99, 0x1f, 0x16, 0x14, 0x96,
  0x5e, 0x1e, 0x1d, 0x96, 0x79, 0x1e, 0x85, 0x80, 0x13, 0xa2, 0xf4, 0x98,
  0x51, 0x95, 0xda, 0x94, 0x00, 0x10, 0x11, 0x1c, 0x9d, 0x13, 0xae, 0x0f,
  0x3d, 0x1c, 0xe6, 0x9f, 0x64, 0x1b, 0x4f, 0x14, 0xd6, 0x1d, 0x88, 0x15,
  0x1c, 0x96, 0x09, 0x8c, 0xf0, 0x9c, 0x25, 0x92, 0x04, 0x9a, 0x21, 0x0d,
  0xc6, 0x19, 0x98, 0x88, 0x6c, 0x9a, 0x64, 0x18, 0x60, 0x1c, 0x78, 0x9d,
  0x53, 0x14, 0xea, 0x90, 0x93, 0x1d, 0x98, 0x05, 0xd8, 0x0f, 0xe3, 0x1b,
  0x48, 0x9a, 0x66, 0x8e, 0x56, 0x96, 0x47, 0x96, 0x5f, 0x15, 0x87, 0x14,
  0x58, 0x96, 0x64, 0x1e, 0x5f, 0x11, 0x86, 0x0e, 0xbc, 0x18, 0xaf, 0x94,
  0x06, 0x1d, 0xe4, 0x99, 0x54, 0x1b, 0xdf, 0x19, 0xec, 0x9f, 0xc5, 0x16,
  0x14, 0x96, 0x1f, 0x90, 0xec, 0x99, 0x66, 0x19, 0x1f, 0x95, 0xf7, 0x1d,
  0x17, 0x9a, 0xfe, 0x9e, 0x04, 0x99, 0xe6, 0x18, 0xe8, 0x17, 0xd4, 0x07,
  0x44, 0x9a, 0xe8, 0x16, 0xde, 0x95, 0x72, 0x83, 0x1e, 0x1a, 0x2b, 0x9b,
  0x29, 0x96, 0x90, 0x91, 0x35, 0x84, 0x7f, 0x88, 0x39, 0x9b, 0x01, 0x99,
  0x49, 0x15, 0xc1, 0x1e, 0x21, 0x1b, 0x43, 0x9c, 0x01, 0x9b, 0xbd, 0x0e,
  0x09, 0x16, 0xb4, 0x1c, 0x6e, 0x1b, 0xaf, 0x9a, 0xa6, 0x88, 0x24, 0x9a,
  0x00, 0x9b, 0x86, 0x93, 0x0d, 0x99, 0x66, 0x15, 0x5f, 0x1c, 0xf3, 0x1e,
  0x6f, 0x11, 0xdc, 0x11, 0x8e, 0x9c, 0x2e, 0x1b, 0x50, 0x90, 0x9c, 0x18,
  0x9b, 0x1c, 0xf3, 0x8c, 0xe0, 0x97, 0x9d, 0x97, 0x19, 0x9c, 0x6b, 0x19,
  0x7b, 0x96, 0x7d, 0x1d, 0x05, 0x19, 0x1d, 0x1d, 0xde, 0x87, 0x45, 0x12,
  0xe4, 0x99, 0x4b, 0x1a, 0xa2, 0x13, 0x65, 0x1b, 0xee, 0x0b, 0xa2, 0x16,
  0x9b, 0x12, 0xcb, 0x1e, 0x01, 0x9a, 0x23, 0x1b, 0x8d, 0x9d, 0x6b, 0x1d,
  0x35, 0x1e, 0x64, 0x1c, 0x4f, 0x13, 0x19, 0x13, 0xcf, 0x9e, 0xab, 0x16,
  0xd0, 0x1c, 0x5e, 0x18, 0xed, 0x90, 0x7e, 0x8c, 0xb2, 0x1c, 0x21, 0x98,
  0xab, 0x8a, 0xa7, 0x1b, 0x59, 0x9a, 0x4f, 0x15, 0x97, 0x19, 0xc5, 0x1c,
  0x4a, 0x99, 0x7a, 0x93, 0xa7, 0x9e, 0x16, 0x0a, 0x62, 0x1f, 0xae, 0x13,
  0x64, 0x0f, 0x37, 0x94, 0x29, 0x19, 0xd6, 0x12, 0xb5, 0x99, 0xe9, 0x96,
  0x49, 0x9f, 0x5f, 0x18, 0x31, 0x1d, 0x75, 0x1d, 0x35, 0x99, 0xe4, 0x17,
  0x63, 0x9d, 0xbe, 0x9a, 0x4b, 0x20, 0xb2, 0x08, 0x3a, 0x1d, 0xa0, 0x9b,
  0x52, 0x12, 0x0e, 0x83, 0x91, 0x93, 0x07, 0x99, 0x91, 0x11, 0x6a, 0x19,
  0x84, 0x1d, 0x74, 0x1d, 0x2d, 0xa0, 0x12, 0x9e, 0x7b, 0xa0, 0x29, 0x9c,
  0xc8, 0x21, 0x5a, 0x1b, 0x45, 0x90, 0xdb, 0x1d, 0x84, 0x1c, 0xa7, 0x13,
  0x6b, 0x94, 0x1c, 0x96, 0x0a, 0x9c, 0xe1, 0x21, 0xa1, 0x18, 0xb4, 0x14,
  0xa7, 0x10, 0xba, 0x1c, 0xf3, 0x9c, 0xc9, 0x17, 0x3f, 0x20, 0x26, 0x10,
  0x90, 0x1d, 0x19, 0x9a, 0xe2, 0x1b, 0x56, 0x19, 0x58, 0x12, 0xac, 0x98,
  0x11, 0xa1, 0xe8, 0x18, 0xbb, 0x11, 0x41, 0x13, 0x75, 0x9e, 0xde, 0x1a,
  0x3d, 0x9f, 0xd6, 0x1d, 0x01, 0x1f, 0xc7, 0x16, 0x63, 0x91, 0x2d, 0x9e,
  0x86, 0x18, 0x27, 0x84, 0x94, 0x11, 0x6d, 0x9c, 0xdb, 0xa1, 0x21, 0x15,
  0xc0, 0x99, 0x6e, 0x18, 0x9f, 0x9d, 0xd1, 0x1c, 0xa8, 0xa0, 0x43, 0x1d,
  0x56, 0x1a, 0x31, 0x1c, 0x30, 0x08, 0xfb, 0x98, 0x34, 0x1a, 0xbb, 0x9d,
  0xbb, 0x97, 0x3a, 0x98, 0x0c, 0x99, 0xc2, 0x0c, 0xaf, 0x14, 0xf3, 0x1b,
  0x63, 0x9b, 0x72, 0x20, 0xd8, 0x9c, 0x7c, 0x96, 0x4f, 0x15, 0xca, 0x17,
  0x69, 0x18, 0x30, 0x19, 0x1c, 0x1d, 0xa9, 0x90, 0x06, 0x9b, 0x62, 0x98,
  0xd9, 0x96, 0x9b, 0x93, 0xe1, 0x88, 0x2b, 0x13, 0x7d, 0xa1, 0x0d, 0x1e,
  0x8e, 0x9c, 0x20, 0x15, 0x07, 0x9e, 0xf7, 0x1b, 0xdd, 0x17, 0xe7, 0x9a,
  0x1c, 0x1f, 0xd6, 0x95, 0x8b, 0x84, 0x68, 0x12, 0x64, 0x9a, 0xf4, 0x10,
  0x54, 0x19, 0x19, 0x95, 0xd6, 0x9b, 0xf8, 0x20, 0x2e, 0x9c, 0x0a, 0x9a,
  0x1b, 0x97, 0xcf, 0x8a, 0x75, 0x1c, 0x57, 0x9d, 0xbd, 0x1f, 0xb6, 0x91,
  0xfa, 0x14, 0x5a, 0x95, 0xaf, 0x12, 0x9b, 0x0e, 0xa6, 0x1a, 0xde, 0x1c,
  0x4f, 0x11, 0x15, 0x23, 0xfe, 0x9f, 0x27, 0x10, 0xb3, 0x9a, 0xa2, 0x1e,
  0xd8, 0x08, 0x3a, 0x98, 0x78, 0x16, 0x33, 0x99, 0x75, 0x12, 0x84, 0x8f,
  0x62, 0x1a, 0x2f, 0x9d, 0x47, 0x0c, 0x90, 0x19, 0xab, 0x9b, 0x3d, 0x1f,
  0xcf, 0x9a, 0x2b, 0x93, 0x1d, 0xa0, 0xbd, 0x1a, 0x09, 0x94, 0x32, 0x9b,
  0x57, 0x1f, 0x63, 0x16, 0x0c, 0x12, 0xf2, 0x90, 0xb6, 0x1c, 0x90, 0x9f,
  0x85, 0x1d, 0xf9, 0x1c, 0xfa, 0x1a, 0x9b, 0x1f, 0xe9, 0x96, 0x91, 0x1c,
  0x40, 0x9e, 0x15, 0x1c, 0x50, 0x01, 0x49, 0x93, 0x94, 0x19, 0xd9, 0x1e,
  0xbf, 0x99, 0x65, 0x98, 0x74, 0x1b, 0x1d, 0x17, 0x72, 0x1b, 0xeb, 0x1a,
  0x97, 0x1d, 0x14, 0x1c, 0xd7, 0x95, 0x28, 0x20, 0x79, 0x99, 0x71, 0x1b,
  0xe9, 0x96, 0x1d, 0x9c, 0x3a, 0x1a, 0xbc, 0x1c, 0xa6, 0x8c, 0x02, 0x19,
  0xe8, 0x1c, 0xc0, 0x9e, 0xb3, 0x17, 0x2f, 0x18, 0x52, 0x1d, 0x4d, 0x1e,
  0xc3, 0x95, 0x1a, 0x1c, 0xa5, 0x9e, 0x0c, 0x8a, 0x03, 0x96, 0x06, 0x9a,
  0x30, 0x1d, 0x16, 0x1e, 0x67, 0x12, 0xd2, 0x14, 0x52, 0x1d, 0xbb, 0x9e,
  0xd7, 0x1b, 0xab, 0x90, 0x7d, 0x0c, 0xc9, 0x9a, 0x12, 0x99, 0x3c, 0x1d,
  0x93, 0xa1, 0x26, 0x16, 0x06, 0x1c, 0x1a, 0x9d, 0x96, 0x14, 0x0a, 0x20,
  0xa9, 0x9a, 0x0c, 0x1d, 0xe5, 0x20, 0xfd, 0x9e, 0x5a, 0x1a, 0xe8, 0x1c,
  0x93, 0x98, 0xf5, 0x98, 0x0f, 0x1a, 0x63, 0x1c, 0xfa, 0x9f, 0x87, 0x15,
  0xa9, 0x0d, 0x8c, 0x97, 0xda, 0x0d, 0x4a, 0x1d, 0x0b, 0x9d, 0x7b, 0x09,
  0x2e, 0x18, 0xbe, 0x98, 0x75, 0x20, 0x10, 0x18, 0x78, 0x1a, 0x4f, 0x18,
  0xa2, 0x18, 0xbe, 0x8c, 0x69, 0x9c, 0x21, 0x16, 0x04, 0x99, 0x03, 0x9a,
  0xdc, 0x9d, 0xa5, 0x1c, 0x30, 0x98, 0x30, 0x15, 0x5e, 0x14, 0xc9, 0x9e,
  0x82, 0x1d, 0xd6, 0x1c, 0x9f, 0x13, 0xe9, 0x19, 0xde, 0x1d, 0x93, 0x20,
  0x16, 0x9a, 0x0e, 0x1a, 0x59, 0x1c, 0xbf, 0x0a, 0xcc, 0x92, 0x77, 0x19,
  0xbd, 0x0c, 0xfe, 0x13, 0x49, 0x18, 0xf0, 0x9f, 0x85, 0x15, 0x91, 0x15,
  0xea, 0x97, 0x39, 0xa0, 0xaf, 0x0d, 0x08, 0x98, 0x9e, 0x9e, 0x84, 0x9b,
  0xa5, 0x82, 0x46, 0x98, 0xbf, 0x91, 0xd7, 0x1c, 0x80, 0x17, 0xe7, 0x00,
  0x96, 0x06, 0x4b, 0x93, 0xe9, 0x18, 0x99, 0x15, 0x72, 0x17, 0xf8, 0x97,
  0xab, 0x0d, 0x15, 0x1d, 0x06, 0x18, 0x90, 0x1e, 0xd8, 0x9b, 0xaa, 0x95,
  0xb2, 0x98, 0xf0, 0x88, 0x34, 0x98, 0x9d, 0x1a, 0x7e, 0x18, 0x0d, 0x1c,
  0x50, 0x14, 0x84, 0x15, 0x68, 0x95, 0x99, 0x9d, 0xc0, 0x14, 0xac, 0x19,
  0xbb, 0x94, 0x25, 0x92, 0x85, 0x9b, 0x9d, 0x18, 0x26, 0x99, 0xfc, 0x9c,
  0x36, 0x9b, 0x80, 0x18, 0x89, 0x1a, 0x17, 0x1c, 0x39, 0x8e, 0x04, 0x90,
  0x6c, 0x93, 0x67, 0x90, 0xee, 0x14, 0xf0, 0x17, 0xf6, 0x99, 0xba, 0x1a,
  0xd6, 0x96, 0x69, 0x18, 0xee, 0x99, 0xfe, 0x9f, 0xa3, 0x99, 0x8b, 0x99,
  0x6d, 0x94, 0x0b, 0x1c, 0xb0, 0x93, 0x6b, 0x1c, 0x6a, 0x19, 0x13, 0x99,
  0xb5, 0x1a, 0xe0, 0x94, 0x88, 0x97, 0xe0, 0x1a, 0x5e, 0x1d, 0x42, 0x1a,
  0x46, 0x9d, 0x26, 0xa1, 0x9a, 0x90, 0xfc, 0x99, 0xa5, 0x9c, 0xcd, 0x1e,
  0xed, 0x10, 0xaa, 0x1a, 0xf6, 0x1d, 0x9c, 0x9c, 0xe4, 0x1b, 0x4e, 0x10,
  0x12, 0x9b, 0x9b, 0x14, 0x47, 0x1f, 0x71, 0x1c, 0x1a, 0x0a, 0xec, 0x84,
  0xf0, 0x8b, 0x46, 0x99, 0x94, 0x9e, 0x06, 0x1e, 0x23, 0x18, 0x5a, 0x1d,
  0x39, 0x1d, 0x07, 0x95, 0xe3, 0x1a, 0x64, 0x11, 0xc8, 0x9c, 0xe5, 0x1c,
  0xf0, 0x15, 0x28, 0x20, 0x67, 0x96, 0x36, 0x99, 0x1f, 0x1b, 0xe4, 0x0e,
  0xe4, 0xa1, 0x20, 0x20, 0x4f, 0x9a, 0x9d, 0x18, 0xa9, 0x19, 0xc1, 0x1c,
  0xf2, 0x90, 0x5d, 0x93, 0xed, 0x9a, 0x1e, 0x19, 0x12, 0x9a, 0xee, 0x1c,
  0xa0, 0x9e, 0x82, 0xa1, 0xad, 0x91, 0xd9, 0x91, 0xa8, 0xa0, 0xb4, 0x1f,
  0xd4, 0x9e, 0xa8, 0x1c, 0x48, 0x21, 0x34, 0x92, 0x5e, 0x9c, 0x9b, 0x9a,
  0xce, 0x94, 0x9e, 0x1c, 0x1c, 0x9c, 0x3c, 0x17, 0x85, 0x8d, 0xc7, 0x9d,
  0xed, 0x98, 0x56, 0x87, 0xfe, 0xa0, 0xbe, 0x16, 0xd4, 0x9a, 0x57, 0x8c,
  0x6f, 0x04, 0xb4, 0x1e, 0x9e, 0x1c, 0xe3, 0x9c, 0xad, 0x96, 0x2e, 0x1b,
  0xb8, 0x9d, 0xf5, 0x19, 0x43, 0x98, 0xb4, 0x9e, 0xf1, 0xa0, 0x21, 0x92,
  0x8c, 0xa1, 0xd7, 0x81, 0x15, 0x9c, 0xdb, 0x9d, 0x6a, 0x08, 0x07, 0x1c,
  0x00, 0x1c, 0xd3, 0xa0, 0xba, 0x11, 0xb6, 0x89, 0xd8, 0x8c, 0x17, 0x97,
  0x0f, 0x1a, 0xd7, 0xa0, 0x35, 0xa2, 0x72, 0x1e, 0x55, 0xa0, 0xa7, 0x90,
  0x40, 0x16, 0x4e, 0x96, 0x85, 0x86, 0xa3, 0x1f, 0xd2, 0x1a, 0x7b, 0x9f,
  0xc0, 0x91, 0x1d, 0x18, 0x3a, 0x9d, 0x8a, 0x1e, 0x76, 0x9d, 0x0e, 0xa2,
  0x0b, 0x9c, 0xfd, 0x1c, 0x8a, 0x95, 0x3e, 0x91, 0x97, 0x9e, 0x4f, 0x8f,
  0xe6, 0x1e, 0xec, 0x1d, 0xf3, 0x98, 0xa8, 0x9e, 0xd0, 0x12, 0x49, 0x9e,
  0xd6, 0x1a, 0x11, 0x20, 0x50, 0x85, 0x14, 0x9f, 0x0e, 0x9c, 0xad, 0x1e,
  0xae, 0x94, 0x13, 0x19, 0x29, 0x9d, 0x8d, 0x9c, 0x52, 0x8b, 0x39, 0x1d,
  0x75, 0x1c, 0xaa, 0xa1, 0x27, 0x12, 0x89, 0x13, 0xb0, 0x18, 0x88, 0x1f,
  0x81, 0x12, 0x58, 0x9f, 0x8e, 0x9f, 0x1b, 0x9a, 0x54, 0x93, 0x9c, 0x8f,
  0xf2, 0x9a, 0xa0, 0x9d, 0x6a, 0x1b, 0x0b, 0x21, 0xa2, 0x94, 0xeb, 0x9f,
  0xcd, 0x9d, 0x34, 0x19, 0x7e, 0x0d, 0x47, 0x1c, 0xe9, 0x1c, 0xce, 0x9a,
  0xb3, 0x98, 0x57, 0x90, 0x60, 0x1d, 0x8d, 0x9b, 0x57, 0x9f, 0xbf, 0x92,
  0xf5, 0x90, 0x88, 0x21, 0x16, 0x1a, 0x63, 0xa0, 0x98, 0x9b, 0x7c, 0x8e,
  0x88, 0x98, 0xd9, 0x1d, 0x44, 0x1d, 0x52, 0x9f, 0xba, 0x98, 0xb9, 0x1e,
  0x16, 0x19, 0x74, 0x8c, 0x4b, 0x93, 0xd3, 0x98, 0x04, 0x0e, 0x51, 0x21,
  0x3f, 0x91, 0xa2, 0xa1, 0x2f, 0x9a, 0xd1, 0x18, 0xe7, 0x99, 0x9c, 0x1e,
  0x77, 0x1e, 0x2c, 0xa0, 0x20, 0x9a, 0xbf, 0x10, 0x03, 0x15, 0xa0, 0x9d,
  0xae, 0x04, 0x55, 0x1b, 0x3e, 0x9a, 0x06, 0x20, 0x86, 0x1e, 0x2b, 0xa0,
  0xc9, 0x99, 0x20, 0x1d, 0x26, 0x19, 0xd4, 0x21, 0x3b, 0x1e, 0x44, 0x9c,
  0x9f, 0x14, 0x4c, 0x1c, 0x66, 0x88, 0x4c, 0x9f, 0x42, 0x15, 0x1f, 0x18,
  0x7e, 0x9a, 0xc5, 0x1d, 0xf6, 0x20, 0x36, 0x9f, 0x31, 0x94, 0x7e, 0x1d,
  0xe8, 0x1c, 0x01, 0x21, 0x18, 0x20, 0x75, 0x8d, 0xc0, 0x99, 0x8e, 0x90,
  0x4d, 0x91, 0x7c, 0x9f, 0xda, 0x1a, 0xf6, 0x1d, 0x7b, 0x9c, 0x44, 0x1d,
  0xb7, 0x1f, 0x9d, 0x9c, 0x50, 0x9b, 0x36, 0x1e, 0x64, 0x1c, 0xee, 0x1f,
  0xec, 0x21, 0xf6, 0x13, 0xa7, 0x9a, 0xdd, 0x98, 0x8d, 0x97, 0x8b, 0x9b,
  0xb0, 0x1d, 0x27, 0x1c, 0x4c, 0x1c, 0x41, 0x1c, 0x27, 0x20, 0xe5, 0x85,
  0x21, 0x9a, 0x42, 0x1e, 0x6e, 0x10, 0x3d, 0x21, 0x20, 0x21, 0xb8, 0x93,
  0x82, 0x9c, 0x29, 0x96, 0xea, 0x9d, 0x40, 0x9d, 0xdf, 0x20, 0xf4, 0x20,
  0x67, 0x89, 0x96, 0x1c, 0x7b, 0x20, 0x8c, 0x99, 0xf1, 0x94, 0xfe, 0x1b,
  0xc6, 0x9a, 0x7a, 0x1b, 0x01, 0x1e, 0x8b, 0x96, 0x10, 0x93, 0x76, 0x1d,
  0xce, 0x93, 0x05, 0x9d, 0xd8, 0x1f, 0x69, 0x20, 0x41, 0x9c, 0xcb, 0x14,
  0xd0, 0x1f, 0x30, 0x9e, 0xf9, 0x19, 0x17, 0x1d, 0x9f, 0x9d, 0xde, 0x21,
  0xd7, 0x1f, 0xbd, 0x8b, 0x55, 0x80, 0x24, 0x1d, 0x76, 0x8c, 0x32, 0x9f,
  0xb5, 0x20, 0xf5, 0x1e, 0x0f, 0xa0, 0x89, 0x18, 0xbb, 0x1b, 0xee, 0x19,
  0xd6, 0x99, 0x9c, 0x1b, 0x80, 0x96, 0xa3, 0x1c, 0xb4, 0x20, 0x93, 0x96,
  0x24, 0x9a, 0x3b, 0x21, 0x56, 0x83, 0x01, 0x9d, 0x6e, 0x20, 0xb6, 0x1d,
  0x9a, 0x9e, 0xd9, 0x1c, 0x71, 0x22, 0xc5, 0x9c, 0x07, 0x96, 0x1e, 0x1c,
  0x66, 0x15, 0x3f, 0x1c, 0x01, 0x1f, 0x22, 0x9f, 0xac, 0x9d, 0x1e, 0x21,
  0xf1, 0x13, 0x33, 0x14, 0x89, 0x20, 0x4a, 0x20, 0x88, 0xa0, 0x9d, 0x19,
  0x2e, 0x1f, 0x54, 0x9c, 0x1b, 0x95, 0x34, 0x20, 0x25, 0x1d, 0xeb, 0x21,
  0xb4, 0x20, 0x8a, 0x94, 0x5f, 0x9e, 0x02, 0x1f, 0x00, 0x96, 0x1c, 0x1a,
  0x2f, 0x20, 0x9c, 0x1c, 0x14, 0xa0, 0x95, 0x14, 0xe3, 0x1d, 0xd3, 0x9d,
  0x22, 0x9d, 0xda, 0x16, 0xdb, 0x19, 0x30, 0x1f, 0x61, 0x1e, 0x8c, 0x97,
  0xdf, 0x9e, 0x4b, 0x18, 0x0a, 0x9c, 0xed, 0x1e, 0xfd, 0x1e, 0xe3, 0x1f,
  0x42, 0x9c, 0xb7, 0x1b, 0xd3, 0x20, 0xb2, 0x9b, 0xf1, 0x9e, 0x4a, 0x1f,
  0x87, 0x99, 0x6a, 0x1e, 0x6d, 0x1b, 0xb6, 0x93, 0x43, 0x9d, 0x12, 0x18,
  0xd8, 0x9f, 0x0f, 0x1e, 0xd4, 0x1e, 0x62, 0x1f, 0xdc, 0x9b, 0x69, 0x20,
  0x04, 0x20, 0xe7, 0x9e, 0x2c, 0x9c, 0x25, 0x1e, 0xa4, 0x9e, 0x29, 0x14,
  0x8b, 0x21, 0x0a, 0x18, 0x39, 0x9e, 0x3d, 0x94, 0x25, 0x9e, 0x86, 0x18,
  0x6c, 0x1f, 0xe1, 0x1e, 0x4f, 0xa0, 0x38, 0x20, 0x55, 0x1c, 0x57, 0x9a,
  0xa8, 0x9d, 0x0f, 0x1c, 0xf1, 0x9b, 0xac, 0x06, 0xce, 0x20, 0x77, 0x9d,
  0x00, 0x93, 0x9e, 0x1b, 0x90, 0xa1, 0x41, 0x1d, 0xab, 0x1c, 0x9a, 0x1d,
  0xc8, 0xa0, 0x59, 0x15, 0x63, 0x22, 0xb3, 0x99, 0xef, 0x9e, 0xc7, 0x17,
  0x1f, 0x9d, 0x2e, 0x0d, 0x1e, 0x20, 0x83, 0x9a, 0xe8, 0x97, 0xa8, 0x9a,
  0x92, 0xa0, 0xb9, 0x21, 0x05, 0x1c, 0xd5, 0x12, 0x43, 0xa0, 0x99, 0x1a,
  0x52, 0x1b, 0x76, 0x99, 0x23, 0xa0, 0x80, 0x1d, 0x27, 0x19, 0x97, 0x1d,
  0x9f, 0x1c, 0x3d, 0x95, 0x76, 0x97, 0xc5, 0x9c, 0xa0, 0x9f, 0xde, 0x1a,
  0x0e, 0x1d, 0xbc, 0x1e, 0x5d, 0x9f, 0x34, 0x1e, 0xe7, 0x20, 0xa9, 0x9c,
  0x33, 0xa0, 0xa2, 0x1c, 0x67, 0x1b, 0x5d, 0x20, 0x7b, 0x22, 0xca, 0x9c,
  0xce, 0x99, 0x85, 0x9a, 0x28, 0x9f, 0xd4, 0x99, 0x45, 0x1e, 0xd5, 0x1e,
  0x47, 0x94, 0x0f, 0x1d, 0xcc, 0x20, 0xe4, 0x94, 0x64, 0xa1, 0xcc, 0x1c,
  0xe9, 0x1c, 0x50, 0x17, 0x5c, 0x1e, 0x0f, 0x99, 0xd0, 0x99, 0x28, 0x9d,
  0xe8, 0x15, 0xc6, 0x1d, 0x90, 0x1d, 0x5f, 0x1d, 0xa7, 0x8b, 0x73, 0x0f,
  0x02, 0x21, 0x42, 0x9e, 0xd3, 0x99, 0xad, 0x80, 0x42, 0x91, 0x03, 0x11,
  0xb3, 0x1f, 0x64, 0x19, 0xfd, 0x16, 0x42, 0x97, 0x43, 0x1c, 0x00, 0x19,
  0xb5, 0x1c, 0x23, 0x1b, 0x61, 0x9b, 0x3d, 0x16, 0x51, 0x22, 0x92, 0x8d,
  0x5e, 0x9c, 0x48, 0x20, 0x9a, 0x1a, 0x2c, 0x0c, 0x31, 0x21, 0x05, 0x97,
  0xb9, 0x15, 0x91, 0x1c, 0xde, 0x11, 0x6e, 0x8d, 0x0a, 0x20, 0x3e, 0x1f,
  0x08, 0x9e, 0x74, 0x19, 0xa0, 0x1e, 0x74, 0x9e, 0xff, 0x96, 0x5d, 0x15,
  0xf5, 0x96, 0x90, 0x98, 0xcf, 0x20, 0x08, 0x98, 0x59, 0x1c, 0xaf, 0x1a,
  0xf4, 0x1d, 0x06, 0x98, 0x88, 0x20, 0x8c, 0x1d, 0x15, 0x91, 0xa0, 0x10,
  0x4a, 0x19, 0x90, 0x9c, 0xa3, 0x8f, 0x3a, 0x10, 0xeb, 0x9c, 0x25, 0x17,
  0x87, 0x20, 0xb0, 0x99, 0x2f, 0x18, 0x55, 0x1f, 0xc7, 0x1e, 0xaa, 0x9d,
  0x36, 0x20, 0x7e, 0x1d, 0x7c, 0x95, 0x5f, 0x1b, 0x91, 0x17, 0x63, 0x9f,
  0x57, 0x9f, 0xb3, 0x15, 0x75, 0x9b, 0xa2, 0x99, 0x9e, 0x22, 0xfd, 0x93,
  0x49, 0x19, 0x39, 0x1d, 0xaa, 0x15, 0xe8, 0x9a, 0xce, 0x1e, 0x84, 0x1d,
  0x24, 0x09, 0x0b, 0x94, 0x5e, 0x17, 0x15, 0x9f, 0x9c, 0x9d, 0x22, 0x1c,
  0x68, 0x94, 0x12, 0x17, 0x06, 0x1f, 0x4e, 0x97, 0x67, 0x93, 0x00, 0x1b,
  0x1a, 0x1a, 0xd8, 0x9f, 0x21, 0x20, 0x1a, 0x19, 0x27, 0x12, 0xcb, 0x10,
  0x49, 0x1a, 0xc0, 0x96, 0x69, 0x98, 0x48, 0x1d, 0x82, 0x1a, 0xa9, 0x11,
  0xc0, 0x20, 0xf9, 0x81, 0x37, 0x9c, 0x1f, 0x1b, 0x38, 0x20, 0xa3, 0x9e,
  0xc6, 0x19, 0x59, 0x1f, 0x6c, 0x19, 0xf6, 0x12, 0x4f, 0x1d, 0x0f, 0x9b,
  0xf2, 0x9f, 0xd3, 0x16, 0x31, 0x1a, 0x50, 0x16, 0xcc, 0x21, 0x0a, 0x9a,
  0x72, 0x9b, 0x44, 0x1d, 0x4e, 0x08, 0x29, 0xa0, 0x05, 0x14, 0x0b, 0x20,
  0xde, 0x96, 0xa7, 0x8f, 0x56, 0x0e, 0x79, 0x9b, 0x50, 0x98, 0xd1, 0x15,
  0x66, 0x9b, 0x89, 0x9c, 0x84, 0x20, 0x0a, 0x88, 0x9a, 0x9c, 0x1e, 0x93,
  0xd2, 0x1d, 0x83, 0xa0, 0x11, 0x1b, 0x0c, 0x1f, 0xdb, 0x1a, 0x94, 0x9d,
  0x12, 0x8a, 0x7f, 0x17, 0x72, 0x98, 0xd1, 0x1e, 0xb7, 0x9d, 0xd8, 0x9d,
  0x02, 0x20, 0x70, 0xa0, 0x68, 0x1a, 0x79, 0x9c, 0xeb, 0x92, 0xb1, 0x97,
  0xff, 0x19, 0x81, 0x1d, 0x79, 0x1a, 0x16, 0xa0, 0x51, 0x10, 0x3e, 0x13,
  0x2e, 0x99, 0x11, 0x18, 0x7a, 0x9a, 0xac, 0x98, 0x06, 0x11, 0xb9, 0xa0,
  0x06, 0x95, 0x2f, 0x9e, 0x18, 0x1c, 0x30, 0x92, 0x27, 0x1a, 0x30, 0x20,
  0xd0, 0x16, 0x71, 0xa2, 0x71, 0x1a, 0x48, 0x13, 0x13, 0x96, 0x3a, 0x1c,
  0x2f, 0x99, 0x6a, 0x9d, 0x2a, 0x20, 0x30, 0x9c, 0x5b, 0x9c, 0xed, 0x9f,
  0x77, 0x1d, 0x3d, 0x95, 0x58, 0x20, 0xf4, 0x18, 0x6d, 0x17, 0x57, 0xa2,
  0x83, 0x9b, 0xcf, 0x98, 0x02, 0x9d, 0xda, 0x18, 0x3f, 0x19, 0x22, 0x96,
  0x4a, 0x1a, 0x48, 0x9d, 0x6a, 0x15, 0x21, 0xa1, 0x54, 0x1a, 0x95, 0x16,
  0x78, 0x19, 0x2d, 0x1e, 0xc8, 0x1c, 0x1d, 0xa1, 0x2d, 0x18, 0xe4, 0x9c,
  0x09, 0x9e, 0x2c, 0x17, 0x9f, 0x9c, 0xd1, 0x9f, 0xf1, 0x1d, 0x77, 0x1d,
  0xb8, 0x9b, 0x32, 0xa0, 0x30, 0x1a, 0xa6, 0x1a, 0x70, 0x1e, 0xc2, 0x20,
  0x76, 0x97, 0xa5, 0x19, 0x36, 0x9d, 0x1c, 0x8d, 0x56, 0xa3, 0xb3, 0x21,
  0x42, 0x9c, 0xf8, 0x9d, 0x3a, 0x1d, 0x92, 0x20, 0x6d, 0x9c, 0x82, 0xa1,
  0x9a, 0x95, 0xaf, 0x1a, 0x89, 0x21, 0xe9, 0x22, 0xb9, 0x90, 0x9a, 0x99,
  0x02, 0x98, 0xd4, 0x9a, 0xe0, 0xa1, 0x28, 0x21, 0x63, 0x19, 0x4c, 0x9e,
  0x95, 0x19, 0xdd, 0x1a, 0x01, 0x95, 0x38, 0xa2, 0xa5, 0x9a, 0xc9, 0x1d,
  0xb7, 0x21, 0x96, 0x21, 0x5a, 0x07, 0x26, 0x9a, 0xe3, 0x9f, 0xb6, 0x9b,
  0xa9, 0xa2, 0xbe, 0x22, 0x10, 0x95, 0xbe, 0x9c, 0xc2, 0x11, 0xcc, 0x1f,
  0x9a, 0x94, 0x6e, 0xa3, 0xba, 0x8a, 0xf3, 0x90, 0x94, 0x21, 0x78, 0x22,
  0xdf, 0x17, 0xe0, 0x9f, 0x24, 0xa0, 0xe0, 0x94, 0x84, 0xa3, 0x05, 0x22,
  0x1a, 0x13, 0xb6, 0x05, 0x98, 0x89, 0x05, 0x1f, 0x91, 0x93, 0x38, 0xa0,
  0xc6, 0x12, 0xd9, 0x9e, 0x18, 0x1c, 0x35, 0x20, 0x02, 0x1d, 0x74, 0xa0,
  0xcf, 0x9d, 0xec, 0xa0, 0x3b, 0x9f, 0x22, 0x21, 0xe1, 0x17, 0xad, 0x91,
  0x77, 0x98, 0xa0, 0x18, 0x05, 0x98, 0x5a, 0x9c, 0xa8, 0x1c, 0x4c, 0xa1,
  0x5f, 0x18, 0xc7, 0x1a, 0x83, 0x1f, 0x70, 0x9f, 0xd9, 0x9c, 0x25, 0xa1,
  0x63, 0x9e, 0x0d, 0x1f, 0x6e, 0x13, 0x80, 0x16, 0xd3, 0x9c, 0x20, 0x1c,
  0xb6, 0x91, 0x4f, 0x1a, 0x12, 0x1c, 0xdb, 0xa1, 0x38, 0x14, 0xd8, 0x13,
  0x9d, 0x20, 0x67, 0xa1, 0x82, 0x9d, 0xc9, 0x99, 0x74, 0xa0, 0x38, 0x1f,
  0x53, 0x1a, 0x4a, 0x1d, 0x3e, 0x9c, 0xf1, 0x9d, 0x6a, 0x9f, 0x13, 0x1f,
  0x51, 0x1f, 0x45, 0xa4, 0xb2, 0x15, 0xde, 0x1c, 0xa8, 0x1f, 0x28, 0xa0,
  0xd3, 0x99, 0x39, 0x9c, 0x2e, 0x9c, 0x4c, 0x07, 0x4c, 0x1d, 0x7e, 0x15,
  0x92, 0x9f, 0xf5, 0x98, 0x23, 0x96, 0xc0, 0x20, 0x71, 0x20, 0xee, 0xa1,
  0x7e, 0x0e, 0x01, 0x19, 0xc2, 0x20, 0x2e, 0xa0, 0xf0, 0x99, 0x0f, 0x9e,
  0x49, 0x9c, 0xec, 0x18, 0x73, 0x20, 0xa2, 0x1f, 0xd8, 0x9f, 0x4a, 0x9e,
  0x38, 0x98, 0x14, 0x19, 0x0c, 0x1f, 0x06, 0xa0, 0xfe, 0x02, 0xbe, 0x15,
  0x23, 0x20, 0xb8, 0xa1, 0xe7, 0x9a, 0x80, 0xa1, 0x9b, 0x90, 0x3f, 0x9c,
  0xdd, 0x1d, 0x3a, 0x20, 0x09, 0xa2, 0x99, 0x9f, 0xd1, 0x91, 0xfb, 0x1f,
  0xcd, 0x1c, 0xd5, 0x9c, 0xe0, 0x9c, 0xad, 0x91, 0xbb, 0x1c, 0x90, 0xa3,
  0x07, 0x90, 0xa4, 0xa0, 0x5e, 0x10, 0xff, 0x9c, 0x5e, 0x20, 0x3d, 0x22,
  0xf8, 0xa0, 0x36, 0x9d, 0x4c, 0xa0, 0x0f, 0x1d, 0x35, 0x1c, 0x4d, 0xa0,
  0x25, 0x9d, 0x7d, 0x9a, 0x5d, 0x20, 0xc9, 0xa2, 0xa4, 0x99, 0x03, 0xa1,
  0x55, 0x1a, 0x04, 0x9c, 0xde, 0x1e, 0x09, 0x21, 0xaf, 0xa1, 0xaa, 0x9f,
  0x72, 0x9d, 0xfc, 0x0f, 0xf6, 0x88, 0xbe, 0x9d, 0x09, 0x9e, 0xd9, 0x9d,
  0xad, 0x20, 0xc6, 0xa2, 0xd8, 0x94, 0xec, 0xa0, 0x95, 0x16, 0x7c, 0x9d,
  0x59, 0x1e, 0xbf, 0x21, 0x4e, 0xa1, 0x86, 0x9b, 0x70, 0x9c, 0x09, 0x9a,
  0x42, 0x17, 0x06, 0x12, 0xf0, 0x9e, 0x33, 0x9e, 0x81, 0x1e, 0x35, 0xa1,
  0xef, 0x95, 0xf1, 0xa0, 0xae, 0x13, 0x74, 0x9d, 0xb4, 0x1d, 0xcb, 0x1f,
  0xa2, 0xa0, 0x9f, 0x9e, 0x9b, 0x9d, 0x0d, 0x96, 0xb7, 0x9b, 0xc9, 0x99,
  0x2d, 0xa1, 0xc3, 0xa0, 0xd2, 0x1a, 0x91, 0x9e, 0x98, 0x94, 0xb5, 0xa2,
  0xf1, 0x88, 0x29, 0xa3, 0x22, 0x19, 0x10, 0x1d, 0x96, 0xa0, 0xfc, 0x9c,
  0x54, 0xa2, 0x49, 0xa0, 0x9a, 0xa1, 0xb7, 0x11, 0xcc, 0xa1, 0x12, 0xa1,
  0xe1, 0x03, 0xaf, 0x18, 0x5d, 0x18, 0xa3, 0xa2, 0x16, 0x99, 0x00, 0xa2,
  0xfe, 0x15, 0x8a, 0x1f, 0x29, 0x9f, 0x05, 0x9a, 0x55, 0xa0, 0xda, 0xa0,
  0x2b, 0x9e, 0x7c, 0x1c, 0xe4, 0x9e, 0x89, 0x9d, 0x90, 0x9e, 0x95, 0x20,
  0x24, 0x19, 0x4d, 0xa3, 0x9e, 0x15, 0xcf, 0xa2, 0x18, 0x14, 0x81, 0x21,
  0x39, 0x9f, 0xdf, 0x9b, 0x11, 0x9f, 0x71, 0xa1, 0x0b, 0xa2, 0xf7, 0x1c,
  0xd0, 0x9c, 0x67, 0xa1, 0xe2, 0xa1, 0xab, 0x21, 0x78, 0x1c, 0x28, 0xa3,
  0x64, 0x9b, 0xcb, 0xa1, 0xa8, 0x14, 0xbb, 0x1f, 0x8b, 0x9f, 0x36, 0x96,
  0xa5, 0x96, 0xa5, 0xa0, 0xe3, 0xa1, 0xfc, 0x12, 0x52, 0x9e, 0x75, 0x9f,
  0x0b, 0xa1, 0x4a, 0x21, 0xb7, 0x1c, 0x48, 0xa4, 0x3b, 0x9c, 0x4f, 0xa3,
  0xe8, 0x14, 0x00, 0x1e, 0x80, 0x9d, 0x45, 0x96, 0xe9, 0x9c, 0xc8, 0x9e,
  0x5c, 0xa3, 0x4d, 0x19, 0x6f, 0x9e, 0x1e, 0x9c, 0x67, 0xa1, 0x99, 0x20,
  0x4b, 0x1f, 0xdf, 0xa2, 0x06, 0x98, 0x5f, 0xa3, 0x64, 0x18, 0x54, 0x20,
  0x03, 0x81, 0xe5, 0x96, 0x75, 0x99, 0x3a, 0x94, 0x20, 0xa2, 0x4c, 0x1a,
  0x75, 0x9d, 0x73, 0x99, 0xa8, 0xa2, 0x15, 0x23, 0x33, 0x1f, 0xd8, 0xa2,
  0x34, 0x1a, 0x6d, 0xa3, 0xc7, 0x92, 0xb0, 0x96, 0x26, 0x1c, 0x7b, 0x8c,
  0x2f, 0x1c, 0xf1, 0x1a, 0x6d, 0xa0, 0xac, 0x1c, 0x13, 0x9c, 0xd5, 0x9b,
  0x80, 0xa0, 0xa8, 0x22, 0xcb, 0x1d, 0x57, 0xa0, 0x4a, 0x04, 0x94, 0xa3,
  0xa6, 0x9e, 0x97, 0x1b, 0xa5, 0x1d, 0x9f, 0x8d, 0x22, 0x1a, 0x70, 0x95,
  0xbc, 0x9c, 0x9f, 0x97, 0x56, 0x9c, 0xf6, 0x9c, 0x1e, 0xa1, 0xe4, 0x22,
  0xa4, 0x20, 0xff, 0xa2, 0x13, 0x16, 0xb9, 0xa3, 0xbb, 0x9e, 0x5c, 0x1b,
  0x3d, 0x1e, 0xa5, 0x97, 0x8b, 0x98, 0x32, 0x1d, 0x0c, 0x94, 0x7d, 0x90,
  0x47, 0x9c, 0x50, 0x97, 0x18, 0xa3, 0x07, 0x21, 0xe8, 0x1f, 0xdc, 0xa1,
  0xec, 0x15, 0x3b, 0xa4, 0xb1, 0x9b, 0xaf, 0x1b, 0xca, 0x1d, 0x5a, 0x9b,
  0x5e, 0x98, 0x30, 0x19, 0x02, 0x1d, 0x35, 0x99, 0x3a, 0x98, 0x42, 0x99,
  0x1f, 0xa3, 0x11, 0x22, 0x12, 0x20, 0xdc, 0xa1, 0x47, 0x07, 0xcc, 0xa2,
  0x4f, 0x9a, 0xe5, 0x90, 0x8a, 0x21, 0xcc, 0x9c, 0x68, 0x9c, 0x96, 0x1c,
  0x83, 0x1b, 0x03, 0xa2, 0x4c, 0x95, 0xfa, 0x94, 0xf9, 0x9f, 0xbf, 0x22,
  0x96, 0x22, 0x2c, 0xa1, 0x6e, 0x0c, 0x0e, 0xa3, 0x43, 0x9e, 0x9b, 0x99,
  0xcc, 0x1f, 0xee, 0x9f, 0xe5, 0x9d, 0x55, 0x1e, 0x94, 0x1f, 0x70, 0xa2,
  0x40, 0x1c, 0x28, 0x8e, 0x4d, 0x9d, 0x55, 0x21, 0xeb, 0x21, 0x4d, 0xa1,
  0xd8, 0x91, 0x27, 0xa0, 0x22, 0xa2, 0xdb, 0x98, 0x31, 0x20, 0x06, 0x9c,
  0xf0, 0xa3, 0x08, 0x90, 0xff, 0x1f, 0x12, 0xa0, 0x5c, 0x1e, 0xf0, 0x1f,
  0x02, 0x9e, 0xc1, 0x20, 0xf3, 0x1d, 0xce, 0xa0, 0xcc, 0x99, 0x1d, 0x99,
  0xbc, 0xa1, 0x3b, 0xa0, 0x60, 0x21, 0x32, 0x9c, 0xc5, 0xa0, 0xee, 0x96,
  0xfa, 0x19, 0x24, 0x9f, 0xee, 0x21, 0xae, 0x20, 0xe2, 0xa0, 0xb7, 0x96,
  0x1a, 0x1f, 0x6c, 0x9e, 0x36, 0x9b, 0x7d, 0x05, 0x52, 0xa0, 0xe8, 0x9f,
  0x4f, 0x22, 0xaf, 0x9c, 0xb9, 0xa1, 0x2c, 0x9c, 0x1e, 0x1d, 0xa4, 0x9f,
  0x94, 0x21, 0x10, 0x21, 0x04, 0x9e, 0xcd, 0x16, 0x5f, 0x20, 0xf4, 0x9d,
  0x02, 0x9d, 0x94, 0x1b, 0xf9, 0xa1, 0xad, 0xa0, 0xce, 0x22, 0x28, 0x9c,
  0x58, 0x9a, 0x65, 0x9c, 0xcf, 0x1b, 0x35, 0xa0, 0x96, 0x20, 0x37, 0x22,
  0x66, 0x96, 0x2e, 0x9a, 0x7f, 0x21, 0x2e, 0x97, 0xf3, 0x9c, 0xc1, 0x1a,
  0xbc, 0xa0, 0x9d, 0x9a, 0x05, 0x21, 0x06, 0xa0, 0x79, 0x90, 0x3d, 0xa3,
  0x3a, 0x14, 0x7e, 0x9e, 0xe4, 0x22, 0x1f, 0x24, 0xf2, 0x90, 0xc3, 0x98,
  0x47, 0x20, 0x28, 0x10, 0x61, 0x9e, 0x43, 0x20, 0xd7, 0xa0, 0xbd, 0x99,
  0x82, 0x21, 0xd2, 0x98, 0x93, 0x12, 0xf8, 0xa1, 0x9d, 0x19, 0xd7, 0x18,
  0xde, 0x22, 0x16, 0x23, 0x23, 0x1b, 0xfb, 0x9b, 0x69, 0x1e, 0x3a, 0x14,
  0x4b, 0x9a, 0xd9, 0x20, 0xad, 0xa0, 0x7e, 0x9b, 0x96, 0x20, 0x98, 0x9c,
  0xae, 0x17, 0xd9, 0x9e, 0x14, 0x0d, 0xac, 0x1e, 0xc8, 0x21, 0xab, 0x1f,
  0x02, 0x0f, 0x91, 0x8e, 0xc8, 0x1b, 0xc6, 0x89, 0x1c, 0x9e, 0x8e, 0x20,
  0xb0, 0xa1, 0xad, 0x9c, 0xd1, 0x20, 0x80, 0x9a, 0xb7, 0x15, 0xe5, 0x99,
  0xaf, 0x99, 0x32, 0x18, 0xb2, 0x22, 0xd0, 0x1f, 0x6b, 0x17, 0x26, 0x11,
  0x84, 0x1c, 0x0e, 0x11, 0x65, 0xa3, 0xd1, 0x21, 0x55, 0x9c, 0x7f, 0xa0,
  0x90, 0x22, 0x30, 0x9c, 0x55, 0x18, 0x0b, 0x94, 0xb5, 0x91, 0x4f, 0x9c,
  0x3c, 0x1f, 0x3f, 0x21, 0x01, 0x1b, 0xbb, 0x98, 0xca, 0x9e, 0xcf, 0x19,
  0xdc, 0x9d, 0xb2, 0x20, 0xa0, 0xa0, 0x0f, 0x9f, 0x8e, 0x1f, 0x12, 0x96,
  0x2d, 0x1b, 0xb1, 0x1d, 0xe8, 0x9e, 0x7a, 0x12, 0xd3, 0x22, 0x9b, 0x1b,
  0xae, 0x0f, 0x45, 0x94, 0xd4, 0x98, 0x0f, 0x86, 0x58, 0x9d, 0x41, 0x20,
  0xac, 0x9c, 0x49, 0x9b, 0x1f, 0x1d, 0xeb, 0x8e, 0xaf, 0x0d, 0x10, 0x14,
  0x91, 0xa4, 0x9a, 0x1b, 0x59, 0x1e, 0x22, 0x21, 0x32, 0x9b, 0x0a, 0x0a,
  0x40, 0x18, 0x06, 0x0b, 0xc9, 0x9b, 0x35, 0x20, 0xe0, 0x9d, 0x25, 0x9f,
  0x11, 0x20, 0xb4, 0x96, 0x3d, 0x98, 0x77, 0x1e, 0x27, 0xa2, 0xfc, 0x1d,
  0x4c, 0x16, 0x38, 0x1f, 0xe8, 0x06, 0x6f, 0x90, 0x31, 0x99, 0x39, 0x1a,
  0xc5, 0x94, 0xfa, 0x1c, 0x88, 0x9c, 0x45, 0x98, 0x9b, 0x16, 0x33, 0x98,
  0x8e, 0x98, 0xf0, 0x1d, 0xd4, 0x9f, 0x4d, 0x14, 0x19, 0x1e, 0xcc, 0x10,
  0x5d, 0x9b, 0x5b, 0x93, 0x9f, 0x9e, 0x38, 0x14, 0xf0, 0x9a, 0x46, 0x1e,
  0xfe, 0x9e, 0xe6, 0x9f, 0x6e, 0x1a, 0xf2, 0x11, 0xc3, 0x97, 0xb4, 0x1d,
  0xe0, 0xa2, 0x90, 0x15, 0xb6, 0x9d, 0x3f, 0x15, 0x19, 0x99, 0x70, 0x9c,
  0x5b, 0xa0, 0x16, 0x18, 0x0b, 0x0c, 0x61, 0x1f, 0x17, 0x9c, 0x05, 0xa0,
  0x79, 0x95, 0x8d, 0x9d, 0xa3, 0x98, 0x27, 0x10, 0xce, 0x9c, 0x9c, 0x91,
  0xad, 0x14, 0x99, 0x12, 0x61, 0x9c, 0xd5, 0x9f, 0x28, 0xa0, 0xe5, 0x1b,
  0x52, 0x0f, 0xa3, 0x1f, 0xdd, 0x04, 0x7d, 0xa0, 0x99, 0x90, 0x30, 0x96,
  0xca, 0x9f, 0xa9, 0x1b, 0x5c, 0xa0, 0xd1, 0x18, 0x64, 0x99, 0x73, 0x92,
  0x33, 0x9f, 0x10, 0xa0, 0x28, 0xa3, 0x92, 0x13, 0xb9, 0x14, 0x26, 0x1b,
  0x1c, 0x95, 0x20, 0xa1, 0xd4, 0x0d, 0x3d, 0xa0, 0xd6, 0x8f, 0x70, 0x0f,
  0x14, 0x18, 0x3b, 0x9b, 0x89, 0x98, 0x4a, 0x1c, 0x9c, 0xa0, 0xf8, 0x9e,
  0x9a, 0xa1, 0xe9, 0x1c, 0xcd, 0x1a, 0x03, 0x17, 0x50, 0x9a, 0x3e, 0xa0,
  0x33, 0x98, 0x3b, 0x9b, 0x64, 0x8b, 0x09, 0x15, 0x2f, 0x1f, 0x2a, 0xa2,
  0x7e, 0x13, 0x32, 0x99, 0x30, 0x9e, 0x58, 0x9e, 0x08, 0xa1, 0x88, 0x19,
  0xd9, 0x19, 0x27, 0x15, 0x4b, 0x9e, 0x3c, 0xa0, 0x96, 0x96, 0x5b, 0x9c,
  0xfe, 0x92, 0x48, 0x04, 0x36, 0x1f, 0x03, 0xa0, 0xe7, 0x0f, 0x12, 0x1c,
  0x51, 0x99, 0x24, 0x9d, 0x1a, 0xa1, 0xac, 0x14, 0xe7, 0x11, 0xd4, 0x94,
  0xee, 0x95, 0x93, 0x8d, 0x28, 0x10, 0x1e, 0x8f, 0x4f, 0x98, 0xd8, 0x91,
  0xed, 0x1e, 0x74, 0x9b, 0x3f, 0x97, 0x88, 0x15, 0xf0, 0x99, 0x25, 0x9b,
  0xab, 0xa0, 0x80, 0x1c, 0xae, 0x82, 0x84, 0x9d, 0xa8, 0x15, 0x41, 0x16,
  0x42, 0x13, 0xc2, 0x9c, 0xda, 0xa0, 0xde, 0x9c, 0x24, 0x20, 0x74, 0x9c,
  0xef, 0x91, 0xe8, 0x0c, 0xf7, 0x96, 0x90, 0x9e, 0x18, 0x9f, 0x06, 0x1c,
  0xb6, 0x96, 0x59, 0x97, 0x5e, 0x1a, 0x0e, 0x91, 0x98, 0x94, 0xe1, 0x96,
  0xad, 0x98, 0xef, 0x98, 0x2a, 0x21, 0x36, 0x9e, 0x9a, 0x8b, 0x2a, 0x1c,
  0x18, 0x92, 0x52, 0x9d, 0x0a, 0xa0, 0x5a, 0x1c, 0x70, 0x9b, 0xab, 0x00,
  0xdb, 0x0a, 0xdb, 0x14, 0x64, 0x1a, 0x13, 0x9f, 0x9b, 0x19, 0xf1, 0x9c,
  0x66, 0x1d, 0x9d, 0x9e, 0x60, 0x14, 0xb7, 0x14, 0x3c, 0x9a, 0x15, 0x98,
  0xe4, 0x9e, 0xb4, 0x1d, 0x2c, 0x9d, 0x10, 0x91, 0x6f, 0x98, 0x7e, 0x1c,
  0x82, 0x94, 0xae, 0x12, 0x4c, 0x8b, 0xd3, 0x8f, 0xa4, 0x17, 0x18, 0x99,
  0x01, 0x93, 0x66, 0x16, 0x16, 0x9e, 0xc2, 0x99, 0x70, 0x9f, 0x79, 0x1c,
  0x45, 0x9e, 0x1c, 0x9b, 0x87, 0x94, 0x82, 0x18, 0xc9, 0x9a, 0xa3, 0x1f,
  0xb0, 0x14, 0xf6, 0x97, 0x8e, 0x19, 0x3c, 0x1d, 0xb8, 0x17, 0xf9, 0x16,
  0x7a, 0x94, 0xdf, 0x9d, 0x55, 0x9a, 0x10, 0x17, 0x6f, 0x96, 0x16, 0x9d,
  0x29, 0x1b, 0x7a, 0x1d, 0xe1, 0x9d, 0xcc, 0x0c, 0x90, 0x9b, 0xf2, 0x8c,
  0xa7, 0x16, 0xb2, 0x1e, 0x3b, 0x10, 0x5b, 0x0b, 0x5d, 0x18, 0xdb, 0x84,
  0x49, 0x9d, 0x90, 0x1c, 0xa2, 0x9f, 0x68, 0x9a, 0xb2, 0x1a, 0xef, 0x1e,
  0x6a, 0x9d, 0xf1, 0x18, 0x13, 0x98, 0xe7, 0x9d, 0x81, 0x08, 0xc8, 0x0d,
  0x71, 0x8a, 0x18, 0x12, 0xda, 0x8f, 0xc5, 0x1e, 0x0c, 0x99, 0x7d, 0x13,
  0x58, 0x9d, 0x35, 0x99, 0x8b, 0x15, 0xaa, 0x1f, 0xc1, 0x9d, 0x97, 0x19,
  0x51, 0x98, 0x88, 0x9d, 0x7e, 0x96, 0xc8, 0x10, 0x72, 0x98, 0xe2, 0x93,
  0x5a, 0x99, 0x91, 0x21, 0x17, 0x9c, 0x7b, 0x18, 0xf8, 0x9e, 0x33, 0x9e,
  0xa5, 0x99, 0x37, 0x1d, 0x53, 0x9f, 0xa3, 0x12, 0x8c, 0x18, 0x35, 0x1a,
  0x12, 0x9a, 0xa8, 0x1c, 0x15, 0x9d, 0x65, 0x9e, 0x43, 0x98, 0x2f, 0x21,
  0xae, 0x9c, 0xd9, 0x99, 0xdd, 0x95, 0xf8, 0x9a, 0x3d, 0x99, 0xc5, 0x1b,
  0xe1, 0x9f, 0x5b, 0x97, 0xd1, 0x1f, 0x17, 0x02, 0xc1, 0x98, 0x39, 0x1e,
  0x14, 0x9e, 0xfa, 0x9c, 0xe9, 0x98, 0x99, 0x1d, 0xb0, 0x98, 0x51, 0x18,
  0x23, 0x99, 0x85, 0x9d, 0xf1, 0x16, 0xb0, 0x1f, 0x7e, 0x98, 0xc5, 0x9b,
  0x82, 0x16, 0x38, 0x1b, 0xd4, 0x9c, 0x6d, 0x19, 0x1d, 0x9d, 0xf5, 0x9c,
  0xaa, 0x95, 0x58, 0x20, 0xab, 0x96, 0x7f, 0x9a, 0x02, 0x9c, 0x7d, 0xa1,
  0x41, 0x1b, 0x04, 0x1d, 0x92, 0x98, 0x68, 0x9b, 0x58, 0x95, 0xd7, 0x16,
  0xb7, 0xa0, 0xf7, 0x11, 0xd9, 0x9d, 0xab, 0x9f, 0x1d, 0x98, 0xef, 0x20,
  0xcb, 0x98, 0x8c, 0x11, 0x8e, 0x9a, 0x29, 0x9f, 0x46, 0x1a, 0xfc, 0x21,
  0x61, 0x92, 0x5f, 0x98, 0x27, 0x1b, 0xf7, 0x18, 0x0f, 0xa0, 0xda, 0x91,
  0xce, 0x9d, 0x27, 0x9d, 0x2b, 0x9a, 0xda, 0x20, 0x7f, 0x15, 0x22, 0x95,
  0x92, 0x95, 0x21, 0xa1, 0x89, 0x98, 0x39, 0x21, 0x24, 0x0f, 0xb2, 0x8a,
  0x1c, 0x8f, 0x54, 0x91, 0xdd, 0x9a, 0xef, 0x15, 0xa0, 0x9d, 0x4f, 0x9f,
  0x8b, 0x9d, 0x2e, 0x20, 0xb8, 0x14, 0x9c, 0x92, 0x1f, 0x95, 0xbe, 0x9f,
  0xb1, 0x97, 0x44, 0x1c, 0x01, 0x19, 0x0c, 0x9a, 0x2f, 0x95, 0x58, 0x1a,
  0xf3, 0x9b, 0x9a, 0x16, 0xf8, 0x9a, 0x62, 0x9b, 0x1a, 0x93, 0xe6, 0x20,
  0xa1, 0x1a, 0xc3, 0x96, 0x2d, 0x9c, 0x50, 0xa1, 0xc3, 0x96, 0x30, 0x1a,
  0xdd, 0x1a, 0x1b, 0x18, 0x27, 0x83, 0x8a, 0x97, 0x92, 0x9a, 0x3a, 0x80,
  0x24, 0x97, 0xba, 0x9a, 0xeb, 0x99, 0xd2, 0x1c, 0x41, 0x1d, 0xa7, 0x98,
  0x4a, 0x9a, 0x3e, 0x9f, 0x74, 0x14, 0x04, 0x1c, 0x95, 0x20, 0xe4, 0x8d,
  0x0a, 0x9a, 0x25, 0x9b, 0x7d, 0x9c, 0xd0, 0x96, 0x9d, 0x8c, 0x21, 0x91,
  0x2d, 0x99, 0xed, 0x1d, 0x80, 0x14, 0xf8, 0x9c, 0xc5, 0x8d, 0xa6, 0x97,
  0x0c, 0x1d, 0xf8, 0x10, 0x5a, 0x20, 0x6e, 0x89, 0xa4, 0x95, 0x18, 0x9d,
  0xaa, 0x9d, 0x6e, 0x98, 0x69, 0x1d, 0xe3, 0x17, 0xb1, 0x12, 0xf0, 0x1c,
  0xa0, 0x1a, 0x2d, 0x0b, 0x8d, 0x96, 0x77, 0x95, 0xf0, 0x99, 0x9a, 0x06,
  0x59, 0x20, 0x0a, 0x9a, 0xeb, 0x18, 0xe3, 0x9c, 0x66, 0x9c, 0x09, 0x98,
  0x21, 0x1e, 0x02, 0x1d, 0x95, 0x99, 0x86, 0x1b, 0x6a, 0x19, 0x3c, 0x96,
  0x7d, 0x91, 0xc0, 0x10, 0xe2, 0x0e, 0x9e, 0x1b, 0xc8, 0x1d, 0x8a, 0x95,
  0xed, 0x13, 0x65, 0x9c, 0xc7, 0x9c, 0x9e, 0x14, 0xb2, 0x1e, 0x64, 0x1f,
  0xd2, 0x92, 0xd0, 0x1c, 0xe6, 0x1c, 0x0a, 0x9f, 0xcf, 0x8e, 0x51, 0x18,
  0x39, 0x94, 0xc9, 0x9a, 0x36, 0x1e, 0xeb, 0x98, 0xba, 0x1a, 0x83, 0x90,
  0xdd, 0x19, 0x1f, 0x98, 0x8a, 0x1f, 0xae, 0x20, 0x1e, 0x17, 0x1d, 0x98,
  0x6d, 0x1a, 0x5f, 0x9d, 0x2b, 0x12, 0x3b, 0x16, 0x77, 0x8c, 0x70, 0x95,
  0xfd, 0x1c, 0xdb, 0x97, 0x8a, 0x1a, 0xc2, 0xa0, 0xf3, 0x14, 0x27, 0x94,
  0x48, 0x20, 0x56, 0x20, 0xdd, 0x14, 0x77, 0x92, 0x1f, 0x1c, 0x41, 0x94,
  0x87, 0x90, 0x06, 0x18, 0xaa, 0x94, 0x20, 0x91, 0x29, 0x1f, 0x87, 0x9c,
  0x74, 0x96, 0xb4, 0x98, 0xbf, 0x88, 0x50, 0x95, 0x46, 0x20, 0x85, 0x20,
  0xed, 0x14, 0xf3, 0x99, 0x2f, 0x1b, 0xd6, 0x9d, 0x59, 0x8c, 0xf7, 0x17,
  0xe0, 0x1a, 0x40, 0x9c, 0xbc, 0x1e, 0x71, 0x9b, 0xd0, 0x91, 0xe2, 0x18,
  0x9a, 0x1a, 0x85, 0x92, 0xd4, 0x20, 0xc4, 0x22, 0x09, 0x16, 0xaf, 0x9e,
  0xa0, 0x20, 0xe0, 0x9e, 0xcf, 0x14, 0xba, 0x1d, 0x68, 0x1b, 0x36, 0x9e,
  0x3e, 0x20, 0x1e, 0x9c, 0xe2, 0x94, 0x8b, 0x1c, 0x6a, 0x09, 0x07, 0x1a,
  0xda, 0x20, 0x10, 0x21, 0x12, 0x98, 0xc7, 0x9e, 0x06, 0x1a, 0x15, 0x9f,
  0x27, 0x0e, 0x07, 0x1c, 0x08, 0x91, 0xf3, 0x9d, 0xfc, 0x1e, 0x04, 0xa0,
  0x98, 0x8c, 0xbf, 0x10, 0xe4, 0x01, 0xe5, 0x19, 0xbf, 0x21, 0x27, 0x22,
  0x11, 0x9e, 0xc5, 0xa0, 0x4c, 0x21, 0x09, 0xa0, 0x5a, 0x19, 0x42, 0x1a,
  0x62, 0x1a, 0x1c, 0x9b, 0x79, 0x19, 0x38, 0x9d, 0x43, 0x9b, 0x32, 0x9a,
  0x5c, 0x18, 0xf4, 0x94, 0xc1, 0x21, 0xd0, 0x1e, 0x73, 0x99, 0x9d, 0xa0,
  0xac, 0x1c, 0xd2, 0x9a, 0xab, 0x99, 0x66, 0x1e, 0xc6, 0x98, 0x3d, 0x97,
  0xa8, 0x12, 0x19, 0x9a, 0x30, 0x15, 0xa1, 0x8f, 0x31, 0x18, 0x6c, 0x19,
  0x86, 0x22, 0x65, 0x20, 0x5c, 0x99, 0x3a, 0xa3, 0xac, 0x1b, 0x33, 0x9e,
  0x97, 0x89, 0xcf, 0x18, 0x72, 0x99, 0x26, 0x90, 0xb6, 0x81, 0x62, 0x9c,
  0xa3, 0xa0, 0x22, 0x1a, 0x9b, 0x1b, 0xae, 0x8a, 0x27, 0x21, 0x7a, 0x20,
  0x01, 0x9f, 0x63, 0xa2, 0x06, 0x1b, 0xb2, 0x9d, 0x9c, 0x1a, 0xff, 0x14,
  0x11, 0x90, 0x5f, 0x9e, 0x62, 0x99, 0xee, 0x9e, 0x09, 0x94, 0xa8, 0x1d,
  0x85, 0x1a, 0xf9, 0x9a, 0x1e, 0x88, 0x35, 0x1e, 0x23, 0xa0, 0x72, 0xa3,
  0x7e, 0x19, 0x06, 0x9c, 0x7c, 0x15, 0x3c, 0x1c, 0x13, 0x11, 0x4c, 0x0f,
  0xd2, 0x0b, 0x17, 0x9e, 0xd5, 0x98, 0x91, 0x1a, 0x1a, 0x13, 0x5f, 0x9d,
  0xd8, 0x0a, 0x0d, 0x1c, 0x04, 0xa0, 0x2b, 0xa0, 0x8d, 0x20, 0xab, 0x9d,
  0x0c, 0x98, 0xfd, 0x16, 0x07, 0x0e, 0x4b, 0x9c, 0xbd, 0xa0, 0xd9, 0x98,
  0xd1, 0x9a, 0xb5, 0x15, 0x8a, 0x12, 0x45, 0x09, 0x65, 0x90, 0x6b, 0x15,
  0x01, 0x16, 0x24, 0xa0, 0x5b, 0x1d, 0x5e, 0x9c, 0x44, 0x9a, 0x6b, 0x17,
  0xf1, 0x15, 0xaa, 0x0f, 0x31, 0x9c, 0x78, 0x0d, 0xad, 0x92, 0xca, 0x16,
  0x9f, 0x98, 0x85, 0x0a, 0xb4, 0x9e, 0xc1, 0x97, 0x3e, 0x9c, 0xfd, 0x9d,
  0x4a, 0x1f, 0xe7, 0x9a, 0xa3, 0x99, 0xcc, 0x98, 0x31, 0x90, 0xc3, 0x11,
  0xb7, 0x9c, 0xaa, 0x9b, 0xc7, 0x02, 0x11, 0x1a, 0x09, 0x18, 0x09, 0x91,
  0x1d, 0x9d, 0xbd, 0x9a, 0x57, 0x91, 0x16, 0x9c, 0x45, 0x19, 0x35, 0x96,
  0xab, 0x0e, 0x59, 0x9a, 0xd0, 0x99, 0x63, 0x10, 0x81, 0x9b, 0x58, 0x99,
  0x3a, 0x9b, 0x90, 0x1c, 0xed, 0x94, 0x58, 0x9c, 0xb2, 0x9e, 0x76, 0x97,
  0x9f, 0x98, 0xec, 0x10, 0x86, 0x1c, 0xa2, 0x96, 0xaa, 0x9b, 0x06, 0x9f,
  0x4a, 0x9c, 0x90, 0x96, 0x2a, 0x9f, 0xd3, 0x96, 0x99, 0x93, 0x17, 0x8d,
  0xbe, 0x1a, 0x0f, 0x9a, 0x4e, 0x9d, 0x4e, 0x97, 0xc7, 0x98, 0x77, 0xa0,
  0x45, 0x1c, 0x5d, 0x18, 0xc0, 0x9e, 0x36, 0x9a, 0x8d, 0x9d, 0xca, 0x9a,
  0xfc, 0x9a, 0xe9, 0x97, 0xbc, 0x12, 0x79, 0x1c, 0xeb, 0x10, 0x1f, 0x19,
  0xfc, 0x9e, 0xff, 0x99, 0xd2, 0x9e, 0xea, 0x9b, 0xc2, 0x1f, 0x17, 0x8c,
  0xac, 0x9d, 0x11, 0x95, 0x75, 0x13, 0x46, 0x13, 0x9b, 0x98, 0xb2, 0x97,
  0x69, 0x95, 0xf0, 0x17, 0xf3, 0x93, 0xa5, 0x20, 0xa0, 0xa1, 0xe7, 0x9d,
  0x02, 0xa0, 0x8e, 0x15, 0x9c, 0x1d, 0x21, 0x9c, 0x6b, 0x9c, 0xc6, 0x99,
  0x06, 0x17, 0x8f, 0x19, 0x52, 0x98, 0x7c, 0x13, 0xad, 0x98, 0x02, 0x0e,
  0xa3, 0x98, 0xcf, 0x1a, 0x79, 0x9e, 0x33, 0x9f, 0x3e, 0x99, 0x14, 0x91,
  0x46, 0x17, 0xdc, 0x90, 0x33, 0x99, 0x00, 0x9e, 0x4a, 0x1c, 0xd8, 0x1c,
  0xce, 0x9b, 0x51, 0x19, 0xcc, 0x97, 0x7d, 0x16, 0xbf, 0x97, 0x24, 0x88,
  0x69, 0x9f, 0x59, 0x9c, 0x73, 0x95, 0x89, 0x15, 0x34, 0x1e, 0xa5, 0x14,
  0xcc, 0x9b, 0x8d, 0x16, 0x8c, 0x1d, 0x76, 0x1a, 0x2c, 0x9d, 0x2a, 0x18,
  0x92, 0x1a, 0x97, 0x99, 0x1b, 0x16, 0x36, 0x1d, 0x4f, 0x9e, 0x89, 0x9e,
  0x48, 0x91, 0xd6, 0x19, 0x55, 0x19, 0xd1, 0x19, 0x1b, 0x9c, 0x1a, 0x98,
  0xaf, 0x95, 0x0b, 0x99, 0xb9, 0x98, 0xea, 0x1a, 0x82, 0x0e, 0xcd, 0x8c,
  0x30, 0x15, 0x59, 0x1e, 0xb2, 0x9c, 0xc8, 0x9e, 0xe8, 0x97, 0x59, 0x0a,
  0xc0, 0x1d, 0xe6, 0x03, 0xda, 0x98, 0x0a, 0x19, 0xd1, 0x9d, 0xa4, 0x94,
  0x54, 0x9b, 0x19, 0x18, 0x52, 0x9b, 0xcb, 0x18, 0x88, 0x99, 0xe6, 0x14,
  0xfd, 0x9a, 0xe6, 0x9c, 0xfd, 0x18, 0x4a, 0x13, 0x4a, 0x18, 0x08, 0x99,
  0xa7, 0x99, 0x39, 0x10, 0x0e, 0x90, 0x7a, 0x19, 0x17, 0x11, 0x7b, 0x14,
  0xa8, 0xa0, 0xaa, 0x15, 0xb1, 0x95, 0xc6, 0x90, 0x92, 0x99, 0x6b, 0xa0,
  0xfd, 0x16, 0xb2, 0x98, 0x27, 0x1f, 0x0e, 0x19, 0x3c, 0x9c, 0xc6, 0x91,
  0x1f, 0x1b, 0x0d, 0x19, 0x61, 0x96, 0xa5, 0x1c, 0x4d, 0x97, 0x5a, 0x19,
  0xca, 0x95, 0x76, 0x18, 0x5c, 0x99, 0x07, 0xa0, 0x54, 0x14, 0x87, 0x99,
  0x62, 0x1e, 0x66, 0x1a, 0xad, 0x9c, 0x8a, 0x97, 0x62, 0x1b, 0x2f, 0x1e,
  0x39, 0x19, 0x8f, 0x11, 0x56, 0x9b, 0x71, 0x19, 0x2a, 0x9a, 0xa2, 0x05,
  0xa3, 0x9b, 0x68, 0x9a, 0x61, 0x99, 0x1e, 0x16, 0xba, 0x1b, 0x62, 0x9a,
  0x79, 0x91, 0x00, 0x95, 0x2b, 0x1c, 0xcc, 0x11, 0x51, 0x1a, 0x17, 0x14,
  0x01, 0x97, 0x7f, 0x16, 0xa0, 0x19, 0xba, 0x16, 0xe5, 0x03, 0x06, 0x98,
  0x14, 0x90, 0x4d, 0x17, 0x85, 0x1c, 0x41, 0x15, 0x8c, 0xa1, 0x50, 0x18,
  0xc1, 0x1b, 0x7f, 0x8b, 0x19, 0x17, 0xd1, 0x1a, 0xbb, 0x8d, 0xc8, 0x1f,
  0x0e, 0x93, 0xc2, 0x0c, 0x39, 0x88, 0x02, 0x97, 0xdf, 0x98, 0xf2, 0x94,
  0xd4, 0x16, 0x40, 0x9c, 0x86, 0x9e, 0x74, 0x92, 0x95, 0x95, 0x7a, 0x89,
  0x02, 0x1c, 0xa0, 0x1a, 0x0f, 0x9b, 0x1f, 0x17, 0x3d, 0x18, 0x4e, 0x9c,
  0x99, 0x1e, 0x36, 0x14, 0xda, 0x16, 0xdb, 0x10, 0xdd, 0x18, 0x5c, 0x9a,
  0xc4, 0xa1, 0x3b, 0x91, 0x63, 0x11, 0x59, 0x12, 0x8d, 0x1a, 0xf0, 0x02,
  0x67, 0x9f, 0x40, 0x95, 0xfe, 0x8e, 0x0e, 0x9c, 0xd0, 0x11, 0x8c, 0x8c,
  0xb8, 0x19, 0x52, 0x11, 0x98, 0x1e, 0x71, 0x9d, 0x33, 0x9d, 0xf1, 0x90,
  0xf5, 0x09, 0x49, 0x8d, 0x25, 0x1a, 0x12, 0x14, 0x19, 0x95, 0x48, 0x18,
  0xcf, 0x1c, 0x25, 0x18, 0x28, 0x15, 0x6c, 0x11, 0x4a, 0x93, 0x6d, 0x8d,
  0x3c, 0x85, 0x13, 0x95, 0xa9, 0x9b, 0xdf, 0x14, 0xf5, 0x97, 0x0c, 0x1b,
  0x42, 0x16, 0x50, 0x96, 0x91, 0x0e, 0x6f, 0x91, 0xb7, 0x18, 0xec, 0x93,
  0x85, 0x11, 0x2c, 0x0f, 0x42, 0x94, 0xc3, 0x97, 0x77, 0x88, 0x56, 0x91,
  0x4e, 0x9f, 0x85, 0x07, 0xc1, 0x14, 0x9d, 0x19, 0x7b, 0x18, 0x30, 0x96,
  0x9b, 0x1d, 0x2d, 0x14, 0x83, 0x19, 0x08, 0x9d, 0xaa, 0x18, 0x36, 0x99,
  0x1d, 0x12, 0x36, 0x99, 0x99, 0x90, 0x52, 0x9d, 0x2f, 0x9f, 0xb3, 0x14,
  0x6b, 0x0c, 0xba, 0x10, 0x24, 0x8f, 0x3b, 0x14, 0xc2, 0x13, 0x60, 0x15,
  0xf6, 0x15, 0xad, 0x9a, 0xd7, 0x1c, 0x85, 0x8f, 0xdf, 0x16, 0xa1, 0x9b,
  0x27, 0x06, 0xcb, 0x9c, 0x60, 0x97, 0x18, 0x92, 0x50, 0x02, 0xdd, 0x19,
  0xb4, 0x0d, 0x98, 0x98, 0x96, 0x1c, 0xcf, 0x13, 0x6f, 0x1a, 0xcf, 0x9d,
  0xbb, 0x18, 0xfb, 0x0d, 0x02, 0x19, 0x0b, 0x98, 0x49, 0x90, 0x94, 0x93,
  0xce, 0x0f, 0xe8, 0x8d, 0x74, 0x14, 0x00, 0x12, 0x7d, 0x97, 0x68, 0x9c,
  0x57, 0x8a, 0xf0, 0x15, 0x11, 0x1d, 0xcf, 0x9c, 0xa5, 0x91, 0x04, 0x0f,
  0xcb, 0x94, 0xcd, 0x95, 0x89, 0x96, 0x9d, 0x99, 0xd9, 0x97, 0x5e, 0x90,
  0x40, 0x0c, 0x8f, 0x1e, 0xf0, 0x9b, 0x62, 0x9c, 0xca, 0x9a, 0x79, 0x91,
  0xc4, 0x18, 0xe4, 0x9e, 0xca, 0x91, 0x5a, 0x98, 0x5b, 0x19, 0x85, 0x95,
  0xd6, 0x95, 0xd4, 0x0b, 0x49, 0x95, 0xc5, 0x90, 0x2c, 0x10, 0x0c, 0x89,
  0xd2, 0x94, 0xfb, 0x99, 0xc5, 0x95, 0xbb, 0x14, 0xc3, 0x84, 0x64, 0x91,
  0x14, 0x88, 0x0a, 0x99, 0xae, 0x96, 0x57, 0x8f, 0xe1, 0x98, 0x89, 0x10,
  0x36, 0x9c, 0x7a, 0x9a, 0x42, 0x14, 0x8e, 0x93, 0x59, 0x0b, 0x12, 0xa0,
  0x87, 0x8c, 0xef, 0x96, 0x36, 0x19, 0xbf, 0x15, 0xc8, 0x9c, 0xb6, 0x9a,
  0xff, 0x96, 0xaf, 0x90, 0x34, 0x9d, 0x8c, 0x00, 0x9a, 0x99, 0x4f, 0x92,
  0x33, 0x1a, 0x32, 0x99, 0x03, 0x94, 0xf0, 0x9e, 0xce, 0x9a, 0x97, 0x1b,
  0x4f, 0x99, 0xd4, 0x13, 0x9e, 0x9f, 0x5a, 0x98, 0x0c, 0x98, 0x1f, 0x99,
  0x8c, 0x9f, 0xd9, 0x14, 0x88, 0x94, 0xf9, 0x9b, 0x1a, 0x12, 0x5b, 0x8c,
  0x4b, 0x9a, 0x9e, 0x9f, 0x5b, 0x9a, 0xa0, 0x95, 0x69, 0x9c, 0x27, 0x95,
  0xa0, 0x9c, 0x13, 0x9a, 0x30, 0x14, 0x26, 0x10, 0x31, 0x9e, 0xcb, 0x15,
  0xb7, 0x94, 0xfb, 0x9c, 0x60, 0x8a, 0x13, 0x1b, 0x13, 0x95, 0xc4, 0x99,
  0xdf, 0x14, 0xca, 0x10, 0x20, 0x99, 0x10, 0x99, 0x4f, 0x9c, 0xc7, 0x9e,
  0xfe, 0x94, 0x4f, 0x90, 0x35, 0x9c, 0x96, 0x15, 0xf4, 0x13, 0x14, 0xa0,
  0x3a, 0x83, 0xce, 0x1f, 0xf7, 0x96, 0xda, 0x9c, 0xe6, 0x94, 0xfb, 0x18,
  0xd5, 0xa1, 0xe4, 0x10, 0x1e, 0x9c, 0x2f, 0x9b, 0x84, 0x99, 0xeb, 0x9b,
  0xc3, 0x98, 0xf0, 0x16, 0xf0, 0x99, 0x4a, 0x9a, 0x96, 0x96, 0x86, 0x0d,
  0xd3, 0x9c, 0x62, 0xa0, 0x24, 0x10, 0xbe, 0x12, 0x6f, 0x9b, 0xbd, 0x94,
  0xaa, 0x9b, 0xfb, 0x9a, 0x86, 0x9d, 0x56, 0xa0, 0x2b, 0x96, 0xd4, 0x1b,
  0x40, 0x8e, 0xab, 0x99, 0x74, 0x9c, 0x93, 0x9b, 0xb4, 0x9a, 0xba, 0x9f,
  0x81, 0x15, 0x9b, 0x96, 0xe4, 0xa0, 0x0b, 0x9a, 0x3b, 0x94, 0x9a, 0x96,
  0x6f, 0x9d, 0xcb, 0x9b, 0xc7, 0x9c, 0xf1, 0x1d, 0x96, 0x19, 0xb0, 0x9e,
  0xcd, 0x9c, 0x96, 0x9d, 0x48, 0x9c, 0xee, 0x9d, 0xe0, 0x19, 0x2b, 0x0d,
  0xd5, 0x9b, 0x67, 0x0c, 0xaf, 0x99, 0x22, 0x97, 0x09, 0x9e, 0x6c, 0x9b,
  0x7d, 0x9e, 0x47, 0x1b, 0x6b, 0x19, 0x9e, 0x99, 0x3a, 0x9d, 0x8e, 0x9d,
  0x1d, 0x9c, 0x4f, 0xa0, 0x3c, 0x18, 0xc7, 0x1c, 0x8c, 0x9f, 0x54, 0x9b,
  0x23, 0x9b, 0xb8, 0x97, 0x6e, 0x96, 0xcb, 0x9c, 0xb6, 0x9d, 0xad, 0x1c,
  0x2e, 0x18, 0xa1, 0x94, 0x60, 0x99, 0x83, 0x92, 0xb7, 0x9c, 0xcd, 0x9c,
  0xac, 0x20, 0xd3, 0x14, 0xce, 0x87, 0xe8, 0x99, 0xf7, 0x9a, 0xb6, 0x8d,
  0xd3, 0x08, 0x29, 0x9b, 0x8c, 0x9f, 0x01, 0x1b, 0x7d, 0x0a, 0x2a, 0x98,
  0x4b, 0x9a, 0xd5, 0x94, 0x02, 0x9e, 0x1a, 0x9f, 0xbf, 0x94, 0x08, 0x96,
  0x15, 0x99, 0x3e, 0x99, 0xaf, 0x9a, 0x3a, 0x92, 0x33, 0x9d, 0xe8, 0x9b,
  0x37, 0x9b, 0x5d, 0x1f, 0x9a, 0x90, 0xb9, 0x97, 0x6c, 0x99, 0xc6, 0x9a,
  0x24, 0x9c, 0x6a, 0xa0, 0x4f, 0x1c, 0xad, 0x11, 0x98, 0x9a, 0xac, 0x9c,
  0x98, 0x00, 0x57, 0x06, 0xa7, 0x95, 0xdd, 0x9c, 0xb0, 0x99, 0x09, 0x1e,
  0x87, 0x1a, 0x5f, 0x97, 0x3b, 0x9f, 0x78, 0x9a, 0x56, 0x9c, 0x1c, 0xa1,
  0xb6, 0x1e, 0x93, 0x14, 0x9b, 0x99, 0x10, 0x02, 0x10, 0x94, 0x83, 0x90,
  0x36, 0x9c, 0x95, 0x9c, 0xd7, 0x94, 0xfd, 0x1c, 0x5a, 0x93, 0x03, 0x9c,
  0x76, 0x9e, 0xec, 0x9b, 0x44, 0x9a, 0x51, 0xa0, 0xd0, 0x14, 0xc8, 0x91,
  0x3b, 0xa1, 0xee, 0x19, 0xbc, 0x9c, 0xf3, 0x89, 0x53, 0x92, 0x41, 0x97,
  0x55, 0xa0, 0xb1, 0x1d, 0xcc, 0x97, 0x46, 0x99, 0x9a, 0x9f, 0x75, 0x99,
  0x67, 0x9a, 0x5c, 0xa0, 0x80, 0x15, 0xcc, 0x99, 0xb0, 0x9d, 0x67, 0x9b,
  0xdc, 0x98, 0x00, 0x9c, 0x5e, 0x89, 0x7b, 0x18, 0xdf, 0xa0, 0x5d, 0x20,
  0xf5, 0x99, 0x82, 0x10, 0xe7, 0x9a, 0x90, 0x99, 0x9e, 0x98, 0x26, 0xa1,
  0xd6, 0x1a, 0xfa, 0x15, 0x5e, 0x9d, 0x2f, 0x9e, 0xac, 0x9c, 0x70, 0x9d,
  0x0c, 0x12, 0x71, 0x94, 0x50, 0x9f, 0x1a, 0x1c, 0x71, 0x9a, 0xde, 0x17,
  0x52, 0x9d, 0xb6, 0x9c, 0xfd, 0x9a, 0xc3, 0x9e, 0xc1, 0x15, 0x28, 0x16,
  0x79, 0x98, 0x60, 0x9c, 0x4e, 0x9c, 0xff, 0x9d, 0xed, 0x98, 0x7e, 0x92,
  0x82, 0x9e, 0x6d, 0x1b, 0x34, 0x92, 0x44, 0x8e, 0x43, 0x93, 0xf6, 0x94,
  0x15, 0x91, 0x04, 0x9a, 0x34, 0x19, 0x61, 0x01, 0xd8, 0x9a, 0x34, 0x95,
  0x9a, 0x97, 0x93, 0x9c, 0x6d, 0x94, 0xe0, 0x9d, 0x2d, 0x9c, 0xd7, 0x1d,
  0xa7, 0x99, 0xef, 0x15, 0x17, 0x97, 0x46, 0x92, 0xb8, 0x94, 0x5e, 0x9c,
  0xf2, 0x17, 0x9a, 0x94, 0x58, 0x8b, 0x89, 0x8e, 0x4a, 0x90, 0x27, 0x8f,
  0x1e, 0x9c, 0x4f, 0x9a, 0xe4, 0x9e, 0x28, 0x18, 0x73, 0x9c, 0xb0, 0x95,
  0x3e, 0x95, 0x17, 0x18, 0x65, 0x98, 0x2b, 0x98, 0x2a, 0x99, 0x8c, 0x91,
  0x38, 0x99, 0xb8, 0x9a, 0xf8, 0x0f, 0xbe, 0x97, 0x1b, 0x96, 0x4c, 0x92,
  0xb1, 0xa0, 0x0e, 0x18, 0x1d, 0x9d, 0xc7, 0x14, 0xba, 0x8f, 0x9f, 0x98,
  0x6c, 0x9b, 0xac, 0x0c, 0xc0, 0x15, 0x7c, 0x14, 0x58, 0x95, 0x4b, 0x92,
  0xa0, 0x16, 0xc0, 0x11, 0xf6, 0x99, 0x64, 0x9e, 0x4b, 0x9e, 0x2e, 0x1d,
  0x1d, 0x9b, 0x2a, 0x96, 0xa9, 0x90, 0x70, 0x94, 0xdf, 0x96, 0x4c, 0x98,
  0x36, 0x91, 0x1e, 0x1a, 0x88, 0x12, 0xd6, 0x18, 0xf6, 0x15, 0x62, 0x0d,
  0xa5, 0x93, 0x7a, 0x9f, 0x22, 0x99, 0xa0, 0x1c, 0xb2, 0x98, 0x40, 0x0c,
  0x58, 0x96, 0xab, 0x8c, 0xb1, 0x9b, 0xe1, 0x14, 0x7b, 0x93, 0x25, 0x06,
  0x3f, 0x11, 0xa1, 0x95, 0x73, 0x14, 0xc4, 0x8c, 0xa5, 0x13, 0xd4, 0x98,
  0x1c, 0xa0, 0x44, 0x1b, 0x2a, 0x95, 0x35, 0x93, 0x2a, 0x14, 0x1a, 0x09,
  0x9d, 0x17, 0x57, 0x04, 0xba, 0x14, 0x4a, 0x18, 0x65, 0x17, 0x22, 0x95,
  0x44, 0x17, 0x51, 0x1b, 0x6f, 0x15, 0x78, 0x91, 0x6b, 0xa0, 0xf9, 0x1a,
  0x1c, 0x9d, 0x64, 0x93, 0x4f, 0x00, 0x9e, 0x1b, 0x3e, 0x9a, 0xf6, 0x15,
  0x0d, 0x0f, 0xee, 0x92, 0x3c, 0x02, 0x92, 0x99, 0x2d, 0x1a, 0x3a, 0x16,
  0x7f, 0x15, 0x3d, 0x94, 0x6c, 0x9c, 0x0b, 0x1c, 0x2f, 0x9d, 0xab, 0x12,
  0x2e, 0x18, 0x4a, 0x15, 0xa0, 0x9d, 0x56, 0x9a, 0x42, 0x17, 0x68, 0x0b,
  0x8b, 0x13, 0x8b, 0x99, 0xcd, 0x1d, 0x66, 0x0a, 0x9a, 0x8d, 0xf1, 0x95,
  0x1f, 0x9c, 0x2a, 0x1b, 0xd2, 0x9d, 0x13, 0x14, 0x1e, 0x1e, 0x6e, 0x12,
  0x1c, 0x9a, 0x1c, 0x1b, 0xd5, 0x18, 0x1d, 0x1c, 0x69, 0x9a, 0x04, 0x1b,
  0xbd, 0x14, 0xb6, 0x92, 0x43, 0x96, 0x24, 0x10, 0xc6, 0x91, 0xe3, 0x1f,
  0x07, 0xa0, 0xa9, 0x91, 0xec, 0x19, 0x55, 0x17, 0xc3, 0x98, 0xe2, 0x0e,
  0x0a, 0x0d, 0xdf, 0x17, 0x8c, 0x8c, 0xc4, 0x8e, 0x5d, 0x93, 0x3b, 0x9a,
  0xb1, 0x97, 0xd3, 0x84, 0x76, 0x99, 0x74, 0x1d, 0x8d, 0xa0, 0x6f, 0x8a,
  0xaf, 0x93, 0x9e, 0x9a, 0x3c, 0x9d, 0xcd, 0x14, 0xe1, 0x8c, 0x2d, 0x12,
  0x22, 0xa1, 0xc7, 0x9d, 0xdf, 0x9c, 0x9c, 0x9d, 0xf2, 0x9c, 0xdd, 0x92,
  0x51, 0x96, 0x11, 0x14, 0x33, 0xa0, 0xad, 0x91, 0x5a, 0x15, 0xe0, 0x8d,
  0xdb, 0x9b, 0x56, 0x0a, 0x13, 0x84, 0xf9, 0x0b, 0xad, 0x98, 0xef, 0x9d,
  0xe3, 0x9e, 0x9a, 0x9d, 0x5d, 0xa2, 0x6c, 0x98, 0x10, 0x1c, 0x65, 0x16,
  0x7e, 0xa0, 0x4d, 0x19, 0x45, 0x9b, 0x8c, 0x8d, 0x54, 0x94, 0x77, 0x19,
  0xf6, 0x1b, 0x1b, 0x8e, 0x1e, 0x9b, 0xf1, 0x94, 0x91, 0x9d, 0xa4, 0x9f,
  0x9d, 0x9e, 0x94, 0x98, 0xbe, 0x88, 0xbe, 0x1e, 0xee, 0x9d, 0xb1, 0x14,
  0x2a, 0x19, 0x84, 0x99, 0x58, 0x9c, 0x36, 0x14, 0xa1, 0x19, 0xd5, 0x97,
  0x1f, 0x99, 0x12, 0x99, 0xa0, 0x9a, 0xc8, 0x94, 0xdf, 0x9d, 0xa8, 0x9b,
  0x75, 0x99, 0xcc, 0x19, 0x1b, 0xa0, 0x84, 0x14, 0xcc, 0x19, 0x5a, 0x1c,
  0x96, 0x95, 0xe9, 0x9b, 0xd2, 0x09, 0x2b, 0x16, 0xf9, 0x9c, 0x66, 0x9b,
  0x93, 0x99, 0xd9, 0x98, 0xc6, 0x9e, 0xad, 0x98, 0x5f, 0x19, 0x50, 0x1a,
  0x2b, 0x9b, 0xfc, 0x1a, 0x81, 0x1f, 0x59, 0x1a, 0xb5, 0x99, 0x11, 0x11,
  0xa6, 0x94, 0x98, 0x1a, 0xff, 0x9b, 0xe4, 0x8b, 0x50, 0x9d, 0xc8, 0x99,
  0x3e, 0x98, 0x5a, 0x96, 0x4b, 0x99, 0x24, 0x20, 0xf1, 0x9d, 0xd8, 0x06,
  0xfe, 0x15, 0xcc, 0x15, 0xe8, 0x99, 0xde, 0x11, 0x11, 0x9c, 0x3b, 0x9b,
  0x6e, 0x9b, 0xa6, 0x12, 0x9b, 0x9e, 0xbe, 0x9d, 0x85, 0x9b, 0x65, 0x9e,
  0xfa, 0x93, 0x02, 0x1a, 0x46, 0x9d, 0x7a, 0x1c, 0xe7, 0x1b, 0xe9, 0x8d,
  0xc0, 0x93, 0xb7, 0x99, 0x93, 0x91, 0xf2, 0x93, 0x37, 0x9c, 0xb9, 0x18,
  0x1f, 0x9f, 0xbe, 0x9c, 0x86, 0x9b, 0x6d, 0x9b, 0x83, 0x18, 0xf5, 0x94,
  0x95, 0x95, 0xbb, 0x1e, 0xd9, 0x1b, 0xff, 0x18, 0xef, 0x99, 0x00, 0x98,
  0x12, 0x9d, 0x6c, 0x1a, 0x74, 0x9a, 0xd4, 0x15, 0xf7, 0xa0, 0xd3, 0x9b,
  0x93, 0x9b, 0xeb, 0x9c, 0x56, 0x15, 0x0d, 0x16, 0xd6, 0x9d, 0xbd, 0x10,
  0x63, 0x1d, 0xa8, 0x1d, 0x1b, 0x0b, 0x1e, 0x88, 0x4f, 0x9a, 0x22, 0x9c,
  0x4e, 0x9b, 0x2f, 0x94, 0xf1, 0x9d, 0xea, 0x99, 0xf6, 0x94, 0x36, 0x99,
  0x41, 0x19, 0x7a, 0x1c, 0x06, 0x9d, 0xf8, 0x12, 0xa9, 0x1b, 0x14, 0x20,
  0xd3, 0x94, 0x7d, 0x1c, 0xf4, 0x9a, 0x24, 0x1d, 0xce, 0x90, 0x75, 0x12,
  0x00, 0x9e, 0x1a, 0x99, 0x44, 0x16, 0x40, 0x99, 0xff, 0x14, 0x75, 0x98,
  0x7c, 0x99, 0x49, 0x18, 0xc6, 0x1c, 0xfd, 0x1a, 0x7d, 0x17, 0xc1, 0x91,
  0xac, 0x94, 0x33, 0x18, 0x29, 0x9c, 0x1b, 0x06, 0x62, 0x9e, 0x2a, 0x9e,
  0x09, 0x14, 0x2c, 0x94, 0x00, 0x17, 0xae, 0x99, 0x37, 0xa0, 0x98, 0x1d,
  0x0c, 0x1c, 0xd1, 0x1c, 0x2a, 0x9e, 0x2e, 0xa0, 0xcd, 0x17, 0xdf, 0x94,
  0xa1, 0x98, 0x42, 0x97, 0x61, 0x9f, 0x6f, 0x9f, 0x66, 0x0c, 0xcd, 0x9b,
  0x43, 0x19, 0x6a, 0x9a, 0x5c, 0x9e, 0x13, 0x16, 0x30, 0x18, 0xe9, 0x1a,
  0xa9, 0x99, 0xf4, 0x9a, 0x60, 0x14, 0x96, 0x0c, 0x1b, 0x93, 0x35, 0x9d,
  0x57, 0x9d, 0x46, 0x9f, 0x9a, 0x1b, 0x8c, 0x99, 0x27, 0x15, 0xa8, 0x9a,
  0x34, 0x9f, 0x19, 0x15, 0x06, 0x16, 0x7c, 0x15, 0xe3, 0x92, 0xde, 0x9d,
  0xae, 0x97, 0xbe, 0x96, 0x48, 0x18, 0xf2, 0xa0, 0xda, 0x9e, 0x9b, 0x99,
  0x2b, 0x11, 0xf6, 0x9a, 0x79, 0x1b, 0x5b, 0x9e, 0xf5, 0x9d, 0x6c, 0x1a,
  0x57, 0x17, 0x3e, 0x19, 0xca, 0x19, 0x42, 0xa0, 0xe4, 0x1a, 0xf0, 0x83,
  0xc2, 0x16, 0x32, 0x9d, 0xfe, 0x9b, 0x26, 0x9d, 0x8d, 0x16, 0x29, 0x9d,
  0xa0, 0x94, 0x61, 0xa1, 0x08, 0x9c, 0xa8, 0x9b, 0x02, 0x1c, 0xe8, 0x18,
  0xb4, 0x90, 0x38, 0xa0, 0xd9, 0x1c, 0x56, 0x8a, 0x06, 0x97, 0x7d, 0x98,
  0x80, 0x9e, 0x18, 0x95, 0x26, 0x1a, 0x0c, 0x9c, 0x08, 0x1b, 0xf6, 0x9e,
  0xcf, 0x9a, 0x07, 0x0c, 0xe0, 0x11, 0xdf, 0x19, 0xb3, 0x92, 0x7b, 0xa1,
  0x0e, 0x99, 0xa8, 0x8e, 0x1c, 0x13, 0x61, 0x9c, 0x4b, 0x17, 0x3d, 0x94,
  0x7c, 0x14, 0x9c, 0x97, 0x24, 0x19, 0x91, 0xa0, 0x31, 0x9f, 0x64, 0x93,
  0x3b, 0x95, 0x5a, 0x20, 0xa8, 0x9d, 0x80, 0x99, 0x00, 0xa3, 0x45, 0x20,
  0x2a, 0x1c, 0x46, 0x96, 0x24, 0x0f, 0x0b, 0x9c, 0x6c, 0x21, 0x99, 0x95,
  0x66, 0x9b, 0x3b, 0x98, 0x96, 0x1f, 0x6a, 0x9e, 0x20, 0x94, 0x33, 0x17,
  0x95, 0x96, 0xd8, 0x9c, 0x36, 0xa2, 0xd5, 0x1c, 0x70, 0x21, 0x45, 0x9c,
  0x1b, 0x8a, 0x0f, 0xa0, 0x38, 0x90, 0x1f, 0x1c, 0x62, 0x9b, 0x05, 0x15,
  0x13, 0x21, 0x5f, 0x9f, 0xac, 0x98, 0x7a, 0x20, 0x52, 0x96, 0x93, 0x98,
  0x42, 0xa0, 0xe6, 0x1e, 0x5a, 0x22, 0x67, 0x9d, 0x4e, 0x9d, 0x05, 0x9b,
  0x48, 0x19, 0x76, 0x19, 0x49, 0x9b, 0x51, 0x19, 0xd0, 0x18, 0xe6, 0x8d,
  0x0d, 0x1a, 0xc4, 0x1d, 0x38, 0x8e, 0x73, 0x9c, 0xa2, 0x98, 0x80, 0x1b,
  0x8e, 0x1c, 0xc9, 0x98, 0x2e, 0xa0, 0x8c, 0x9d, 0xe5, 0x1c, 0x39, 0x1c,
  0xc1, 0x98, 0xd5, 0x99, 0x3f, 0x1e, 0x5c, 0x91, 0x8a, 0x18, 0x9b, 0x18,
  0x5b, 0x17, 0xe6, 0x91, 0x61, 0x18, 0xdc, 0x15, 0x67, 0x0e, 0x38, 0x9b,
  0x75, 0x0a, 0xfd, 0x97, 0x45, 0x1e, 0x5e, 0x1d, 0xde, 0x1b, 0x8a, 0x18,
  0x4d, 0x1d, 0x9f, 0x97, 0xe5, 0x12, 0xdb, 0x18, 0x8a, 0x1a, 0x2d, 0x1a,
  0x3d, 0x11, 0x81, 0x11, 0xc3, 0x99, 0x2f, 0x8e, 0x23, 0x99, 0x0c, 0x9c,
  0x87, 0x18, 0xa9, 0x1c, 0xf4, 0x16, 0xc2, 0x17, 0xbd, 0x1a, 0x65, 0x17,
  0x3d, 0x1f, 0x60, 0x1e, 0xa8, 0x1f, 0x36, 0x1e, 0xf7, 0x15, 0x89, 0x9f,
  0x2e, 0x9b, 0x59, 0x17, 0xbb, 0x98, 0x3b, 0x91, 0x37, 0x0c, 0x20, 0x1d,
  0xc5, 0x99, 0xe1, 0x9a, 0x81, 0x22, 0xb1, 0x1c, 0x94, 0x1d, 0xf8, 0x17,
  0xc8, 0x1a, 0xf0, 0x20, 0x18, 0x1f, 0x09, 0xa1, 0x02, 0x88, 0x99, 0x13,
  0xbe, 0x99, 0x90, 0x9a, 0xfc, 0x1a, 0x6a, 0x20, 0x30, 0x99, 0x1b, 0x98,
  0x2e, 0x22, 0xc9, 0x20, 0xf0, 0x1d, 0x8f, 0x1c, 0xfa, 0x1d, 0x9d, 0x1f,
  0x3e, 0x17, 0xb8, 0x9f, 0x17, 0xa0, 0x5a, 0x1d, 0x76, 0x9b, 0x3b, 0x9c,
  0x8a, 0x95, 0x75, 0x1b, 0x8e, 0x1c, 0x63, 0xa0, 0x7a, 0x99, 0x46, 0x20,
  0xe0, 0x90, 0x2a, 0x0e, 0xf0, 0x1d, 0x3f, 0x20, 0xe8, 0x1b, 0x2c, 0x96,
  0x6a, 0xa0, 0x06, 0x1d, 0x95, 0x95, 0xab, 0x95, 0xf9, 0x17, 0x08, 0x1c,
  0x8e, 0x9d, 0xd6, 0x9c, 0x4e, 0x9a, 0x70, 0x21, 0x14, 0x1c, 0x5e, 0x14,
  0x35, 0x1f, 0x98, 0x20, 0x68, 0x8b, 0x8d, 0x9e, 0xad, 0x9e, 0x41, 0x18,
  0xc7, 0x18, 0x5c, 0x99, 0x07, 0x1c, 0x8d, 0x15, 0x61, 0x99, 0x3c, 0xa0,
  0x11, 0x93, 0xf4, 0x20, 0xdd, 0x1e, 0x1d, 0x99, 0x05, 0x21, 0xec, 0x1e,
  0xfb, 0x8f, 0x71, 0x9e, 0x68, 0xa0, 0x62, 0x90, 0xed, 0x1c, 0x89, 0x11,
  0xf7, 0x9a, 0x2b, 0x1e, 0x70, 0x93, 0x5c, 0xa1, 0x7d, 0x11, 0x80, 0x1e,
  0xd0, 0x18, 0x2a, 0x96, 0x6e, 0x1b, 0xef, 0x1f, 0xd1, 0x9e, 0xb5, 0x9a,
  0xa3, 0x90, 0x5f, 0x94, 0x43, 0x16, 0x2b, 0x10, 0x9b, 0x9a, 0x15, 0x1d,
  0x40, 0x0e, 0x3c, 0xa1, 0x05, 0x12, 0xa3, 0x1c, 0xab, 0x1e, 0x02, 0x9a,
  0x39, 0x1d, 0x38, 0x1f, 0x9e, 0x96, 0x33, 0x98, 0x91, 0x9c, 0xed, 0x96,
  0x69, 0x1c, 0x72, 0x18, 0x3f, 0x94, 0x61, 0x19, 0xf2, 0x9b, 0x7d, 0xa1,
  0xc2, 0x94, 0x69, 0x15, 0x4a, 0x1e, 0x43, 0x03, 0xdd, 0x1c, 0x4c, 0x1f,
  0x8b, 0x9d, 0x0b, 0x9c, 0x52, 0x10, 0xa0, 0x1a, 0x5c, 0x20, 0x9a, 0x1b,
  0x35, 0x15, 0x43, 0x8e, 0x8d, 0x8e, 0x93, 0xa2, 0xb0, 0x18, 0x40, 0x1d,
  0x02, 0x20, 0xae, 0x18, 0x42, 0x1c, 0x12, 0x20, 0x3b, 0x0c, 0x8a, 0x93,
  0x80, 0x1c, 0xcb, 0x18, 0x1a, 0x22, 0x46, 0x1e, 0x5a, 0x96, 0x5d, 0x98,
  0x3e, 0x8d, 0xe6, 0xa2, 0xea, 0x1e, 0x3e, 0x02, 0x31, 0x1f, 0x93, 0x93,
  0x5b, 0x18, 0x66, 0x21, 0x54, 0x0d, 0x8d, 0x18, 0xd8, 0x20, 0x46, 0x9b,
  0x88, 0x1e, 0x10, 0x1c, 0xe0, 0x16, 0x88, 0xa0, 0x7c, 0x92, 0x18, 0xa2,
  0x38, 0x1d, 0x8d, 0x09, 0x0a, 0x20, 0xfb, 0x83, 0x56, 0x17, 0xbd, 0x1e,
  0xff, 0x1d, 0x7d, 0x12, 0xc0, 0x20, 0xcd, 0x18, 0xcb, 0x19, 0xe2, 0x1f,
  0xe7, 0x1c, 0xe3, 0xa1, 0xbf, 0x99, 0xcc, 0xa0, 0x97, 0x1a, 0x36, 0x9c,
  0xc7, 0x20, 0xaf, 0x91, 0xf7, 0x1e, 0x97, 0x1b, 0x3c, 0x90, 0x07, 0x98,
  0x84, 0x22, 0xec, 0x1b, 0xb9, 0x1c, 0x8f, 0x18, 0xae, 0x1c, 0x3f, 0xa2,
  0x2b, 0x98, 0x89, 0xa1, 0x22, 0x1d, 0x38, 0x9f, 0xa2, 0x1f, 0xb0, 0x01,
  0xeb, 0x84, 0x8e, 0x21, 0x6c, 0x1e, 0x94, 0x14, 0xf3, 0x23, 0xa9, 0x1a,
  0xa1, 0x18, 0xaf, 0x0d, 0x24, 0x21, 0x1f, 0xa2, 0x2a, 0x98, 0xab, 0x9f,
  0x7a, 0x18, 0xb7, 0xa0, 0xb7, 0x21, 0x66, 0x9d, 0xfe, 0x9c, 0x2f, 0x97,
  0x7b, 0x1d, 0xa3, 0x99, 0x93, 0x22, 0x28, 0x94, 0x4b, 0x1e, 0x2f, 0x1d,
  0xeb, 0x21, 0x2c, 0xa2, 0xe2, 0x98, 0x61, 0x9f, 0x3e, 0x16, 0x0c, 0xa1,
  0x2b, 0x1c, 0xc5, 0x18, 0x7a, 0x9f, 0xf7, 0x9f, 0x38, 0x12, 0xde, 0x8e,
  0xbd, 0x20, 0xe4, 0x8c, 0x72, 0x18, 0x03, 0x1b, 0x18, 0x1b, 0x7f, 0xa1,
  0x1a, 0x9b, 0x20, 0x9d, 0xcb, 0x17, 0x84, 0xa2, 0x24, 0x20, 0xc0, 0x98,
  0xa4, 0xa0, 0x11, 0x9f, 0x55, 0x19, 0x8e, 0x99, 0xbe, 0x1f, 0xab, 0x18,
  0x3c, 0x94, 0x03, 0x15, 0x8c, 0x21, 0xb2, 0xa1, 0x8e, 0x9a, 0x3b, 0x98,
  0x85, 0x1b, 0x84, 0xa4, 0xb0, 0x1e, 0x35, 0x15, 0xac, 0x9f, 0xb7, 0x8a,
  0xdf, 0x1b, 0x90, 0x9c, 0x8e, 0x1d, 0x00, 0x87, 0x4f, 0x1c, 0x70, 0x9a,
  0x11, 0x21, 0x6c, 0x9e, 0xaf, 0x99, 0x39, 0x9a, 0xf0, 0x18, 0x9e, 0xa4,
  0x85, 0x19, 0x33, 0x9a, 0x2f, 0xa1, 0x1e, 0x9f, 0xee, 0x1d, 0xfe, 0x9d,
  0x47, 0x20, 0x0d, 0x9a, 0x77, 0x92, 0x4b, 0x94, 0x56, 0x20, 0xa6, 0x9c,
  0x5a, 0x9a, 0x04, 0x9d, 0xc7, 0x1a, 0x0f, 0xa4, 0xa1, 0x99, 0x88, 0x9c,
  0x2c, 0xa1, 0x76, 0x9c, 0x0b, 0x8d, 0x9b, 0xa0, 0x1f, 0x8f, 0x18, 0x1b,
  0x60, 0x97, 0x4a, 0x9d, 0x11, 0x16, 0x91, 0x9f, 0x25, 0x9f, 0xfc, 0x15,
  0xcc, 0x19, 0x8f, 0xa4, 0x23, 0x9e, 0xa5, 0x9d, 0x10, 0xa0, 0xb2, 0x95,
  0x25, 0x1c, 0x2e, 0x9d, 0x3e, 0x9d, 0xa8, 0x1c, 0x04, 0x8d, 0x31, 0x9c,
  0x44, 0x1e, 0x5d, 0x9a, 0x45, 0x9d, 0x12, 0x18, 0x40, 0x1c, 0x2b, 0xa4,
  0x60, 0xa0, 0xe3, 0x9d, 0x2d, 0x9e, 0x07, 0x9d, 0xf9, 0x20, 0x1a, 0x97,
  0x85, 0x9c, 0x4e, 0x1b, 0x09, 0x9c, 0xe8, 0x9d, 0xcd, 0x22, 0xb1, 0x95,
  0x4c, 0x95, 0x49, 0x1e, 0x16, 0x1f, 0xa9, 0xa4, 0xa7, 0xa1, 0x58, 0x99,
  0xc3, 0xa1, 0x1f, 0x9c, 0x00, 0x1a, 0x5d, 0x18, 0xf2, 0x9c, 0x19, 0x07,
  0xc7, 0x9d, 0xca, 0x9e, 0x20, 0x22, 0xc4, 0x1e, 0x30, 0x9a, 0x89, 0x1d,
  0x53, 0x20, 0xa2, 0xa4, 0xc8, 0x9f, 0x68, 0x98, 0x8e, 0x9f, 0x4d, 0x9c,
  0x71, 0x1b, 0x67, 0x99, 0x6a, 0x9d, 0xf8, 0x1c, 0x41, 0xa0, 0x3d, 0xa1,
  0x7c, 0x20, 0xc6, 0x1c, 0x55, 0x9e, 0x36, 0x21, 0xa5, 0x21, 0xb1, 0xa2,
  0x60, 0x9f, 0x07, 0x9e, 0x78, 0x9f, 0xc7, 0x99, 0x7a, 0x10, 0x83, 0x92,
  0x54, 0x9a, 0xe5, 0x1b, 0x93, 0xa1, 0x11, 0xa2, 0xd5, 0x21, 0x34, 0x21,
  0xda, 0x98, 0x4f, 0x20, 0xfc, 0x20, 0x64, 0xa1, 0xf9, 0xa1, 0xab, 0xa2,
  0x6f, 0xa0, 0x28, 0x99, 0xa7, 0x96, 0x32, 0x1f, 0x50, 0x11, 0x33, 0x1c,
  0x8f, 0xa1, 0x39, 0xa2, 0x9f, 0x93, 0x57, 0x1c, 0x88, 0x9b, 0x6c, 0x1d,
  0x61, 0x22, 0x2a, 0xa2, 0x30, 0xa1, 0xf7, 0xa2, 0x0f, 0x9f, 0xd7, 0x9b,
