unsigned char my_EEGnet_ogA_f_q_tflite[] = {
  0x1c, 0x00, 0x00, 0x00, 0x54, 0x46, 0x4c, 0x33, 0x14, 0x00, 0x20, 0x00,
  0x1c, 0x00, 0x18, 0x00, 0x14, 0x00, 0x10, 0x00, 0x0c, 0x00, 0x00, 0x00,
  0x08, 0x00, 0x04, 0x00, 0x14, 0x00, 0x00, 0x00, 0x1c, 0x00, 0x00, 0x00,
  0x80, 0x00, 0x00, 0x00, 0x08, 0x01, 0x00, 0x00, 0x5c, 0x58, 0x00, 0x00,
  0x6c, 0x58, 0x00, 0x00, 0xf0, 0x66, 0x00, 0x00, 0x03, 0x00, 0x00, 0x00,
  0x01, 0x00, 0x00, 0x00, 0x04, 0x00, 0x00, 0x00, 0x12, 0xa6, 0xff, 0xff,
  0x0c, 0x00, 0x00, 0x00, 0x1c, 0x00, 0x00, 0x00, 0x38, 0x00, 0x00, 0x00,
  0x0f, 0x00, 0x00, 0x00, 0x73, 0x65, 0x72, 0x76, 0x69, 0x6e, 0x67, 0x5f,
  0x64, 0x65, 0x66, 0x61, 0x75, 0x6c, 0x74, 0x00, 0x01, 0x00, 0x00, 0x00,
  0x04, 0x00, 0x00, 0x00, 0x6c, 0xff, 0xff, 0xff, 0x1a, 0x00, 0x00, 0x00,
  0x04, 0x00, 0x00, 0x00, 0x07, 0x00, 0x00, 0x00, 0x73, 0x6f, 0x66, 0x74,
  0x6d, 0x61, 0x78, 0x00, 0x01, 0x00, 0x00, 0x00, 0x04, 0x00, 0x00, 0x00,
  0x56, 0xa7, 0xff, 0xff, 0x04, 0x00, 0x00, 0x00, 0x07, 0x00, 0x00, 0x00,
  0x69, 0x6e, 0x70, 0x75, 0x74, 0x5f, 0x33, 0x00, 0x03, 0x00, 0x00, 0x00,
  0x64, 0x00, 0x00, 0x00, 0x2c, 0x00, 0x00, 0x00, 0x04, 0x00, 0x00, 0x00,
  0xb0, 0xff, 0xff, 0xff, 0x1e, 0x00, 0x00, 0x00, 0x04, 0x00, 0x00, 0x00,
  0x13, 0x00, 0x00, 0x00, 0x43, 0x4f, 0x4e, 0x56, 0x45, 0x52, 0x53, 0x49,
  0x4f, 0x4e, 0x5f, 0x4d, 0x45, 0x54, 0x41, 0x44, 0x41, 0x54, 0x41, 0x00,
  0xd4, 0xff, 0xff, 0xff, 0x1d, 0x00, 0x00, 0x00, 0x04, 0x00, 0x00, 0x00,
  0x19, 0x00, 0x00, 0x00, 0x72, 0x65, 0x64, 0x75, 0x63, 0x65, 0x64, 0x5f,
  0x70, 0x72, 0x65, 0x63, 0x69, 0x73, 0x69, 0x6f, 0x6e, 0x5f, 0x73, 0x75,
  0x70, 0x70, 0x6f, 0x72, 0x74, 0x00, 0x00, 0x00, 0x08, 0x00, 0x0c, 0x00,
  0x08, 0x00, 0x04, 0x00, 0x08, 0x00, 0x00, 0x00, 0x1c, 0x00, 0x00, 0x00,
  0x04, 0x00, 0x00, 0x00, 0x13, 0x00, 0x00, 0x00, 0x6d, 0x69, 0x6e, 0x5f,
  0x72, 0x75, 0x6e, 0x74, 0x69, 0x6d, 0x65, 0x5f, 0x76, 0x65, 0x72, 0x73,
  0x69, 0x6f, 0x6e, 0x00, 0x1f, 0x00, 0x00, 0x00, 0x50, 0x57, 0x00, 0x00,
  0x48, 0x57, 0x00, 0x00, 0x30, 0x57, 0x00, 0x00, 0x00, 0x57, 0x00, 0x00,
  0xe0, 0x56, 0x00, 0x00, 0x50, 0x4f, 0x00, 0x00, 0x40, 0x4d, 0x00, 0x00,
  0x28, 0x4d, 0x00, 0x00, 0xf8, 0x4c, 0x00, 0x00, 0xc8, 0x4c, 0x00, 0x00,
  0x38, 0x01, 0x00, 0x00, 0x30, 0x01, 0x00, 0x00, 0x28, 0x01, 0x00, 0x00,
  0x20, 0x01, 0x00, 0x00, 0x18, 0x01, 0x00, 0x00, 0x10, 0x01, 0x00, 0x00,
  0x08, 0x01, 0x00, 0x00, 0x00, 0x01, 0x00, 0x00, 0xf8, 0x00, 0x00, 0x00,
  0xf0, 0x00, 0x00, 0x00, 0xe8, 0x00, 0x00, 0x00, 0xe0, 0x00, 0x00, 0x00,
  0xd8, 0x00, 0x00, 0x00, 0xd0, 0x00, 0x00, 0x00, 0xc8, 0x00, 0x00, 0x00,
  0xc0, 0x00, 0x00, 0x00, 0xb8, 0x00, 0x00, 0x00, 0xb0, 0x00, 0x00, 0x00,
  0x90, 0x00, 0x00, 0x00, 0x74, 0x00, 0x00, 0x00, 0x04, 0x00, 0x00, 0x00,
  0x76, 0xa8, 0xff, 0xff, 0x04, 0x00, 0x00, 0x00, 0x60, 0x00, 0x00, 0x00,
  0x0c, 0x00, 0x00, 0x00, 0x08, 0x00, 0x0e, 0x00, 0x08, 0x00, 0x04, 0x00,
  0x08, 0x00, 0x00, 0x00, 0x14, 0x00, 0x00, 0x00, 0x30, 0x00, 0x00, 0x00,
  0x00, 0x00, 0x0a, 0x00, 0x0c, 0x00, 0x08, 0x00, 0x00, 0x00, 0x07, 0x00,
  0x0a, 0x00, 0x00, 0x00, 0x00, 0x00, 0x00, 0x01, 0x04, 0x00, 0x00, 0x00,
  0x01, 0x00, 0x00, 0x00, 0xe9, 0x03, 0x00, 0x00, 0x00, 0x00, 0x0a, 0x00,
  0x10, 0x00, 0x0c, 0x00, 0x08, 0x00, 0x04, 0x00, 0x0a, 0x00, 0x00, 0x00,
  0x02, 0x00, 0x00, 0x00, 0x02, 0x00, 0x00, 0x00, 0x04, 0x00, 0x00, 0x00,
  0x06, 0x00, 0x00, 0x00, 0x32, 0x2e, 0x31, 0x33, 0x2e, 0x30, 0x00, 0x00,
  0xe2, 0xa8, 0xff, 0xff, 0x04, 0x00, 0x00, 0x00, 0x0b, 0x00, 0x00, 0x00,
  0x66, 0x70, 0x31, 0x36, 0x61, 0x63, 0x63, 0x66, 0x70, 0x33, 0x32, 0x00,
  0xfa, 0xa8, 0xff, 0xff, 0x04, 0x00, 0x00, 0x00, 0x10, 0x00, 0x00, 0x00,
  0x31, 0x2e, 0x31, 0x35, 0x2e, 0x30, 0x00, 0x00, 0x00, 0x00, 0x00, 0x00,
  0x00, 0x00, 0x00, 0x00, 0xe0, 0x9a, 0xff, 0xff, 0xe4, 0x9a, 0xff, 0xff,
  0xe8, 0x9a, 0xff, 0xff, 0xec, 0x9a, 0xff, 0xff, 0xf0, 0x9a, 0xff, 0xff,
  0xf4, 0x9a, 0xff, 0xff, 0xf8, 0x9a, 0xff, 0xff, 0xfc, 0x9a, 0xff, 0xff,
  0x00, 0x9b, 0xff, 0xff, 0x04, 0x9b, 0xff, 0xff, 0x08, 0x9b, 0xff, 0xff,
  0x0c, 0x9b, 0xff, 0xff, 0x10, 0x9b, 0xff, 0xff, 0x14, 0x9b, 0xff, 0xff,
  0x18, 0x9b, 0xff, 0xff, 0x1c, 0x9b, 0xff, 0xff, 0x20, 0x9b, 0xff, 0xff,
  0x5a, 0xa9, 0xff, 0xff, 0x04, 0x00, 0x00, 0x00, 0x80, 0x4b, 0x00, 0x00,
  0x29, 0x1f, 0x3a, 0xa0, 0xbc, 0x19, 0x95, 0x93, 0x9e, 0xa0, 0x52, 0x16,
  0x0b, 0x24, 0x73, 0x14, 0xfb, 0x9a, 0x7d, 0x14, 0xb3, 0x95, 0xde, 0x1c,
  0x6f, 0x16, 0x84, 0x20, 0xbd, 0x10, 0xe5, 0x95, 0xee, 0x1f, 0xcb, 0xa1,
  0xd6, 0x21, 0xff, 0x9b, 0x76, 0x91, 0xb9, 0x1c, 0x61, 0x21, 0x8d, 0x1c,
  0xf6, 0x9d, 0x7b, 0x0c, 0x99, 0x9e, 0x24, 0x1c, 0x19, 0x1e, 0x0b, 0x1f,
  0xb4, 0x1e, 0x6d, 0x22, 0x5b, 0x12, 0x6c, 0x9d, 0x52, 0x9c, 0x83, 0x9c,
  0x81, 0x9f, 0x5b, 0x19, 0x06, 0x1f, 0x8a, 0x1b, 0x4b, 0x1c, 0x97, 0x15,
  0xa1, 0x9c, 0xba, 0x1c, 0x84, 0x19, 0x1b, 0x21, 0xb1, 0x1e, 0xd7, 0x1c,
  0x60, 0x93, 0xe4, 0x9c, 0x54, 0x9a, 0x87, 0x1c, 0x83, 0x97, 0x46, 0x9d,
  0x61, 0x98, 0x56, 0x1f, 0xcb, 0x9a, 0x44, 0x1c, 0x70, 0x9e, 0x64, 0x14,
  0x79, 0x1a, 0xaa, 0x1a, 0xbb, 0x91, 0x9c, 0x16, 0x00, 0x98, 0xc4, 0x92,
  0x27, 0x9f, 0x58, 0x18, 0x98, 0xa1, 0x60, 0x9d, 0x84, 0x97, 0xc8, 0x1c,
  0x79, 0x9c, 0x8b, 0x18, 0x0f, 0x9f, 0x0c, 0x20, 0x79, 0x0e, 0x3f, 0x21,
  0x0d, 0x10, 0x2d, 0x1a, 0xa4, 0x9c, 0x4d, 0x0f, 0xa2, 0xa2, 0x1a, 0x18,
  0xe1, 0x9e, 0x78, 0x9c, 0xe7, 0x8f, 0x72, 0x09, 0xa6, 0x0b, 0x35, 0x1b,
  0x55, 0x9e, 0x11, 0x1f, 0xe2, 0x8c, 0xb6, 0x1d, 0x40, 0x9f, 0xd0, 0x98,
  0xba, 0xa0, 0xd3, 0x1a, 0x4a, 0x9c, 0x20, 0x16, 0xcb, 0x9e, 0x42, 0x9f,
  0x94, 0x9f, 0x1a, 0x15, 0x28, 0x10, 0x7d, 0x84, 0x18, 0xa0, 0x14, 0x1e,
  0xc5, 0x1b, 0x31, 0x20, 0x10, 0xa1, 0x20, 0x9a, 0x71, 0xa0, 0x32, 0x1f,
  0x2f, 0x95, 0x3f, 0xa2, 0x43, 0x9e, 0xf7, 0x9a, 0xf3, 0xa0, 0x56, 0x8c,
  0xca, 0x1d, 0x3c, 0x14, 0xc8, 0x9e, 0xcf, 0x1f, 0x35, 0x18, 0x95, 0x22,
  0x9b, 0x9b, 0xda, 0xa0, 0x3b, 0x9f, 0x68, 0x1d, 0x4b, 0x9d, 0x31, 0x97,
  0xcb, 0x9e, 0xe2, 0x9d, 0x8f, 0xa0, 0xa3, 0x96, 0xda, 0x99, 0x7f, 0x1c,
  0x43, 0x9f, 0x7c, 0x1d, 0x05, 0x1c, 0x50, 0x20, 0xc1, 0x22, 0x8d, 0x9c,
  0x4d, 0xa1, 0x7e, 0x22, 0x22, 0x9f, 0x0d, 0x8e, 0xaa, 0x9b, 0x48, 0x9f,
  0xdd, 0x9e, 0xee, 0x9d, 0xa2, 0x0e, 0x2f, 0x20, 0xe3, 0x9f, 0x47, 0x1e,
  0xff, 0x16, 0x5e, 0x22, 0x8d, 0x20, 0xa6, 0x21, 0x69, 0x9e, 0x12, 0x1f,
  0x25, 0xa1, 0x39, 0x1c, 0xb1, 0x18, 0xe8, 0xa1, 0x3b, 0xa0, 0x5c, 0x98,
  0x21, 0x98, 0x69, 0x20, 0x68, 0xa2, 0xf6, 0x1e, 0x1a, 0x1c, 0xf7, 0x20,
  0xd4, 0x13, 0x4e, 0x1c, 0xd0, 0xa0, 0xa5, 0x20, 0xbd, 0xa0, 0xa9, 0x1d,
  0xd7, 0x16, 0xe1, 0x9f, 0x40, 0xa1, 0x16, 0x8f, 0xaa, 0x98, 0xdd, 0x1d,
  0x14, 0xa0, 0x25, 0x1f, 0x66, 0x1e, 0x78, 0x1f, 0x5d, 0x1d, 0xab, 0x1f,
  0x6a, 0x9f, 0x7b, 0x21, 0x56, 0xa2, 0x72, 0x1f, 0xd9, 0x18, 0x1f, 0x9f,
  0xe6, 0xa3, 0x03, 0x94, 0xbb, 0x11, 0x64, 0x16, 0xfb, 0x9b, 0x56, 0x1c,
  0x1b, 0x0c, 0x80, 0x1f, 0x06, 0x9c, 0x89, 0x1a, 0x25, 0x9e, 0x93, 0x1b,
  0x3f, 0x99, 0x76, 0x8b, 0x58, 0x1a, 0x10, 0x9e, 0x43, 0xa2, 0xcc, 0x94,
  0x5a, 0x08, 0x35, 0x1b, 0xe5, 0x9c, 0xff, 0x14, 0xa0, 0x1c, 0x19, 0x20,
  0x67, 0x9f, 0xa4, 0x89, 0xfa, 0x9f, 0x3a, 0x15, 0xde, 0xa1, 0x68, 0x9d,
  0x81, 0x1a, 0x95, 0x9d, 0x99, 0x9e, 0x30, 0x17, 0x9a, 0x9d, 0xf1, 0x1d,
  0x0c, 0x9e, 0x29, 0x14, 0xbb, 0x14, 0x3d, 0x1d, 0x5f, 0xa0, 0x64, 0x9b,
  0xa2, 0x9d, 0x74, 0x9c, 0xbd, 0x99, 0x30, 0x9b, 0x00, 0x1d, 0x3f, 0x0b,
  0x71, 0xa0, 0x19, 0x92, 0xc1, 0x15, 0x36, 0x1f, 0x7a, 0x9d, 0x70, 0x9d,
  0x93, 0x1a, 0x73, 0x1e, 0x34, 0x83, 0x62, 0x9f, 0x07, 0x97, 0x66, 0x19,
  0x87, 0xa0, 0xb7, 0x8d, 0x72, 0x20, 0x4e, 0x99, 0x38, 0xa1, 0x4e, 0x98,
  0x7a, 0x1b, 0x07, 0x1f, 0x6c, 0x99, 0x0c, 0x95, 0x39, 0x81, 0x05, 0x1e,
  0x7a, 0x1c, 0xff, 0x1c, 0xbc, 0x1c, 0xb1, 0x9e, 0x64, 0xa1, 0x13, 0x9c,
  0x04, 0x1f, 0xa4, 0xa0, 0xf6, 0x9c, 0x19, 0x9d, 0xbb, 0x9c, 0x1a, 0x1f,
  0x49, 0xa0, 0x88, 0x9e, 0xaa, 0x0c, 0x11, 0x1f, 0x92, 0x1d, 0x24, 0x1d,
  0x02, 0x21, 0xdf, 0x9f, 0x34, 0x95, 0xb4, 0x9c, 0xbd, 0x20, 0x28, 0x98,
  0xb0, 0x9e, 0x1f, 0x8f, 0x3c, 0x18, 0x8f, 0x19, 0x8c, 0xa0, 0x3f, 0x9c,
  0x06, 0x1d, 0x5a, 0x1f, 0x61, 0x1a, 0x92, 0x21, 0xf4, 0x1b, 0x1b, 0x9f,
  0xbb, 0x9c, 0x21, 0x99, 0x1d, 0x1c, 0x1c, 0x9a, 0x5d, 0x9f, 0x1e, 0x9c,
  0xe1, 0x9a, 0x9b, 0x19, 0x74, 0x9c, 0x85, 0x9a, 0x87, 0x1c, 0xc9, 0x20,
  0x2b, 0x04, 0x99, 0x1d, 0xc9, 0x18, 0xbb, 0xa1, 0xb6, 0x10, 0xd0, 0x13,
  0x2a, 0x1c, 0x76, 0x95, 0xe1, 0x9e, 0x89, 0x95, 0x3b, 0x11, 0x50, 0x16,
  0xd7, 0x8d, 0x6d, 0x9d, 0xc7, 0x94, 0x0a, 0x1f, 0x43, 0x9e, 0x4b, 0x88,
  0x38, 0x94, 0x67, 0xa0, 0xcf, 0x0b, 0xb4, 0x9c, 0x6a, 0x1c, 0xdc, 0x94,
  0x0b, 0x12, 0xaf, 0x9c, 0x26, 0x1d, 0xab, 0x97, 0x9f, 0x9c, 0x14, 0xa0,
  0x39, 0x1b, 0x19, 0x12, 0x58, 0x99, 0x62, 0x99, 0xb7, 0x1d, 0xf3, 0xa1,
  0xd6, 0x19, 0xe8, 0xa0, 0x04, 0x19, 0x3f, 0x1a, 0x00, 0x11, 0x9f, 0x97,
  0xd1, 0x17, 0x18, 0x1f, 0x7f, 0x99, 0xff, 0xa3, 0xd8, 0x1e, 0x6a, 0x19,
  0xea, 0x9b, 0x47, 0x9b, 0x1b, 0x1c, 0x7c, 0xa0, 0x86, 0x20, 0xa1, 0xa1,
  0x89, 0x1a, 0x78, 0x18, 0x3a, 0x1b, 0x50, 0x10, 0x5d, 0x21, 0x11, 0x1e,
  0x35, 0x18, 0x64, 0xa0, 0x30, 0x96, 0xfa, 0x8f, 0x62, 0x14, 0xf9, 0xa3,
  0x31, 0x98, 0x23, 0x91, 0xe5, 0x20, 0x15, 0x98, 0xc5, 0x1c, 0x01, 0x14,
  0x05, 0x15, 0x69, 0x94, 0x8a, 0x14, 0xf6, 0x1a, 0x91, 0x94, 0xae, 0xa2,
  0xf3, 0x0d, 0x51, 0x18, 0x06, 0x9f, 0xaf, 0x9b, 0x34, 0x98, 0x02, 0x9a,
  0x83, 0x1d, 0x68, 0x90, 0xfb, 0x1c, 0x31, 0x11, 0xe4, 0x20, 0xbf, 0x19,
  0xc8, 0x1c, 0x2f, 0x1b, 0x07, 0x96, 0xc8, 0x9f, 0xf9, 0x1c, 0xe1, 0x1b,
  0x05, 0x1d, 0xe5, 0x1a, 0x75, 0x9c, 0x14, 0x98, 0x00, 0x20, 0x41, 0x9f,
  0x5f, 0x07, 0x45, 0x8e, 0x11, 0x1d, 0x8c, 0x16, 0x90, 0x16, 0x1e, 0x11,
  0x5a, 0x90, 0x25, 0xa0, 0xb9, 0x08, 0x1d, 0x9f, 0xa9, 0x19, 0x5e, 0x95,
  0x38, 0x9b, 0x31, 0x9c, 0x11, 0x95, 0x04, 0x99, 0x87, 0x94, 0x39, 0x18,
  0x9a, 0x22, 0x9a, 0x23, 0xb9, 0x1f, 0x55, 0x99, 0xb5, 0x94, 0xeb, 0xa1,
  0xe1, 0x9a, 0x93, 0x93, 0xa6, 0x1b, 0xcf, 0x18, 0x5b, 0x9c, 0x6d, 0x1c,
  0xfb, 0x1c, 0x96, 0x9c, 0x99, 0x1f, 0x87, 0x1a, 0x62, 0x21, 0x35, 0x23,
  0xb6, 0x20, 0xff, 0x13, 0xfa, 0x11, 0xc8, 0x9f, 0xe8, 0x9c, 0x58, 0x9d,
  0x03, 0x13, 0xcb, 0x94, 0xb6, 0x99, 0xa5, 0x1f, 0x31, 0x1b, 0xa0, 0xa1,
  0x3f, 0x19, 0x3a, 0x1a, 0x85, 0x1e, 0x40, 0x1c, 0xdb, 0x1b, 0x05, 0xa0,
  0xd6, 0x1a, 0x8e, 0xa0, 0xe0, 0x9c, 0xaa, 0x9c, 0x28, 0x9a, 0xdb, 0x9e,
  0xb9, 0x9e, 0x4d, 0x18, 0x5b, 0x19, 0x8d, 0x9d, 0xf0, 0x14, 0xc0, 0x1c,
  0x1b, 0x1a, 0x24, 0x1e, 0x57, 0x21, 0x3f, 0x9e, 0x75, 0x16, 0x82, 0x9f,
  0xaf, 0x9b, 0x99, 0x99, 0x40, 0x9d, 0x00, 0xa1, 0x28, 0x9c, 0xb6, 0x1e,
  0x69, 0x1c, 0x30, 0x95, 0x13, 0x1a, 0x2d, 0x1d, 0x6e, 0x89, 0x74, 0x1c,
  0x6b, 0x1d, 0x62, 0x9d, 0x71, 0x1f, 0x81, 0x94, 0x6f, 0x99, 0x0a, 0xa1,
  0x86, 0x9f, 0x48, 0x9d, 0x11, 0xa0, 0xdb, 0x18, 0x50, 0x19, 0xf7, 0x14,
  0x53, 0x1e, 0x2c, 0x1e, 0x8b, 0x1b, 0x4d, 0x21, 0xd6, 0x90, 0x26, 0xa1,
  0xb1, 0x19, 0x94, 0x9d, 0xcf, 0x94, 0x54, 0x9d, 0x6c, 0x18, 0x57, 0x16,
  0x31, 0x9e, 0x4b, 0x1c, 0x94, 0x20, 0xdd, 0x9d, 0xfa, 0x1a, 0x8a, 0x20,
  0x8c, 0x9e, 0x00, 0x17, 0x05, 0x1b, 0xc1, 0x97, 0xdb, 0x15, 0x91, 0x9b,
  0x47, 0xa0, 0x7a, 0xa3, 0x59, 0x1d, 0xb2, 0x1f, 0x37, 0x92, 0x79, 0x17,
  0xd4, 0x16, 0x9b, 0xa2, 0x0e, 0x11, 0x66, 0x1b, 0x72, 0x90, 0xde, 0x96,
  0x05, 0x1c, 0xce, 0x9d, 0x52, 0x17, 0x22, 0x17, 0x88, 0xa0, 0x18, 0xa0,
  0x75, 0x1e, 0x63, 0x18, 0x2b, 0x98, 0xc7, 0x9c, 0x83, 0xa1, 0x96, 0x9e,
  0xb1, 0x1e, 0xd0, 0x1b, 0x8e, 0x9c, 0x22, 0x9a, 0x1c, 0x17, 0xe8, 0xa0,
  0x96, 0x95, 0xd4, 0x9e, 0xea, 0xa0, 0xe7, 0x9d, 0x07, 0x1d, 0x5a, 0x1c,
  0x30, 0x05, 0xa9, 0x9c, 0xb1, 0xa0, 0x76, 0x95, 0xfb, 0x18, 0xa8, 0x18,
  0xc7, 0xa1, 0xb2, 0x9a, 0x6a, 0x14, 0x1e, 0xa0, 0xa5, 0x1c, 0xb2, 0x8b,
  0xbd, 0xa1, 0x8f, 0xa0, 0xbe, 0x8c, 0x95, 0x94, 0x43, 0x9c, 0xc2, 0x99,
  0x22, 0x94, 0x77, 0x17, 0x24, 0x9d, 0xe0, 0x1b, 0x90, 0x94, 0x24, 0xa0,
  0xe8, 0x15, 0xf3, 0xa0, 0xbb, 0x19, 0xff, 0x8d, 0xa6, 0x9f, 0xf9, 0x9d,
  0x92, 0x9d, 0x7a, 0x9f, 0x74, 0x9d, 0x99, 0x9c, 0x0b, 0x94, 0x2a, 0x9c,
  0x9f, 0x9c, 0x43, 0x1a, 0xcf, 0x9b, 0x26, 0x9a, 0x61, 0x9d, 0xe8, 0xa0,
  0x0c, 0x1e, 0x43, 0x9d, 0x40, 0xa0, 0xb7, 0xa1, 0x7f, 0x9f, 0x0c, 0x9e,
  0xed, 0x9f, 0xbe, 0x9a, 0xe7, 0x13, 0x4a, 0x14, 0xd6, 0x9d, 0xee, 0x9b,
  0xe9, 0x9d, 0x08, 0x9e, 0x16, 0x81, 0x96, 0x9a, 0xf0, 0x19, 0x64, 0x11,
  0xbc, 0xa0, 0x5b, 0xa0, 0x33, 0x9c, 0x5d, 0x1d, 0xaa, 0x1a, 0x4e, 0x9c,
  0x58, 0x9c, 0xdf, 0x1e, 0xde, 0xa0, 0x79, 0x98, 0x87, 0x9d, 0x26, 0xa2,
  0x40, 0x99, 0x9b, 0x9f, 0x81, 0x04, 0xa6, 0x9a, 0x4a, 0xa1, 0xc6, 0xa2,
  0x00, 0x1c, 0xd5, 0x1c, 0x54, 0x99, 0x16, 0x05, 0xf2, 0x9c, 0xa1, 0x91,
  0xdd, 0x91, 0x7a, 0x91, 0xcf, 0x9f, 0xe6, 0xa0, 0x5b, 0x9e, 0xed, 0x9a,
  0x20, 0x9b, 0x89, 0x15, 0x08, 0xa2, 0x35, 0xa0, 0xd1, 0x1c, 0xa3, 0x13,
  0x78, 0x99, 0x2b, 0x99, 0x3c, 0x9d, 0x6c, 0x98, 0x5e, 0x9e, 0x6a, 0x9c,
  0xe6, 0xa0, 0x2b, 0xa2, 0xc0, 0x9e, 0x91, 0x9f, 0x35, 0x8d, 0x53, 0x19,
  0xb3, 0xa1, 0x7b, 0xa0, 0x09, 0x20, 0x35, 0x96, 0x1d, 0x97, 0xe0, 0x9d,
  0x5c, 0x9f, 0x45, 0x97, 0x3c, 0xa1, 0xfb, 0x98, 0x45, 0xa0, 0xf6, 0xa0,
  0x14, 0xa0, 0x38, 0x91, 0xa5, 0x17, 0x1e, 0x16, 0xd0, 0xa2, 0x25, 0x9e,
  0xf5, 0x18, 0xe8, 0x15, 0x94, 0x9a, 0x6b, 0x8b, 0xe4, 0xa1, 0xc5, 0x1d,
  0x2a, 0xa0, 0x41, 0x9f, 0x36, 0x9d, 0xfe, 0x9e, 0x3f, 0x9f, 0x3c, 0x1c,
  0x71, 0x92, 0x85, 0x1c, 0x83, 0xa0, 0x1d, 0xa0, 0x8f, 0x93, 0xa4, 0x99,
  0xbc, 0x18, 0x4c, 0x10, 0x20, 0xa4, 0x5f, 0x1a, 0xed, 0xa0, 0x85, 0x91,
  0x45, 0x9d, 0x28, 0xa0, 0x05, 0xa0, 0x74, 0x17, 0x5c, 0x18, 0x5b, 0x98,
  0xfc, 0x9e, 0xb2, 0xa1, 0x6a, 0x97, 0xee, 0x98, 0x84, 0x94, 0x30, 0x18,
  0x13, 0x9a, 0xed, 0x1e, 0x91, 0xa1, 0x50, 0x9c, 0x80, 0x16, 0xb2, 0xa0,
  0xe9, 0x9d, 0x58, 0x0c, 0x35, 0x14, 0x77, 0x98, 0x12, 0xa0, 0x95, 0xa1,
  0xf2, 0x87, 0x5f, 0x83, 0xa5, 0x13, 0x50, 0x10, 0x22, 0x92, 0x63, 0x1e,
  0xd6, 0xa0, 0xb3, 0x9b, 0x52, 0x9e, 0xfa, 0x9c, 0x16, 0x9b, 0x6a, 0x1d,
  0x78, 0x14, 0xf0, 0x9a, 0xb2, 0xa2, 0x80, 0x9f, 0x13, 0x16, 0x38, 0x92,
  0xf7, 0x98, 0x2c, 0x1d, 0xc6, 0x99, 0xc4, 0x1d, 0xcf, 0xa1, 0x64, 0x9c,
  0x75, 0x1b, 0x42, 0xa0, 0xec, 0x8b, 0x9b, 0x16, 0xfc, 0x19, 0xb7, 0x98,
  0xec, 0x9d, 0x2d, 0x9f, 0xc8, 0x15, 0x41, 0x1d, 0x4a, 0x1d, 0x78, 0x1a,
  0xac, 0x9f, 0x61, 0x1a, 0xe8, 0xa0, 0x59, 0x97, 0xa5, 0x96, 0x99, 0xa0,
  0xa0, 0x9a, 0xb0, 0x18, 0x0a, 0x93, 0x99, 0x90, 0x3e, 0x9d, 0x16, 0x94,
  0x1e, 0x18, 0x31, 0x1b, 0xc1, 0x1b, 0x09, 0x12, 0xc3, 0x9a, 0x74, 0x1a,
  0x5e, 0xa2, 0x50, 0x9d, 0xd5, 0x9c, 0xc6, 0x9d, 0xec, 0x9a, 0xad, 0x8d,
  0x75, 0x08, 0x5d, 0x99, 0xe6, 0x12, 0x16, 0x12, 0xf3, 0x94, 0x5b, 0x14,
  0x9f, 0x1d, 0x56, 0x1a, 0xb9, 0x9a, 0xd0, 0x94, 0xe9, 0x9b, 0xfe, 0x9c,
  0x97, 0x19, 0xd9, 0x98, 0xe2, 0x13, 0x00, 0x0b, 0xb3, 0x9d, 0xa3, 0x13,
  0xa3, 0x04, 0xac, 0x9c, 0x24, 0x15, 0x3a, 0x98, 0x7a, 0x1f, 0x08, 0x9c,
  0xaf, 0x1c, 0x7f, 0x96, 0xc8, 0xa0, 0xca, 0x99, 0x84, 0x96, 0x0a, 0x86,
  0xfd, 0x15, 0xff, 0x1a, 0xe1, 0x94, 0xa2, 0x9a, 0xe6, 0x94, 0x62, 0x1c,
  0x23, 0xa0, 0x94, 0x9e, 0x22, 0x10, 0xbf, 0x96, 0x33, 0x20, 0x8b, 0x19,
  0xa5, 0xa0, 0x29, 0x97, 0xcf, 0x97, 0xd2, 0x16, 0x7b, 0x9a, 0x67, 0x0c,
  0x5c, 0x9c, 0xcb, 0x1c, 0xf0, 0x98, 0x55, 0x14, 0x29, 0x9c, 0x61, 0x9e,
  0xc5, 0x22, 0x63, 0x8c, 0xe1, 0x18, 0x3d, 0x9d, 0xe4, 0x9d, 0xd1, 0x1a,
  0x55, 0x16, 0x0c, 0x1b, 0x1f, 0x99, 0x35, 0x17, 0x7e, 0x98, 0x62, 0x18,
  0x1f, 0x90, 0xe7, 0x18, 0x1f, 0x09, 0xae, 0x9a, 0x5b, 0x97, 0x1f, 0x10,
  0x68, 0x9f, 0x8c, 0x1c, 0x22, 0x9d, 0x04, 0x91, 0xc8, 0x1d, 0xa5, 0x17,
  0x21, 0x10, 0x14, 0x19, 0x06, 0xa1, 0x59, 0x11, 0x5b, 0x13, 0x56, 0x98,
  0x65, 0x1f, 0x23, 0x98, 0xeb, 0x0f, 0x7b, 0x9c, 0xad, 0x10, 0xd2, 0x1c,
  0x76, 0x9b, 0x81, 0x11, 0xe7, 0x1f, 0x52, 0x1d, 0xfe, 0x1a, 0x72, 0x18,
  0x38, 0x9c, 0x2b, 0x00, 0xbc, 0x9b, 0x9a, 0x1b, 0x46, 0x18, 0xf9, 0x21,
  0x3e, 0x10, 0x0e, 0x9d, 0xe6, 0x98, 0x89, 0x9b, 0x07, 0x99, 0x5e, 0x1f,
  0xf3, 0x98, 0x51, 0x1e, 0x9a, 0x20, 0xff, 0x1b, 0xf5, 0x9d, 0x92, 0x95,
  0xb2, 0x1c, 0x88, 0x99, 0xc3, 0x99, 0xd8, 0x1c, 0x41, 0x8c, 0x97, 0x9e,
  0xb9, 0x1a, 0xdc, 0x0e, 0xe3, 0xa0, 0xbb, 0x19, 0xa6, 0x8e, 0xf7, 0x1c,
  0xb3, 0x14, 0x59, 0x0b, 0xa4, 0x9d, 0x6a, 0x17, 0x12, 0x98, 0x42, 0x19,
  0xd9, 0x9b, 0xa4, 0x18, 0x27, 0x1c, 0x7e, 0x1f, 0x0d, 0x94, 0xb3, 0x9b,
  0xb8, 0x9d, 0xe6, 0x9a, 0x79, 0x16, 0x7a, 0x1c, 0x6e, 0x15, 0xb2, 0x1d,
  0x34, 0xa0, 0xe3, 0x0d, 0x5b, 0x20, 0x9f, 0x92, 0xaa, 0x96, 0x27, 0x9d,
  0x59, 0x93, 0x62, 0x19, 0xc1, 0x9d, 0x7f, 0x97, 0x2e, 0x95, 0xe2, 0x12,
  0xc5, 0x9b, 0x34, 0x8c, 0x66, 0x10, 0x11, 0x1e, 0x42, 0xa1, 0x42, 0x96,
  0x9a, 0x1e, 0x2a, 0x14, 0x64, 0xa0, 0x9b, 0x98, 0xcb, 0x8e, 0x28, 0x08,
  0xff, 0x99, 0x36, 0x19, 0x26, 0x1e, 0x8b, 0x9b, 0x7e, 0x9d, 0x50, 0x96,
  0xda, 0x0c, 0x97, 0x16, 0xe2, 0x9f, 0xc6, 0x15, 0x7b, 0x1d, 0x45, 0x1c,
  0xa7, 0x10, 0xd2, 0x98, 0x16, 0x1d, 0x91, 0x9b, 0x12, 0x15, 0xb0, 0x1a,
  0x38, 0x95, 0x8e, 0x18, 0xb4, 0x9d, 0xfa, 0x11, 0x18, 0x11, 0x17, 0x16,
  0x72, 0x9f, 0xc7, 0x15, 0x5b, 0x1d, 0x2e, 0x1f, 0x86, 0x1e, 0x84, 0x95,
  0xe7, 0x1b, 0x86, 0x1a, 0x5a, 0x19, 0x69, 0x85, 0x93, 0x12, 0x6f, 0x1b,
  0x8b, 0x9c, 0x61, 0x10, 0xc4, 0x17, 0x8c, 0x16, 0xba, 0x9a, 0x3b, 0x94,
  0x80, 0x1d, 0xe5, 0x1b, 0x7c, 0x1c, 0x5a, 0x20, 0x89, 0x99, 0x5a, 0x1d,
  0x26, 0x9c, 0xac, 0x1b, 0x4c, 0x99, 0x52, 0x0d, 0x95, 0x9c, 0xee, 0x94,
  0xdf, 0x10, 0xa5, 0x19, 0xde, 0x99, 0x39, 0x99, 0x36, 0x1d, 0xbc, 0x1f,
  0x19, 0x98, 0x65, 0x21, 0xd3, 0x97, 0xbc, 0x1f, 0x89, 0x99, 0x45, 0x0c,
  0x31, 0x8e, 0x3a, 0x99, 0x77, 0x9a, 0x20, 0x98, 0x72, 0x19, 0x78, 0x05,
  0x74, 0x94, 0xb1, 0x94, 0xd8, 0x1c, 0xee, 0x96, 0x83, 0x9d, 0xd6, 0x1c,
  0x4f, 0x18, 0xa3, 0x1d, 0x43, 0x96, 0x26, 0x1c, 0x4f, 0x93, 0x01, 0x19,
  0x7c, 0x9d, 0x8c, 0x19, 0x58, 0x19, 0xa6, 0x1d, 0x50, 0xa0, 0xf9, 0x14,
  0xa1, 0x20, 0x4b, 0x1f, 0xa8, 0x10, 0x02, 0x9a, 0xc1, 0x12, 0x2d, 0x1c,
  0x4b, 0x97, 0xbd, 0xa0, 0x5e, 0x90, 0xa0, 0x18, 0x1f, 0x90, 0x6b, 0x1e,
  0xfb, 0x1d, 0xfd, 0x1a, 0x6d, 0x9a, 0xff, 0x94, 0x3a, 0x1c, 0xb0, 0x0d,
  0x5d, 0x1d, 0x73, 0x96, 0x26, 0x17, 0x9e, 0x20, 0x24, 0x93, 0xd8, 0x9f,
  0x97, 0x19, 0x5a, 0x1a, 0x5d, 0x19, 0x0b, 0x19, 0xd2, 0x1d, 0x64, 0x99,
  0xca, 0x90, 0x93, 0x9f, 0xb6, 0x18, 0xfb, 0x1b, 0x1c, 0x0f, 0x60, 0xa0,
  0x13, 0x15, 0x23, 0x21, 0x56, 0x98, 0xca, 0x99, 0x70, 0x18, 0xef, 0x11,
  0x36, 0x15, 0xbe, 0x17, 0x20, 0x1c, 0x11, 0x9c, 0x34, 0x16, 0xbf, 0x12,
  0xad, 0x98, 0x33, 0x0c, 0xb8, 0x20, 0x6a, 0x19, 0x94, 0x18, 0x7c, 0x18,
  0xb0, 0x98, 0x92, 0x9b, 0xe9, 0x19, 0x11, 0x11, 0xbc, 0x90, 0x8a, 0x19,
  0xae, 0x1c, 0x4b, 0x19, 0xcf, 0x9a, 0x62, 0x19, 0x31, 0x18, 0x15, 0x1e,
  0x4c, 0x1e, 0xbe, 0x1b, 0x29, 0x1c, 0x1e, 0x0d, 0x29, 0x10, 0xe5, 0x0d,
  0x00, 0x1d, 0x1e, 0x94, 0xe0, 0x1a, 0x3b, 0x1b, 0x16, 0x1c, 0xec, 0x94,
  0xb7, 0x96, 0xab, 0x87, 0x10, 0x1d, 0x91, 0x15, 0x42, 0x99, 0xce, 0x1d,
  0xa7, 0x18, 0xe0, 0x11, 0x73, 0x90, 0x83, 0x14, 0xc9, 0x06, 0xbb, 0x00,
  0xc4, 0x9c, 0xb7, 0x1a, 0x5e, 0x15, 0xeb, 0x9a, 0xfa, 0x97, 0x3e, 0x18,
  0x46, 0x03, 0xbe, 0x1c, 0xd8, 0x9d, 0xb0, 0x20, 0x34, 0x1d, 0xf1, 0x16,
  0x0d, 0x94, 0xf3, 0x17, 0xa3, 0x95, 0x8e, 0x00, 0x53, 0x96, 0x89, 0x95,
  0x56, 0x90, 0x3f, 0x9c, 0xaa, 0x96, 0x1d, 0x1d, 0x03, 0x96, 0xd8, 0x1d,
  0x7e, 0x9c, 0x86, 0x18, 0x51, 0x14, 0x25, 0x9c, 0x8e, 0x8f, 0x04, 0x9d,
  0x2b, 0x17, 0xa7, 0x17, 0x31, 0x03, 0x69, 0x90, 0xae, 0x1d, 0x37, 0x9c,
  0x24, 0x95, 0xa3, 0x00, 0x57, 0x9a, 0xd5, 0x1a, 0xc0, 0x87, 0x80, 0x19,
  0x4a, 0x18, 0xee, 0xa0, 0x90, 0x1c, 0x8a, 0x1c, 0x06, 0x17, 0x83, 0x99,
  0xd0, 0x96, 0x7e, 0x87, 0xf3, 0x98, 0x4f, 0x09, 0x5a, 0x1f, 0x3a, 0x1a,
  0xe7, 0x1a, 0xf7, 0x20, 0xbf, 0x95, 0x6a, 0x9d, 0x33, 0x96, 0x23, 0xa0,
  0x9e, 0x8e, 0x31, 0x1f, 0x0f, 0x1d, 0x6c, 0x94, 0xb3, 0x8a, 0x9a, 0x9b,
  0x8b, 0x98, 0x7d, 0x9d, 0xa3, 0x1e, 0xb5, 0x99, 0x9d, 0x1a, 0x09, 0x1a,
  0x5c, 0x21, 0xaf, 0x9d, 0x52, 0x9f, 0x78, 0x1b, 0xa8, 0x1d, 0x26, 0x99,
  0x6c, 0x93, 0xac, 0x9d, 0x14, 0x14, 0x7e, 0x9a, 0xa8, 0x99, 0x5e, 0x9d,
  0x08, 0x21, 0x36, 0x98, 0x8c, 0x1d, 0xde, 0x98, 0xcf, 0x1d, 0x2c, 0x19,
  0x5b, 0x9a, 0x7f, 0x99, 0x26, 0x1d, 0x9d, 0x12, 0x69, 0x1b, 0x2c, 0x9e,
  0x9c, 0x0d, 0x28, 0x9a, 0xfa, 0x13, 0xdb, 0x9b, 0xc6, 0x1c, 0xa3, 0x9c,
  0xd1, 0x95, 0x3e, 0x1e, 0xb0, 0x1e, 0x06, 0x1d, 0x28, 0x15, 0x27, 0x95,
  0xce, 0x1f, 0xb8, 0x8c, 0x3a, 0x1a, 0x69, 0x1a, 0xd5, 0x1c, 0x4a, 0x97,
  0x51, 0x92, 0xb7, 0x9a, 0x2c, 0x1f, 0xeb, 0x98, 0x52, 0x1b, 0x80, 0x0c,
  0x3c, 0x12, 0xaa, 0x20, 0xda, 0x82, 0x56, 0x15, 0x34, 0x1c, 0x76, 0x9e,
  0x8f, 0x1a, 0x12, 0x90, 0x9b, 0x99, 0xe9, 0x8b, 0x65, 0x98, 0xab, 0x8e,
  0x9b, 0x22, 0xf7, 0x12, 0xc5, 0x9a, 0x2d, 0x1c, 0x49, 0xa0, 0x47, 0x19,
  0xe9, 0x15, 0x0f, 0x9a, 0x4d, 0x13, 0x7e, 0x92, 0xf8, 0x1a, 0x48, 0x94,
  0xea, 0x8c, 0x78, 0x13, 0xbc, 0x1d, 0x2d, 0x9b, 0xfe, 0x21, 0xc9, 0x15,
  0xef, 0x94, 0x1a, 0x92, 0x68, 0x94, 0x25, 0x98, 0x0e, 0x1d, 0x32, 0xa0,
  0x24, 0x9c, 0xa3, 0x17, 0xb9, 0x1a, 0x0b, 0x14, 0xac, 0x1e, 0x3d, 0x18,
  0x3f, 0x9a, 0xd3, 0x09, 0x5b, 0x1f, 0xa9, 0x14, 0xcc, 0x09, 0x63, 0x1c,
  0xce, 0x9a, 0xa9, 0x9f, 0x06, 0x16, 0xc6, 0x1a, 0xe3, 0x14, 0xc0, 0x1a,
  0x7e, 0x18, 0x75, 0x1a, 0x0e, 0x9a, 0x13, 0xa1, 0xdf, 0x91, 0x5b, 0x8c,
  0xef, 0x1b, 0x77, 0x20, 0xab, 0x99, 0xce, 0x1d, 0xa0, 0x1b, 0xb3, 0x9c,
  0x8d, 0x19, 0x40, 0x92, 0xe6, 0x14, 0x0f, 0x19, 0x87, 0x14, 0x14, 0x97,
  0x17, 0x9c, 0x78, 0x95, 0xda, 0x8e, 0x33, 0x9e, 0x2f, 0x1a, 0x3b, 0x16,
  0x9f, 0x13, 0x5d, 0x1f, 0x0d, 0x1b, 0x64, 0x0c, 0x3f, 0x1d, 0x76, 0x1e,
  0x63, 0x1e, 0xbb, 0x99, 0x1e, 0x19, 0x51, 0x9c, 0x11, 0x9e, 0xc2, 0x91,
  0x6f, 0x98, 0xb3, 0x14, 0xc7, 0x20, 0xb7, 0x9c, 0xf1, 0x11, 0x71, 0x1f,
  0x91, 0x1c, 0xb7, 0x19, 0x54, 0x16, 0xc1, 0x16, 0x61, 0x1b, 0x4c, 0x8a,
  0x74, 0x14, 0x72, 0x9d, 0x27, 0x9f, 0xcb, 0x9c, 0x90, 0x8f, 0x4d, 0x8f,
  0xe8, 0x19, 0x28, 0x16, 0x6b, 0x91, 0x60, 0x8d, 0xa5, 0x1b, 0x2c, 0x22,
  0x3e, 0x98, 0x8f, 0x1c, 0x52, 0x19, 0xdb, 0x15, 0xab, 0x8b, 0xb6, 0x17,
  0xef, 0x9b, 0xf3, 0x80, 0xa4, 0x1b, 0x21, 0x9a, 0x6a, 0x1a, 0x8b, 0x95,
  0xac, 0x1d, 0x11, 0x1e, 0x7a, 0x97, 0xcd, 0x11, 0x54, 0x93, 0x85, 0x18,
  0x02, 0x9b, 0x55, 0x18, 0xfd, 0x12, 0xea, 0x99, 0x85, 0x9d, 0x30, 0xa1,
  0x55, 0x98, 0x64, 0x97, 0x66, 0x14, 0x54, 0x1d, 0x66, 0x19, 0xfc, 0x93,
  0xd7, 0x9e, 0x56, 0x16, 0xf4, 0x1a, 0x2e, 0x18, 0xbc, 0x9e, 0x35, 0x0e,
  0x89, 0x98, 0x42, 0x19, 0xfd, 0x9a, 0x36, 0x9f, 0x74, 0xa2, 0x0d, 0x9c,
  0xca, 0x19, 0x1e, 0x18, 0xa8, 0x19, 0x4f, 0x16, 0x26, 0x9b, 0xaa, 0xa0,
  0x7e, 0x98, 0x15, 0x0c, 0x35, 0x9d, 0x7c, 0x98, 0x86, 0x96, 0xd2, 0x1d,
  0xe4, 0x9c, 0x7c, 0x98, 0xb2, 0x9d, 0xfc, 0x16, 0x62, 0x1a, 0x6e, 0x11,
  0x0a, 0x8e, 0xde, 0x17, 0x36, 0x17, 0xdb, 0x18, 0x67, 0x19, 0xb7, 0x99,
  0xe1, 0x9b, 0xd2, 0x1a, 0x82, 0x89, 0x76, 0x94, 0x75, 0x9f, 0x37, 0x92,
  0x72, 0xa0, 0xcb, 0x9b, 0x3d, 0x1a, 0xea, 0x1a, 0x73, 0x9f, 0x7e, 0x94,
  0x11, 0x1e, 0x9c, 0x17, 0x55, 0x1a, 0x5b, 0x1d, 0x04, 0x9d, 0x2e, 0x8b,
  0x4e, 0x0f, 0xb2, 0x14, 0x53, 0x9e, 0xb3, 0x9c, 0xc5, 0x99, 0x6d, 0x98,
  0xec, 0x17, 0xad, 0x12, 0xd9, 0x9c, 0xab, 0x9c, 0x43, 0x1a, 0x4e, 0x18,
  0xda, 0x19, 0x72, 0x10, 0x9d, 0x98, 0x0f, 0x10, 0x6d, 0x14, 0xb2, 0x1b,
  0xb2, 0x9d, 0x88, 0x9c, 0x6a, 0xa0, 0xa3, 0x98, 0xfe, 0x94, 0x1e, 0x1b,
  0xce, 0x9c, 0xb0, 0x9a, 0x68, 0x14, 0x11, 0x1e, 0x85, 0x9a, 0x7f, 0x0c,
  0xd1, 0x99, 0xf2, 0x9d, 0x80, 0x0d, 0x66, 0x12, 0xbd, 0xa1, 0x79, 0x9a,
  0x97, 0x9b, 0x9a, 0x18, 0xa8, 0x98, 0x35, 0x9c, 0x4e, 0x9d, 0x5d, 0xa0,
  0x2a, 0x12, 0x83, 0x9e, 0xfa, 0x9e, 0x2e, 0x93, 0xce, 0x9b, 0x1d, 0x9b,
  0x11, 0x20, 0xa2, 0x8d, 0x2e, 0x9b, 0x99, 0x14, 0x2b, 0x9c, 0x35, 0x9a,
  0x2d, 0x19, 0x21, 0x9e, 0x2f, 0x9d, 0x8b, 0x18, 0x64, 0x9a, 0x7d, 0x9a,
  0x06, 0x9f, 0xd4, 0x19, 0xf0, 0x8f, 0x48, 0x19, 0xb3, 0x1d, 0xa9, 0x81,
  0x85, 0x8d, 0x17, 0x1f, 0x34, 0x9c, 0x84, 0x19, 0x3d, 0x11, 0xdb, 0x9d,
  0x56, 0xa0, 0xb9, 0x9c, 0xce, 0x11, 0x0e, 0x94, 0xc9, 0x9b, 0xc6, 0x9c,
  0x20, 0x91, 0x11, 0x98, 0x90, 0x0f, 0xd2, 0xa0, 0xf0, 0x9e, 0x84, 0x1e,
  0xbc, 0x02, 0xd1, 0x18, 0x2d, 0x91, 0x66, 0x9d, 0x7d, 0xa0, 0x96, 0x9f,
  0xa3, 0x21, 0x7d, 0x99, 0x9f, 0x96, 0x9a, 0x94, 0x69, 0x1a, 0x53, 0x15,
  0x15, 0x12, 0x9e, 0x99, 0x9a, 0x15, 0x3d, 0x00, 0x96, 0x97, 0xd2, 0x1b,
  0x68, 0x15, 0xa6, 0x9a, 0x82, 0x9d, 0x52, 0x9e, 0x1b, 0x1e, 0xce, 0x8f,
  0x8d, 0x19, 0x32, 0x9c, 0xd7, 0x18, 0x38, 0x08, 0x86, 0x95, 0xd8, 0x9c,
  0x81, 0x99, 0xac, 0x94, 0x53, 0x9d, 0x63, 0x18, 0x1f, 0x0c, 0x13, 0x9f,
  0x57, 0x9b, 0x8a, 0x9c, 0x46, 0x1c, 0xbf, 0x17, 0x3c, 0x15, 0x51, 0x01,
  0x93, 0x9a, 0x85, 0x8b, 0x12, 0x1f, 0xd6, 0x18, 0xb3, 0x96, 0xe6, 0x97,
  0xb3, 0x1e, 0xd1, 0x19, 0xfc, 0x96, 0xfa, 0x9d, 0x23, 0xa1, 0x2f, 0x9e,
  0xb0, 0x94, 0xbc, 0x18, 0x33, 0x1a, 0x79, 0x16, 0x01, 0x1a, 0xc3, 0x10,
  0x03, 0x9c, 0x6e, 0x8e, 0x9c, 0x15, 0xb5, 0x9b, 0x4d, 0x20, 0x89, 0x1c,
  0xdc, 0x10, 0x68, 0x9d, 0x48, 0x1e, 0x8f, 0x9c, 0x41, 0x18, 0x82, 0x94,
  0xce, 0x1d, 0xdd, 0x99, 0x9f, 0x97, 0x75, 0x1b, 0x67, 0x9d, 0xa4, 0x19,
  0xbd, 0x1c, 0xd1, 0x9c, 0xca, 0x16, 0x47, 0x0f, 0x1a, 0x99, 0x61, 0xa0,
  0x7a, 0x9a, 0x81, 0x9e, 0xb7, 0x14, 0x50, 0x92, 0x95, 0x1f, 0x38, 0x19,
  0x2b, 0x20, 0x18, 0x1d, 0x96, 0xa1, 0xfb, 0x1c, 0x2c, 0x1c, 0xcb, 0x9c,
  0x06, 0x1d, 0xb3, 0x88, 0xa7, 0x93, 0x4e, 0x9d, 0x4d, 0x9f, 0xd9, 0x99,
  0xd3, 0x1c, 0x34, 0x92, 0x30, 0x1f, 0xf7, 0x95, 0x07, 0x1c, 0x2b, 0x1c,
  0x25, 0x9c, 0x90, 0x1e, 0x27, 0x23, 0xfa, 0x96, 0xc3, 0x1f, 0x9e, 0x9f,
  0x61, 0x0e, 0x06, 0xa0, 0xe7, 0x99, 0xd9, 0x9a, 0x30, 0x1c, 0xaf, 0x19,
  0x72, 0x20, 0x5b, 0x13, 0x35, 0x1a, 0xe0, 0x15, 0xf4, 0xa1, 0x91, 0x21,
  0xa2, 0x1d, 0xb1, 0x19, 0x49, 0x1e, 0x57, 0x97, 0x7f, 0x1a, 0x4b, 0x9c,
  0xfb, 0x9a, 0x02, 0x9a, 0xc1, 0x91, 0x3f, 0x1e, 0x80, 0x20, 0xf6, 0xa1,
  0x3f, 0x21, 0xe2, 0x0f, 0xdd, 0x9e, 0x0b, 0x1f, 0x51, 0x15, 0xa1, 0x14,
  0x5e, 0x15, 0x7c, 0x01, 0x38, 0x98, 0x03, 0x9f, 0x19, 0x9a, 0xd6, 0x9b,
  0xb3, 0x16, 0x68, 0x1b, 0xa0, 0x1c, 0x52, 0x98, 0x81, 0x1c, 0x99, 0x1b,
  0x84, 0xa3, 0x16, 0x20, 0x82, 0x18, 0x37, 0xa1, 0x00, 0x1a, 0x29, 0x19,
  0x5e, 0x05, 0x99, 0x96, 0x4b, 0x18, 0xbb, 0x9c, 0xff, 0x99, 0x5b, 0x1b,
  0x3a, 0x20, 0xf4, 0x91, 0xe6, 0x8d, 0x1e, 0x20, 0x4f, 0xa2, 0x5e, 0x1d,
  0x79, 0x16, 0x21, 0x95, 0x46, 0x15, 0x3c, 0x12, 0x6e, 0x98, 0x57, 0x1b,
  0x16, 0x1d, 0xc1, 0x94, 0x3e, 0x90, 0x06, 0x9f, 0x7f, 0x1c, 0x54, 0x16,
  0x38, 0x93, 0x63, 0x19, 0xf0, 0xa0, 0x23, 0x1d, 0x72, 0x0e, 0x9a, 0x96,
  0xae, 0x1c, 0x1f, 0x95, 0x86, 0x9f, 0x2c, 0x94, 0xb3, 0x20, 0xb7, 0x97,
  0xed, 0x12, 0x34, 0x9e, 0x01, 0x19, 0xab, 0x1c, 0x25, 0x13, 0x47, 0x9c,
  0xc2, 0x9f, 0xba, 0x1b, 0x52, 0x9c, 0xa1, 0x11, 0x0b, 0x9c, 0x90, 0x9a,
  0xc2, 0x9e, 0x54, 0x1a, 0x3c, 0x1a, 0x4c, 0x93, 0xcf, 0x18, 0x4a, 0x97,
  0xdd, 0x92, 0x41, 0x1c, 0xc5, 0x98, 0x97, 0x9c, 0x3c, 0x9c, 0xc2, 0x1f,
  0xc4, 0x94, 0xb1, 0x1c, 0xa5, 0x1b, 0x53, 0x12, 0xed, 0x18, 0xa2, 0x19,
  0xf0, 0x95, 0x43, 0x94, 0xcf, 0x1c, 0x5f, 0x08, 0x5b, 0x18, 0x81, 0x1b,
  0x7b, 0x9c, 0x2e, 0x96, 0x66, 0xa0, 0x11, 0x1c, 0x48, 0x96, 0xce, 0x93,
  0x65, 0x20, 0x96, 0x96, 0xbc, 0x9c, 0x79, 0x19, 0x27, 0x15, 0xf2, 0x99,
  0x75, 0x11, 0x9f, 0x1a, 0x49, 0x8a, 0xa2, 0x1f, 0x81, 0x88, 0x94, 0x9a,
  0x0c, 0xa1, 0x3d, 0x11, 0xba, 0x1e, 0x00, 0x9c, 0xfd, 0x1c, 0xa9, 0x9e,
  0xe8, 0x9d, 0x06, 0x20, 0xff, 0x0c, 0x9f, 0x9a, 0xe4, 0x95, 0x05, 0x1b,
  0x23, 0x19, 0x3e, 0x1f, 0x9b, 0x1e, 0x35, 0x94, 0x03, 0xa0, 0xc9, 0x20,
  0xab, 0x11, 0x5c, 0xa0, 0xc6, 0x94, 0x6f, 0x9f, 0xd8, 0xa2, 0x44, 0x1a,
  0xc2, 0x1a, 0xcc, 0x99, 0xa7, 0xa0, 0x76, 0x9b, 0xcd, 0x11, 0x0a, 0x19,
  0xcd, 0x1d, 0xa2, 0x9d, 0xff, 0x18, 0x97, 0x1b, 0x2c, 0x9d, 0x13, 0x98,
  0xd8, 0x1c, 0x8a, 0x98, 0xb8, 0xa1, 0xa1, 0x20, 0x7d, 0x1c, 0xc9, 0x1a,
  0x79, 0x9b, 0xc7, 0x9b, 0x20, 0x1b, 0x2b, 0x18, 0x95, 0x1b, 0x81, 0xa0,
  0xb5, 0x9c, 0xc5, 0x1d, 0xee, 0x16, 0x2c, 0x10, 0x7c, 0x1d, 0x3a, 0x9a,
  0xb3, 0xa0, 0x07, 0x1f, 0xa5, 0x17, 0x4d, 0x1c, 0x90, 0x90, 0x30, 0xa1,
  0x5f, 0x20, 0xf9, 0x19, 0x82, 0x9a, 0x09, 0xa3, 0x97, 0x99, 0x23, 0x1d,
  0x10, 0x99, 0xf8, 0x9b, 0x3b, 0x19, 0x55, 0x9a, 0x9d, 0x9c, 0x07, 0x20,
  0xdb, 0x88, 0x9b, 0x18, 0xed, 0x1f, 0x56, 0x9d, 0x9c, 0x1c, 0xf3, 0x18,
  0xf9, 0x09, 0x8d, 0xa1, 0x9b, 0x9c, 0xe8, 0x22, 0xe9, 0x18, 0xb9, 0x9d,
  0xdc, 0x99, 0x9d, 0x08, 0x65, 0x9c, 0xe3, 0x1d, 0x56, 0x17, 0x56, 0x1a,
  0xbb, 0x1f, 0xfa, 0x1d, 0x48, 0x18, 0xf6, 0x93, 0xb4, 0x19, 0x3f, 0x9d,
  0xe0, 0x9c, 0xc0, 0x0d, 0xb3, 0x90, 0x5e, 0x95, 0x24, 0x16, 0x92, 0x97,
  0xeb, 0xa0, 0x45, 0x21, 0xee, 0x99, 0x91, 0x19, 0x58, 0x1b, 0xf8, 0x1b,
  0xff, 0x1d, 0x32, 0x8e, 0x07, 0x1f, 0xd4, 0x9b, 0xbb, 0x9e, 0x01, 0x1e,
  0x26, 0x13, 0xc8, 0x16, 0xd9, 0x1a, 0x52, 0x96, 0xda, 0xa1, 0xad, 0x1d,
  0x6b, 0x9a, 0xdb, 0x99, 0x80, 0x9f, 0x15, 0x1f, 0xe7, 0x18, 0x35, 0x1b,
  0xd8, 0x8e, 0xfc, 0x9a, 0x7b, 0x9d, 0x8e, 0x1e, 0x37, 0x16, 0x6d, 0x1e,
  0xe4, 0x1a, 0xa6, 0x95, 0x71, 0xa1, 0xaf, 0x22, 0xd5, 0x97, 0xda, 0x18,
  0x0c, 0x98, 0xc6, 0x97, 0xa2, 0x1c, 0x1a, 0x0b, 0xf6, 0x9a, 0xcf, 0xa0,
  0x24, 0xa1, 0xc9, 0x1c, 0x1d, 0x94, 0x90, 0x19, 0xd3, 0x19, 0x47, 0x07,
  0x0e, 0xa3, 0x4b, 0x21, 0x82, 0x98, 0xe2, 0x9b, 0x9c, 0x9d, 0xa0, 0x9d,
  0x7f, 0x19, 0x2b, 0x14, 0x9e, 0x99, 0xc1, 0x94, 0xc7, 0x98, 0x04, 0x20,
  0x09, 0x17, 0x2f, 0x95, 0xa0, 0x1b, 0x08, 0x13, 0xce, 0x99, 0x05, 0x1c,
  0x31, 0x0d, 0x14, 0x0f, 0x79, 0xa1, 0x20, 0xa1, 0x67, 0x20, 0x77, 0x1a,
  0xbc, 0x15, 0x80, 0x9e, 0x23, 0x8f, 0xb2, 0x1f, 0x3c, 0x97, 0x72, 0x02,
  0x93, 0x9b, 0x15, 0x9e, 0xe9, 0x9d, 0xe0, 0x20, 0x73, 0x99, 0x99, 0x95,
  0x88, 0x91, 0x4a, 0x0c, 0xff, 0x21, 0x16, 0x1c, 0x9b, 0x89, 0x51, 0x9a,
  0x69, 0x99, 0x56, 0x19, 0xe9, 0x1d, 0x4e, 0x9c, 0x23, 0x9c, 0x97, 0x96,
  0x91, 0x9b, 0x2c, 0x1f, 0x4d, 0x9a, 0x1e, 0x92, 0x63, 0x1d, 0x7d, 0x08,
  0x0b, 0x22, 0x7b, 0x97, 0x35, 0x20, 0xf4, 0x96, 0xd7, 0x8b, 0xc0, 0x1f,
  0x5d, 0x1d, 0x5f, 0x9a, 0xe1, 0x96, 0x78, 0x9a, 0x06, 0xa0, 0xa4, 0x1b,
  0x2e, 0x9a, 0x3c, 0x93, 0xfb, 0x1c, 0xcc, 0x20, 0x31, 0x21, 0xbf, 0x17,
  0x4e, 0x18, 0x0a, 0x19, 0x7e, 0x86, 0x15, 0x20, 0x32, 0x1f, 0x80, 0x9e,
  0x01, 0xa0, 0xd1, 0x1e, 0x31, 0x9d, 0xd8, 0x14, 0xc1, 0x99, 0x8f, 0x18,
  0x5f, 0x19, 0xbf, 0x20, 0xa1, 0x1e, 0x61, 0x8f, 0xa7, 0x9a, 0x39, 0x93,
  0x37, 0x9c, 0x04, 0x1c, 0xac, 0x92, 0x9c, 0x9f, 0x7a, 0x9b, 0x5f, 0x98,
  0x63, 0x9b, 0x42, 0x1c, 0xb4, 0x0f, 0x73, 0x18, 0xed, 0x9f, 0x82, 0x1c,
  0x8f, 0x1d, 0x08, 0x93, 0x24, 0x96, 0x7c, 0x19, 0x2e, 0x9e, 0xa8, 0x1f,
  0x8a, 0x1e, 0x0c, 0x9d, 0xed, 0xa0, 0x61, 0x8b, 0x29, 0xa0, 0x22, 0x1d,
  0x4b, 0x9c, 0xa5, 0x15, 0x7b, 0x99, 0x65, 0x9b, 0xa9, 0x1f, 0x33, 0x9c,
  0x95, 0x1b, 0x15, 0x96, 0xf7, 0x94, 0x84, 0x1e, 0x63, 0x19, 0x14, 0xa0,
  0x6d, 0x9f, 0xfb, 0x20, 0xff, 0x9b, 0x9a, 0x1c, 0x90, 0x9a, 0x8c, 0x1d,
  0x46, 0x98, 0x2c, 0xa0, 0xc6, 0x20, 0x24, 0x9a, 0xd1, 0x20, 0x09, 0x9d,
  0x00, 0x9a, 0x21, 0x18, 0xd3, 0x99, 0x86, 0x9f, 0x75, 0xa2, 0x70, 0x19,
  0x5d, 0x9e, 0x36, 0x14, 0xb8, 0xa1, 0x9c, 0x92, 0x0e, 0x1c, 0x8f, 0xa1,
  0x7a, 0x1e, 0x40, 0x98, 0x99, 0x18, 0x11, 0x1f, 0x0b, 0x94, 0x7d, 0x12,
  0x2d, 0x19, 0x93, 0x9b, 0x59, 0x9d, 0x74, 0x19, 0x2e, 0x9c, 0x13, 0x9d,
  0xff, 0x9a, 0x28, 0x1d, 0x41, 0x17, 0xfb, 0x9a, 0x58, 0x8d, 0x73, 0x04,
  0x04, 0x1c, 0xc0, 0x9a, 0x45, 0x9c, 0xa1, 0x0f, 0x26, 0x19, 0xc1, 0x9c,
  0xab, 0x9f, 0xf1, 0x1b, 0xbe, 0xa0, 0x55, 0x1a, 0x46, 0x9d, 0x12, 0x20,
  0xc9, 0x1f, 0x0c, 0x1d, 0x2c, 0x1a, 0xc4, 0x1a, 0x15, 0x1d, 0x66, 0x9b,
  0x79, 0x9c, 0xc0, 0x99, 0x15, 0x11, 0x75, 0x9b, 0x38, 0xa0, 0x28, 0x15,
  0x4b, 0x98, 0xcb, 0x96, 0xd4, 0x9e, 0x91, 0x19, 0x6c, 0x1d, 0xc4, 0x1e,
  0x72, 0x19, 0x97, 0x20, 0xde, 0x9e, 0x60, 0x1e, 0x3b, 0x19, 0xd9, 0x95,
  0x81, 0x9c, 0xbd, 0x9d, 0xc5, 0x9e, 0x57, 0x1c, 0x1a, 0x9a, 0x5d, 0x19,
  0x1b, 0xa0, 0x05, 0x1a, 0xac, 0x16, 0x4f, 0x1d, 0x5f, 0x1f, 0xa9, 0x20,
  0x56, 0x03, 0x69, 0x1b, 0xd1, 0x9a, 0x04, 0x13, 0x70, 0x11, 0x4b, 0xa3,
  0x9a, 0x9f, 0x00, 0x1b, 0x29, 0x18, 0x94, 0x16, 0x16, 0xa1, 0xa5, 0x10,
  0x61, 0x1b, 0xa8, 0x9a, 0xa1, 0x1a, 0x9f, 0x21, 0x5d, 0x16, 0xd9, 0x15,
  0xf7, 0x0e, 0xa6, 0x19, 0x6a, 0x95, 0xfd, 0x9e, 0x2c, 0x9c, 0x94, 0x94,
  0xba, 0x1d, 0xb3, 0x9c, 0xa1, 0x9a, 0xa6, 0x1e, 0x63, 0x9f, 0xa4, 0x9d,
  0xf0, 0x1f, 0xbc, 0x1f, 0xa0, 0x1e, 0xea, 0x98, 0x1f, 0x04, 0x61, 0x99,
  0x44, 0x01, 0x74, 0x1c, 0xd0, 0x9c, 0xd0, 0x1a, 0xf5, 0x91, 0xc7, 0x15,
  0xe5, 0x99, 0x44, 0x1f, 0xec, 0x9e, 0x39, 0xa1, 0x26, 0x13, 0x85, 0x18,
  0x33, 0x19, 0x93, 0x98, 0xaf, 0x98, 0x5f, 0x13, 0x21, 0x91, 0x18, 0x9c,
  0x75, 0x9c, 0x95, 0x92, 0x37, 0x16, 0x2b, 0x9d, 0x36, 0x9a, 0x1b, 0x21,
  0x49, 0x9c, 0x8e, 0x9a, 0xd1, 0x20, 0xb2, 0x1f, 0x99, 0x1f, 0x82, 0x10,
  0xfd, 0x9b, 0xf0, 0x1c, 0x33, 0x03, 0x23, 0xa0, 0xcf, 0x97, 0x74, 0x12,
  0x17, 0x9d, 0xee, 0x9c, 0x40, 0x99, 0xe4, 0x20, 0x5c, 0x19, 0x37, 0x1a,
  0x49, 0x1c, 0xc9, 0x15, 0xcc, 0x18, 0x74, 0x97, 0x39, 0xa0, 0x84, 0x86,
  0x39, 0x15, 0xf4, 0x9c, 0xc4, 0x9d, 0xec, 0x1d, 0x27, 0x9c, 0x02, 0x98,
  0x44, 0x9d, 0xb2, 0x1e, 0x2c, 0x21, 0x7f, 0x21, 0xae, 0x1e, 0xb4, 0x95,
  0x44, 0x21, 0xf7, 0x19, 0x01, 0x9c, 0x56, 0x91, 0x83, 0x15, 0x54, 0x9e,
  0x55, 0x9e, 0x03, 0x15, 0x0a, 0x96, 0x1c, 0x9b, 0x02, 0x96, 0x75, 0x84,
  0x29, 0x1d, 0x52, 0x1f, 0x11, 0x1c, 0x39, 0x18, 0xdd, 0x1a, 0x87, 0x88,
  0xa8, 0x9e, 0x44, 0x0c, 0x62, 0x1a, 0xef, 0x9e, 0x8f, 0x9e, 0x20, 0x11,
  0x09, 0x16, 0x4b, 0x90, 0x1e, 0x9a, 0xc3, 0x94, 0x3f, 0x15, 0x0c, 0x1f,
  0x2d, 0x1c, 0x48, 0x92, 0xa0, 0x1f, 0x75, 0x96, 0xe0, 0x9f, 0xc5, 0x1b,
  0x1a, 0x1c, 0x32, 0x16, 0x5d, 0x9f, 0xdc, 0x13, 0x85, 0x18, 0xb2, 0x87,
  0x54, 0x9a, 0xd3, 0x1d, 0xcb, 0x9e, 0x92, 0x9f, 0x7b, 0x1f, 0x0f, 0x9b,
  0x2a, 0x03, 0xd8, 0x9a, 0xab, 0x9f, 0x11, 0x1c, 0xe7, 0x19, 0x34, 0x9e,
  0x26, 0x9d, 0x98, 0x16, 0xc8, 0x1e, 0x44, 0x9c, 0xb0, 0x14, 0xa0, 0x1b,
  0x7b, 0xa2, 0xdf, 0xa0, 0x0a, 0x1c, 0x98, 0x1e, 0xd2, 0x20, 0xdd, 0x19,
  0x63, 0x03, 0x4d, 0x21, 0xf5, 0x18, 0x1f, 0x9d, 0x0d, 0xa0, 0xe4, 0x10,
  0x40, 0x1d, 0xf8, 0x99, 0x1d, 0x9b, 0x51, 0x1a, 0x18, 0x8a, 0xc7, 0xa0,
  0xb7, 0x1a, 0x98, 0x1c, 0x1a, 0x20, 0x07, 0x21, 0x33, 0x99, 0xa2, 0x1d,
  0x75, 0x1b, 0xd1, 0x99, 0x72, 0x9f, 0x33, 0x0b, 0x00, 0x1d, 0x34, 0xa0,
  0xb8, 0x97, 0xd1, 0x1a, 0xe8, 0x9a, 0x15, 0x0e, 0x3b, 0x19, 0x4f, 0x8c,
  0xa4, 0x8e, 0xbb, 0x18, 0xed, 0x98, 0x9a, 0x20, 0x76, 0x99, 0x2f, 0x14,
  0xea, 0x9e, 0x68, 0x18, 0xa8, 0x1c, 0x1b, 0xa0, 0xb7, 0x8d, 0xd0, 0x8f,
  0x5d, 0x18, 0x72, 0x9d, 0x6d, 0x1e, 0xdb, 0x9d, 0x7c, 0x9a, 0xb6, 0x1f,
  0x68, 0x0f, 0x1d, 0x1e, 0xb7, 0x19, 0xef, 0x16, 0x1b, 0x9f, 0x23, 0x1e,
  0xab, 0x20, 0xfc, 0x11, 0xc8, 0x17, 0x15, 0x20, 0xb6, 0x23, 0x7b, 0x08,
  0x75, 0x17, 0x09, 0xa2, 0x44, 0x15, 0xb6, 0x1d, 0x65, 0x98, 0x53, 0x21,
  0x85, 0x1e, 0xb8, 0x12, 0x21, 0x9a, 0x8d, 0x90, 0x54, 0x1d, 0x1b, 0x9d,
  0xfa, 0x93, 0x58, 0x20, 0x55, 0x1b, 0x9e, 0x1b, 0x23, 0xa0, 0xa8, 0x1d,
  0x1b, 0x9c, 0x9d, 0x15, 0xf3, 0x18, 0x3f, 0x9a, 0x03, 0xa3, 0x60, 0x98,
  0xff, 0x19, 0xb2, 0x0e, 0x63, 0x1e, 0x6f, 0x91, 0x50, 0x9c, 0x91, 0x9e,
  0xaa, 0x0d, 0x4e, 0x10, 0x7f, 0xa0, 0xf2, 0x1f, 0x43, 0xa3, 0x38, 0x15,
  0xd4, 0x9b, 0xb1, 0xa0, 0xe2, 0x9f, 0x56, 0x98, 0xf1, 0x1b, 0xab, 0x16,
  0x7f, 0x20, 0x70, 0x12, 0xa0, 0x9e, 0x17, 0x9b, 0x17, 0x9f, 0xe4, 0xa3,
  0x7f, 0x91, 0xe2, 0x11, 0xb3, 0x1c, 0x39, 0x1f, 0xa2, 0x92, 0x94, 0x9c,
  0xc7, 0x9c, 0x8d, 0x99, 0xa2, 0x9b, 0xb1, 0x0d, 0x9b, 0x1f, 0xe2, 0x89,
  0x79, 0x98, 0x6b, 0x9e, 0x3a, 0xa1, 0xda, 0x9f, 0x58, 0x95, 0x70, 0x16,
  0xab, 0x15, 0x80, 0x9f, 0xc4, 0x9a, 0x72, 0x12, 0x91, 0x1e, 0x69, 0x9d,
  0xa5, 0x95, 0xdc, 0x10, 0xef, 0x1f, 0x30, 0x1c, 0x81, 0x9a, 0x87, 0x8a,
  0xec, 0x97, 0xf1, 0x95, 0x8a, 0x0d, 0x3c, 0x9a, 0xb1, 0x1f, 0x79, 0x9d,
  0xb8, 0x1b, 0x88, 0x18, 0x01, 0x18, 0xdf, 0x9c, 0x89, 0x8d, 0xda, 0x8d,
  0x89, 0x21, 0xff, 0x9d, 0xa3, 0x16, 0xd7, 0x9d, 0xaf, 0x94, 0x4d, 0x95,
  0x61, 0x8c, 0x74, 0x98, 0x6a, 0x22, 0x95, 0x94, 0x70, 0x93, 0x73, 0x9b,
  0x26, 0x0f, 0xaf, 0x97, 0x75, 0x9e, 0x1e, 0x0f, 0x06, 0x20, 0x31, 0x9b,
  0xb7, 0x90, 0x09, 0x08, 0xf1, 0x1f, 0xd0, 0x1c, 0x9d, 0x90, 0x65, 0x9b,
  0x41, 0x1b, 0xe7, 0x8d, 0xfc, 0x9c, 0xfe, 0x16, 0x31, 0x1d, 0xff, 0x9c,
  0x93, 0x98, 0x64, 0x1c, 0x79, 0x21, 0x7e, 0x98, 0x47, 0x9c, 0xcb, 0x98,
  0xf9, 0x20, 0x90, 0x1b, 0x59, 0x97, 0x98, 0x9e, 0xdb, 0x94, 0x2e, 0x21,
  0x61, 0x98, 0x55, 0x99, 0xc7, 0x20, 0x3d, 0x9d, 0x9c, 0x9e, 0xf3, 0x17,
  0x19, 0x1f, 0x1e, 0x9b, 0x97, 0x8d, 0x4a, 0x9f, 0x84, 0x12, 0x86, 0x20,
  0xc5, 0x9b, 0xc3, 0x9d, 0x21, 0x15, 0x65, 0x1d, 0x48, 0x9c, 0x27, 0x8e,
  0x07, 0x1d, 0xd8, 0x9d, 0x09, 0x9b, 0x7f, 0x8e, 0x9c, 0x20, 0x2e, 0x93,
  0x99, 0x08, 0x1e, 0x99, 0x70, 0xa2, 0xa7, 0x1c, 0x1e, 0x8b, 0x22, 0xa3,
  0xd1, 0x1c, 0x27, 0x1c, 0x25, 0x9c, 0xd6, 0x89, 0x5e, 0x15, 0xfe, 0x9a,
  0xdf, 0x9b, 0x8e, 0x9a, 0xc8, 0x1e, 0x88, 0x9d, 0xf9, 0x17, 0x70, 0xa0,
  0x24, 0xa1, 0xd1, 0xa1, 0xa9, 0x9c, 0x4a, 0xa1, 0x72, 0x20, 0x58, 0x97,
  0xb5, 0x9f, 0xdb, 0x1e, 0x68, 0x1f, 0x28, 0x97, 0xba, 0x9f, 0x8f, 0x9a,
  0x41, 0x21, 0x86, 0x9f, 0xea, 0x92, 0x2a, 0x9d, 0x6b, 0x0d, 0x66, 0x9c,
  0x44, 0x9a, 0x79, 0xa1, 0x15, 0x20, 0x1f, 0x9d, 0x26, 0x9e, 0xa9, 0x10,
  0xaa, 0x1e, 0x01, 0x9c, 0x85, 0x9c, 0x4a, 0x0b, 0x03, 0x20, 0x6a, 0x9d,
  0x8d, 0x95, 0xd9, 0x9a, 0xac, 0x9b, 0xb0, 0x9f, 0xd4, 0x9e, 0x62, 0xa1,
  0x15, 0x1f, 0x63, 0x9d, 0xe9, 0x9c, 0x9f, 0x91, 0xa1, 0x20, 0x75, 0x9e,
  0xcd, 0x9d, 0x7b, 0x1c, 0xf5, 0x98, 0x8f, 0x9e, 0xdc, 0x1c, 0x67, 0x9a,
  0xdf, 0x1f, 0x12, 0x98, 0xca, 0x9d, 0x7a, 0x9a, 0x18, 0x99, 0xe5, 0x1c,
  0xfe, 0x9d, 0x73, 0x1a, 0xaf, 0x1e, 0x57, 0x9c, 0x9d, 0x9f, 0x03, 0x17,
  0x73, 0x8a, 0x26, 0x9c, 0x5a, 0x12, 0x90, 0x99, 0xcc, 0x1f, 0xaf, 0x18,
  0x59, 0x97, 0xc6, 0x0d, 0x35, 0x1d, 0x81, 0x1e, 0x98, 0x9c, 0xe3, 0x0a,
  0x84, 0x94, 0xc5, 0x9d, 0xea, 0x98, 0x9c, 0x8c, 0x7c, 0x14, 0x9a, 0x9c,
  0x1b, 0x1a, 0x53, 0x97, 0xc5, 0x1c, 0xf5, 0x1e, 0x44, 0x17, 0x4c, 0x1d,
  0x95, 0x8c, 0x33, 0x1d, 0x04, 0x9d, 0xb2, 0x98, 0x79, 0x1b, 0x5b, 0x95,
  0xd4, 0x9c, 0x4a, 0x96, 0x14, 0x0f, 0xbb, 0x0e, 0xca, 0x18, 0x02, 0x9a,
  0xbc, 0x17, 0x06, 0x20, 0x0e, 0x13, 0xea, 0x97, 0x64, 0x1c, 0xbc, 0x17,
  0xef, 0x9e, 0x98, 0x11, 0x41, 0x14, 0x2a, 0x92, 0xde, 0x9f, 0xf1, 0x9d,
  0xb6, 0x9a, 0x7f, 0x9e, 0xed, 0x1d, 0x06, 0x9a, 0x49, 0x9a, 0xc9, 0x9f,
  0xa9, 0x9a, 0xc2, 0x1e, 0x82, 0x1f, 0x4d, 0x1d, 0x00, 0x9d, 0xcf, 0x1f,
  0xb2, 0x9c, 0x4b, 0x13, 0x51, 0x11, 0x64, 0x9c, 0x8a, 0x08, 0xfc, 0x9b,
  0x6f, 0x1c, 0x86, 0x9c, 0xae, 0x9d, 0x32, 0xa0, 0x8a, 0xa0, 0x39, 0x20,
  0x59, 0x98, 0xa3, 0x1c, 0x8e, 0x9f, 0xb9, 0x16, 0x1c, 0x9c, 0x44, 0x8f,
  0x27, 0x9a, 0xa8, 0x98, 0x4c, 0x98, 0xd5, 0x97, 0x9d, 0x14, 0x27, 0x9a,
  0x8e, 0x9d, 0xb9, 0xa1, 0x57, 0x9c, 0x17, 0x1f, 0x92, 0x19, 0x6b, 0x19,
  0xad, 0x8a, 0x9f, 0x1d, 0xf4, 0x9f, 0x61, 0x0e, 0xa9, 0x17, 0xab, 0x9e,
  0x1a, 0x9f, 0x72, 0x9d, 0x28, 0x06, 0x22, 0x9f, 0xae, 0x83, 0x69, 0x9a,
  0x49, 0x9c, 0x07, 0x20, 0x3f, 0x9c, 0xa4, 0x9d, 0x51, 0x10, 0xbb, 0x1d,
  0x3f, 0x9c, 0x31, 0x0c, 0x5e, 0x17, 0x1f, 0x9d, 0xf9, 0xa0, 0x64, 0x98,
  0x03, 0x1f, 0xd3, 0x9c, 0x6b, 0x1f, 0x83, 0x93, 0xb5, 0x9f, 0xe0, 0x94,
  0x47, 0x9d, 0xe7, 0x92, 0x1d, 0x96, 0xda, 0x1c, 0x53, 0xa0, 0xd1, 0x17,
  0xbb, 0x96, 0x41, 0x94, 0x37, 0xa0, 0x2a, 0x9d, 0xab, 0x16, 0x07, 0x8b,
  0x2e, 0x1c, 0x3a, 0x1d, 0xef, 0x9f, 0x35, 0x12, 0xf7, 0xa1, 0xb4, 0x1d,
  0x1c, 0x81, 0xf6, 0x0e, 0xe8, 0xa0, 0x48, 0x8d, 0x9a, 0x15, 0x6d, 0xa1,
  0x9e, 0x9e, 0x12, 0x14, 0xae, 0x95, 0xc7, 0x96, 0x76, 0x1c, 0x6e, 0x1d,
  0x29, 0x9d, 0x7f, 0x1b, 0xfe, 0xa2, 0x09, 0x1d, 0x01, 0x93, 0x4a, 0x14,
  0x0a, 0x9f, 0x57, 0x9c, 0x2d, 0x9d, 0x9b, 0xa0, 0xd8, 0xa1, 0xa9, 0x9c,
  0x09, 0x1f, 0x24, 0x18, 0x35, 0x8c, 0x83, 0x22, 0x90, 0x0e, 0x12, 0x9b,
  0x9a, 0xa1, 0x5f, 0x9c, 0x71, 0x94, 0x05, 0x19, 0xff, 0x9a, 0x8b, 0x16,
  0x70, 0x1b, 0x79, 0xa0, 0x0d, 0xa1, 0xb3, 0x0b, 0xc6, 0x1c, 0x14, 0x90,
  0xdf, 0x1e, 0x93, 0x0a, 0x08, 0x8d, 0x00, 0x9f, 0x72, 0x95, 0xfe, 0x9e,
  0xa0, 0x0c, 0x9d, 0x17, 0x3c, 0xa0, 0x40, 0x9a, 0x67, 0x0c, 0x8a, 0xa0,
  0x27, 0xa1, 0xf9, 0x9c, 0xbe, 0x0e, 0xd2, 0x9c, 0x73, 0x9e, 0x7e, 0x9d,
  0xff, 0x15, 0x64, 0x9c, 0x40, 0x9f, 0xff, 0x9e, 0x84, 0x18, 0x3c, 0x1c,
  0x6d, 0x9d, 0x76, 0x96, 0x56, 0x1b, 0xda, 0xa0, 0x0a, 0xa1, 0xa7, 0x9d,
  0x5e, 0x1d, 0x6f, 0x1a, 0x04, 0x98, 0x17, 0x0f, 0xf3, 0x16, 0x19, 0x9a,
  0x53, 0x99, 0x98, 0x9e, 0x92, 0x16, 0x84, 0x19, 0x09, 0xa2, 0xaf, 0xa1,
  0x3f, 0x99, 0x02, 0x9e, 0x54, 0x9f, 0xdc, 0x97, 0xc8, 0x20, 0xbc, 0x96,
  0xef, 0x97, 0xb9, 0x9a, 0x18, 0x89, 0x19, 0x9f, 0x53, 0xa1, 0x45, 0x9a,
  0x24, 0x9f, 0x75, 0x0d, 0x37, 0xa1, 0x44, 0xa1, 0x9c, 0x9c, 0xbb, 0x9f,
  0x34, 0x9f, 0x91, 0x94, 0xa3, 0x20, 0x2c, 0x98, 0x70, 0x14, 0x89, 0x0d,
  0xf1, 0x94, 0x2a, 0xa1, 0x7c, 0x9d, 0x37, 0x13, 0xbb, 0x99, 0x09, 0x92,
  0x53, 0x98, 0xb4, 0x8b, 0x44, 0x13, 0xa0, 0x96, 0x53, 0x9f, 0xa9, 0x18,
  0x82, 0x20, 0xb1, 0x82, 0x6e, 0x10, 0x06, 0x1f, 0x80, 0x13, 0xd0, 0x9e,
  0x17, 0x94, 0xcd, 0x9e, 0x79, 0x10, 0x3a, 0x9a, 0x9f, 0x13, 0xd4, 0x9a,
  0x7a, 0x9d, 0x61, 0xa0, 0xc6, 0x9c, 0x7b, 0x15, 0xf7, 0x1f, 0xb9, 0x95,
  0xc2, 0x1a, 0xe1, 0x1d, 0xc9, 0x98, 0x91, 0xa1, 0x46, 0x96, 0x07, 0x9f,
  0xd3, 0x99, 0x26, 0x9c, 0x62, 0x1c, 0x0a, 0x9a, 0x0e, 0x8e, 0x93, 0xa0,
  0xc9, 0x9e, 0xdd, 0x94, 0x6e, 0x1e, 0x30, 0x12, 0x10, 0x1e, 0xb2, 0x1a,
  0x06, 0x14, 0xb5, 0x9e, 0xea, 0x8c, 0xf9, 0x9d, 0xd9, 0x9d, 0xf3, 0x9d,
  0xb6, 0x99, 0x56, 0xa0, 0xb2, 0x1b, 0x78, 0x9d, 0xc9, 0x9a, 0x78, 0x16,
  0x73, 0x16, 0x70, 0x99, 0xb1, 0x93, 0xbf, 0x9e, 0x4b, 0x95, 0x29, 0xa0,
  0x26, 0xa0, 0x07, 0x18, 0xdf, 0xa0, 0x27, 0xa0, 0xf8, 0x1d, 0x28, 0x9c,
  0x4d, 0x95, 0x48, 0xa1, 0xef, 0x95, 0x03, 0x14, 0xe0, 0x1d, 0xe9, 0x1c,
  0x0c, 0x9c, 0xfc, 0x9f, 0xc4, 0x9e, 0x86, 0x99, 0x17, 0x9f, 0x90, 0x1f,
  0xaa, 0x96, 0xbf, 0x99, 0xde, 0x99, 0x2a, 0x9c, 0x56, 0x9b, 0x66, 0x9d,
  0xb1, 0x94, 0xca, 0x97, 0x73, 0x1e, 0x69, 0x98, 0x2b, 0xa0, 0x4c, 0x9b,
  0x9f, 0x95, 0x7e, 0x0b, 0x0a, 0x1f, 0x9c, 0x17, 0x31, 0x99, 0x18, 0x99,
  0xe4, 0x18, 0xed, 0x9c, 0xc2, 0x9c, 0xe1, 0x9b, 0xdf, 0x10, 0x7f, 0x1e,
  0x0c, 0x20, 0xcb, 0x9c, 0x5a, 0x9c, 0x9c, 0x95, 0x40, 0x9b, 0xb3, 0x1c,
  0xdd, 0x18, 0x64, 0x91, 0x54, 0x98, 0x70, 0x9a, 0x02, 0x20, 0x60, 0x99,
  0x28, 0x9e, 0xd4, 0x9e, 0x5d, 0x95, 0x7d, 0x13, 0x44, 0x1e, 0x2a, 0x9d,
  0x0e, 0x91, 0x7c, 0x1c, 0x34, 0x92, 0x16, 0x1c, 0xee, 0x9b, 0xa0, 0x9c,
  0xb3, 0x1c, 0x4a, 0x99, 0x15, 0x9e, 0x9e, 0x9c, 0xbb, 0xa0, 0xc1, 0x8e,
  0x5f, 0x9a, 0x95, 0x19, 0x31, 0x18, 0xe5, 0x98, 0xa8, 0x1f, 0x99, 0x1f,
  0xf8, 0x0f, 0x6e, 0x1e, 0xa3, 0x9a, 0xd7, 0x88, 0xce, 0x1e, 0x1a, 0x9e,
  0x81, 0x96, 0xec, 0xa2, 0x02, 0xa1, 0xda, 0x99, 0x61, 0x9a, 0x9d, 0x1e,
  0x32, 0x18, 0xd5, 0x92, 0xfe, 0x1e, 0x41, 0x13, 0x4f, 0x1d, 0x87, 0x1d,
  0x6e, 0xa0, 0x31, 0x9a, 0x1a, 0x1e, 0xb9, 0x17, 0x18, 0x8d, 0x4e, 0x94,
  0x5a, 0x9f, 0xdc, 0x9c, 0x13, 0x07, 0x02, 0x16, 0x89, 0x8f, 0x43, 0x9a,
  0x97, 0x1a, 0xa0, 0xa0, 0xff, 0x9e, 0x29, 0x1d, 0x72, 0x9c, 0x26, 0x9d,
  0x5a, 0x20, 0x87, 0x98, 0x2c, 0x18, 0x02, 0x98, 0x58, 0xa0, 0x2c, 0x8f,
  0xc9, 0x15, 0x59, 0x1d, 0x84, 0x9a, 0x4a, 0x1b, 0x15, 0x9b, 0xae, 0x9d,
  0x0e, 0x0a, 0x21, 0x8e, 0x7f, 0x99, 0x4a, 0x80, 0xa0, 0x95, 0x24, 0x9f,
  0x42, 0x99, 0x79, 0x9d, 0x9f, 0x9e, 0x65, 0x0f, 0x6d, 0x1f, 0x2b, 0x13,
  0x32, 0x9f, 0xaa, 0x92, 0x57, 0x9c, 0x9e, 0x98, 0x59, 0x13, 0xff, 0x19,
  0x12, 0x16, 0x6e, 0x1b, 0x5f, 0x19, 0x60, 0xa1, 0x6a, 0x19, 0xe3, 0x98,
  0xe5, 0x9c, 0xb0, 0x1b, 0x1b, 0x1c, 0xb8, 0x15, 0x56, 0x9c, 0xcc, 0x1a,
  0x4e, 0x9f, 0x76, 0x87, 0x42, 0x1a, 0x76, 0x1b, 0xd9, 0x1c, 0xd5, 0x1d,
  0x66, 0x1c, 0xae, 0x9e, 0xf4, 0x95, 0xf2, 0x99, 0x8a, 0x0f, 0x2d, 0x8d,
  0x55, 0x18, 0x63, 0x17, 0x1a, 0x9e, 0xe6, 0x91, 0x6c, 0x9c, 0x0a, 0x97,
  0x08, 0x8c, 0x2a, 0x95, 0x4f, 0x1d, 0xab, 0x9b, 0xd1, 0x19, 0x6f, 0x9c,
  0xe1, 0x95, 0x7c, 0x9d, 0xa3, 0x99, 0x05, 0x9a, 0x1b, 0x1d, 0xd3, 0x98,
  0x03, 0xa0, 0x9f, 0x18, 0xae, 0x0c, 0xb1, 0x1a, 0x6c, 0x99, 0x59, 0x1b,
  0x16, 0x20, 0x7a, 0x11, 0x78, 0x98, 0x96, 0xa1, 0x62, 0x98, 0x31, 0x9b,
  0x01, 0x97, 0x03, 0x91, 0xc9, 0x1b, 0x15, 0x1e, 0x45, 0xa0, 0x6c, 0x1d,
  0x85, 0x8c, 0x9b, 0x95, 0x34, 0x10, 0x2c, 0x98, 0x91, 0x9c, 0x48, 0x13,
  0xa0, 0x19, 0xf0, 0xa1, 0xb3, 0x98, 0x19, 0x9e, 0xc6, 0x96, 0x58, 0x1b,
  0xaf, 0x1b, 0xe1, 0x1d, 0x4a, 0xa2, 0x99, 0x1f, 0x99, 0x96, 0x4f, 0x0a,
  0xb3, 0x1b, 0x2e, 0x9c, 0xb6, 0x9c, 0x23, 0x93, 0xdb, 0x99, 0xd5, 0x9f,
  0xdf, 0x19, 0x71, 0x9d, 0x7f, 0x99, 0xcd, 0x80, 0x94, 0x1b, 0xf5, 0x1e,
  0x63, 0x99, 0x6b, 0x1d, 0x1f, 0x8d, 0x57, 0x1b, 0x8e, 0x1e, 0xc9, 0x9c,
  0x81, 0x99, 0xb1, 0x8d, 0x0b, 0x14, 0x8f, 0x9f, 0xa0, 0x9a, 0x1d, 0x9a,
  0x12, 0x9e, 0x16, 0x94, 0x12, 0x14, 0x23, 0x1c, 0x63, 0xa2, 0xc4, 0x1c,
  0x8a, 0x0f, 0x5a, 0x9b, 0x10, 0x98, 0xe0, 0x9e, 0xfb, 0x1d, 0x37, 0x91,
  0xbd, 0x11, 0x31, 0xa0, 0xc0, 0x13, 0xf3, 0x9c, 0x43, 0x95, 0x35, 0x86,
  0x0e, 0x19, 0xfa, 0x1a, 0x7f, 0xa1, 0x73, 0x90, 0xad, 0x95, 0x44, 0x94,
  0x52, 0x98, 0xf6, 0x95, 0x16, 0x0a, 0x9a, 0x16, 0xd1, 0x97, 0x0e, 0xa0,
  0x0d, 0x17, 0x58, 0x97, 0xa6, 0x0c, 0x93, 0x18, 0x95, 0x1c, 0x06, 0x1a,
  0xa7, 0xa2, 0xa5, 0x16, 0x72, 0x18, 0xce, 0x98, 0x14, 0x96, 0x10, 0x99,
  0xdd, 0x1a, 0xbd, 0x1b, 0x86, 0x93, 0x6a, 0x9c, 0x38, 0x93, 0x57, 0x99,
  0x02, 0x93, 0x79, 0x19, 0x40, 0x1e, 0xd0, 0x17, 0xe9, 0x9f, 0x57, 0x19,
  0xa7, 0x94, 0x06, 0x10, 0x35, 0x14, 0xee, 0x17, 0xd9, 0x9a, 0xd8, 0x1b,
  0x9f, 0x0d, 0x2b, 0x9e, 0x76, 0x14, 0x58, 0x94, 0xfe, 0x95, 0xc7, 0x10,
  0x12, 0x15, 0xc6, 0x1c, 0xc4, 0xa0, 0x05, 0x9a, 0xc8, 0x1b, 0x7a, 0x1d,
  0xb4, 0x14, 0xfb, 0x17, 0x4f, 0xa0, 0x83, 0x15, 0x43, 0x1c, 0x49, 0x9d,
  0xaa, 0x15, 0x51, 0x9d, 0x74, 0x1c, 0x19, 0x1b, 0x3e, 0x14, 0x78, 0x96,
  0xd6, 0x9f, 0x9d, 0x88, 0xf3, 0x1b, 0x1b, 0x1c, 0x1b, 0xa2, 0x48, 0x10,
  0x68, 0x16, 0x8f, 0x1c, 0x8e, 0x94, 0x11, 0xa2, 0x01, 0xa0, 0x92, 0x9a,
  0x1d, 0x17, 0xa6, 0x18, 0x3a, 0x1a, 0x92, 0x10, 0x99, 0x9d, 0xdc, 0x93,
  0x7c, 0x01, 0xa7, 0x16, 0xb2, 0x1c, 0xda, 0x8f, 0x5b, 0x1d, 0xf1, 0x9e,
  0x8a, 0x1a, 0xc1, 0x9d, 0x41, 0x9e, 0xcd, 0x94, 0xd9, 0x1c, 0x88, 0x1a,
  0x55, 0x1f, 0x1f, 0x14, 0x06, 0xa0, 0x5e, 0x1b, 0x32, 0x9d, 0x17, 0x1c,
  0x55, 0x19, 0x8f, 0x1d, 0x81, 0x8d, 0x16, 0x9c, 0xfd, 0x17, 0xfb, 0xa1,
  0xf5, 0x9d, 0x53, 0x9c, 0xe8, 0x94, 0x01, 0x17, 0x5f, 0x17, 0x76, 0x13,
  0x25, 0x9b, 0x3a, 0x16, 0x46, 0x95, 0xb2, 0xa1, 0xa5, 0x16, 0x41, 0x1f,
  0x50, 0x0d, 0x25, 0x90, 0xc0, 0x17, 0x4d, 0xa0, 0x0e, 0x16, 0x2c, 0x98,
  0x58, 0x9c, 0x69, 0x0e, 0xc7, 0x18, 0xd1, 0x0c, 0x24, 0x9f, 0x93, 0x1d,
  0x81, 0x1b, 0x9a, 0x9d, 0xf5, 0x18, 0x25, 0x20, 0xa8, 0x99, 0x4b, 0x9d,
  0xb5, 0x20, 0xd6, 0x9c, 0x07, 0x90, 0xf1, 0x18, 0xaa, 0x0c, 0x24, 0x1d,
  0x9b, 0x09, 0xbc, 0x9c, 0x6f, 0x98, 0x32, 0x19, 0x95, 0x92, 0x3a, 0x95,
  0xf8, 0x9c, 0x83, 0x9b, 0x86, 0x1b, 0x9d, 0x8a, 0x26, 0x1c, 0x21, 0x16,
  0x88, 0x96, 0x96, 0x89, 0x94, 0x14, 0x1a, 0x94, 0xca, 0x8e, 0xcf, 0x96,
  0x5f, 0xa0, 0x9b, 0x1c, 0x38, 0x93, 0x28, 0x10, 0x8d, 0x15, 0x0b, 0x98,
  0x77, 0x20, 0xbd, 0x99, 0x93, 0x0f, 0x14, 0x9b, 0x2c, 0x1b, 0x6d, 0x1d,
  0x4c, 0x1c, 0xc7, 0x94, 0xfd, 0x1b, 0xb7, 0x88, 0xf1, 0x9e, 0x75, 0x1a,
  0x5f, 0x1d, 0x4e, 0x15, 0xd3, 0x86, 0x4c, 0x12, 0x70, 0x1d, 0xe0, 0x9c,
  0x6d, 0x9d, 0xda, 0x12, 0xf5, 0x1c, 0x41, 0x1c, 0x32, 0x19, 0xe5, 0x15,
  0x07, 0x92, 0x8f, 0x9c, 0xc5, 0x9e, 0x69, 0x8c, 0x4f, 0x9b, 0xb5, 0x15,
  0xc2, 0x9c, 0xed, 0x10, 0x5f, 0x94, 0x04, 0x9f, 0xc0, 0x1c, 0x6f, 0x8e,
  0x22, 0x1d, 0xb2, 0x19, 0x86, 0x1b, 0x1b, 0x17, 0xd5, 0x98, 0xc4, 0x99,
  0x4f, 0x9a, 0x32, 0x95, 0xb7, 0x9e, 0x01, 0x93, 0x7a, 0x9c, 0x3a, 0x9a,
  0xf7, 0x92, 0x57, 0x9d, 0x51, 0x9a, 0xc8, 0x97, 0x08, 0x1d, 0xee, 0x13,
  0x5b, 0x8f, 0xe7, 0x0b, 0x69, 0x9c, 0xd1, 0x90, 0x1d, 0x9c, 0xb5, 0x14,
  0xe0, 0x9c, 0xa3, 0xa0, 0xee, 0x18, 0xa0, 0x9d, 0x02, 0x1e, 0x91, 0x9f,
  0xc4, 0x15, 0x67, 0x14, 0x9e, 0x1e, 0x91, 0x1b, 0x1c, 0x18, 0x48, 0x15,
  0xb7, 0x9a, 0x9c, 0x1a, 0xe8, 0x98, 0x96, 0x95, 0xa3, 0x1f, 0x9f, 0xa1,
  0x25, 0x19, 0xd7, 0xa1, 0xf7, 0x16, 0x3c, 0x90, 0xd2, 0x1a, 0x69, 0x1d,
  0x8e, 0x1a, 0x20, 0x1b, 0x3e, 0x93, 0x45, 0x19, 0x3f, 0x92, 0x55, 0x18,
  0xce, 0x98, 0x6d, 0x1d, 0x6c, 0x1d, 0x3d, 0xa0, 0xea, 0x9a, 0xf7, 0xa0,
  0xfa, 0x18, 0x04, 0x9d, 0xf6, 0x18, 0xce, 0x96, 0xd0, 0x1f, 0x8f, 0x94,
  0x85, 0x99, 0x83, 0x9a, 0xa9, 0x1c, 0x83, 0x99, 0x20, 0x9d, 0xd3, 0x9c,
  0x0b, 0x12, 0x20, 0x1b, 0xb0, 0x92, 0x5f, 0x9e, 0x30, 0x17, 0x11, 0x1f,
  0x95, 0x19, 0x4f, 0x96, 0x78, 0x1a, 0x1b, 0x9d, 0x22, 0x98, 0xd9, 0x94,
  0x2a, 0x11, 0x8f, 0x17, 0xa3, 0x96, 0xfd, 0x1d, 0xde, 0x9e, 0x3f, 0x12,
  0xaa, 0x11, 0xc5, 0x9f, 0xb1, 0x19, 0xd7, 0x1d, 0x8e, 0x93, 0xc6, 0x96,
  0x3a, 0x15, 0x40, 0x98, 0xd1, 0x9c, 0x92, 0x19, 0x10, 0x8d, 0x26, 0x1c,
  0xb1, 0x84, 0x2d, 0x94, 0x98, 0x95, 0xe5, 0x20, 0xf8, 0x02, 0xac, 0xa0,
  0x25, 0x1d, 0x4e, 0x1c, 0x2e, 0x15, 0xc7, 0x15, 0xc5, 0x0f, 0xe8, 0x9a,
  0x05, 0x9c, 0x42, 0x1b, 0xf2, 0x90, 0x0a, 0x9c, 0xe8, 0x1d, 0x58, 0x19,
  0x46, 0x9f, 0xb0, 0x95, 0x42, 0x90, 0x50, 0x99, 0xf8, 0x19, 0x50, 0x1b,
  0x60, 0x1a, 0x60, 0x16, 0x6d, 0x15, 0x8a, 0x9c, 0x7d, 0x9d, 0x07, 0x9b,
  0xb2, 0x18, 0x9a, 0x9d, 0x4d, 0x0f, 0xb3, 0x99, 0xfa, 0x9e, 0x71, 0x9d,
  0x03, 0xa0, 0x9c, 0x90, 0x33, 0x19, 0x14, 0x06, 0xfe, 0x98, 0xfd, 0x1c,
  0x45, 0x9c, 0x16, 0xa0, 0x1a, 0x9e, 0x9b, 0x93, 0x02, 0x14, 0x3c, 0x9b,
  0x15, 0x95, 0x16, 0x15, 0x34, 0x19, 0xc7, 0x9d, 0xe3, 0x97, 0xe4, 0x91,
  0xec, 0x10, 0x70, 0x14, 0x0f, 0x16, 0x63, 0x17, 0x8f, 0x19, 0x2e, 0x9d,
  0x0d, 0x9b, 0x33, 0x90, 0x93, 0x14, 0x52, 0x97, 0x43, 0x18, 0x2d, 0x97,
  0x65, 0x20, 0xd9, 0xa0, 0x13, 0x9e, 0xcc, 0x01, 0xb6, 0x86, 0xd6, 0x1a,
  0x36, 0x18, 0x63, 0x13, 0x49, 0x90, 0xd8, 0x97, 0x53, 0x9c, 0x97, 0x17,
  0xc6, 0x18, 0xa4, 0x9d, 0x40, 0x1b, 0x61, 0x98, 0xe0, 0x1c, 0x33, 0x9c,
  0xc4, 0x98, 0x92, 0x1c, 0x00, 0x84, 0xca, 0x1e, 0x57, 0x91, 0x0a, 0x0e,
  0xb6, 0x9a, 0x54, 0x99, 0x80, 0xa0, 0x0a, 0x1a, 0x60, 0x12, 0xa1, 0x9b,
  0x97, 0x1e, 0x9f, 0x12, 0xf2, 0x15, 0xcb, 0x91, 0x26, 0x98, 0x1f, 0x21,
  0xdb, 0x9c, 0xf0, 0x13, 0xd5, 0x97, 0x7a, 0x1c, 0xc8, 0x96, 0xca, 0x99,
  0xb8, 0x98, 0x69, 0x99, 0x6a, 0xa1, 0x8a, 0x96, 0x1b, 0x9a, 0xcd, 0x9e,
  0xb1, 0x19, 0xc4, 0x1f, 0x5b, 0x9c, 0x58, 0x20, 0x8b, 0x9b, 0x7c, 0x9b,
  0x43, 0x99, 0xd0, 0x17, 0xb5, 0x9b, 0x37, 0x95, 0xb3, 0x18, 0x53, 0x1d,
  0x1a, 0xa0, 0xf6, 0x15, 0x64, 0x81, 0xd6, 0x90, 0x2c, 0xa3, 0x5f, 0x1d,
  0xf4, 0x1d, 0xcd, 0x99, 0x3c, 0xa1, 0x49, 0x1d, 0x6a, 0x95, 0x02, 0x1e,
  0xf7, 0x9c, 0xa0, 0x94, 0x7b, 0x14, 0xc4, 0x1a, 0xc1, 0xa0, 0x45, 0x01,
  0x05, 0x98, 0xfb, 0x1b, 0x63, 0xa0, 0x0a, 0x9c, 0x50, 0x96, 0x71, 0x1f,
  0xab, 0xa2, 0xc3, 0x13, 0xe4, 0x9c, 0x5a, 0x20, 0xde, 0x9d, 0x4d, 0x99,
  0xf6, 0x95, 0x29, 0x16, 0x1b, 0x9d, 0x27, 0x19, 0x98, 0x19, 0x6f, 0x9b,
  0x2c, 0x9e, 0x0b, 0xa1, 0x47, 0x96, 0x96, 0x18, 0x99, 0xa2, 0xc0, 0x03,
  0x85, 0x9d, 0x5c, 0x9a, 0xff, 0x9f, 0xdb, 0x97, 0x5d, 0x94, 0xf1, 0x10,
  0x40, 0x9d, 0x2e, 0x99, 0xab, 0x98, 0x98, 0x17, 0x2e, 0x86, 0xe7, 0xa0,
  0xf3, 0x84, 0xb3, 0x14, 0x3b, 0x9d, 0xcf, 0x1e, 0x53, 0x9a, 0x27, 0x1b,
  0xc1, 0x9d, 0xea, 0x95, 0x42, 0x17, 0x34, 0x8b, 0x1f, 0xa2, 0x5a, 0x10,
  0x4f, 0x1d, 0x46, 0x98, 0xff, 0x20, 0xdc, 0x90, 0x0e, 0x95, 0xd6, 0x19,
  0xd9, 0x9a, 0x90, 0x1c, 0x20, 0x9c, 0xde, 0x16, 0x17, 0x99, 0x29, 0x92,
  0x2a, 0x9f, 0x34, 0x1a, 0xaf, 0xa1, 0x87, 0x9b, 0x30, 0x18, 0x81, 0x1a,
  0x84, 0x1c, 0xbf, 0x1c, 0x58, 0x9d, 0x2d, 0x21, 0x58, 0x18, 0xb3, 0x18,
  0x9e, 0x9c, 0x7f, 0x93, 0x32, 0x9f, 0xb6, 0x14, 0x37, 0x1c, 0x1c, 0x99,
  0x33, 0x9d, 0x77, 0x95, 0x8f, 0x13, 0xd9, 0x98, 0x7f, 0x1d, 0xcd, 0x20,
  0x0f, 0x0e, 0x6b, 0x12, 0xdb, 0x98, 0x62, 0x96, 0x18, 0x99, 0x92, 0x9b,
  0xc9, 0x94, 0xdc, 0x21, 0x0d, 0x19, 0xe9, 0x9b, 0x82, 0x9a, 0x5c, 0xa0,
  0x39, 0x1b, 0x55, 0x9c, 0xb9, 0x9d, 0x76, 0x1c, 0x65, 0x96, 0xef, 0x19,
  0x02, 0x81, 0xfe, 0x9a, 0xf0, 0x95, 0x24, 0x11, 0xea, 0x90, 0x25, 0x1c,
  0x62, 0x12, 0x1d, 0x19, 0x55, 0x98, 0x58, 0x9d, 0xb6, 0x96, 0x1d, 0x9d,
  0xd1, 0x9f, 0x6b, 0x98, 0x26, 0x9c, 0x12, 0x9e, 0xbd, 0x9f, 0xe2, 0x88,
  0x3f, 0x9c, 0x05, 0x0f, 0x8e, 0x18, 0x0e, 0x19, 0x1f, 0x18, 0x76, 0x9d,
  0x42, 0xa0, 0x41, 0x15, 0x3d, 0x92, 0x64, 0x9c, 0x98, 0xa0, 0xa8, 0x9d,
  0x5b, 0x10, 0x6e, 0x9b, 0xc6, 0x9c, 0x0c, 0x99, 0x34, 0x94, 0x50, 0x14,
  0xc3, 0x1d, 0x02, 0x1e, 0xef, 0x12, 0x47, 0x97, 0xfc, 0x9a, 0xe2, 0x9c,
  0x6b, 0x17, 0xf3, 0x16, 0x42, 0x9c, 0x65, 0xa4, 0xe5, 0x1a, 0xe1, 0x9e,
  0x0d, 0x92, 0xed, 0x99, 0x1f, 0x0f, 0x02, 0x9b, 0xbf, 0x1d, 0xf1, 0x14,
  0xfc, 0x99, 0x6d, 0x1b, 0xfb, 0x8c, 0xcf, 0x95, 0x16, 0x95, 0x73, 0x9e,
  0xcd, 0x17, 0xa5, 0x91, 0x87, 0x1c, 0xdd, 0x9d, 0xb1, 0x1e, 0x91, 0x99,
  0xd2, 0x90, 0x1d, 0x15, 0x39, 0x1e, 0x4a, 0x21, 0xbf, 0x19, 0xf7, 0x85,
  0x41, 0x10, 0xe3, 0x9c, 0x9b, 0x97, 0xd4, 0x19, 0xac, 0x20, 0xd7, 0x16,
  0xca, 0x98, 0x28, 0x9c, 0x9f, 0x20, 0xc9, 0x10, 0xe0, 0x1a, 0xbc, 0x99,
  0x80, 0x1e, 0x5d, 0x1d, 0x09, 0x22, 0x6e, 0x1d, 0xa3, 0x14, 0x29, 0x9c,
  0x26, 0x9c, 0x4a, 0x11, 0x94, 0x1d, 0x95, 0x22, 0x5a, 0x1a, 0x84, 0x9b,
  0x59, 0x1d, 0x54, 0x18, 0x0a, 0x15, 0xc7, 0x9d, 0x15, 0x20, 0x1a, 0x19,
  0x6e, 0x20, 0x4e, 0x96, 0x3c, 0x00, 0x7e, 0x98, 0x62, 0x1d, 0x2e, 0x91,
  0x59, 0x91, 0x83, 0x93, 0x36, 0x15, 0xaa, 0x13, 0x06, 0x18, 0xa3, 0x94,
  0x36, 0x06, 0x50, 0x8b, 0x95, 0x20, 0xda, 0x93, 0x19, 0x20, 0x15, 0x1e,
  0x61, 0x0c, 0x10, 0x9c, 0x18, 0x20, 0x88, 0x93, 0x5e, 0x9d, 0xb8, 0x8a,
  0x43, 0x9c, 0x84, 0x9c, 0xfb, 0x1f, 0x6d, 0x17, 0xb0, 0x95, 0xa7, 0x98,
  0x52, 0x21, 0xc5, 0x15, 0x1d, 0x1e, 0xd4, 0x13, 0x0c, 0x15, 0xef, 0x9d,
  0x5e, 0x1e, 0xb0, 0x1d, 0xdf, 0x9a, 0x7c, 0x9b, 0xab, 0x8d, 0x2d, 0x9b,
  0x5c, 0x1c, 0x2c, 0x84, 0x8a, 0x98, 0xc8, 0x9d, 0x91, 0x1d, 0xb1, 0x19,
  0x7c, 0x20, 0xf3, 0x1a, 0x84, 0x17, 0x2e, 0x9e, 0xc4, 0x1f, 0x3d, 0x15,
  0xec, 0x9d, 0x96, 0xa0, 0x82, 0x1a, 0x6d, 0x9c, 0x94, 0x1c, 0x56, 0x1f,
  0xa0, 0x10, 0xd2, 0x11, 0x7a, 0x21, 0x69, 0x1a, 0xb6, 0x1b, 0x1b, 0x96,
  0x54, 0x1b, 0x36, 0x9b, 0x6c, 0x1f, 0x18, 0x1e, 0xf7, 0x89, 0x20, 0x1d,
  0xbb, 0x12, 0x0f, 0x11, 0xf3, 0x1c, 0x0f, 0x1a, 0xeb, 0xa0, 0x12, 0x15,
  0xaf, 0x1e, 0x06, 0x0a, 0xf8, 0x1e, 0xb1, 0x1c, 0x33, 0x11, 0x7b, 0x1a,
  0xf2, 0x1c, 0xb4, 0x97, 0x02, 0x1d, 0xaa, 0x1d, 0xc3, 0x1d, 0x62, 0x97,
  0x9d, 0x14, 0x36, 0x96, 0xe2, 0x9d, 0x39, 0x15, 0x03, 0x12, 0x53, 0x9d,
  0xcb, 0x1d, 0x34, 0x8d, 0x67, 0x16, 0x56, 0x99, 0x87, 0x20, 0x19, 0x14,
  0xf0, 0x01, 0x2d, 0x1c, 0x88, 0x1d, 0x63, 0x1d, 0x90, 0x18, 0xaa, 0x1a,
  0xf7, 0x97, 0x4a, 0x21, 0xf8, 0x1e, 0x0a, 0x97, 0xe6, 0x14, 0x80, 0x0b,
  0x6b, 0x18, 0xc0, 0x1a, 0x5b, 0x20, 0x01, 0x20, 0x3e, 0xa0, 0x3b, 0x1a,
  0x99, 0x1c, 0x16, 0x12, 0xbb, 0x95, 0x1f, 0x04, 0x84, 0x95, 0x12, 0x1c,
  0xa8, 0x8e, 0x8f, 0x1a, 0xcc, 0x1c, 0x38, 0x97, 0xc1, 0x0e, 0x49, 0x14,
  0x9f, 0x1e, 0x25, 0x1c, 0xcb, 0x9b, 0xa0, 0x8d, 0xa5, 0x98, 0x0b, 0x1f,
  0xe2, 0x90, 0xc5, 0x18, 0xd1, 0x9d, 0x3d, 0x20, 0x33, 0x15, 0xbc, 0x1a,
  0xc6, 0x1f, 0xd0, 0x99, 0xa3, 0x17, 0xab, 0x19, 0xd6, 0x1c, 0x8b, 0x98,
  0x15, 0x9d, 0x58, 0x9c, 0x70, 0x92, 0xaa, 0x19, 0xb3, 0x15, 0xbe, 0x8f,
  0xbc, 0x9c, 0x83, 0x96, 0x68, 0x97, 0xf0, 0x1a, 0x68, 0x9c, 0x74, 0x9a,
  0x24, 0x1a, 0x33, 0x19, 0xca, 0x20, 0x62, 0x17, 0xb9, 0x97, 0x02, 0x98,
  0xaa, 0x94, 0xc0, 0x16, 0x6f, 0x9c, 0x24, 0x96, 0x06, 0x05, 0x52, 0x1c,
  0xd2, 0x95, 0xe2, 0x1d, 0x38, 0x9f, 0x86, 0x9d, 0x7d, 0x17, 0xc8, 0x19,
  0xdc, 0x98, 0xbc, 0x1a, 0xce, 0x95, 0xde, 0x0c, 0x93, 0x9c, 0x61, 0x1c,
  0xcf, 0x1d, 0xc4, 0x9e, 0x4f, 0x1c, 0x9a, 0x8c, 0x67, 0x9d, 0x0b, 0x20,
  0xc4, 0x10, 0x1a, 0x9b, 0xb6, 0x19, 0xd5, 0x1e, 0x2d, 0x1a, 0xa8, 0x1c,
  0x9c, 0x18, 0x4f, 0x12, 0x00, 0xa0, 0xb6, 0x15, 0xd7, 0x9c, 0x54, 0x9e,
  0x8f, 0x21, 0x3a, 0x95, 0xa2, 0x9f, 0x9b, 0x1d, 0x1c, 0x99, 0x21, 0x92,
  0x0e, 0x98, 0xca, 0x1d, 0x15, 0x21, 0xcd, 0x0d, 0x51, 0x99, 0xc3, 0x1c,
  0x94, 0x9f, 0x8f, 0x1c, 0x87, 0x9f, 0x3b, 0x9c, 0x00, 0x1d, 0x57, 0x95,
  0x3a, 0xa4, 0x09, 0x1c, 0x66, 0x9d, 0x1a, 0x1f, 0x50, 0x0c, 0x3e, 0x21,
  0x89, 0x19, 0x93, 0x0e, 0x09, 0x9a, 0xf1, 0x14, 0xc9, 0xa0, 0xbe, 0x19,
  0x9f, 0xa0, 0x0d, 0x9b, 0xe9, 0x23, 0x33, 0x9e, 0xcf, 0xa1, 0x73, 0x14,
  0x74, 0x96, 0xc3, 0x0e, 0x03, 0x9c, 0xb0, 0x1e, 0x31, 0x1e, 0xcd, 0x18,
  0xd6, 0x16, 0xd5, 0x9e, 0x51, 0x9e, 0xe5, 0x23, 0x7b, 0xa2, 0xa4, 0x8d,
  0x51, 0x21, 0xd9, 0x99, 0xfc, 0x9d, 0x49, 0x14, 0xaf, 0x16, 0x93, 0x97,
  0xc2, 0x95, 0xba, 0x1e, 0x77, 0x18, 0x8e, 0x10, 0xb9, 0x14, 0x72, 0xa0,
  0x06, 0x9a, 0xbf, 0x1c, 0x7a, 0x9c, 0xc2, 0x9e, 0x23, 0x24, 0xcd, 0x9c,
  0xad, 0x98, 0x29, 0x22, 0x0f, 0x17, 0xf2, 0x9e, 0x06, 0x9c, 0x7a, 0x1c,
  0xc5, 0x08, 0x68, 0x8a, 0x39, 0x0e, 0x3b, 0x9c, 0xcd, 0x9e, 0x47, 0x15,
  0xb0, 0x18, 0x3f, 0xa1, 0x6b, 0x23, 0x25, 0x9e, 0x0d, 0x96, 0xf5, 0x1c,
  0x10, 0x19, 0xe0, 0x9e, 0xbc, 0x16, 0x11, 0x96, 0x5a, 0x99, 0x88, 0x9c,
  0x19, 0x19, 0x0a, 0x22, 0x8e, 0x99, 0xa1, 0x12, 0xd6, 0x97, 0x20, 0x9e,
  0x45, 0x22, 0x17, 0x9b, 0x7f, 0x93, 0xd4, 0x1c, 0xe9, 0x0d, 0x4c, 0x9c,
  0x77, 0x1d, 0xfc, 0x1b, 0x37, 0xa1, 0x13, 0x9c, 0xdf, 0x0a, 0x9f, 0x20,
  0xfb, 0x91, 0xeb, 0x99, 0xb1, 0x14, 0xb8, 0x16, 0xab, 0x20, 0xfa, 0x9b,
  0x31, 0x18, 0x16, 0x1d, 0x55, 0x1f, 0xa1, 0x9a, 0x60, 0x1f, 0x87, 0x93,
  0x90, 0x9b, 0x60, 0x97, 0x90, 0x95, 0x6e, 0x18, 0xa2, 0x1b, 0x9a, 0x9f,
  0xf8, 0x1a, 0x8a, 0x1a, 0x9a, 0x1d, 0xd2, 0x9c, 0x23, 0x18, 0x82, 0x92,
  0x1c, 0x96, 0xbb, 0x99, 0xda, 0x96, 0x84, 0x9b, 0x0b, 0x92, 0x98, 0x9d,
  0xe2, 0x99, 0x17, 0x93, 0xf9, 0x06, 0xea, 0x9d, 0xc8, 0x1e, 0xf9, 0x14,
  0xfa, 0x20, 0x1d, 0x99, 0x31, 0x19, 0x47, 0x1d, 0x24, 0x9a, 0x74, 0x9a,
  0x43, 0x1c, 0x24, 0x97, 0x11, 0x9a, 0x53, 0x99, 0x82, 0x04, 0x0a, 0xa0,
  0x83, 0x1c, 0x38, 0x9f, 0xe5, 0x8d, 0x20, 0x1c, 0x1f, 0x23, 0x1a, 0x8a,
  0xeb, 0x9c, 0xed, 0x1e, 0x06, 0x9b, 0xbe, 0x1a, 0x90, 0x1e, 0x10, 0xa0,
  0x3b, 0x90, 0x3f, 0x9c, 0x97, 0x97, 0x7c, 0xa0, 0x73, 0x9b, 0xa6, 0x9d,
  0x0c, 0x9c, 0x41, 0x1b, 0x2b, 0x22, 0x29, 0xa0, 0x47, 0x18, 0xf1, 0x21,
  0xfe, 0x1a, 0x49, 0x11, 0x06, 0x23, 0x2e, 0x99, 0x97, 0x9a, 0x4f, 0x9d,
  0x31, 0x20, 0xaf, 0x01, 0xad, 0x10, 0x99, 0x9a, 0xaa, 0x9c, 0x8b, 0x1d,
  0x3b, 0x14, 0x3c, 0x99, 0x8b, 0x1f, 0x5a, 0x1c, 0x30, 0x9b, 0x6b, 0x9e,
  0x42, 0x22, 0xc0, 0x9e, 0x4b, 0xa0, 0xea, 0xa0, 0xea, 0x1d, 0x9d, 0x1c,
  0xb5, 0x9b, 0x70, 0x98, 0x5d, 0x9b, 0x26, 0x20, 0x26, 0x1f, 0xcc, 0x9b,
  0x25, 0x13, 0x55, 0x11, 0x55, 0x9d, 0x7e, 0x93, 0xca, 0x21, 0x9f, 0x99,
  0x3a, 0x9e, 0xc5, 0xa2, 0x01, 0x19, 0x6f, 0x21, 0x2c, 0xa0, 0x0b, 0x10,
  0x24, 0x1d, 0x80, 0x23, 0xc0, 0x1e, 0x04, 0x9c, 0xaa, 0x1e, 0x51, 0x1c,
  0x23, 0x95, 0x21, 0x0d, 0x3c, 0x1f, 0x33, 0xa0, 0x9c, 0x9d, 0xa0, 0xa1,
  0xe1, 0x9c, 0x2f, 0x1f, 0x3e, 0x94, 0x1e, 0x96, 0xfa, 0x9f, 0xbe, 0x22,
  0xcf, 0x1d, 0x86, 0xa0, 0x13, 0x19, 0x64, 0x1f, 0xa3, 0x1a, 0xfd, 0x96,
  0x37, 0x1d, 0x56, 0x9a, 0xed, 0x9c, 0x39, 0xa0, 0xe0, 0x9f, 0xc8, 0x9d,
  0x50, 0x93, 0x9e, 0x19, 0x9d, 0x9a, 0xcf, 0x1d, 0x0e, 0x20, 0x84, 0x16,
  0x8c, 0x19, 0xdd, 0x18, 0xf9, 0x93, 0x45, 0x16, 0x6d, 0x22, 0xbe, 0xa0,
  0x5d, 0x0e, 0x91, 0xa2, 0xd1, 0x9c, 0x0e, 0xa1, 0x75, 0x9a, 0x57, 0x1a,
  0x61, 0x9d, 0xbd, 0x1d, 0x50, 0x1f, 0x10, 0x97, 0xd3, 0x16, 0x29, 0x98,
  0xba, 0x9b, 0x54, 0x96, 0xc2, 0x22, 0x91, 0x9b, 0xcf, 0x91, 0x29, 0x9d,
  0xa4, 0x1c, 0x56, 0xa3, 0xeb, 0x85, 0x86, 0x98, 0xc5, 0x14, 0xf8, 0x1b,
  0x1a, 0x1f, 0xa6, 0x97, 0x19, 0x15, 0x4b, 0x9d, 0x50, 0x9c, 0xfb, 0x97,
  0xe6, 0x21, 0x6e, 0xa1, 0x87, 0x97, 0x72, 0x9c, 0x8f, 0x13, 0x28, 0x99,
  0xc2, 0x9c, 0x2c, 0x15, 0x9c, 0x1d, 0xbe, 0x20, 0x7f, 0x21, 0x5c, 0x9c,
  0xe9, 0x14, 0xff, 0x99, 0x39, 0x97, 0x21, 0x9c, 0xcf, 0x23, 0x04, 0xa0,
  0x74, 0x9d, 0x74, 0x9c, 0x31, 0x1e, 0x32, 0x1e, 0x86, 0x9a, 0x7e, 0x91,
  0x7d, 0x1c, 0x52, 0x1b, 0x17, 0x18, 0xf8, 0x9d, 0xc5, 0x15, 0x40, 0x19,
  0x25, 0x97, 0x93, 0x9d, 0xfa, 0x1c, 0xa9, 0x99, 0x09, 0xa1, 0xe5, 0x9e,
  0x65, 0x22, 0x0a, 0x23, 0x4b, 0xa0, 0x55, 0x99, 0xc8, 0x98, 0x65, 0x20,
  0x04, 0x8a, 0x07, 0xa0, 0x4b, 0x1a, 0x6c, 0x10, 0x7a, 0x1c, 0x3e, 0x13,
  0x86, 0x20, 0x26, 0xa0, 0x0f, 0x9f, 0x93, 0x9e, 0x35, 0x1d, 0xe8, 0x1b,
  0x97, 0xa2, 0x89, 0x8f, 0x30, 0x91, 0x4b, 0x1c, 0xdf, 0x1a, 0x73, 0x9c,
  0x1c, 0x9c, 0xd4, 0x1c, 0x45, 0x1c, 0xd9, 0x97, 0xb8, 0x1e, 0x2c, 0x9d,
  0x72, 0x9c, 0x2e, 0x99, 0x67, 0x99, 0xcc, 0x96, 0x0e, 0xa2, 0x4e, 0x1c,
  0xa6, 0x9f, 0xa9, 0x1b, 0x12, 0x0f, 0x18, 0xa0, 0x79, 0x9d, 0x8f, 0x19,
  0x34, 0x19, 0x1e, 0x14, 0xde, 0x20, 0x5c, 0x96, 0xfa, 0x9d, 0xd2, 0x9f,
  0x4a, 0x9e, 0x76, 0xa2, 0x29, 0x9f, 0x53, 0x1d, 0x52, 0x93, 0xcf, 0x13,
  0x54, 0x16, 0x4a, 0xa1, 0xf6, 0x9d, 0x7c, 0x1f, 0xda, 0x1e, 0x42, 0x9e,
  0x85, 0x20, 0x30, 0x86, 0x9b, 0x9c, 0x0e, 0x9a, 0xac, 0x99, 0xd5, 0xa2,
  0x8b, 0x9c, 0x94, 0x19, 0x61, 0x1d, 0x50, 0x1a, 0x84, 0x11, 0xa6, 0x9b,
  0x41, 0x96, 0x00, 0x1e, 0x95, 0x1b, 0x7b, 0x11, 0x72, 0x1e, 0x33, 0x95,
  0x8f, 0x9b, 0xc9, 0x9d, 0x9e, 0x1d, 0x14, 0xa0, 0x0f, 0x9a, 0xb4, 0x1a,
  0x61, 0x19, 0x08, 0x8c, 0xf9, 0x1c, 0x6f, 0x9e, 0x5c, 0x9f, 0x6e, 0x1e,
  0x63, 0x20, 0x4a, 0x97, 0xe6, 0x21, 0xe5, 0x97, 0xc2, 0x97, 0x9f, 0x99,
  0x46, 0x1c, 0x36, 0x18, 0x9b, 0x99, 0x71, 0x1d, 0x79, 0x95, 0x07, 0x1e,
  0x5a, 0x0c, 0xdd, 0x9f, 0x64, 0x9d, 0x8d, 0x20, 0x20, 0x1e, 0x11, 0xa3,
  0x25, 0x1f, 0xc6, 0x97, 0x51, 0x9c, 0x5b, 0x9d, 0xcc, 0x1b, 0xb3, 0x21,
  0x3a, 0x9d, 0x5c, 0x1d, 0x3b, 0xa0, 0xb6, 0x1e, 0xd4, 0x1c, 0x1e, 0x9d,
  0xcd, 0x1b, 0x59, 0x20, 0xca, 0x21, 0x8c, 0x9b, 0x43, 0x20, 0xff, 0x18,
  0xb1, 0x19, 0x5e, 0x92, 0x68, 0x0b, 0xe5, 0x23, 0xee, 0x9b, 0xe1, 0x17,
  0x5f, 0x9d, 0x3b, 0x9a, 0x14, 0x14, 0xba, 0x9e, 0x3e, 0x98, 0xda, 0x1b,
  0x81, 0x88, 0x1d, 0x9d, 0x4f, 0x1f, 0x5c, 0x20, 0x8e, 0x99, 0x7b, 0x9d,
  0xd4, 0x0c, 0x78, 0x1c, 0x19, 0x14, 0xac, 0x16, 0x96, 0x9c, 0x9a, 0x1c,
  0x0a, 0x1a, 0x77, 0x9f, 0xb7, 0x8c, 0x60, 0x1f, 0xb6, 0x1e, 0x41, 0x9d,
  0xc1, 0x21, 0xbe, 0x13, 0xbd, 0x94, 0x91, 0x9e, 0x31, 0xa0, 0xae, 0x9d,
  0x5b, 0x98, 0xa6, 0x9a, 0xd5, 0x98, 0xfc, 0x1c, 0x4a, 0x1c, 0xa7, 0x98,
  0x1c, 0x06, 0xd5, 0x1f, 0x43, 0x1c, 0x1d, 0x92, 0x36, 0x1d, 0xf8, 0x1b,
  0x8d, 0x14, 0x0c, 0x8f, 0x5f, 0xa1, 0xb9, 0xa3, 0x25, 0x0d, 0x2d, 0xa0,
  0xab, 0x20, 0xca, 0x95, 0x2c, 0x94, 0x6a, 0x92, 0xdd, 0x1b, 0xa3, 0x1f,
  0xcd, 0x1d, 0x4a, 0x9c, 0x0d, 0x1c, 0x52, 0x0d, 0xf5, 0x1b, 0xfa, 0x95,
  0x76, 0x9c, 0x65, 0x9f, 0x51, 0x9b, 0xbd, 0xa0, 0x31, 0x92, 0xaa, 0x91,
  0xd4, 0x07, 0x31, 0x8d, 0x60, 0x14, 0x6e, 0x24, 0x8d, 0x1f, 0x76, 0x92,
  0xa9, 0x15, 0xe0, 0x18, 0x2e, 0x1b, 0x48, 0x18, 0x52, 0x9c, 0x3f, 0x1b,
  0x62, 0x95, 0xb1, 0xa1, 0x9d, 0x99, 0x80, 0x1a, 0x84, 0x95, 0x61, 0x97,
  0x91, 0x1c, 0x87, 0x21, 0x96, 0x18, 0xfe, 0x1a, 0xd5, 0x9a, 0xdb, 0x1f,
  0x90, 0x14, 0x5b, 0x9e, 0x15, 0x21, 0x8e, 0x1e, 0x1b, 0x9b, 0x05, 0x9f,
  0x2e, 0xa0, 0xd9, 0x1c, 0xde, 0x89, 0x72, 0x17, 0x9c, 0x17, 0xaa, 0x95,
  0x1a, 0x1f, 0x77, 0x93, 0x57, 0x19, 0x19, 0x12, 0xe1, 0x1c, 0x9e, 0x9f,
  0x08, 0x22, 0x70, 0x21, 0xd7, 0x18, 0x45, 0x99, 0x6c, 0x98, 0x54, 0x1c,
  0x07, 0x0c, 0xc7, 0x15, 0x75, 0x13, 0x65, 0x1d, 0xb0, 0x1c, 0x3e, 0x1c,
  0xf1, 0x08, 0x78, 0x1e, 0x38, 0x16, 0x94, 0x9f, 0x94, 0x14, 0x25, 0x1c,
  0x71, 0x9e, 0x43, 0xa0, 0x46, 0x9e, 0x77, 0x92, 0xc8, 0x13, 0x3c, 0x9c,
  0xc2, 0x10, 0x65, 0x21, 0x35, 0x1b, 0xec, 0x15, 0x30, 0x1f, 0x8f, 0x1c,
  0x61, 0x12, 0x3b, 0xa0, 0xc9, 0x9d, 0x24, 0x9d, 0x86, 0x97, 0x87, 0x91,
  0x7d, 0x98, 0x0b, 0x1a, 0x40, 0x20, 0x1e, 0x14, 0x96, 0x12, 0xdd, 0x1f,
  0x58, 0x1e, 0xdd, 0x94, 0xc6, 0x1e, 0x11, 0x15, 0x48, 0x1c, 0xf3, 0x9a,
  0xb0, 0xa2, 0xb6, 0xa2, 0x2c, 0x9d, 0x5a, 0x17, 0x7f, 0xa0, 0xac, 0x9a,
  0xa8, 0x19, 0x25, 0x14, 0x04, 0x93, 0xd4, 0x20, 0xc9, 0x1d, 0x24, 0x19,
  0x29, 0x1a, 0x39, 0x1e, 0xd6, 0x18, 0x0c, 0x15, 0x05, 0xa0, 0xeb, 0xa0,
  0x98, 0x9d, 0xce, 0x93, 0x96, 0x92, 0x81, 0x17, 0x48, 0x1d, 0x4e, 0x02,
  0xad, 0x94, 0x31, 0x20, 0xcc, 0x1d, 0x2f, 0x1b, 0x60, 0x11, 0x19, 0x16,
  0x9f, 0x1e, 0x9b, 0x1c, 0x1b, 0x96, 0xe6, 0x9e, 0xda, 0x96, 0x8d, 0x15,
  0x00, 0x96, 0x55, 0x1c, 0x2e, 0x20, 0x67, 0x9a, 0x82, 0x95, 0x0c, 0x19,
  0x9b, 0x1f, 0xae, 0x18, 0x5a, 0x8e, 0x4a, 0x97, 0x27, 0x1e, 0xff, 0x9b,
  0x7a, 0x21, 0x34, 0x21, 0x98, 0x9c, 0xbb, 0x18, 0xc7, 0x1b, 0xe7, 0x19,
  0x87, 0x1f, 0xc4, 0x9a, 0xbb, 0x95, 0x4b, 0x20, 0xf9, 0x1d, 0xa6, 0x18,
  0x68, 0x9d, 0x94, 0x1e, 0x6a, 0x14, 0x13, 0x90, 0xf6, 0x23, 0x50, 0x22,
  0x38, 0x99, 0x32, 0x96, 0x7b, 0x9e, 0x98, 0x9a, 0x79, 0x1b, 0xdc, 0x9f,
  0x15, 0x10, 0x8d, 0x1e, 0x84, 0x20, 0x94, 0x1a, 0x1f, 0x9c, 0x39, 0x1c,
  0x17, 0x1c, 0x81, 0x14, 0xa4, 0x95, 0x11, 0x22, 0x81, 0x9a, 0xb5, 0x9c,
  0xe9, 0x9c, 0x70, 0xa0, 0x74, 0x1a, 0x99, 0x9e, 0x24, 0x98, 0x28, 0x1e,
  0x2c, 0x1d, 0x57, 0x1d, 0x8a, 0x9a, 0x67, 0x1c, 0xa4, 0x1c, 0x33, 0x18,
  0x5d, 0x15, 0x86, 0x8e, 0xbd, 0x98, 0x47, 0x02, 0x3b, 0x1c, 0x7e, 0x92,
  0x3d, 0x1c, 0x4c, 0xa0, 0x7b, 0x1d, 0x8a, 0x16, 0xf1, 0x1b, 0x0d, 0x17,
  0xa3, 0x9d, 0xc8, 0x1d, 0x8e, 0x1c, 0x3b, 0x19, 0x31, 0x9e, 0xbc, 0x11,
  0x2f, 0x9d, 0x83, 0x20, 0xd1, 0x1c, 0x8b, 0x9d, 0xd4, 0x16, 0x0e, 0x9a,
  0x8a, 0x9a, 0xa7, 0x10, 0x0d, 0x1e, 0xb7, 0x98, 0x38, 0xa1, 0x62, 0x99,
  0x1e, 0x17, 0xf9, 0x98, 0x0e, 0xa4, 0x81, 0x9d, 0x28, 0x95, 0xdc, 0x22,
  0x2d, 0x92, 0x4b, 0x9b, 0xdf, 0x1c, 0xde, 0xa0, 0x70, 0x9b, 0xb8, 0x10,
  0xa1, 0x1b, 0x43, 0x17, 0x55, 0x9e, 0x00, 0x20, 0x89, 0x1c, 0x53, 0x9c,
  0x10, 0x98, 0x7c, 0x9c, 0xd6, 0x0c, 0x35, 0x9e, 0x9c, 0x18, 0xa2, 0x9a,
  0xf2, 0x9e, 0x1d, 0x1a, 0x74, 0x1b, 0xa6, 0x18, 0xc9, 0x1c, 0x1c, 0x95,
  0x1c, 0xa1, 0xec, 0x1e, 0x0f, 0x1d, 0x12, 0x9a, 0x05, 0x9e, 0x40, 0x9d,
  0xdf, 0x13, 0xd8, 0xa0, 0xe2, 0x18, 0xd5, 0x9f, 0x5d, 0x97, 0xbe, 0x20,
  0x51, 0x1e, 0x03, 0x89, 0x5c, 0x20, 0xd9, 0x9e, 0x95, 0x9e, 0x8c, 0x8e,
  0xa5, 0x8f, 0x85, 0x00, 0x54, 0x8f, 0x5b, 0x9a, 0xa5, 0x18, 0x96, 0x9c,
  0x62, 0x1b, 0xfa, 0x9c, 0x75, 0x0f, 0x3c, 0x1f, 0xbd, 0x98, 0x0b, 0x19,
  0xa7, 0x1f, 0x4d, 0xa4, 0x65, 0xa0, 0x26, 0x85, 0x17, 0x19, 0x07, 0x9a,
  0xe8, 0x92, 0xe8, 0x95, 0x00, 0x20, 0x3d, 0x9d, 0xf9, 0x16, 0xe7, 0x9a,
  0x4a, 0x1b, 0xb1, 0x1c, 0x2b, 0x96, 0x2f, 0x19, 0xb0, 0x21, 0xd2, 0x9b,
  0x84, 0x9f, 0x51, 0x0d, 0x80, 0x91, 0x7b, 0xa2, 0x11, 0x0a, 0x75, 0x9b,
  0xee, 0x1f, 0x4c, 0x9c, 0xe6, 0x9b, 0x01, 0x9c, 0x96, 0x1f, 0x87, 0x1d,
  0xac, 0x98, 0x14, 0x1e, 0xb9, 0x1f, 0xa2, 0x9c, 0x0a, 0x9a, 0x26, 0x17,
  0x30, 0x14, 0x78, 0x9d, 0xd5, 0x06, 0xa6, 0x91, 0xdb, 0x18, 0x44, 0x9c,
  0x62, 0xa1, 0x4b, 0x9b, 0xd8, 0x21, 0x29, 0x20, 0x5f, 0x9d, 0x99, 0x20,
  0xad, 0x22, 0xc5, 0xa0, 0x97, 0xa0, 0xc4, 0xa1, 0xb6, 0xa0, 0x1a, 0x9e,
  0xb3, 0x00, 0xa5, 0x15, 0x34, 0x14, 0xba, 0x1e, 0x5f, 0x9c, 0x5b, 0x9d,
  0x1e, 0x24, 0x27, 0x20, 0x7d, 0xa1, 0xb1, 0x23, 0x3d, 0x20, 0x99, 0xa0,
  0x00, 0xa2, 0x8d, 0x9f, 0xa4, 0x8b, 0x8e, 0x9e, 0xa2, 0x9d, 0xde, 0x18,
  0x87, 0x0a, 0xc6, 0x1a, 0x7c, 0x97, 0xbd, 0x99, 0xeb, 0x21, 0x17, 0x1f,
  0xd1, 0xa0, 0x6a, 0x21, 0x14, 0x17, 0x5c, 0x9f, 0x11, 0x9f, 0x50, 0x98,
  0xa6, 0x9b, 0x48, 0xa4, 0x43, 0x93, 0x37, 0x99, 0x5e, 0x98, 0xc5, 0x1d,
  0xaf, 0x16, 0xe2, 0xa2, 0x3d, 0x24, 0xbb, 0x18, 0x67, 0x9f, 0x14, 0x22,
  0x92, 0x15, 0x91, 0xa0, 0x76, 0x9d, 0xe3, 0x9d, 0xa2, 0x99, 0x5f, 0xa1,
  0x8c, 0x98, 0x10, 0x9e, 0x84, 0x9b, 0x10, 0x20, 0xad, 0xa1, 0xf7, 0xa1,
  0x6d, 0x22, 0x9d, 0x9d, 0x08, 0xa0, 0x1f, 0x22, 0x37, 0x9b, 0xb7, 0xa1,
  0xd8, 0x9c, 0x1f, 0x99, 0x85, 0xa1, 0x25, 0x9f, 0x12, 0xa1, 0x63, 0x9e,
  0xb3, 0xa0, 0xb1, 0x1f, 0xd1, 0xa0, 0xf3, 0xa1, 0xd1, 0x22, 0xb7, 0x9e,
  0x9d, 0x9f, 0x98, 0x1f, 0x22, 0x97, 0x4a, 0xa1, 0x70, 0x03, 0x5f, 0x9b,
  0x19, 0x9d, 0xef, 0xa0, 0x06, 0x98, 0x3c, 0x9b, 0x92, 0x9e, 0x4b, 0x1d,
  0x1c, 0xa3, 0x1d, 0xa0, 0xd8, 0x22, 0xdd, 0xa4, 0x7e, 0x9e, 0xc6, 0x20,
  0x42, 0x9b, 0xfe, 0xa0, 0x98, 0x1a, 0xab, 0x9c, 0x82, 0xa1, 0xd4, 0xa0,
  0x1f, 0x1b, 0x52, 0x11, 0xd1, 0x9c, 0x04, 0x1d, 0x4a, 0x9a, 0xb1, 0x99,
  0xb6, 0x20, 0x2b, 0xa0, 0xd5, 0x9f, 0xaf, 0x1f, 0x43, 0x98, 0x57, 0xa2,
  0xef, 0x20, 0x62, 0x9c, 0x59, 0x9e, 0xdb, 0x9f, 0x64, 0x18, 0xde, 0x16,
  0x56, 0xa0, 0xe0, 0x1c, 0x8b, 0x90, 0x1a, 0x95, 0x93, 0x1d, 0xb5, 0xa0,
  0xd9, 0x9b, 0x1b, 0x1f, 0xa3, 0x96, 0x3c, 0xa0, 0x07, 0x20, 0x4f, 0x0c,
  0xcf, 0xa0, 0x58, 0xa4, 0xf2, 0x94, 0x89, 0x1e, 0x86, 0x91, 0xf0, 0x18,
  0xa8, 0x16, 0xfb, 0x17, 0x7e, 0x20, 0x9e, 0xa5, 0x58, 0x1e, 0x7d, 0x9c,
  0xe9, 0x9b, 0xf8, 0xa1, 0x34, 0x1d, 0x5b, 0x80, 0xe4, 0x9d, 0x0e, 0xa1,
  0x3a, 0x9e, 0x39, 0x95, 0x5a, 0x98, 0x80, 0x11, 0xa7, 0x15, 0x83, 0x8f,
  0x27, 0x21, 0xaa, 0x9e, 0x2c, 0x1c, 0xdd, 0x94, 0x82, 0x9d, 0xeb, 0x9f,
  0xb2, 0x1e, 0x53, 0xa0, 0x84, 0x9e, 0x36, 0xa0, 0xdc, 0x98, 0x74, 0x92,
  0xc1, 0x95, 0x28, 0x9a, 0x75, 0x19, 0x03, 0x9c, 0x6b, 0x1d, 0xcb, 0xa0,
  0xff, 0x1f, 0xa3, 0x9a, 0x7e, 0x9e, 0x06, 0xa0, 0xd9, 0x21, 0xbd, 0x98,
  0x0c, 0x9e, 0xc6, 0x9f, 0x02, 0x9e, 0x7b, 0x95, 0x7f, 0x15, 0xe0, 0xa3,
  0x91, 0x97, 0x98, 0x17, 0xa8, 0xa0, 0x3d, 0x9d, 0x88, 0x1f, 0x7a, 0x9d,
  0x65, 0x9f, 0x30, 0x9e, 0xfd, 0x23, 0x59, 0x95, 0x6b, 0x9e, 0xdb, 0x9d,
  0x0f, 0x12, 0x59, 0x9b, 0x42, 0x1b, 0xe4, 0xa0, 0xf4, 0x16, 0x9b, 0x1d,
  0x4e, 0x92, 0x6c, 0xa0, 0x15, 0x21, 0x15, 0x9b, 0x6c, 0xa0, 0xae, 0x9e,
  0xec, 0x22, 0x6a, 0x08, 0xfb, 0x9f, 0x82, 0xa0, 0x79, 0x20, 0xc0, 0x14,
  0x2b, 0x15, 0x80, 0xa4, 0x97, 0x17, 0x60, 0x20, 0xc3, 0xa0, 0x02, 0x9e,
  0x1e, 0x21, 0x40, 0xa0, 0x27, 0xa0, 0x5b, 0x9d, 0x64, 0x22, 0x3e, 0x82,
  0xec, 0xa0, 0x2f, 0xa0, 0x5f, 0x1b, 0xdd, 0x1c, 0x72, 0x19, 0x0f, 0xa0,
  0x45, 0x1c, 0xb7, 0x23, 0x18, 0x9f, 0x59, 0x99, 0x9b, 0x20, 0x9c, 0x9e,
  0x4c, 0xa0, 0x33, 0x94, 0xb5, 0x1d, 0xf7, 0x8d, 0x20, 0xa0, 0x26, 0x9e,
  0x2e, 0x17, 0x3d, 0x1e, 0xd2, 0x96, 0x4a, 0x9c, 0x8b, 0x19, 0x24, 0x23,
  0x76, 0x9f, 0x6a, 0x98, 0x2e, 0x20, 0x68, 0x9f, 0x13, 0xa0, 0x07, 0x90,
  0x34, 0x1e, 0x98, 0x15, 0x87, 0x9f, 0xa0, 0x9d, 0x7b, 0x0c, 0x22, 0x99,
  0xaf, 0x1a, 0x2c, 0x9f, 0x92, 0x1b, 0x03, 0x22, 0x0c, 0xa0, 0xd8, 0x95,
  0x77, 0x17, 0xe0, 0x9f, 0x3c, 0xa1, 0x93, 0x98, 0xc6, 0x21, 0xc7, 0x9a,
  0x68, 0x9f, 0xb4, 0x9d, 0xdf, 0x9d, 0xd2, 0x94, 0x1c, 0x19, 0x31, 0x9d,
  0xc9, 0x1a, 0x6b, 0x22, 0xef, 0xa2, 0x1d, 0x97, 0x72, 0x16, 0x0c, 0xa0,
  0xd1, 0xa1, 0xdf, 0x99, 0x99, 0x21, 0x75, 0x9d, 0xe0, 0xa0, 0xdb, 0x9d,
  0xfc, 0x88, 0x1e, 0xa0, 0xd5, 0x15, 0xb2, 0xa1, 0xc8, 0x16, 0xe0, 0x21,
  0x3d, 0xa0, 0xe1, 0x9c, 0xcc, 0x8f, 0xec, 0x9d, 0x03, 0xa2, 0xe4, 0x15,
  0xc8, 0x20, 0x24, 0x97, 0x54, 0x9d, 0x8e, 0x9c, 0xfb, 0x0c, 0x86, 0x13,
  0x4d, 0x17, 0xd6, 0x94, 0x8b, 0x8c, 0xcc, 0x20, 0xa3, 0xa1, 0xee, 0x9c,
  0x75, 0x99, 0xd7, 0x9b, 0x93, 0xa0, 0xf7, 0x18, 0x64, 0x21, 0x95, 0x98,
  0x43, 0xa1, 0x7b, 0x98, 0x75, 0x1e, 0xec, 0x1c, 0xc9, 0x15, 0x2f, 0x18,
  0x78, 0x98, 0x5a, 0x22, 0x31, 0xa0, 0x27, 0xa0, 0x23, 0x99, 0xb8, 0x9b,
  0x53, 0xa1, 0x72, 0x18, 0xa6, 0x20, 0xa3, 0x18, 0x72, 0x9e, 0x3f, 0x91,
  0xc2, 0x18, 0x18, 0x1d, 0xa3, 0x8b, 0x97, 0x1f, 0x4d, 0x95, 0x11, 0x20,
  0xef, 0x9f, 0x6d, 0xa0, 0xca, 0x9d, 0xa6, 0x9c, 0x71, 0x9e, 0x4a, 0x11,
  0x6b, 0x20, 0xcc, 0x16, 0xdf, 0xa0, 0x50, 0x14, 0x38, 0x1b, 0xc6, 0x1d,
  0xb5, 0xa1, 0x8d, 0x20, 0xa1, 0x19, 0xe6, 0x1e, 0x93, 0x9e, 0xb9, 0x9d,
  0x1e, 0x99, 0xb9, 0x9f, 0xb9, 0x9d, 0xef, 0x1d, 0x19, 0x20, 0x9a, 0x19,
  0xd4, 0xa0, 0xb0, 0x94, 0x25, 0x17, 0x81, 0x1d, 0x32, 0x9f, 0x81, 0x21,
  0x99, 0x9a, 0x2b, 0x1b, 0x0c, 0xa0, 0xff, 0x9d, 0x9e, 0x9f, 0xbb, 0x9c,
  0x4b, 0x9d, 0x34, 0x1c, 0x7e, 0x98, 0xfe, 0x15, 0x2b, 0x99, 0x7d, 0x0f,
  0x6d, 0x9c, 0x5b, 0x94, 0x8c, 0x9e, 0x97, 0x22, 0x4c, 0x9d, 0x5c, 0x1c,
  0x44, 0xa0, 0x3f, 0xa0, 0x25, 0xa2, 0xad, 0x94, 0x5a, 0x0d, 0xad, 0x18,
  0x05, 0x9f, 0xbb, 0x1c, 0x7b, 0x99, 0x2d, 0x93, 0x0d, 0x98, 0x87, 0xa0,
  0x58, 0xa0, 0x1a, 0x22, 0xf2, 0x9a, 0xb5, 0x98, 0x51, 0x9e, 0x01, 0x9b,
  0xa4, 0xa0, 0xc1, 0x22, 0x90, 0x1a, 0x99, 0x1c, 0x7a, 0x9a, 0x59, 0x1e,
  0x35, 0x9c, 0xcc, 0x95, 0x25, 0x9c, 0xd9, 0x15, 0x59, 0xa4, 0x5d, 0x20,
  0xaf, 0x9e, 0x55, 0xa4, 0xd0, 0x9b, 0xe9, 0x9c, 0x4a, 0xa4, 0x5e, 0x21,
  0x72, 0x1e, 0xa3, 0x11, 0x4a, 0x9d, 0x25, 0x1b, 0x29, 0x9b, 0x07, 0x1c,
  0x08, 0x1d, 0x01, 0x8a, 0x26, 0x99, 0x92, 0x21, 0x98, 0x9e, 0xe1, 0x9c,
  0x2c, 0x9e, 0x24, 0x9a, 0xb4, 0xa0, 0xcb, 0x23, 0x46, 0x1f, 0xd4, 0x1a,
  0x57, 0x08, 0x0c, 0x20, 0x53, 0x1e, 0x74, 0x1c, 0xe9, 0x95, 0x21, 0x93,
  0x88, 0xa0, 0xe7, 0x1c, 0xfd, 0xa4, 0xd8, 0x9d, 0x5c, 0x9f, 0x6d, 0x9b,
  0x96, 0x86, 0x66, 0x23, 0xf2, 0x1f, 0x2d, 0x12, 0x62, 0x9b, 0xce, 0x1f,
  0x84, 0x10, 0x33, 0x14, 0x54, 0x1d, 0xb0, 0x1d, 0x76, 0x9f, 0x5f, 0x99,
  0xcc, 0x9e, 0x43, 0x95, 0x71, 0x9e, 0x8d, 0x8b, 0x97, 0x9c, 0x95, 0x23,
  0xc4, 0x20, 0xda, 0x93, 0xb6, 0x97, 0xfc, 0x1b, 0x9d, 0x1c, 0x45, 0x1e,
  0xd3, 0x9c, 0xb1, 0x1b, 0x72, 0x9f, 0x8f, 0x9c, 0x29, 0x9b, 0x93, 0x9e,
  0xd1, 0x9b, 0xa3, 0x1c, 0xf7, 0x9f, 0x72, 0x21, 0xcb, 0x21, 0xa7, 0x11,
  0xf6, 0x98, 0x4d, 0x20, 0x07, 0x1d, 0x68, 0x20, 0x49, 0x97, 0xb9, 0x14,
  0x43, 0x13, 0x9d, 0x9f, 0x11, 0x99, 0x4d, 0x9a, 0xe8, 0x9c, 0x85, 0x11,
  0xc6, 0x9b, 0x4f, 0x22, 0x41, 0x22, 0x28, 0x9e, 0x92, 0x95, 0xbd, 0x13,
  0x45, 0x20, 0xd3, 0x1c, 0x1d, 0x9d, 0x40, 0x92, 0xe1, 0x1c, 0xf9, 0xa2,
  0x37, 0x94, 0x0b, 0x11, 0x5b, 0x98, 0xf0, 0x1c, 0x3a, 0x9b, 0x00, 0x25,
  0x0f, 0x22, 0x3c, 0x19, 0x4a, 0x9c, 0x39, 0x19, 0x74, 0x20, 0x58, 0x21,
  0x46, 0x06, 0x8f, 0x1d, 0x6d, 0x1f, 0x6b, 0xa1, 0x57, 0x91, 0xe8, 0x88,
  0x64, 0x87, 0x17, 0x15, 0x1a, 0x9c, 0x29, 0x21, 0x8b, 0x1f, 0x3e, 0x9d,
  0xa0, 0x9a, 0xa5, 0x1c, 0x10, 0x22, 0x0c, 0x20, 0xc2, 0x0e, 0xfe, 0x18,
  0x45, 0x21, 0xd5, 0x9f, 0xf8, 0x08, 0x01, 0x9b, 0xcf, 0x1d, 0x6a, 0x1c,
  0x36, 0x97, 0xe8, 0x21, 0xdc, 0x22, 0x8d, 0x8f, 0x13, 0x9c, 0x6f, 0x1c,
  0x0c, 0x21, 0x01, 0x1c, 0x06, 0x1c, 0x93, 0x1a, 0x79, 0x21, 0xb5, 0x9a,
  0xca, 0x1c, 0x62, 0x98, 0x9a, 0x1f, 0xb4, 0x1a, 0x53, 0x17, 0x3c, 0x20,
  0x27, 0x95, 0xa7, 0x14, 0x0c, 0x9d, 0x27, 0x1a, 0x7d, 0x1f, 0x67, 0x1e,
  0x1b, 0x18, 0x40, 0x19, 0x21, 0x1f, 0x09, 0xa0, 0xfb, 0x18, 0x1e, 0x9c,
  0x8f, 0x20, 0xf1, 0xa2, 0x73, 0x8e, 0xc9, 0x21, 0x4e, 0x21, 0x64, 0x1b,
  0x8b, 0x9a, 0xc1, 0x93, 0xbb, 0x1c, 0x5d, 0x1c, 0xfb, 0x9c, 0x9d, 0x18,
  0x28, 0x08, 0x1d, 0x19, 0x65, 0x1c, 0x4c, 0x9f, 0x38, 0x22, 0xa0, 0x93,
  0xbd, 0x9b, 0x3e, 0x21, 0xda, 0x1e, 0x4b, 0x19, 0x2f, 0xa0, 0x29, 0x9f,
  0xc0, 0x14, 0x2e, 0x1f, 0xcb, 0x15, 0x89, 0x94, 0x3f, 0x15, 0xb0, 0x10,
  0x19, 0x1a, 0xb6, 0x9c, 0x27, 0x20, 0xe7, 0x14, 0xb2, 0x19, 0xef, 0x1b,
  0xcc, 0x97, 0x56, 0x11, 0xc7, 0x9e, 0x13, 0x94, 0xba, 0x1f, 0x67, 0x1f,
  0x20, 0x98, 0xe4, 0x18, 0x41, 0x94, 0x13, 0x1e, 0x0b, 0x03, 0x38, 0xa2,
  0x62, 0x22, 0xca, 0x13, 0xaf, 0x1e, 0xdd, 0x19, 0xc8, 0x18, 0xe3, 0x13,
  0xc5, 0xa0, 0xca, 0xa0, 0x11, 0x9a, 0xb7, 0x1d, 0x71, 0x93, 0x43, 0x1f,
  0x02, 0x9e, 0x1a, 0x20, 0x02, 0x19, 0x1e, 0xa0, 0x3f, 0x22, 0x7f, 0x95,
  0x48, 0x19, 0x93, 0x1d, 0x3c, 0x1b, 0x8b, 0x94, 0xef, 0x9b, 0x42, 0x01,
  0x0d, 0x21, 0xc7, 0x1b, 0x2d, 0x0f, 0xab, 0x91, 0x09, 0x9e, 0x75, 0x20,
  0x70, 0x1b, 0x3c, 0x9a, 0xdb, 0x24, 0x10, 0x1c, 0xfb, 0x14, 0x4a, 0x17,
  0x29, 0x1c, 0x10, 0x99, 0x80, 0x9e, 0xe7, 0x9d, 0xfa, 0x9c, 0x16, 0x1f,
  0xcf, 0x18, 0x7c, 0x91, 0xe4, 0x9f, 0x24, 0x1d, 0x8d, 0x95, 0x89, 0x9e,
  0xaa, 0x92, 0x05, 0x15, 0x7b, 0x95, 0xc1, 0x1e, 0xf3, 0x87, 0xae, 0x0e,
  0x61, 0x95, 0x8c, 0x15, 0xf8, 0x16, 0x69, 0x20, 0xcd, 0x14, 0xb8, 0x9c,
  0xb0, 0x9f, 0x2c, 0x21, 0x07, 0x18, 0x13, 0x9d, 0x26, 0x22, 0x5f, 0x98,
  0xde, 0x90, 0xcf, 0x1c, 0x4c, 0x98, 0x5b, 0x00, 0x79, 0x19, 0xc2, 0x19,
  0xe6, 0x98, 0x87, 0x97, 0x5b, 0x19, 0xac, 0x9c, 0x53, 0x9e, 0xdb, 0x1a,
  0xcc, 0x14, 0xda, 0x9f, 0x9a, 0x17, 0x23, 0x92, 0xe7, 0x8e, 0x38, 0x19,
  0x81, 0x98, 0x17, 0x98, 0x5d, 0x19, 0xaf, 0x12, 0x8e, 0x21, 0xf7, 0x97,
  0xe6, 0x9b, 0xc5, 0x9a, 0x35, 0x9f, 0x0a, 0x14, 0x27, 0x9d, 0x38, 0x0d,
  0x78, 0x1d, 0x4c, 0x8f, 0x59, 0x98, 0x27, 0x12, 0x4e, 0x99, 0xb9, 0x9c,
  0xb4, 0x1e, 0x5c, 0x8c, 0x9b, 0x1c, 0x6f, 0x1b, 0x02, 0x99, 0x4c, 0x9d,
  0xd0, 0xa1, 0x3b, 0x16, 0x89, 0x9b, 0xe0, 0x1c, 0x9a, 0x1f, 0x65, 0x18,
  0x6e, 0x9d, 0xb6, 0x18, 0x0a, 0x93, 0x5d, 0x9c, 0xb7, 0x20, 0x05, 0x99,
  0x46, 0x1c, 0x9e, 0x94, 0x10, 0x81, 0x52, 0x97, 0x5d, 0x9b, 0xe5, 0x80,
  0xb6, 0x9c, 0x8f, 0x17, 0xd4, 0x1f, 0x44, 0x1c, 0xf3, 0x9c, 0x8b, 0x0a,
  0x44, 0x9f, 0x95, 0xa0, 0xaf, 0x1f, 0x45, 0x10, 0x4e, 0x93, 0x36, 0x1a,
  0xb8, 0x16, 0x2f, 0x1e, 0xe0, 0x9a, 0x33, 0x14, 0x44, 0x9c, 0x17, 0x21,
  0x45, 0x1b, 0xf5, 0x1c, 0xc4, 0x9b, 0xb9, 0x13, 0xef, 0x9d, 0x04, 0x8d,
  0xc4, 0x1c, 0xc5, 0x98, 0x83, 0x1c, 0x63, 0x86, 0x0c, 0x95, 0x96, 0x98,
  0xec, 0x1c, 0x60, 0x98, 0x37, 0xa1, 0x8d, 0x20, 0x95, 0x15, 0xdd, 0x09,
  0xb0, 0x9d, 0xb6, 0x9a, 0xcb, 0xa0, 0xa7, 0x9e, 0x49, 0x1e, 0xa2, 0x9b,
  0x81, 0x0c, 0x07, 0x9c, 0xcc, 0x9d, 0x22, 0x10, 0x96, 0x16, 0x0f, 0x9d,
  0xac, 0x97, 0xbc, 0x19, 0x8d, 0x0c, 0xbe, 0x99, 0x26, 0x9a, 0x0e, 0x15,
  0x7a, 0xa0, 0x18, 0x97, 0xa3, 0x1c, 0x86, 0x14, 0x96, 0x90, 0x55, 0x96,
  0x81, 0x9d, 0xb3, 0x93, 0xcf, 0x16, 0x0d, 0x9c, 0xbd, 0x93, 0x38, 0x20,
  0x9b, 0x12, 0x47, 0x8b, 0xc2, 0x98, 0xb9, 0x9e, 0xca, 0x9f, 0xc9, 0x99,
  0xe0, 0x1d, 0xff, 0x80, 0xb0, 0x98, 0x2c, 0x17, 0x23, 0x1d, 0x3e, 0x19,
  0x85, 0x91, 0x61, 0x9d, 0xc0, 0x99, 0xa4, 0x1d, 0x3c, 0x96, 0x4e, 0x97,
  0xf7, 0x96, 0xf5, 0xa1, 0x2f, 0x9d, 0x64, 0xa0, 0x93, 0x21, 0x49, 0x18,
  0x70, 0x11, 0xdb, 0x9b, 0xc9, 0x15, 0x52, 0x9b, 0x10, 0x1c, 0x56, 0x9c,
  0x0d, 0x93, 0xb8, 0x1b, 0x80, 0x97, 0x53, 0x91, 0xcd, 0x9d, 0x1a, 0x9d,
  0xc6, 0x99, 0x37, 0x95, 0x99, 0x22, 0xc7, 0x9b, 0x9c, 0x9e, 0xdf, 0x15,
  0xae, 0x15, 0x9b, 0x1e, 0xe8, 0x18, 0xc6, 0x9d, 0x5a, 0x19, 0xf2, 0x1d,
  0x4a, 0x95, 0x0a, 0x9c, 0x1a, 0x20, 0x1b, 0x9c, 0xfa, 0xa0, 0xc4, 0x98,
  0xe3, 0x20, 0x67, 0x94, 0xe5, 0x95, 0x97, 0x98, 0x37, 0x8e, 0x3f, 0x14,
  0x35, 0x19, 0xaa, 0x9e, 0x4b, 0x9b, 0x0b, 0x19, 0xf3, 0x8f, 0x8a, 0x99,
  0xb2, 0x9a, 0xb7, 0x9c, 0x32, 0x9a, 0xf5, 0x99, 0x0d, 0x21, 0x69, 0x94,
  0x01, 0x9d, 0x4d, 0x9c, 0x7a, 0x9c, 0xf0, 0x19, 0x31, 0x17, 0xb9, 0x99,
  0x91, 0x84, 0x64, 0x21, 0xca, 0x9e, 0xb3, 0x95, 0xb8, 0x1c, 0x08, 0x9e,
  0x93, 0x9d, 0x09, 0x11, 0xcc, 0x1e, 0x57, 0x98, 0x6e, 0x93, 0xf2, 0x9e,
  0x55, 0x9a, 0x7d, 0x18, 0x82, 0x1c, 0x38, 0x98, 0x89, 0x9c, 0xe6, 0x20,
  0xef, 0x91, 0xe8, 0x08, 0x63, 0x9c, 0x40, 0x9b, 0x60, 0x9e, 0xfa, 0x16,
  0x01, 0x1e, 0x69, 0x9c, 0xc3, 0x95, 0x81, 0x94, 0xf7, 0x95, 0x47, 0x19,
  0xf8, 0x1d, 0xee, 0x17, 0xd5, 0x99, 0xbc, 0x19, 0x23, 0x9e, 0xcb, 0x9c,
  0x97, 0x14, 0xd2, 0x9c, 0x2b, 0x9b, 0xee, 0x9a, 0x33, 0x1e, 0x4c, 0x12,
  0x47, 0x97, 0x96, 0x9c, 0xc4, 0x9f, 0x30, 0x15, 0x47, 0x1b, 0x9d, 0x1b,
  0x2d, 0x16, 0x4f, 0x1b, 0x14, 0x91, 0x4c, 0x9e, 0xd4, 0x1b, 0xdb, 0x9c,
  0x19, 0x98, 0x16, 0x9b, 0x10, 0x1c, 0xa8, 0x94, 0xec, 0x9c, 0xec, 0x9d,
  0xa7, 0x1d, 0x3c, 0x98, 0x42, 0x1d, 0x1c, 0x17, 0xea, 0x1a, 0x19, 0x1d,
  0x5d, 0x9b, 0xe7, 0x82, 0xe4, 0x9a, 0x86, 0x99, 0x8a, 0x86, 0xf4, 0x98,
  0x0b, 0x1c, 0xcc, 0x10, 0x85, 0x9c, 0x8e, 0x94, 0x95, 0x1b, 0x3e, 0x18,
  0x9b, 0x18, 0x3c, 0x1c, 0x8b, 0x9b, 0x49, 0x14, 0x12, 0x9d, 0x8e, 0x99,
  0xe9, 0x95, 0xb4, 0x9c, 0xac, 0x97, 0xcf, 0x93, 0x5a, 0x9c, 0x33, 0x8b,
  0x62, 0x99, 0x5b, 0x9e, 0x42, 0xa0, 0x6d, 0x18, 0x70, 0x19, 0x2d, 0x1a,
  0x44, 0x99, 0x73, 0x96, 0xca, 0x9f, 0x7d, 0x18, 0x8b, 0x99, 0x98, 0x10,
  0x2c, 0x1d, 0xd7, 0x97, 0x75, 0x0e, 0x15, 0x0f, 0xa7, 0x94, 0x9f, 0x9a,
  0xed, 0x99, 0x12, 0x1c, 0xa8, 0x1d, 0xff, 0x1a, 0x14, 0xa0, 0xc5, 0x98,
  0x75, 0x9d, 0x98, 0x14, 0xfc, 0x98, 0xe3, 0x1c, 0x49, 0x18, 0x27, 0x9f,
  0x1f, 0xa1, 0xdc, 0x17, 0x0e, 0x9e, 0x11, 0x94, 0x0a, 0x99, 0xfa, 0x9d,
  0xed, 0x18, 0x10, 0x1f, 0x46, 0x98, 0x3e, 0x99, 0x49, 0xa0, 0x11, 0x96,
  0x01, 0x8c, 0x5d, 0x20, 0x49, 0x1e, 0x61, 0x96, 0x13, 0x1b, 0x64, 0x15,
  0x0d, 0x9b, 0x78, 0x9d, 0x8e, 0x1e, 0x8d, 0xa0, 0xe0, 0x19, 0x89, 0x1c,
  0xe2, 0x0d, 0x3c, 0x9c, 0xa7, 0x9c, 0x32, 0x98, 0x82, 0x8c, 0xb4, 0x21,
  0x98, 0x1d, 0xf9, 0x16, 0xe6, 0x18, 0xb7, 0x1c, 0x38, 0x9d, 0xb4, 0x9d,
  0x8b, 0x9f, 0xea, 0x9d, 0x74, 0xa0, 0x32, 0x1c, 0x65, 0x1b, 0xda, 0x9d,
  0xf6, 0x9d, 0x15, 0x17, 0xea, 0x98, 0x82, 0x16, 0xe0, 0x21, 0xea, 0x0b,
  0x4d, 0x98, 0x23, 0x16, 0x66, 0x9d, 0x08, 0x9f, 0x0a, 0x9c, 0x5a, 0x8f,
  0x82, 0x9b, 0x31, 0x16, 0x6c, 0x19, 0x6c, 0xa1, 0x16, 0x9c, 0x9c, 0x94,
  0x36, 0x8d, 0x2e, 0x20, 0xfd, 0x1d, 0x8b, 0x92, 0x89, 0x94, 0x8c, 0x1a,
  0x87, 0x93, 0xc0, 0xa2, 0x32, 0x95, 0x58, 0x1f, 0x83, 0x1b, 0x7b, 0x1a,
  0xd1, 0x91, 0x64, 0x9e, 0x07, 0x9d, 0x24, 0x98, 0x19, 0x9a, 0x46, 0x1f,
  0x13, 0x1d, 0x93, 0x1a, 0x24, 0x0f, 0xb9, 0x17, 0x80, 0x98, 0x30, 0xa0,
  0x87, 0x9a, 0x9d, 0x1a, 0xf5, 0x95, 0x88, 0x15, 0x38, 0x0e, 0x9e, 0xa0,
  0x4c, 0x9c, 0x97, 0x9a, 0x8a, 0x18, 0x68, 0x22, 0x6d, 0x1e, 0xbd, 0x1a,
  0x20, 0x9c, 0x7d, 0x8d, 0x8d, 0x99, 0xab, 0x98, 0xc4, 0x95, 0x60, 0x18,
  0xd5, 0x98, 0x4e, 0x14, 0x36, 0x10, 0x44, 0x9e, 0xa2, 0x16, 0x23, 0x99,
  0x6a, 0x9a, 0xfb, 0x1e, 0x17, 0x17, 0x73, 0x19, 0x14, 0x98, 0xe6, 0x99,
  0xf8, 0x9d, 0x60, 0x9d, 0xa0, 0x99, 0x01, 0x94, 0xe1, 0x94, 0x00, 0x15,
  0x85, 0x15, 0x54, 0xa0, 0x7f, 0x9c, 0xcf, 0x96, 0xd0, 0x19, 0x14, 0x1e,
  0x77, 0x1c, 0x99, 0x19, 0x4f, 0xa1, 0x7c, 0x19, 0x62, 0x95, 0x71, 0xa1,
  0x9d, 0x19, 0xcd, 0x9e, 0xbc, 0x98, 0x3d, 0x9d, 0x95, 0x1c, 0x2c, 0xa3,
  0xa7, 0x95, 0x8d, 0x9c, 0x91, 0x92, 0xb2, 0x1e, 0xe7, 0x1c, 0x3b, 0x18,
  0xd6, 0x1a, 0xfd, 0x18, 0x12, 0x8e, 0x53, 0x9c, 0x3e, 0x98, 0x06, 0xa0,
  0x3b, 0x9a, 0xc8, 0x12, 0x04, 0x1b, 0x03, 0x9d, 0xff, 0x1a, 0x5d, 0x98,
  0x7a, 0x0d, 0x3b, 0x19, 0xff, 0x1c, 0xf1, 0x17, 0x11, 0x9e, 0x10, 0x92,
  0x19, 0x9c, 0x50, 0x9a, 0x70, 0x1f, 0x2f, 0x9b, 0xd0, 0x14, 0x68, 0x1a,
  0xd1, 0x1c, 0x0b, 0xa3, 0x92, 0x1c, 0x47, 0x11, 0xdf, 0x8f, 0x03, 0x15,
  0xc7, 0x03, 0xbd, 0x1c, 0x44, 0x9a, 0x84, 0x88, 0x13, 0x18, 0x78, 0x9e,
  0xb5, 0x1a, 0xd3, 0x99, 0x48, 0x99, 0x62, 0x1b, 0xe5, 0x03, 0x7f, 0x9d,
  0xa3, 0x83, 0xba, 0x18, 0xfa, 0x8e, 0x3c, 0x99, 0x0e, 0x1e, 0x0b, 0x1d,
  0xc6, 0x92, 0x51, 0x18, 0xf7, 0x92, 0x8e, 0x9b, 0x45, 0x95, 0xc0, 0x1c,
  0xf1, 0x15, 0x91, 0x14, 0xa8, 0x9e, 0x3c, 0x9c, 0x34, 0x9e, 0xd4, 0x94,
  0x7d, 0x95, 0xd7, 0x9c, 0x21, 0x9a, 0x62, 0x0c, 0x96, 0x12, 0x54, 0x95,
  0x1f, 0x19, 0x8d, 0x12, 0x37, 0x9b, 0x54, 0x18, 0xdb, 0x15, 0xe6, 0x9d,
  0x88, 0x87, 0xbb, 0x93, 0x2d, 0x9f, 0x14, 0x1c, 0x0a, 0x99, 0x46, 0x9d,
  0xc2, 0x98, 0x47, 0x1b, 0x7f, 0x1c, 0x06, 0x9d, 0xbb, 0x1a, 0x4a, 0x15,
  0x1c, 0x94, 0xff, 0x13, 0xbc, 0x15, 0x05, 0x11, 0x3e, 0x9a, 0x0b, 0x8d,
  0xc6, 0x1a, 0x71, 0x1c, 0x6d, 0x96, 0x4b, 0x9b, 0x11, 0x9a, 0x00, 0x17,
  0x42, 0x17, 0xeb, 0x99, 0x96, 0x1a, 0x01, 0x9d, 0x47, 0x9c, 0x0b, 0x91,
  0x5e, 0x94, 0x4d, 0x12, 0xcd, 0x08, 0xca, 0x15, 0x9b, 0x1b, 0xd0, 0x1d,
  0x98, 0x10, 0x5d, 0x9b, 0xa1, 0x98, 0xf4, 0x1d, 0xe4, 0x8e, 0xd8, 0x99,
  0xa1, 0x1a, 0x8d, 0x95, 0x47, 0x17, 0x25, 0x14, 0x89, 0x99, 0x7a, 0x1d,
  0x46, 0x96, 0x09, 0x16, 0x19, 0x18, 0x3a, 0x1c, 0x11, 0x11, 0xb4, 0x96,
  0x77, 0x9b, 0x73, 0x0c, 0xca, 0x17, 0xea, 0x9b, 0x47, 0x18, 0x71, 0x98,
  0xad, 0x1d, 0xa5, 0x98, 0xd8, 0x1a, 0x16, 0x16, 0x34, 0x9e, 0x31, 0x16,
  0xa9, 0x1d, 0xe4, 0x84, 0xfd, 0x90, 0xfa, 0x96, 0x7e, 0x9e, 0x26, 0x96,
  0xc5, 0x99, 0xe9, 0x97, 0xcf, 0x15, 0x2b, 0x18, 0xc4, 0x20, 0x1b, 0x99,
  0xff, 0x19, 0xdd, 0x1a, 0x68, 0x93, 0x0a, 0x10, 0x52, 0x1d, 0xeb, 0x1b,
  0x52, 0x18, 0x21, 0x9c, 0xa0, 0x9a, 0x85, 0x9a, 0x6c, 0x91, 0x8a, 0x98,
  0x8c, 0x19, 0x22, 0x0b, 0xa0, 0x1a, 0x70, 0x99, 0x25, 0x1b, 0xdf, 0x9a,
  0x9f, 0x96, 0x5f, 0x1b, 0xbc, 0x1d, 0x5b, 0x93, 0x9f, 0x9d, 0x75, 0x9c,
  0xd2, 0x9c, 0xd2, 0x99, 0x22, 0x86, 0xc6, 0x98, 0x33, 0x1c, 0xb4, 0x96,
  0xd3, 0x12, 0x54, 0x1b, 0x2a, 0x92, 0x19, 0x95, 0xd4, 0x02, 0x07, 0x19,
  0xf0, 0x1d, 0xa7, 0x18, 0xc4, 0x9a, 0x7b, 0x9a, 0x2c, 0x9d, 0xb0, 0x8b,
  0xeb, 0x95, 0x97, 0x86, 0x99, 0x95, 0xe6, 0x13, 0x37, 0x15, 0x4f, 0x19,
  0x46, 0x99, 0xb1, 0x98, 0xb9, 0x12, 0x85, 0x98, 0xb5, 0x1c, 0x79, 0x96,
  0xcd, 0x99, 0x98, 0x9a, 0x2e, 0x15, 0x68, 0x9e, 0x3d, 0x94, 0x55, 0x18,
  0x80, 0x12, 0xc8, 0x00, 0xb5, 0x97, 0xd4, 0x10, 0x52, 0x1f, 0x26, 0x87,
  0x79, 0x8d, 0xe1, 0x94, 0x8d, 0x13, 0xda, 0x15, 0x69, 0x99, 0xe2, 0x1a,
  0xe6, 0x96, 0x88, 0xa0, 0x8a, 0x17, 0x94, 0x96, 0xa2, 0x13, 0xa5, 0x97,
  0x92, 0x99, 0xca, 0x9e, 0xae, 0x9c, 0x8f, 0x9c, 0x5d, 0x1a, 0x7a, 0x98,
  0xe0, 0x18, 0xba, 0x95, 0x3b, 0x98, 0x4c, 0x93, 0xf3, 0x19, 0x78, 0xa1,
  0xdf, 0x0c, 0x78, 0x93, 0xbc, 0x96, 0x7c, 0x95, 0x06, 0x8d, 0xeb, 0xa2,
  0xd1, 0x16, 0x27, 0x9b, 0xa9, 0x08, 0x17, 0x0d, 0xfb, 0x14, 0x5e, 0x0a,
  0x96, 0x16, 0x9c, 0x80, 0x07, 0x97, 0x57, 0xa0, 0x02, 0x92, 0x35, 0x95,
  0x81, 0x9c, 0xc6, 0x95, 0x52, 0x0e, 0x17, 0x9d, 0x29, 0x98, 0x5d, 0x01,
  0xc8, 0x96, 0x06, 0x18, 0xde, 0x18, 0x78, 0x9d, 0x95, 0x97, 0xd3, 0xa0,
  0x38, 0x80, 0x99, 0x9e, 0x38, 0x1a, 0x0d, 0x9b, 0x81, 0x9c, 0x97, 0x9c,
  0x2f, 0x1a, 0x0b, 0x95, 0x1e, 0x94, 0x89, 0x91, 0x8d, 0x92, 0x92, 0x17,
  0xf2, 0x17, 0x09, 0x96, 0x3a, 0x18, 0xdf, 0x10, 0x5d, 0x1a, 0x1e, 0x9a,
  0x3f, 0x99, 0xe4, 0x14, 0x3f, 0x91, 0x12, 0x16, 0xf3, 0x1e, 0xb1, 0x18,
  0xcc, 0x98, 0x7f, 0x92, 0x02, 0x98, 0xd0, 0x94, 0x44, 0x98, 0xfc, 0x98,
  0x88, 0x94, 0x57, 0x9a, 0x86, 0x1a, 0xf9, 0x9f, 0x5a, 0x9d, 0x41, 0x1d,
  0xa5, 0x94, 0x22, 0x9d, 0x01, 0x8a, 0xca, 0x1c, 0x30, 0x96, 0xa7, 0x0d,
  0x06, 0x9b, 0x5a, 0x9f, 0xaa, 0x9a, 0x0a, 0x99, 0x4b, 0x18, 0x52, 0x98,
  0x1e, 0x17, 0xcc, 0x9b, 0x93, 0x8c, 0xcb, 0x19, 0x8f, 0x9f, 0x6d, 0x9c,
  0xcd, 0x9c, 0x12, 0x1e, 0xdd, 0x80, 0xee, 0x98, 0x21, 0xa0, 0xce, 0x9a,
  0x05, 0x8c, 0xad, 0x9e, 0x79, 0xa1, 0x64, 0x9a, 0xd9, 0x0b, 0xff, 0x99,
  0x82, 0x9f, 0x12, 0x20, 0x21, 0x97, 0x3a, 0x94, 0xcb, 0x0c, 0x7a, 0x95,
  0x7f, 0xa2, 0xed, 0x0a, 0xa1, 0xa0, 0xb6, 0x99, 0x46, 0x84, 0x4d, 0x97,
  0x3d, 0x9d, 0xbb, 0x93, 0x73, 0x16, 0x2f, 0xa2, 0x2f, 0x9a, 0xa6, 0x18,
  0x2f, 0x1a, 0x00, 0x0a, 0x30, 0x1a, 0xb6, 0x9c, 0xea, 0x9d, 0x61, 0x1c,
  0x1d, 0x9c, 0xfe, 0x9c, 0xa1, 0x18, 0x75, 0x9b, 0x5b, 0x9c, 0x1b, 0x9b,
  0xa1, 0x1b, 0x3d, 0x94, 0x13, 0x9d, 0x2e, 0x1d, 0x26, 0x99, 0x0c, 0x96,
  0x76, 0x18, 0x36, 0x98, 0x46, 0x9a, 0xb6, 0x1e, 0xe0, 0x9f, 0xe7, 0x97,
  0x19, 0x0d, 0x5e, 0x9a, 0xe0, 0xa2, 0x5f, 0x9c, 0x29, 0x1a, 0x56, 0x92,
  0x11, 0x9b, 0xc9, 0x1f, 0xd8, 0x14, 0x6e, 0x98, 0x54, 0x93, 0xf7, 0x98,
  0x22, 0x99, 0x4d, 0x90, 0x11, 0x99, 0x05, 0x92, 0x01, 0x19, 0x84, 0x9f,
  0x1d, 0x9c, 0x5b, 0x9c, 0x52, 0x17, 0x33, 0xa0, 0x96, 0x98, 0x6c, 0x1e,
  0xa2, 0x9d, 0x67, 0x8e, 0xf1, 0x1c, 0x38, 0x95, 0x8c, 0x9f, 0x92, 0x92,
  0xaa, 0x17, 0x41, 0x9a, 0x0c, 0x20, 0x8b, 0x9e, 0x91, 0x9b, 0x75, 0x16,
  0xbe, 0x14, 0x4c, 0x9a, 0x36, 0x9d, 0xd8, 0x14, 0x01, 0x94, 0x3a, 0x1c,
  0xa3, 0x1a, 0x87, 0x1c, 0x10, 0x16, 0x09, 0x91, 0x1c, 0x97, 0x67, 0x97,
  0x4c, 0x17, 0x15, 0x9e, 0x3f, 0x98, 0x8e, 0x9b, 0x83, 0x8a, 0x94, 0x9c,
  0xec, 0x99, 0x94, 0x1d, 0xfc, 0x99, 0x9c, 0x16, 0x86, 0x9a, 0x04, 0x12,
  0x4a, 0x1b, 0xb0, 0x99, 0x06, 0x9d, 0x95, 0x96, 0xc9, 0x15, 0x9e, 0xa0,
  0x28, 0x95, 0xb6, 0x90, 0xa8, 0x91, 0xb3, 0x19, 0x47, 0x90, 0x49, 0x1e,
  0x17, 0xa0, 0x9c, 0x18, 0x12, 0x9d, 0xd1, 0x93, 0x47, 0x17, 0x15, 0x9c,
  0x52, 0x9c, 0xa1, 0x1b, 0xe4, 0x15, 0xca, 0x9c, 0xc4, 0x96, 0xc3, 0x9a,
  0xc3, 0x91, 0x73, 0x1c, 0xf9, 0x9a, 0x35, 0x1c, 0xba, 0x99, 0xa8, 0x9c,
  0xc8, 0x19, 0xeb, 0x99, 0x0a, 0x8f, 0xd1, 0x92, 0x5f, 0x96, 0xbb, 0x1c,
  0x8e, 0x9c, 0x44, 0x98, 0xd6, 0x98, 0x29, 0x9b, 0xf5, 0x18, 0x8d, 0x1d,
  0xfb, 0x9d, 0xb0, 0x1d, 0x5a, 0x92, 0x1a, 0x1e, 0xa2, 0x9c, 0x03, 0xa1,
  0xc2, 0x8d, 0x03, 0x95, 0xab, 0x14, 0xab, 0x92, 0x16, 0x18, 0x9b, 0xa0,
  0xb6, 0x9a, 0x01, 0x9f, 0xe0, 0x9a, 0x90, 0x1d, 0xc0, 0x9c, 0x10, 0x1d,
  0xe6, 0xa0, 0x23, 0x85, 0x85, 0x0f, 0x6f, 0x98, 0x3b, 0x12, 0x6c, 0x90,
  0x56, 0x98, 0x26, 0x9f, 0x05, 0x06, 0xb0, 0x9d, 0xeb, 0x16, 0x63, 0x9d,
  0x6d, 0x98, 0x00, 0x17, 0x03, 0x9f, 0xc5, 0x14, 0xb0, 0x14, 0x3e, 0x12,
  0xd4, 0x1d, 0x99, 0x15, 0xc1, 0x9d, 0x2d, 0x9a, 0x92, 0x94, 0x9a, 0x94,
  0x58, 0x10, 0xc0, 0x9c, 0xbc, 0x93, 0x5d, 0x99, 0xd2, 0x16, 0xb0, 0x1e,
  0xe3, 0x99, 0x34, 0x1f, 0xf5, 0x9e, 0xbc, 0x1c, 0x88, 0x89, 0x4c, 0x1e,
  0xaf, 0x16, 0x28, 0x95, 0x3e, 0x95, 0x89, 0x91, 0x9f, 0x8c, 0x2c, 0x9d,
  0x2c, 0x89, 0x53, 0x9e, 0xb4, 0x9d, 0xff, 0x1a, 0xd3, 0x98, 0x67, 0x19,
  0xe9, 0x18, 0x2c, 0x1c, 0xef, 0x19, 0xe0, 0x18, 0xd1, 0x99, 0xfb, 0x9d,
  0x24, 0x09, 0x84, 0x12, 0xc5, 0x9c, 0xd3, 0x9c, 0x9c, 0x96, 0xa8, 0x9c,
  0x71, 0x94, 0x31, 0x1e, 0x3c, 0x94, 0x0e, 0x1b, 0x00, 0x9c, 0x68, 0x20,
  0x8b, 0x9b, 0x3a, 0x9c, 0x37, 0x91, 0x48, 0x16, 0x4d, 0x19, 0x3c, 0x98,
  0x6e, 0x9c, 0xd9, 0x9f, 0x27, 0x18, 0xcb, 0xa0, 0xd9, 0x94, 0x28, 0x04,
  0xe3, 0x9c, 0x1f, 0x1f, 0xd4, 0x17, 0x7b, 0x20, 0xd3, 0x0d, 0xba, 0x9b,
  0x40, 0x1d, 0x53, 0x1b, 0x8f, 0x13, 0x74, 0x90, 0xf5, 0xa1, 0x49, 0x99,
  0x4d, 0x9c, 0x1f, 0x9c, 0xbb, 0x0d, 0xe0, 0x1c, 0xcf, 0x97, 0xd7, 0x18,
  0x9d, 0x94, 0x56, 0x1e, 0x03, 0x1b, 0x14, 0x9e, 0x83, 0x1d, 0xad, 0x18,
  0xb1, 0x10, 0x5c, 0x99, 0x89, 0x95, 0xd7, 0x9c, 0xe9, 0x18, 0xa3, 0x10,
  0x92, 0x9a, 0x0f, 0x17, 0x0c, 0x9e, 0x7d, 0x93, 0x5e, 0x99, 0x45, 0x20,
  0xc0, 0x99, 0x0b, 0x99, 0xe7, 0x16, 0x5d, 0x9d, 0x89, 0x8d, 0x5c, 0x0d,
  0xcb, 0xa1, 0x35, 0x9c, 0xb2, 0x8c, 0x88, 0x98, 0xc2, 0x96, 0x8d, 0x1b,
  0x2f, 0x9c, 0x9d, 0x13, 0xee, 0x1a, 0x44, 0x21, 0x89, 0x90, 0xef, 0x1a,
  0x66, 0x9e, 0x52, 0x9a, 0x94, 0x0e, 0x9b, 0x98, 0xce, 0x10, 0x35, 0xa1,
  0xfd, 0x93, 0xc6, 0x8c, 0xef, 0x98, 0x5d, 0x1a, 0xae, 0x99, 0xc8, 0x94,
  0x14, 0x1c, 0xbf, 0x1d, 0xe0, 0x19, 0x4f, 0x20, 0x56, 0x97, 0xfe, 0x97,
  0xcb, 0x9b, 0x4d, 0x95, 0xc1, 0x9f, 0xc3, 0x8f, 0x97, 0x15, 0xf6, 0x0f,
  0x95, 0x91, 0xb0, 0x1c, 0x16, 0x9d, 0x9d, 0x96, 0x9e, 0x1d, 0xc0, 0x22,
  0xae, 0x8e, 0xc1, 0x21, 0xb2, 0x98, 0xc2, 0x9c, 0x89, 0x1a, 0xd1, 0x91,
  0xe5, 0x93, 0xdb, 0x9c, 0x3b, 0x11, 0x17, 0x16, 0x70, 0x91, 0x93, 0x1c,
  0xe3, 0x9d, 0xad, 0x9b, 0xa3, 0x1d, 0xe7, 0x20, 0x65, 0x97, 0x3d, 0x8e,
  0xe1, 0x12, 0xcf, 0x9e, 0x2f, 0x1b, 0xd0, 0x94, 0xac, 0x95, 0x8d, 0x93,
  0x12, 0x18, 0x62, 0x9c, 0x08, 0x07, 0xc4, 0x1d, 0xbc, 0x9f, 0x96, 0x96,
  0xc3, 0x1c, 0x31, 0x1c, 0xee, 0x98, 0x5e, 0x01, 0x0b, 0xa1, 0xbd, 0x9b,
  0xb0, 0x90, 0x52, 0x0b, 0x12, 0x96, 0xb4, 0x00, 0xd5, 0x92, 0xcf, 0x99,
  0xc9, 0x9a, 0x5e, 0x18, 0x83, 0x9c, 0xe7, 0x9b, 0xb2, 0x19, 0xd6, 0x1f,
  0x36, 0x9d, 0xaf, 0x9e, 0xe4, 0xa2, 0x9c, 0x08, 0x5c, 0x14, 0xe0, 0x9c,
  0x50, 0x12, 0xe1, 0x98, 0xda, 0x94, 0x8d, 0x9a, 0x0a, 0x95, 0x8c, 0x1e,
  0x3a, 0x9b, 0x3f, 0x9b, 0xeb, 0x1d, 0x2f, 0x1e, 0x01, 0x18, 0xe1, 0x9a,
  0x48, 0x98, 0x35, 0x9a, 0xfa, 0x1a, 0x64, 0x9d, 0xed, 0x16, 0x77, 0x14,
  0xc7, 0x9b, 0xa4, 0x97, 0xc4, 0x99, 0x71, 0x1c, 0x1c, 0x9c, 0xcb, 0x95,
  0xb8, 0x1d, 0x8c, 0x1f, 0x98, 0x00, 0xba, 0x15, 0xcf, 0x1b, 0x33, 0xa0,
  0x93, 0x8b, 0x61, 0x9b, 0x20, 0x06, 0x62, 0x1b, 0x35, 0x18, 0x61, 0x97,
  0xaf, 0x8d, 0xd1, 0x1d, 0x6a, 0x9b, 0x37, 0x98, 0x1d, 0x20, 0x32, 0x1c,
  0x59, 0x9d, 0xfe, 0x1e, 0x64, 0x97, 0x0f, 0x95, 0x5f, 0xa0, 0x1a, 0x99,
  0x0f, 0x92, 0x02, 0x95, 0x78, 0x98, 0x95, 0x96, 0xc1, 0x11, 0x02, 0x1c,
  0x14, 0xa0, 0x83, 0x99, 0x5c, 0x1d, 0xd0, 0x21, 0x25, 0x9e, 0x2d, 0x93,
  0xfe, 0x96, 0x8e, 0xa1, 0x0f, 0x11, 0x6f, 0x06, 0x6e, 0x91, 0x42, 0x8f,
  0xf1, 0x99, 0xf3, 0x11, 0x7a, 0x92, 0x42, 0x1a, 0xe6, 0x93, 0xad, 0x9d,
  0xfd, 0x1b, 0xb4, 0x1c, 0x25, 0x9a, 0xbf, 0x1d, 0x79, 0x9d, 0x24, 0xa0,
  0xbc, 0x94, 0x2a, 0x99, 0x5f, 0x15, 0x72, 0x1a, 0x2d, 0x9c, 0xbb, 0x93,
  0x44, 0x14, 0xcb, 0x1c, 0xf1, 0x91, 0x3e, 0x97, 0x83, 0x1c, 0x4a, 0x19,
  0x75, 0x18, 0x4e, 0x95, 0x28, 0x19, 0x05, 0x9f, 0xb2, 0x11, 0x9b, 0x0a,
  0xdd, 0x90, 0x1b, 0x17, 0x3e, 0x17, 0xde, 0x14, 0x75, 0x88, 0x7e, 0x19,
  0x02, 0x96, 0x08, 0x9a, 0x04, 0x1e, 0x78, 0x1d, 0x8f, 0x99, 0x34, 0x9a,
  0xbd, 0x96, 0x92, 0x98, 0x8e, 0x1d, 0x54, 0x97, 0x3c, 0x88, 0x58, 0x15,
  0xc2, 0x10, 0x59, 0x14, 0xfd, 0x12, 0x66, 0x1c, 0xde, 0x99, 0x75, 0x9a,
  0x9e, 0x1c, 0x2d, 0x1c, 0xaa, 0x1c, 0x7d, 0x98, 0x09, 0x99, 0x63, 0x9d,
  0xfd, 0x13, 0x11, 0x19, 0xdc, 0x98, 0xcd, 0x19, 0x04, 0x9c, 0x37, 0x8f,
  0x33, 0x05, 0xad, 0x16, 0x20, 0x92, 0x44, 0x14, 0x6d, 0x18, 0x49, 0x20,
  0xf9, 0x11, 0x5a, 0x9d, 0x67, 0x92, 0x2b, 0x94, 0x72, 0x17, 0x04, 0x13,
  0xdc, 0x02, 0x86, 0x1a, 0x87, 0x95, 0x4f, 0x18, 0x33, 0x15, 0x4e, 0x1c,
  0x02, 0x9b, 0x70, 0x90, 0xa9, 0x1c, 0x7e, 0x19, 0x28, 0x20, 0x19, 0x9a,
  0x79, 0x96, 0x8b, 0x9d, 0x94, 0x1c, 0xda, 0xa1, 0x0a, 0x1b, 0x16, 0x17,
  0xc4, 0x88, 0xbc, 0x95, 0xcc, 0x92, 0x24, 0x19, 0x7f, 0x9a, 0x55, 0x9b,
  0xa5, 0x1a, 0x41, 0x1a, 0x4e, 0x18, 0xd1, 0x15, 0x87, 0x17, 0x58, 0xa0,
  0xb1, 0x0f, 0x77, 0xa0, 0xe3, 0x19, 0xf3, 0x15, 0x24, 0x94, 0x2a, 0x9d,
  0x8d, 0x0f, 0x67, 0x15, 0x63, 0x9b, 0x02, 0x91, 0x28, 0x1a, 0xfb, 0x94,
  0xc5, 0x14, 0x05, 0x19, 0x5a, 0x12, 0x89, 0x9c, 0x23, 0x9c, 0x8f, 0x9f,
  0x9e, 0x19, 0x77, 0x17, 0x7e, 0x94, 0x27, 0x99, 0x1b, 0x95, 0x1e, 0x97,
  0x82, 0x94, 0x04, 0x9a, 0x68, 0x12, 0x0a, 0x1a, 0x0a, 0x99, 0x36, 0x86,
  0xcb, 0x1c, 0x75, 0x90, 0x95, 0x0c, 0x17, 0x8f, 0xb6, 0x1c, 0xbe, 0x11,
  0x7a, 0x9b, 0x4e, 0x9e, 0xc4, 0x94, 0x0b, 0x9d, 0xd5, 0x99, 0xe3, 0x9c,
  0x8d, 0x1d, 0x70, 0x15, 0xbf, 0x9c, 0x2e, 0x94, 0x4e, 0x17, 0x45, 0x9f,
  0xb8, 0x97, 0x2b, 0x95, 0xc9, 0x1c, 0xc4, 0x18, 0x84, 0x9f, 0xb7, 0x9a,
  0x7f, 0x16, 0xa4, 0x9c, 0x71, 0x93, 0x38, 0x9e, 0x90, 0x90, 0xe9, 0x03,
  0x73, 0x96, 0x80, 0x9c, 0x1d, 0x96, 0x06, 0x94, 0x65, 0x9d, 0xd0, 0x89,
  0xcc, 0x0e, 0x3b, 0x93, 0x1f, 0x9e, 0xe4, 0x99, 0x46, 0x98, 0x8d, 0x9d,
  0x0e, 0x99, 0x7d, 0x97, 0xd4, 0x17, 0x03, 0x12, 0x22, 0x8e, 0xc4, 0x9f,
  0x2d, 0x0f, 0xbc, 0x0d, 0xd4, 0x9f, 0x94, 0x99, 0xa8, 0x1d, 0xc3, 0x96,
  0x44, 0x1a, 0xb8, 0x96, 0x61, 0x10, 0x2d, 0xa0, 0xf6, 0x8a, 0x6c, 0x9e,
  0x4e, 0x1d, 0x9a, 0x15, 0xa3, 0x20, 0x63, 0x92, 0x0c, 0x9b, 0x7d, 0x9f,
  0x63, 0x9a, 0x6b, 0x9a, 0x85, 0x1a, 0x0d, 0x96, 0xc2, 0x97, 0xe7, 0xa0,
  0x14, 0x0e, 0x57, 0x9c, 0x27, 0x9d, 0x64, 0x9e, 0x9b, 0x94, 0x72, 0x19,
  0x8f, 0x1f, 0x5b, 0x0c, 0x16, 0x9c, 0x30, 0x88, 0x41, 0x9c, 0x79, 0x91,
  0x27, 0x15, 0x01, 0x0c, 0x8b, 0x04, 0x7d, 0x90, 0xc8, 0x95, 0xba, 0xa0,
  0xe6, 0x98, 0x9b, 0x97, 0x20, 0x95, 0x01, 0x97, 0x0d, 0x16, 0x5b, 0x1a,
  0x6b, 0x9b, 0x5d, 0x99, 0x34, 0x98, 0xbb, 0x18, 0xb3, 0x19, 0x25, 0x16,
  0xde, 0x1b, 0x1a, 0x92, 0x14, 0x17, 0x1e, 0x9e, 0xc8, 0x8a, 0x55, 0x9d,
  0x45, 0x90, 0x0e, 0x94, 0xc4, 0x0e, 0x96, 0x8d, 0xe1, 0x00, 0x67, 0x92,
  0x99, 0x9d, 0xb1, 0x95, 0x3e, 0x19, 0x2e, 0x98, 0x47, 0x14, 0x5a, 0x91,
  0xc9, 0x12, 0xb9, 0x9d, 0x5c, 0x99, 0x5e, 0x94, 0x8c, 0x9c, 0x97, 0x98,
  0xc0, 0x18, 0xe6, 0x0b, 0xb8, 0x9c, 0x94, 0x96, 0x94, 0x9f, 0xfa, 0x95,
  0xe4, 0x0e, 0x7c, 0x91, 0x3b, 0x0b, 0x68, 0x14, 0xa8, 0x16, 0x38, 0x9b,
  0x0f, 0x9b, 0x9c, 0x9c, 0x58, 0x9c, 0x47, 0x99, 0x65, 0x9c, 0x33, 0x9d,
  0xc0, 0x9b, 0x83, 0x1e, 0x6e, 0x9c, 0x85, 0x9a, 0xc3, 0x8c, 0xa5, 0x8e,
  0x6d, 0x14, 0x04, 0x8c, 0x7d, 0x95, 0x94, 0x9c, 0x4e, 0x98, 0x79, 0x99,
  0x81, 0x98, 0x4c, 0x9a, 0x92, 0x8e, 0x6a, 0x9e, 0x66, 0x94, 0x67, 0x09,
  0x90, 0x9b, 0x4a, 0x9a, 0x74, 0x96, 0xeb, 0x9e, 0x1d, 0xa1, 0x61, 0x1a,
  0x79, 0x1a, 0x7b, 0x9c, 0x8d, 0x0b, 0x1f, 0x99, 0x46, 0x9d, 0xc2, 0xa0,
  0x70, 0x98, 0xa6, 0x98, 0xd6, 0x94, 0x66, 0x1c, 0xcd, 0x9e, 0x72, 0x9a,
  0xc9, 0x13, 0x29, 0x9e, 0x0e, 0x92, 0x2d, 0x98, 0xcd, 0x14, 0x7c, 0x9f,
  0x58, 0x10, 0xec, 0x93, 0xcf, 0x9d, 0x18, 0x9e, 0xa5, 0x17, 0xc3, 0x80,
  0xb5, 0x96, 0xc5, 0x19, 0x0b, 0x19, 0x97, 0x9d, 0xa7, 0x90, 0x91, 0x9a,
  0x50, 0xa0, 0x1f, 0x10, 0x7d, 0x11, 0xce, 0x9c, 0xb6, 0x95, 0x20, 0x93,
  0x6d, 0x9c, 0x76, 0x9e, 0xa0, 0x0e, 0x57, 0x13, 0xcc, 0xa1, 0x03, 0x06,
  0xcf, 0x11, 0xcc, 0x0d, 0xec, 0x89, 0x0c, 0x9a, 0x56, 0x9d, 0xa3, 0x97,
  0xc5, 0x16, 0x8b, 0x9a, 0xd1, 0x9d, 0xe7, 0x0d, 0x02, 0xa0, 0xef, 0xa0,
  0x76, 0x96, 0x9c, 0x08, 0x09, 0x98, 0xee, 0x98, 0xbe, 0x18, 0x23, 0x18,
  0x2d, 0x90, 0xea, 0x9a, 0x7b, 0x9c, 0x6c, 0x06, 0xbc, 0x9c, 0xa8, 0x11,
  0xe9, 0x99, 0x31, 0x9c, 0xa6, 0xa1, 0x0c, 0x9e, 0x7d, 0x9c, 0x23, 0x88,
  0xa6, 0x04, 0x98, 0x1d, 0xd9, 0x81, 0x2e, 0x18, 0xd8, 0x21, 0x6a, 0x95,
  0xe0, 0xa0, 0xd9, 0x8c, 0x92, 0x9d, 0x29, 0x98, 0x26, 0x93, 0xb3, 0xa1,
  0x23, 0x8d, 0x5b, 0x99, 0x22, 0x19, 0x25, 0x1b, 0x17, 0x95, 0xd1, 0x1f,
  0x28, 0x15, 0x98, 0x20, 0x97, 0x1e, 0xaa, 0x9d, 0x8b, 0xa2, 0x14, 0x99,
  0x26, 0x9f, 0x20, 0x09, 0x42, 0x01, 0xd0, 0x9f, 0xc1, 0x14, 0xc0, 0x9e,
  0x6e, 0x90, 0xb0, 0x1c, 0xa2, 0x98, 0x63, 0x1f, 0x4d, 0x9c, 0x21, 0x0d,
  0x42, 0x20, 0xa6, 0x9c, 0xa4, 0x98, 0x29, 0x9b, 0x87, 0xa0, 0xf7, 0x1f,
  0x05, 0x0c, 0xfb, 0xa0, 0x2a, 0x9a, 0x2b, 0x9e, 0x42, 0x1d, 0x18, 0x1d,
  0x20, 0x9c, 0x5c, 0x1f, 0x5a, 0x11, 0x75, 0x1d, 0x72, 0x1b, 0x87, 0x16,
  0x17, 0x9d, 0x0a, 0x9d, 0x01, 0x9e, 0x7d, 0xa0, 0x9b, 0x16, 0xb5, 0xa1,
  0x25, 0x0e, 0xa2, 0x1b, 0x2a, 0x1b, 0x4b, 0x19, 0x43, 0x9c, 0xe1, 0x1f,
  0xa1, 0x16, 0x9c, 0x1d, 0x28, 0x90, 0x38, 0x90, 0x42, 0x16, 0x63, 0x9f,
  0xc6, 0x96, 0x67, 0x98, 0x28, 0x9b, 0xfb, 0x9e, 0xa5, 0x9c, 0xc9, 0x9d,
  0xb2, 0x13, 0x69, 0x99, 0x8e, 0x19, 0xda, 0x1c, 0xb6, 0x1c, 0x5f, 0x0c,
  0xce, 0x9c, 0x33, 0x1a, 0xbe, 0x1b, 0x19, 0xa1, 0xb0, 0x9c, 0xfa, 0x9b,
  0x09, 0x17, 0x4b, 0x8a, 0x1d, 0x21, 0x42, 0xa0, 0xf5, 0x97, 0xfe, 0x9f,
  0x00, 0x20, 0x10, 0x9d, 0xb5, 0x1a, 0x72, 0x17, 0xe6, 0x9e, 0x27, 0x03,
  0x9a, 0x20, 0x3d, 0xa3, 0x29, 0x9e, 0x63, 0x9d, 0x25, 0x81, 0x5a, 0x99,
  0x47, 0x11, 0x5b, 0xa1, 0x7e, 0x17, 0x3c, 0x9d, 0x64, 0x20, 0x11, 0x9c,
  0x60, 0x1c, 0xe7, 0x82, 0x44, 0x9a, 0xcf, 0x18, 0x30, 0x1c, 0xfa, 0x9d,
  0x9f, 0x92, 0xf4, 0x9a, 0x41, 0x18, 0x23, 0xa0, 0x11, 0x92, 0x89, 0x98,
  0x7d, 0x1c, 0x62, 0x17, 0xfd, 0x20, 0x40, 0x9f, 0x73, 0x1a, 0xc6, 0x19,
  0xb0, 0x9c, 0x8e, 0x1c, 0x33, 0x1e, 0x96, 0x9e, 0xaf, 0x1e, 0xe1, 0x9c,
  0xf8, 0x08, 0x24, 0x9d, 0xd2, 0x9e, 0x9a, 0xa0, 0x23, 0x14, 0x21, 0x1c,
  0x63, 0x20, 0xb8, 0x9f, 0x99, 0x20, 0xff, 0x0c, 0x5d, 0x9d, 0xf0, 0x20,
  0xf3, 0x20, 0xd7, 0x9e, 0x46, 0x1e, 0xc1, 0x9e, 0xcb, 0x19, 0xf8, 0x91,
  0xf5, 0x0a, 0xd6, 0xa0, 0xa4, 0x1f, 0xe1, 0x1a, 0xac, 0x21, 0x3b, 0x9d,
  0xf0, 0x1c, 0xe5, 0x1a, 0x6f, 0xa0, 0x33, 0x1f, 0x9b, 0x19, 0xdf, 0x9c,
  0xc7, 0x20, 0x5a, 0xa0, 0xd0, 0x0d, 0xf9, 0x18, 0xcf, 0x9a, 0x61, 0xa2,
  0x17, 0x07, 0xa7, 0x18, 0x52, 0x21, 0xdc, 0x9c, 0xeb, 0x1f, 0x5e, 0x1b,
  0x1d, 0xa1, 0xaf, 0x24, 0xaa, 0x1c, 0x0b, 0x9e, 0x34, 0x20, 0x23, 0xa1,
  0x86, 0x96, 0xb2, 0x90, 0x0f, 0x9a, 0xab, 0xa0, 0x24, 0x9e, 0xcc, 0x85,
  0x5a, 0x22, 0x62, 0x9e, 0x3c, 0x1e, 0x89, 0x91, 0x29, 0x9f, 0xfb, 0x21,
  0xd8, 0x1e, 0xc6, 0x11, 0x63, 0x1d, 0x8e, 0x9f, 0xd9, 0x09, 0x52, 0x1c,
  0x5d, 0x9e, 0xfa, 0xa0, 0x59, 0xa0, 0x4f, 0x9c, 0xb5, 0x22, 0x47, 0x9d,
  0xc5, 0x1e, 0x8e, 0x9f, 0x6e, 0x98, 0xa1, 0x1e, 0x75, 0x1d, 0x6b, 0x96,
  0xeb, 0x1e, 0x56, 0x9e, 0x21, 0x8e, 0x4f, 0x1c, 0x95, 0x9d, 0xbb, 0x9e,
  0xe4, 0x93, 0x81, 0xa1, 0x96, 0x1f, 0x26, 0x9c, 0xe8, 0x1c, 0x88, 0x9c,
  0x38, 0x9f, 0x98, 0x24, 0x4c, 0x1a, 0x2f, 0x21, 0xa0, 0x20, 0x5d, 0x9b,
  0x39, 0x11, 0xf4, 0x1c, 0xea, 0x9d, 0xed, 0x9d, 0x27, 0x20, 0xbc, 0x9c,
  0xbb, 0x1c, 0xa9, 0x98, 0x8e, 0x18, 0x1a, 0x99, 0x3d, 0xa1, 0xa7, 0x1e,
  0x2d, 0x11, 0x30, 0x1c, 0x61, 0x1e, 0x40, 0x9d, 0x9e, 0x95, 0x6d, 0x22,
  0xcd, 0x9f, 0x3e, 0x9f, 0xa8, 0x96, 0x33, 0x91, 0x82, 0x18, 0x4c, 0x14,
  0x1e, 0x16, 0x29, 0x8e, 0x53, 0xa0, 0x37, 0x20, 0x7d, 0x13, 0x97, 0x1d,
  0x67, 0x1f, 0x80, 0x15, 0xef, 0x9c, 0x8c, 0x21, 0x46, 0xa1, 0x1b, 0x9d,
  0x1f, 0x18, 0xfb, 0x1b, 0x90, 0x9c, 0x31, 0x20, 0x66, 0x1b, 0x37, 0x9e,
  0x10, 0x1d, 0x2b, 0x19, 0xf7, 0x15, 0x05, 0x20, 0xc4, 0x1f, 0x77, 0x97,
  0xec, 0xa0, 0x4e, 0x22, 0x68, 0xa0, 0x34, 0x9e, 0x89, 0x94, 0x43, 0x1f,
  0xd0, 0x9e, 0x57, 0x19, 0xdb, 0x19, 0xcf, 0x9e, 0x94, 0x9c, 0x9e, 0x1e,
  0x7b, 0x8e, 0x99, 0x1a, 0xcd, 0x1d, 0x3c, 0x18, 0xcb, 0x9d, 0x71, 0x1e,
  0x4a, 0xa2, 0xb8, 0xa0, 0x92, 0x9c, 0x3c, 0x95, 0xa2, 0x94, 0x10, 0x20,
  0x4e, 0x09, 0xb5, 0xa0, 0x19, 0x99, 0x55, 0x97, 0x1f, 0x1c, 0xef, 0x1f,
  0x3f, 0x1f, 0x04, 0x1d, 0x76, 0x9c, 0x62, 0x1f, 0x03, 0xa0, 0xca, 0x99,
  0x92, 0x9b, 0x4a, 0xa0, 0x82, 0x8d, 0x4d, 0x1c, 0x5e, 0x15, 0xae, 0xa1,
  0x8e, 0x9e, 0x18, 0xa0, 0x20, 0x18, 0x5a, 0x1c, 0x09, 0x15, 0xc5, 0x19,
  0x6a, 0x19, 0x1f, 0x1f, 0x25, 0xa2, 0x4e, 0x9b, 0x2e, 0x9b, 0xe0, 0x9a,
  0xc4, 0x20, 0x6e, 0x20, 0x10, 0x1a, 0xa4, 0xa1, 0x19, 0x94, 0xc8, 0x9f,
  0xea, 0x10, 0x5d, 0x1d, 0x95, 0x96, 0xb4, 0x19, 0x77, 0x1c, 0xe0, 0x20,
  0x43, 0xa0, 0x68, 0x16, 0x4c, 0x9a, 0x17, 0x9a, 0xa6, 0x85, 0x9e, 0x20,
  0xc5, 0x1b, 0xd3, 0xa2, 0xe3, 0x94, 0x05, 0x9e, 0x65, 0x1f, 0x76, 0x1d,
  0x90, 0x95, 0x6f, 0x1a, 0xb5, 0x9d, 0xff, 0x21, 0xa0, 0xa0, 0x91, 0x10,
  0x0e, 0x19, 0xe2, 0x98, 0x26, 0x96, 0x1f, 0x1d, 0x52, 0x0f, 0xed, 0xa2,
  0x59, 0x17, 0x65, 0x9d, 0x35, 0x17, 0x4e, 0x1f, 0xfd, 0x9f, 0x2a, 0x1c,
  0x24, 0x9c, 0x5b, 0x22, 0xbc, 0xa0, 0x7d, 0x10, 0x91, 0x96, 0x91, 0x1f,
  0xae, 0x12, 0x39, 0x22, 0x44, 0x92, 0x18, 0x9f, 0xb2, 0x9a, 0x74, 0x9c,
  0x05, 0x19, 0x8c, 0x19, 0xf9, 0x9d, 0x65, 0x1a, 0x63, 0x94, 0xda, 0x20,
  0x89, 0xa1, 0xc5, 0x8c, 0x5e, 0x8f, 0xef, 0x1c, 0xbc, 0x16, 0x0a, 0x21,
  0x44, 0x9e, 0x32, 0x98, 0x0a, 0x9e, 0xe1, 0x97, 0x29, 0x97, 0x7f, 0x19,
  0xc5, 0x9f, 0xf0, 0x1a, 0x60, 0x9b, 0x38, 0x21, 0x05, 0x9f, 0x57, 0x16,
  0x27, 0x9c, 0xf9, 0x8e, 0x91, 0x19, 0x7c, 0x1c, 0x45, 0x8f, 0xd6, 0x12,
  0x68, 0x92, 0x30, 0x9b, 0xf0, 0x12, 0x29, 0x19, 0xd0, 0x9f, 0x85, 0x20,
  0xdf, 0x92, 0xd3, 0x20, 0x76, 0xa0, 0xf8, 0x1d, 0xe6, 0x9b, 0x7f, 0x99,
  0xcc, 0x18, 0x68, 0x17, 0x52, 0x1c, 0xcc, 0x94, 0x53, 0x1b, 0xbf, 0x9c,
  0x15, 0x90, 0x0e, 0x9a, 0xd7, 0xa0, 0x84, 0x21, 0x53, 0x00, 0x26, 0x21,
  0xd9, 0x9e, 0xa6, 0x19, 0x04, 0x9e, 0x7b, 0x9a, 0xd5, 0x21, 0xb8, 0x9b,
  0x23, 0x18, 0x9d, 0x95, 0x26, 0x15, 0xea, 0x99, 0x58, 0x93, 0x28, 0x9a,
  0x01, 0xa1, 0x66, 0x18, 0x95, 0x88, 0x25, 0x1e, 0x2f, 0x9a, 0x39, 0x20,
  0x09, 0x9c, 0x81, 0x9a, 0xab, 0x1f, 0x4c, 0xa0, 0x3a, 0x1a, 0x60, 0x1b,
  0x09, 0x1c, 0x09, 0x91, 0x7e, 0x97, 0xae, 0x9d, 0xe4, 0xa0, 0xb9, 0x1e,
  0x62, 0x1d, 0xea, 0x1c, 0x2d, 0x9f, 0x03, 0x1c, 0x36, 0x1e, 0x0c, 0x91,
  0x01, 0x20, 0x46, 0x9e, 0xd5, 0x0c, 0x3d, 0x1d, 0xaa, 0x15, 0x3c, 0x13,
  0x32, 0x14, 0x80, 0x9e, 0xd8, 0xa3, 0x0c, 0x22, 0x6d, 0x20, 0xb5, 0x18,
  0x29, 0x9e, 0x4f, 0x1c, 0xb9, 0x1a, 0x1a, 0x21, 0x1b, 0x21, 0xde, 0x9d,
  0xa4, 0x98, 0x34, 0x20, 0xf6, 0x1c, 0xe5, 0x92, 0x05, 0x96, 0xe2, 0xa3,
  0x3c, 0xa4, 0x0b, 0x1f, 0xd6, 0x15, 0x82, 0x98, 0xaf, 0x9c, 0x47, 0x21,
  0xe1, 0x1b, 0x23, 0x10, 0x84, 0x23, 0x15, 0x9b, 0x16, 0x11, 0xf2, 0x23,
