unsigned char my_EEGnet_ogA_m_q_tflite[] = {
  0x1c, 0x00, 0x00, 0x00, 0x54, 0x46, 0x4c, 0x33, 0x14, 0x00, 0x20, 0x00,
  0x1c, 0x00, 0x18, 0x00, 0x14, 0x00, 0x10, 0x00, 0x0c, 0x00, 0x00, 0x00,
  0x08, 0x00, 0x04, 0x00, 0x14, 0x00, 0x00, 0x00, 0x1c, 0x00, 0x00, 0x00,
  0x80, 0x00, 0x00, 0x00, 0x08, 0x01, 0x00, 0x00, 0x5c, 0x58, 0x00, 0x00,
  0x6c, 0x58, 0x00, 0x00, 0x10, 0x67, 0x00, 0x00, 0x03, 0x00, 0x00, 0x00,
  0x01, 0x00, 0x00, 0x00, 0x04, 0x00, 0x00, 0x00, 0x12, 0xa6, 0xff, 0xff,
  0x0c, 0x00, 0x00, 0x00, 0x1c, 0x00, 0x00, 0x00, 0x38, 0x00, 0x00, 0x00,
  0x0f, 0x00, 0x00, 0x00, 0x73, 0x65, 0x72, 0x76, 0x69, 0x6e, 0x67, 0x5f,
  0x64, 0x65, 0x66, 0x61, 0x75, 0x6c, 0x74, 0x00, 0x01, 0x00, 0x00, 0x00,
  0x04, 0x00, 0x00, 0x00, 0x6c, 0xff, 0xff, 0xff, 0x1a, 0x00, 0x00, 0x00,
  0x04, 0x00, 0x00, 0x00, 0x07, 0x00, 0x00, 0x00, 0x73, 0x6f, 0x66, 0x74,
  0x6d, 0x61, 0x78, 0x00, 0x01, 0x00, 0x00, 0x00, 0x04, 0x00, 0x00, 0x00,
  0x56, 0xa7, 0xff, 0xff, 0x04, 0x00, 0x00, 0x00, 0x07, 0x00, 0x00, 0x00,
  0x69, 0x6e, 0x70, 0x75, 0x74, 0x5f, 0x39, 0x00, 0x03, 0x00, 0x00, 0x00,
  0x64, 0x00, 0x00, 0x00, 0x2c, 0x00, 0x00, 0x00, 0x04, 0x00, 0x00, 0x00,
  0xb0, 0xff, 0xff, 0xff, 0x1e, 0x00, 0x00, 0x00, 0x04, 0x00, 0x00, 0x00,
  0x13, 0x00, 0x00, 0x00, 0x43, 0x4f, 0x4e, 0x56, 0x45, 0x52, 0x53, 0x49,
  0x4f, 0x4e, 0x5f, 0x4d, 0x45, 0x54, 0x41, 0x44, 0x41, 0x54, 0x41, 0x00,
  0xd4, 0xff, 0xff, 0xff, 0x1d, 0x00, 0x00, 0x00, 0x04, 0x00, 0x00, 0x00,
  0x19, 0x00, 0x00, 0x00, 0x72, 0x65, 0x64, 0x75, 0x63, 0x65, 0x64, 0x5f,
  0x70, 0x72, 0x65, 0x63, 0x69, 0x73, 0x69, 0x6f, 0x6e, 0x5f, 0x73, 0x75,
  0x70, 0x70, 0x6f, 0x72, 0x74, 0x00, 0x00, 0x00, 0x08, 0x00, 0x0c, 0x00,
  0x08, 0x00, 0x04, 0x00, 0x08, 0x00, 0x00, 0x00, 0x1c, 0x00, 0x00, 0x00,
  0x04, 0x00, 0x00, 0x00, 0x13, 0x00, 0x00, 0x00, 0x6d, 0x69, 0x6e, 0x5f,
  0x72, 0x75, 0x6e, 0x74, 0x69, 0x6d, 0x65, 0x5f, 0x76, 0x65, 0x72, 0x73,
  0x69, 0x6f, 0x6e, 0x00, 0x1f, 0x00, 0x00, 0x00, 0x50, 0x57, 0x00, 0x00,
  0x48, 0x57, 0x00, 0x00, 0x30, 0x57, 0x00, 0x00, 0x00, 0x57, 0x00, 0x00,
  0xe0, 0x56, 0x00, 0x00, 0x50, 0x4f, 0x00, 0x00, 0x40, 0x4d, 0x00, 0x00,
  0x28, 0x4d, 0x00, 0x00, 0xf8, 0x4c, 0x00, 0x00, 0xc8, 0x4c, 0x00, 0x00,
  0x38, 0x01, 0x00, 0x00, 0x30, 0x01, 0x00, 0x00, 0x28, 0x01, 0x00, 0x00,
  0x20, 0x01, 0x00, 0x00, 0x18, 0x01, 0x00, 0x00, 0x10, 0x01, 0x00, 0x00,
  0x08, 0x01, 0x00, 0x00, 0x00, 0x01, 0x00, 0x00, 0xf8, 0x00, 0x00, 0x00,
  0xf0, 0x00, 0x00, 0x00, 0xe8, 0x00, 0x00, 0x00, 0xe0, 0x00, 0x00, 0x00,
  0xd8, 0x00, 0x00, 0x00, 0xd0, 0x00, 0x00, 0x00, 0xc8, 0x00, 0x00, 0x00,
  0xc0, 0x00, 0x00, 0x00, 0xb8, 0x00, 0x00, 0x00, 0xb0, 0x00, 0x00, 0x00,
  0x90, 0x00, 0x00, 0x00, 0x74, 0x00, 0x00, 0x00, 0x04, 0x00, 0x00, 0x00,
  0x76, 0xa8, 0xff, 0xff, 0x04, 0x00, 0x00, 0x00, 0x60, 0x00, 0x00, 0x00,
  0x0c, 0x00, 0x00, 0x00, 0x08, 0x00, 0x0e, 0x00, 0x08, 0x00, 0x04, 0x00,
  0x08, 0x00, 0x00, 0x00, 0x14, 0x00, 0x00, 0x00, 0x30, 0x00, 0x00, 0x00,
  0x00, 0x00, 0x0a, 0x00, 0x0c, 0x00, 0x08, 0x00, 0x00, 0x00, 0x07, 0x00,
  0x0a, 0x00, 0x00, 0x00, 0x00, 0x00, 0x00, 0x01, 0x04, 0x00, 0x00, 0x00,
  0x01, 0x00, 0x00, 0x00, 0xe9, 0x03, 0x00, 0x00, 0x00, 0x00, 0x0a, 0x00,
  0x10, 0x00, 0x0c, 0x00, 0x08, 0x00, 0x04, 0x00, 0x0a, 0x00, 0x00, 0x00,
  0x02, 0x00, 0x00, 0x00, 0x02, 0x00, 0x00, 0x00, 0x04, 0x00, 0x00, 0x00,
  0x06, 0x00, 0x00, 0x00, 0x32, 0x2e, 0x31, 0x33, 0x2e, 0x30, 0x00, 0x00,
  0xe2, 0xa8, 0xff, 0xff, 0x04, 0x00, 0x00, 0x00, 0x0b, 0x00, 0x00, 0x00,
  0x66, 0x70, 0x31, 0x36, 0x61, 0x63, 0x63, 0x66, 0x70, 0x33, 0x32, 0x00,
  0xfa, 0xa8, 0xff, 0xff, 0x04, 0x00, 0x00, 0x00, 0x10, 0x00, 0x00, 0x00,
  0x31, 0x2e, 0x31, 0x35, 0x2e, 0x30, 0x00, 0x00, 0x00, 0x00, 0x00, 0x00,
  0x00, 0x00, 0x00, 0x00, 0xc0, 0x9a, 0xff, 0xff, 0xc4, 0x9a, 0xff, 0xff,
  0xc8, 0x9a, 0xff, 0xff, 0xcc, 0x9a, 0xff, 0xff, 0xd0, 0x9a, 0xff, 0xff,
  0xd4, 0x9a, 0xff, 0xff, 0xd8, 0x9a, 0xff, 0xff, 0xdc, 0x9a, 0xff, 0xff,
  0xe0, 0x9a, 0xff, 0xff, 0xe4, 0x9a, 0xff, 0xff, 0xe8, 0x9a, 0xff, 0xff,
  0xec, 0x9a, 0xff, 0xff, 0xf0, 0x9a, 0xff, 0xff, 0xf4, 0x9a, 0xff, 0xff,
  0xf8, 0x9a, 0xff, 0xff, 0xfc, 0x9a, 0xff, 0xff, 0x00, 0x9b, 0xff, 0xff,
  0x5a, 0xa9, 0xff, 0xff, 0x04, 0x00, 0x00, 0x00, 0x80, 0x4b, 0x00, 0x00,
  0x4c, 0x1a, 0x16, 0x1c, 0x23, 0x21, 0x2b, 0x1c, 0xb0, 0x13, 0x15, 0x1c,
  0xd0, 0x98, 0x2c, 0x9d, 0x18, 0x94, 0xdc, 0x14, 0x10, 0x13, 0x2a, 0xa4,
  0xe9, 0x1d, 0xcc, 0x9d, 0x02, 0x99, 0x12, 0x90, 0x25, 0x95, 0x4c, 0x93,
  0x58, 0x20, 0xf5, 0x1d, 0x61, 0x18, 0x69, 0x1a, 0x4a, 0x9b, 0x0e, 0xa2,
  0x6d, 0x1d, 0x33, 0x8f, 0x90, 0x98, 0x1e, 0xa4, 0x93, 0x1c, 0xbc, 0x9e,
  0x13, 0x9c, 0x6f, 0x18, 0x87, 0xa1, 0x12, 0x9e, 0xcc, 0x23, 0x31, 0x1c,
  0x82, 0x10, 0x73, 0x1f, 0x5c, 0x9c, 0xaf, 0x9e, 0xf9, 0x1d, 0x7c, 0xa0,
  0xe9, 0x94, 0x40, 0xa2, 0x78, 0x1c, 0x85, 0x9e, 0x4b, 0x8f, 0xd7, 0x0c,
  0x6e, 0x9d, 0xa4, 0x9e, 0x6b, 0x23, 0x7b, 0x21, 0x5d, 0x97, 0x5e, 0x1a,
  0xbc, 0x9d, 0x44, 0x9d, 0xbf, 0x1e, 0x5f, 0x9d, 0xfc, 0x20, 0xb7, 0xa2,
  0xc8, 0x1d, 0xdc, 0x9f, 0x1c, 0x1d, 0x79, 0x1c, 0x8e, 0x9a, 0x82, 0x16,
  0xfe, 0x1b, 0xec, 0x19, 0x96, 0x1a, 0xb4, 0x20, 0x3e, 0x9b, 0xa2, 0x9c,
  0x20, 0x21, 0xb5, 0x18, 0x5c, 0x93, 0xd7, 0xa4, 0x98, 0x02, 0xdb, 0x9c,
  0x1c, 0x1b, 0x81, 0x1f, 0x41, 0x1a, 0xd5, 0x11, 0x67, 0x1a, 0x50, 0x13,
  0x7e, 0x1d, 0xf3, 0x1e, 0xda, 0x10, 0x7d, 0x8c, 0x9c, 0x11, 0xa2, 0x9c,
  0x22, 0x02, 0x77, 0xa2, 0x2c, 0x9e, 0xcb, 0x9d, 0xdf, 0x1a, 0xb0, 0x1c,
  0xd1, 0x20, 0x1b, 0x17, 0x38, 0x15, 0x47, 0x1d, 0x00, 0x16, 0xb7, 0x1e,
  0x92, 0x8d, 0x3a, 0x99, 0xbb, 0x1d, 0xbe, 0x92, 0x00, 0x17, 0x5d, 0x9f,
  0xfd, 0x98, 0xa3, 0x12, 0x67, 0x10, 0x8a, 0x1d, 0x12, 0x20, 0x85, 0x17,
  0xe5, 0x1d, 0x5e, 0x14, 0xcc, 0x98, 0xab, 0x1d, 0x66, 0x9a, 0x8f, 0x9a,
  0xef, 0x1d, 0xdb, 0x9f, 0x48, 0x9a, 0x14, 0x9e, 0x98, 0x9e, 0xb5, 0x1b,
  0xf1, 0x1a, 0x46, 0x1c, 0x14, 0x99, 0xc5, 0x1d, 0x7e, 0x9d, 0x16, 0x1c,
  0x7b, 0x1d, 0x86, 0x1f, 0x26, 0xa2, 0xbb, 0x94, 0x1b, 0x17, 0x9d, 0x99,
  0x10, 0x14, 0x6c, 0xa2, 0x6c, 0xa1, 0x12, 0x20, 0x55, 0x1d, 0x73, 0x1f,
  0x36, 0x9e, 0x16, 0x98, 0xd0, 0x9d, 0x54, 0x1c, 0x82, 0x14, 0xaf, 0x1a,
  0x1b, 0x98, 0x25, 0x1a, 0xdc, 0x1c, 0x0c, 0x15, 0x75, 0x9e, 0xfa, 0xa1,
  0x74, 0xa1, 0x79, 0x1d, 0x22, 0x20, 0x17, 0x1b, 0xe1, 0x9d, 0x32, 0x89,
  0x92, 0x9b, 0x27, 0x21, 0x30, 0x81, 0x55, 0x94, 0xac, 0x9f, 0x5a, 0x96,
  0xd5, 0x0b, 0xd9, 0x9c, 0xae, 0xa0, 0x40, 0xa4, 0xc7, 0xa1, 0x94, 0x20,
  0xfb, 0x14, 0xf9, 0x1d, 0x45, 0x9a, 0xc8, 0x08, 0xc7, 0x9c, 0x97, 0x1a,
  0xd3, 0x91, 0xc6, 0x11, 0x11, 0x9a, 0xef, 0x11, 0x81, 0x1a, 0xd0, 0x15,
  0xc9, 0xa1, 0xe6, 0x9d, 0xf7, 0xa1, 0x3f, 0x21, 0x70, 0x1a, 0xae, 0x1f,
  0xec, 0x1e, 0xfc, 0x1a, 0x6d, 0x9e, 0x35, 0x98, 0x40, 0x9d, 0xbd, 0x14,
  0x50, 0x9d, 0x88, 0x17, 0x27, 0x1a, 0x7c, 0x96, 0xb8, 0xa1, 0xed, 0x9d,
  0x3f, 0xa1, 0x69, 0x21, 0xc5, 0x1a, 0x74, 0x1e, 0x41, 0x19, 0xd3, 0x10,
  0xfe, 0x9c, 0xf0, 0xa0, 0xb4, 0x9a, 0xc6, 0x98, 0x10, 0x9f, 0x65, 0x17,
  0xc7, 0x1e, 0xc0, 0x17, 0x91, 0xa0, 0xc4, 0x11, 0xaa, 0x9e, 0xb8, 0x21,
  0xfd, 0x10, 0x72, 0x21, 0x01, 0x83, 0xaa, 0x1f, 0xbe, 0xa0, 0x55, 0x9e,
  0x58, 0xa2, 0x5d, 0x99, 0xc0, 0x9f, 0x30, 0x02, 0xb7, 0x14, 0xc2, 0x1c,
  0xa9, 0xa1, 0x6c, 0x9b, 0x9b, 0xa1, 0x74, 0x1f, 0xdd, 0x1c, 0xd5, 0x1e,
  0x4f, 0x9e, 0x34, 0x1d, 0x75, 0xa0, 0x27, 0x96, 0xef, 0x9a, 0x39, 0x9c,
  0x76, 0x95, 0x0c, 0x9c, 0x61, 0x20, 0xf4, 0x1c, 0xde, 0x93, 0x34, 0x14,
  0x34, 0xa2, 0x5a, 0x95, 0x37, 0x8c, 0xd3, 0x14, 0xa4, 0xa0, 0x3e, 0x9d,
  0x12, 0xa2, 0x4a, 0xa0, 0xd4, 0x9c, 0xab, 0x9b, 0x03, 0x9b, 0x87, 0x16,
  0x9e, 0x1f, 0x50, 0x20, 0x54, 0x9e, 0x57, 0x1e, 0xaf, 0x9f, 0x1e, 0x1c,
  0x0b, 0x1c, 0x22, 0x1e, 0x6a, 0x9e, 0x3f, 0x0c, 0xde, 0x9f, 0x0e, 0x9d,
  0x25, 0x9b, 0x5a, 0xa1, 0x06, 0x9d, 0x56, 0x99, 0x52, 0x1f, 0x39, 0x1a,
  0x99, 0x9f, 0xe8, 0x22, 0x61, 0x9c, 0x31, 0x9c, 0xae, 0x1c, 0x49, 0x1c,
  0x8d, 0x99, 0xba, 0x99, 0x57, 0x9b, 0x37, 0xa0, 0xb0, 0x9d, 0xa2, 0xa1,
  0x43, 0xa0, 0x94, 0x18, 0xef, 0x20, 0x40, 0x19, 0xe4, 0x19, 0x94, 0x1e,
  0x3a, 0x9f, 0x23, 0xa1, 0x33, 0x14, 0xe9, 0x87, 0x42, 0x20, 0xbd, 0x1b,
  0x2d, 0x99, 0xf2, 0x9d, 0xf6, 0xa1, 0x64, 0xa0, 0x09, 0x99, 0xff, 0x97,
  0x56, 0x1e, 0xe0, 0x1f, 0xe2, 0x91, 0x11, 0x1c, 0x07, 0x19, 0x02, 0xa1,
  0x9b, 0x19, 0xa7, 0x19, 0xda, 0x20, 0x0c, 0x19, 0xb7, 0x9a, 0x76, 0x98,
  0x76, 0x9e, 0x33, 0xa3, 0x7c, 0x98, 0x3e, 0x01, 0x2f, 0x20, 0x97, 0x20,
  0xd1, 0x12, 0x27, 0x20, 0x00, 0x9d, 0x31, 0x9f, 0xb5, 0x10, 0xb4, 0x95,
  0x47, 0x94, 0x82, 0x94, 0x69, 0x1c, 0x65, 0x17, 0x66, 0xa0, 0x7b, 0x9b,
  0x96, 0x9f, 0xc9, 0x16, 0x03, 0x1f, 0x90, 0x1c, 0x57, 0x17, 0x73, 0x22,
  0x3a, 0x9d, 0x0e, 0xa2, 0x03, 0x0b, 0xb2, 0x9a, 0xb8, 0xa1, 0x10, 0x1e,
  0xcc, 0x0c, 0xd2, 0x19, 0x3f, 0x9b, 0xf6, 0x9c, 0x51, 0x9c, 0x6f, 0x1b,
  0xe6, 0x98, 0x8c, 0x11, 0x99, 0x91, 0xe1, 0x20, 0x21, 0x15, 0xab, 0x9f,
  0x8e, 0x9e, 0xe6, 0x1a, 0x1c, 0xa1, 0x96, 0x9d, 0xee, 0x1e, 0xd6, 0x9c,
  0xa4, 0x99, 0x38, 0x98, 0x2c, 0x96, 0xf4, 0x20, 0x18, 0x9d, 0xe4, 0x13,
  0x9d, 0x16, 0x8e, 0x1d, 0xfa, 0x9e, 0x2c, 0x9f, 0x56, 0x17, 0x3a, 0x9c,
  0x33, 0x9c, 0x4e, 0x18, 0x38, 0x20, 0x1e, 0x9d, 0x64, 0x9e, 0xf1, 0x9a,
  0x83, 0x98, 0xb9, 0x1f, 0x9d, 0x16, 0x96, 0x1a, 0x7f, 0x98, 0x11, 0x20,
  0xbb, 0x0e, 0x5a, 0xa1, 0x61, 0x96, 0xf1, 0x9c, 0x95, 0x18, 0xdc, 0x1c,
  0x3d, 0x13, 0x77, 0x11, 0xd0, 0x9d, 0x42, 0xa2, 0xad, 0x91, 0x71, 0x1c,
  0x92, 0x14, 0x8c, 0x1e, 0x94, 0x1a, 0xff, 0x1b, 0x20, 0x1e, 0x56, 0xa0,
  0x33, 0x9c, 0xf8, 0x96, 0x32, 0x21, 0x06, 0x1a, 0xaf, 0x19, 0x39, 0x1d,
  0x60, 0xa0, 0x04, 0xa3, 0x07, 0x93, 0x10, 0x80, 0x6d, 0x15, 0xbb, 0x15,
  0x77, 0x13, 0xd5, 0x1d, 0x24, 0x18, 0x24, 0xa0, 0x4a, 0x18, 0x77, 0xa1,
  0x3c, 0x20, 0x57, 0x9b, 0x39, 0x1d, 0x44, 0x1c, 0x2e, 0xa0, 0x10, 0xa5,
  0x00, 0x92, 0x27, 0x21, 0xd3, 0x9f, 0x95, 0x1d, 0x8e, 0x1f, 0xfe, 0x18,
  0x00, 0x13, 0xd7, 0x9d, 0xcd, 0x8f, 0x16, 0x9f, 0xc7, 0x9d, 0x1f, 0x88,
  0x86, 0x02, 0xde, 0x9b, 0xb1, 0x9f, 0xd9, 0xa0, 0xcf, 0x98, 0x45, 0x19,
  0x0b, 0x90, 0x4e, 0x1e, 0xf5, 0x93, 0xe6, 0x19, 0x01, 0x9b, 0x13, 0x9a,
  0xd7, 0x8f, 0xf7, 0xa2, 0xa6, 0xa1, 0x2a, 0x1a, 0x15, 0x97, 0xf9, 0x9d,
  0x23, 0xa1, 0xfb, 0xa2, 0x07, 0x0e, 0x24, 0x1f, 0x68, 0x96, 0xf6, 0x1d,
  0xe1, 0x1a, 0xba, 0x1b, 0xd7, 0x91, 0x4d, 0x1a, 0x11, 0x98, 0xf8, 0x9f,
  0x02, 0x9d, 0x1a, 0x1d, 0x99, 0x9c, 0x35, 0x9c, 0x7c, 0xa0, 0xee, 0x9e,
  0x17, 0x18, 0xd8, 0x10, 0xfd, 0x04, 0xe8, 0x19, 0x39, 0x13, 0xb1, 0x1c,
  0x90, 0x9d, 0xef, 0x16, 0x20, 0xa0, 0xd3, 0xa2, 0xe7, 0x18, 0xc4, 0x19,
  0xba, 0x9f, 0x6e, 0x14, 0x86, 0x9c, 0xbf, 0xa1, 0x4d, 0x8d, 0xfc, 0x19,
  0x75, 0x9c, 0x09, 0x10, 0x0f, 0x91, 0x29, 0x9c, 0x8b, 0xa0, 0x42, 0x1c,
  0x04, 0x9c, 0x32, 0x9f, 0xbd, 0x21, 0xbb, 0x1f, 0xb4, 0x9e, 0xb3, 0x1d,
  0x28, 0x96, 0xe9, 0xa0, 0x12, 0x17, 0x1d, 0x0d, 0x4d, 0x9b, 0x52, 0x90,
  0xf7, 0x9a, 0xad, 0xa0, 0x7b, 0x9e, 0xcc, 0x1a, 0xdc, 0x9a, 0xde, 0x99,
  0x02, 0x1f, 0x82, 0x1c, 0x1f, 0x9a, 0x8d, 0x19, 0x5e, 0x90, 0x7d, 0x9d,
  0x17, 0x1a, 0x21, 0x11, 0x43, 0x9b, 0x67, 0x02, 0x56, 0x9d, 0xc3, 0x9e,
  0xe2, 0x9b, 0xe6, 0x1d, 0x95, 0x99, 0xeb, 0xa0, 0x61, 0x0e, 0x99, 0x9b,
  0x66, 0x18, 0x99, 0x1c, 0xa4, 0x98, 0xfc, 0xa1, 0x7c, 0x19, 0x2c, 0x93,
  0x96, 0x9b, 0x4e, 0x18, 0x19, 0x99, 0xa8, 0xa1, 0x69, 0x99, 0x36, 0x20,
  0x76, 0x9e, 0xba, 0x9f, 0xf9, 0x9f, 0x89, 0x99, 0xfe, 0x13, 0xc4, 0x19,
  0xa6, 0x8f, 0x84, 0x9d, 0x31, 0x12, 0xc8, 0x9c, 0x6d, 0x9d, 0x9d, 0x9b,
  0x4d, 0x9d, 0x4f, 0xa1, 0xa0, 0x8b, 0x73, 0x01, 0x69, 0xa1, 0xc0, 0xa1,
  0xa7, 0x9c, 0xc2, 0x9d, 0x82, 0x10, 0xf7, 0x0c, 0x92, 0x97, 0xe1, 0xa0,
  0x34, 0x20, 0x25, 0x9b, 0xff, 0x9a, 0xa8, 0x97, 0x4e, 0x97, 0x74, 0xa4,
  0x85, 0x9b, 0x58, 0x17, 0x29, 0xa2, 0xa8, 0xa0, 0xe6, 0x9e, 0xef, 0x99,
  0xe5, 0x9a, 0x0a, 0x1e, 0xca, 0x10, 0x23, 0xa2, 0xda, 0x18, 0xf3, 0x9f,
  0x05, 0x99, 0x3e, 0xa0, 0x25, 0x9f, 0x4e, 0xa2, 0x6e, 0x9e, 0xa8, 0x9d,
  0x96, 0x9d, 0x1e, 0xa2, 0xc2, 0x1c, 0x9b, 0x15, 0xb6, 0x15, 0xb3, 0x8e,
  0x58, 0x94, 0x58, 0x9a, 0x5b, 0x1d, 0xfc, 0x9c, 0x02, 0x9b, 0x4f, 0xa0,
  0x13, 0x9f, 0x51, 0x9f, 0x3e, 0xa1, 0x69, 0x16, 0xa6, 0x9f, 0xd1, 0xa1,
  0xfe, 0x20, 0x2e, 0x20, 0x0b, 0x9b, 0xa7, 0x93, 0x40, 0x16, 0x3f, 0x9d,
  0x58, 0x1e, 0x08, 0xa1, 0xc5, 0x9e, 0x19, 0x9d, 0x31, 0x9d, 0x7a, 0xa1,
  0xac, 0x9f, 0x2d, 0x17, 0x6a, 0x9a, 0xae, 0x9f, 0x4d, 0x88, 0x4a, 0x98,
  0x46, 0x89, 0xa1, 0xa0, 0x0d, 0x1a, 0x27, 0x99, 0x4a, 0x1e, 0x7c, 0xa0,
  0x8d, 0x9a, 0x77, 0x9f, 0xa4, 0x9f, 0x56, 0xa0, 0xd0, 0x9d, 0x6c, 0x1b,
  0xcf, 0xa1, 0x03, 0xa2, 0xc8, 0x96, 0x6e, 0x9b, 0xb5, 0x14, 0xe8, 0x98,
  0x56, 0x95, 0x42, 0x91, 0x90, 0x12, 0x01, 0xa3, 0x59, 0x9d, 0x95, 0xa0,
  0xdd, 0x9c, 0xa7, 0xa1, 0xb5, 0xa0, 0x29, 0x15, 0xcd, 0xa2, 0x72, 0xa3,
  0x07, 0x9f, 0xa2, 0x9e, 0x9c, 0x18, 0x5d, 0x1a, 0xd8, 0x18, 0x1f, 0x1c,
  0x3a, 0x1e, 0x9c, 0xa1, 0x0e, 0x9b, 0x38, 0xa2, 0x6e, 0x9d, 0xf9, 0xa1,
  0xb6, 0x9d, 0x75, 0x19, 0x65, 0xa0, 0xe8, 0xa0, 0xdc, 0x9e, 0xda, 0x88,
  0x58, 0x94, 0x3e, 0x98, 0x75, 0x8d, 0x61, 0x12, 0x97, 0x1c, 0x3b, 0xa1,
  0x06, 0xa1, 0x2b, 0x9e, 0xf4, 0x9c, 0xc4, 0xa3, 0x7b, 0x9c, 0x50, 0x8c,
  0x56, 0xa2, 0x04, 0x9f, 0x14, 0x9a, 0x46, 0x20, 0xad, 0x9d, 0x54, 0x92,
  0x75, 0x14, 0xb3, 0x1a, 0x2c, 0x1c, 0xab, 0xa2, 0x00, 0xa0, 0xee, 0xa0,
  0xf2, 0x18, 0x9d, 0x9e, 0x14, 0x9e, 0x20, 0x19, 0x61, 0x9f, 0x6a, 0x9e,
  0xb7, 0x1f, 0x65, 0x16, 0xe6, 0x91, 0x44, 0x9d, 0xa5, 0x1d, 0x4f, 0x18,
  0xb8, 0x1c, 0xb3, 0xa0, 0xf9, 0x9f, 0x87, 0x9c, 0x40, 0x9a, 0xe9, 0x9c,
  0xb2, 0x98, 0x01, 0x94, 0x1b, 0x9d, 0x46, 0x9c, 0x5a, 0x21, 0x40, 0x88,
  0xba, 0x9f, 0x63, 0x9f, 0xd2, 0x1e, 0x5a, 0x19, 0x58, 0x8e, 0x93, 0x9c,
  0x84, 0xa0, 0xbd, 0x9f, 0xc2, 0x9a, 0xc7, 0x9c, 0x0e, 0x9a, 0xe4, 0x8d,
  0xc1, 0xa2, 0x10, 0x00, 0x59, 0x14, 0x5e, 0x19, 0x22, 0xa1, 0x07, 0x9d,
  0x8e, 0x1a, 0x5a, 0x1f, 0x84, 0x99, 0x78, 0x9e, 0x09, 0x9e, 0x47, 0x9d,
  0xcb, 0x9a, 0xaf, 0x9a, 0xcf, 0x9a, 0xb9, 0x9e, 0xab, 0x17, 0xb6, 0x99,
  0x41, 0xa1, 0xdd, 0x93, 0x56, 0xa0, 0x36, 0x1e, 0xe6, 0x18, 0x71, 0x20,
  0xaa, 0x09, 0x2f, 0x98, 0xe8, 0x99, 0x03, 0x95, 0xe5, 0x18, 0xf3, 0x8b,
  0xce, 0x13, 0x19, 0x14, 0x8a, 0x94, 0x92, 0x9d, 0xa4, 0x9a, 0x87, 0x9e,
  0xee, 0x99, 0xde, 0x1e, 0x7c, 0x20, 0xc4, 0x21, 0xe6, 0x9d, 0xc0, 0x9b,
  0x06, 0x9a, 0xdb, 0x9e, 0x5a, 0x84, 0x24, 0x9a, 0xba, 0x99, 0xbc, 0x98,
  0x9e, 0x9b, 0x6a, 0x14, 0xd8, 0x9d, 0x53, 0x16, 0x67, 0x91, 0x01, 0x9c,
  0x61, 0x1f, 0x60, 0x20, 0x66, 0xa1, 0xc0, 0x94, 0x4a, 0x97, 0xca, 0x9f,
  0x55, 0x1b, 0x7c, 0x17, 0xf8, 0x1c, 0xe2, 0x14, 0x97, 0x98, 0xc0, 0x17,
  0x24, 0x18, 0x4e, 0x1b, 0x52, 0x0d, 0xff, 0x8c, 0xd6, 0x20, 0x2f, 0x20,
  0xc8, 0x9d, 0x65, 0x8d, 0x2c, 0x98, 0xe8, 0x06, 0xfe, 0x17, 0x5a, 0x90,
  0x79, 0x16, 0xb5, 0x90, 0xad, 0x1b, 0x6f, 0x12, 0x42, 0x20, 0x32, 0x15,
  0x41, 0x96, 0xc2, 0x86, 0x4a, 0x19, 0xb0, 0x1d, 0xc5, 0x9d, 0x22, 0x8a,
  0x86, 0x89, 0x14, 0x96, 0x38, 0x1c, 0x5a, 0x9e, 0x42, 0x20, 0x8d, 0x9c,
  0xe9, 0x18, 0x89, 0x93, 0x6e, 0x22, 0xca, 0x9a, 0xd3, 0x99, 0x1d, 0x97,
  0x47, 0x1a, 0xd7, 0x1d, 0x53, 0xa0, 0xee, 0x11, 0x4a, 0x97, 0xb4, 0x20,
  0xd0, 0x1b, 0x48, 0x9a, 0xd3, 0x13, 0x01, 0x9d, 0x3b, 0x18, 0x73, 0x14,
  0xea, 0x97, 0xe8, 0x11, 0x53, 0x17, 0xa3, 0x19, 0x15, 0x14, 0xb3, 0x18,
  0x8a, 0x9e, 0x59, 0x17, 0xc6, 0x9d, 0xbd, 0x98, 0x03, 0x1c, 0x14, 0x1c,
  0xf7, 0x1c, 0xae, 0x9e, 0x60, 0x1a, 0xae, 0x18, 0xbb, 0xa0, 0x17, 0x12,
  0xfb, 0x97, 0x20, 0x19, 0xd6, 0x95, 0x27, 0x0d, 0x74, 0x9c, 0xde, 0x17,
  0x66, 0x8e, 0x2e, 0x91, 0xca, 0x12, 0x5a, 0x14, 0x86, 0x1d, 0x13, 0x8f,
  0x75, 0x1d, 0x87, 0x18, 0x0f, 0xa0, 0xa3, 0x19, 0xb7, 0x98, 0x3b, 0x8b,
  0xc1, 0x1c, 0x4d, 0x0d, 0x0a, 0xa0, 0x04, 0x1d, 0x6d, 0x95, 0x9c, 0x9d,
  0xef, 0x1b, 0xfc, 0x95, 0xce, 0x1d, 0xd1, 0x9a, 0x8c, 0x8f, 0x68, 0x1b,
  0x1d, 0x1d, 0xdd, 0x17, 0x3a, 0x1e, 0x1b, 0x9e, 0x82, 0x20, 0x9d, 0x16,
  0x7e, 0xa0, 0x1d, 0x1b, 0xf2, 0x13, 0xbd, 0x98, 0x09, 0x1f, 0x22, 0x9d,
  0x31, 0x1d, 0xe3, 0x19, 0x93, 0x1a, 0xba, 0x18, 0x85, 0x1a, 0xe9, 0x1d,
  0x33, 0x18, 0x4a, 0x1b, 0xdc, 0x1c, 0xb1, 0x92, 0x61, 0xa1, 0x99, 0x1c,
  0xc6, 0x95, 0xfa, 0x17, 0x19, 0x1c, 0x1d, 0x9c, 0x7e, 0x1e, 0x8e, 0x8c,
  0xd4, 0x16, 0xee, 0x1c, 0x23, 0x1c, 0x8c, 0x9c, 0xac, 0x1a, 0xe3, 0x1a,
  0x40, 0x01, 0x82, 0x18, 0x9b, 0x9f, 0x8e, 0x16, 0x78, 0x9c, 0x80, 0x9d,
  0xaa, 0x1c, 0x4f, 0x99, 0x43, 0x1c, 0x54, 0x0a, 0xfd, 0x16, 0xcc, 0x1c,
  0xed, 0x1a, 0x4f, 0x97, 0xbf, 0x9d, 0xec, 0x13, 0x17, 0x1e, 0xae, 0x9e,
  0x76, 0x9f, 0xd9, 0x0e, 0xe5, 0x18, 0x0d, 0x1d, 0x10, 0x1e, 0xca, 0x94,
  0x16, 0x12, 0xe5, 0x96, 0x63, 0x95, 0xb5, 0x1f, 0x75, 0x9d, 0x2f, 0x1d,
  0x60, 0x1b, 0x8a, 0x1a, 0x7d, 0x96, 0x95, 0x94, 0x6a, 0xa1, 0xaf, 0x1f,
  0x2d, 0x13, 0x6a, 0x8d, 0xf9, 0x0d, 0xba, 0x07, 0x55, 0x0c, 0xda, 0x14,
  0xe5, 0x1c, 0xc0, 0x1d, 0x91, 0x9e, 0xbf, 0x99, 0xff, 0x1e, 0xcf, 0x14,
  0xbf, 0x94, 0x06, 0x16, 0xc6, 0x9e, 0xfd, 0x13, 0xb8, 0x0e, 0x7c, 0x1c,
  0x61, 0x1d, 0x0d, 0x95, 0x6e, 0x9e, 0x77, 0x19, 0x47, 0x91, 0x8f, 0x1e,
  0x53, 0x92, 0x9c, 0x15, 0xa5, 0x1a, 0x5d, 0x93, 0x02, 0x19, 0xea, 0x94,
  0x71, 0xa0, 0xce, 0x1e, 0x33, 0x1b, 0x58, 0x1d, 0x63, 0x95, 0xa4, 0x98,
  0xcf, 0x8e, 0xd7, 0x09, 0xda, 0x1d, 0x28, 0x1e, 0x2f, 0x1e, 0xe9, 0x14,
  0x73, 0x93, 0x27, 0x9b, 0x9c, 0x18, 0xb4, 0x8c, 0xd7, 0x9c, 0xf4, 0x20,
  0x6e, 0x1b, 0x95, 0x16, 0x31, 0x9a, 0x32, 0x9b, 0x41, 0x9e, 0x38, 0x14,
  0x10, 0x1e, 0x99, 0x20, 0x09, 0x1c, 0x6f, 0x9f, 0x45, 0x95, 0x1b, 0x9a,
  0x0f, 0x9a, 0x58, 0x18, 0xa2, 0xa1, 0xca, 0x1e, 0x1a, 0x08, 0x3f, 0x1c,
  0xb4, 0x1c, 0x7b, 0x95, 0x0e, 0x9d, 0xea, 0x1f, 0x6f, 0x1b, 0xa6, 0x20,
  0xa6, 0x1a, 0xdf, 0x9a, 0x4f, 0x99, 0xa1, 0x94, 0xe7, 0x9d, 0x8c, 0x1c,
  0x1d, 0x96, 0xd8, 0x12, 0x2e, 0x0c, 0x51, 0x14, 0xbb, 0x14, 0x9f, 0xa0,
  0xf7, 0x9e, 0x4d, 0x0b, 0xf7, 0x9b, 0x51, 0x1e, 0xcd, 0x1c, 0x05, 0x14,
  0x08, 0x1b, 0x18, 0x94, 0x90, 0x9c, 0xaf, 0x9e, 0xd2, 0x15, 0x4b, 0x18,
  0x1f, 0x18, 0x56, 0x08, 0x2f, 0x15, 0xb5, 0x90, 0x30, 0x14, 0x4f, 0x1a,
  0x6c, 0x16, 0xcc, 0x1a, 0x08, 0xa2, 0x13, 0x1c, 0x35, 0x18, 0x19, 0x08,
  0x12, 0x9f, 0x82, 0x9e, 0x44, 0x92, 0x25, 0x1b, 0xa4, 0x1d, 0xfd, 0x03,
  0x68, 0x1b, 0x3a, 0x8e, 0xeb, 0x8e, 0x76, 0x18, 0x03, 0x8c, 0x99, 0x1c,
  0x68, 0x99, 0xea, 0x17, 0x5c, 0x9c, 0xf3, 0x82, 0x57, 0x9c, 0x0e, 0x92,
  0x00, 0x16, 0xe7, 0x19, 0x94, 0x11, 0x54, 0x13, 0x93, 0x1a, 0xfd, 0x92,
  0xdf, 0x96, 0x16, 0x1c, 0x83, 0x94, 0x84, 0x18, 0xce, 0x8e, 0xed, 0x1e,
  0xec, 0x19, 0x13, 0x99, 0xe4, 0x9d, 0x69, 0x1b, 0x42, 0x97, 0xff, 0x1a,
  0x8f, 0x1b, 0x4d, 0x1a, 0x5b, 0x1a, 0x39, 0x97, 0xeb, 0x87, 0xe2, 0x1f,
  0x43, 0x19, 0xf1, 0x96, 0xac, 0x96, 0x1e, 0x97, 0x05, 0x84, 0x07, 0x91,
  0x61, 0x9b, 0xce, 0x08, 0x60, 0x19, 0xec, 0x0e, 0xb5, 0x1c, 0x14, 0x93,
  0xf3, 0x8a, 0xbb, 0x1f, 0x7e, 0x14, 0xbe, 0x19, 0x46, 0x16, 0x7d, 0x15,
  0x2a, 0x19, 0x73, 0x9b, 0xe0, 0x16, 0x85, 0x16, 0x1d, 0x9a, 0x51, 0x1a,
  0x0e, 0x1a, 0x9c, 0x12, 0x35, 0x1e, 0xf1, 0x83, 0x2b, 0x1c, 0xdf, 0x1e,
  0xcc, 0x94, 0x28, 0x15, 0xf5, 0x95, 0x2c, 0x08, 0x2a, 0x1c, 0x77, 0x9c,
  0x6e, 0x1d, 0xb5, 0x9d, 0x06, 0x9f, 0x20, 0x94, 0x82, 0x1d, 0x01, 0x97,
  0xca, 0x0a, 0x8d, 0x14, 0xdc, 0x8c, 0xc6, 0x1a, 0xb6, 0x91, 0x7f, 0x92,
  0xc6, 0x96, 0x39, 0x1d, 0x28, 0x9a, 0x03, 0x9b, 0xe3, 0x1c, 0x97, 0x18,
  0x6c, 0xa0, 0x8d, 0x9e, 0x9d, 0x1f, 0x79, 0x98, 0xfb, 0x93, 0xc4, 0x93,
  0xda, 0x0e, 0x4c, 0x1a, 0x6b, 0x19, 0x94, 0x9a, 0x05, 0x99, 0xb0, 0x0c,
  0x49, 0x9c, 0xfd, 0x15, 0xf4, 0x1c, 0x40, 0x1d, 0xe3, 0x9d, 0xea, 0x9b,
  0xe9, 0x1c, 0x2f, 0x9c, 0x22, 0x92, 0xec, 0x9b, 0x8f, 0x9b, 0xd9, 0x19,
  0xb0, 0x9e, 0x7b, 0x17, 0xef, 0x9b, 0x22, 0x94, 0xd6, 0x98, 0xfb, 0x1d,
  0x7c, 0x96, 0xf3, 0x1c, 0xf9, 0x99, 0x88, 0x9e, 0x32, 0x1e, 0xef, 0x98,
  0x90, 0x98, 0x88, 0x97, 0x62, 0x9a, 0xcc, 0x05, 0x43, 0x99, 0x6f, 0x98,
  0x72, 0x9d, 0x3c, 0x1b, 0x29, 0x12, 0xb8, 0x1f, 0x5c, 0x9d, 0x7f, 0x20,
  0xa8, 0x9b, 0x89, 0x9a, 0x22, 0x1a, 0x63, 0x9c, 0x5e, 0x80, 0x7e, 0x11,
  0xd7, 0x9c, 0xe0, 0x10, 0x46, 0x9c, 0xb1, 0x94, 0x70, 0x98, 0xa6, 0x9c,
  0x49, 0x16, 0x21, 0x9d, 0x4e, 0x1c, 0x95, 0x1a, 0xea, 0x99, 0x2d, 0x9b,
  0xdf, 0x1b, 0x1c, 0x92, 0x87, 0x90, 0x37, 0x94, 0x90, 0x99, 0xa2, 0x9a,
  0xf4, 0x99, 0xc9, 0x14, 0xf2, 0x97, 0x39, 0x94, 0x07, 0x18, 0x04, 0x9e,
  0xe5, 0x19, 0x61, 0x9a, 0xbb, 0x9c, 0xfb, 0x9e, 0x92, 0x12, 0x4e, 0x9e,
  0x76, 0x99, 0x8c, 0x1a, 0x99, 0x9f, 0xa4, 0x10, 0x3d, 0x9f, 0x2c, 0x97,
  0x14, 0x96, 0xce, 0x15, 0x06, 0x8d, 0x41, 0x1a, 0x88, 0x95, 0xe3, 0x98,
  0x1a, 0x0c, 0x31, 0x9d, 0x13, 0x1c, 0x1f, 0x9a, 0x32, 0xa0, 0x82, 0x97,
  0x8e, 0x98, 0x14, 0x8b, 0x52, 0x99, 0xf1, 0x8d, 0xa4, 0x9a, 0xb2, 0x18,
  0xca, 0x0e, 0x3f, 0x18, 0x84, 0x9b, 0xd1, 0x1d, 0xa2, 0x9b, 0xaa, 0x97,
  0x31, 0x1c, 0x8c, 0x99, 0x92, 0x95, 0xfa, 0x18, 0x7e, 0x92, 0x6b, 0x0d,
  0x19, 0x1a, 0x2e, 0x1d, 0x96, 0x9e, 0x99, 0x14, 0x68, 0x94, 0xc7, 0x19,
  0x7f, 0x9d, 0xff, 0x1c, 0x67, 0x98, 0xe1, 0x98, 0xc0, 0x99, 0xe0, 0x9a,
  0x57, 0x97, 0x87, 0x94, 0xf1, 0x95, 0x9b, 0x97, 0x7a, 0x18, 0x80, 0x18,
  0x0f, 0x9b, 0x36, 0x85, 0x1f, 0x1f, 0x7d, 0x1d, 0x3c, 0x19, 0x37, 0x1a,
  0x8d, 0x03, 0x00, 0x8e, 0x43, 0x1c, 0x12, 0x82, 0xbe, 0x1b, 0x26, 0x10,
  0xc1, 0x9f, 0x01, 0x98, 0x6e, 0x8d, 0x7a, 0x1d, 0x33, 0x99, 0xda, 0x93,
  0xb9, 0x05, 0x59, 0x20, 0x40, 0x1b, 0x32, 0x98, 0x1c, 0x9b, 0x7d, 0x1a,
  0x0a, 0x18, 0x31, 0x9e, 0x2e, 0x91, 0x36, 0x9a, 0xd8, 0x8b, 0xf1, 0x9d,
  0x41, 0x8b, 0xd4, 0x11, 0x98, 0x14, 0x5e, 0x8e, 0x61, 0x1d, 0x57, 0x0f,
  0x73, 0x97, 0x0c, 0x96, 0x1a, 0x91, 0x08, 0xa1, 0x40, 0x1d, 0x53, 0x9a,
  0x40, 0x9c, 0x7f, 0x9e, 0xec, 0x18, 0x98, 0x9d, 0xa1, 0x14, 0xd9, 0x1c,
  0x5e, 0x9d, 0xd7, 0x9d, 0x99, 0x9b, 0x9a, 0x92, 0xf8, 0x96, 0x82, 0x9c,
  0x33, 0x17, 0x0a, 0x95, 0x9b, 0x04, 0x1f, 0x9e, 0xd1, 0x9a, 0x6e, 0x98,
  0xbe, 0x17, 0xae, 0x9c, 0xda, 0x98, 0x22, 0x1a, 0x87, 0x9a, 0x70, 0x96,
  0x1e, 0x99, 0x84, 0x1a, 0x0b, 0xa0, 0x21, 0xa0, 0x7c, 0x20, 0x45, 0x15,
  0xea, 0x1d, 0xeb, 0x10, 0xf4, 0x1a, 0x85, 0x12, 0x40, 0x8e, 0xcd, 0x9b,
  0x9f, 0x16, 0x03, 0x99, 0xd8, 0x9b, 0x0c, 0x19, 0xcc, 0x9c, 0xe1, 0x9b,
  0x70, 0x9c, 0x5f, 0x17, 0xcb, 0x16, 0x33, 0x1d, 0xa5, 0x1e, 0xf3, 0x9e,
  0xe6, 0x89, 0xd2, 0x9b, 0x6e, 0x93, 0x61, 0x9e, 0x89, 0x99, 0x4e, 0x0e,
  0x87, 0x0c, 0xb1, 0x19, 0x19, 0x09, 0x04, 0x1b, 0xe8, 0x98, 0x7d, 0x12,
  0xe3, 0x95, 0xd5, 0x14, 0xdb, 0x97, 0x98, 0x9b, 0x04, 0x19, 0x1d, 0x9b,
  0xb9, 0x9e, 0x72, 0x9a, 0x2c, 0x17, 0x45, 0x9b, 0x58, 0x98, 0x4b, 0x9d,
  0x4f, 0x10, 0x28, 0x1e, 0xd0, 0x98, 0x17, 0x9a, 0x3f, 0x9a, 0xa0, 0x1d,
  0x6e, 0x19, 0x93, 0x95, 0xfa, 0x1c, 0x99, 0x9c, 0x58, 0x14, 0x3f, 0x94,
  0x3c, 0xa0, 0x63, 0x9f, 0x19, 0x15, 0x83, 0x9b, 0x2f, 0x1f, 0x3b, 0x20,
  0x07, 0x1e, 0x6e, 0x11, 0x61, 0x1c, 0xf8, 0x1c, 0x56, 0x98, 0x6b, 0x9f,
  0xc5, 0x1b, 0x0d, 0x9d, 0x7f, 0x94, 0xff, 0x89, 0xc3, 0x9a, 0x1a, 0x9d,
  0x4e, 0x94, 0x11, 0x9c, 0xdb, 0x19, 0xc1, 0x1c, 0xf3, 0x17, 0xdd, 0x9a,
  0x4a, 0x10, 0x39, 0x19, 0xdb, 0x9e, 0x24, 0x9a, 0xe2, 0x9f, 0x6f, 0x99,
  0xd1, 0x1c, 0x59, 0x17, 0x38, 0x99, 0x2d, 0x18, 0xae, 0x9a, 0x8f, 0x9b,
  0xa9, 0x1b, 0x4a, 0x9a, 0xec, 0x18, 0x95, 0x96, 0x3f, 0x9c, 0xb3, 0x1e,
  0xf4, 0x97, 0x7b, 0x98, 0x71, 0x9d, 0xe1, 0x17, 0x2f, 0x09, 0xb6, 0x16,
  0x63, 0x14, 0x86, 0x99, 0xa4, 0x18, 0x04, 0x9f, 0xe9, 0x98, 0x52, 0xa1,
  0x1a, 0x16, 0x4c, 0x05, 0x27, 0x09, 0x42, 0x1d, 0x10, 0x08, 0x35, 0x8e,
  0x15, 0x90, 0xf5, 0x9b, 0x73, 0x13, 0xbb, 0x1a, 0x60, 0x16, 0x70, 0x96,
  0xfa, 0x09, 0x2f, 0xa1, 0x2a, 0x9e, 0x61, 0xa0, 0x07, 0x1c, 0x39, 0x98,
  0x4e, 0xa0, 0xf9, 0x16, 0x2a, 0x98, 0xee, 0x9c, 0x0f, 0x9f, 0x6d, 0x8c,
  0x11, 0x9d, 0x60, 0x0c, 0x73, 0x9c, 0x82, 0x1b, 0xff, 0x94, 0x55, 0x83,
  0x3f, 0x0e, 0x65, 0x21, 0x62, 0x1c, 0xa8, 0x9b, 0xc6, 0x9d, 0xab, 0x1e,
  0xaa, 0x9d, 0x7a, 0x96, 0x39, 0x9f, 0x3e, 0x18, 0x93, 0x11, 0x35, 0x20,
  0x79, 0x99, 0x4a, 0x16, 0x09, 0x1e, 0xb8, 0x8f, 0x4f, 0x1c, 0xcc, 0x20,
  0x61, 0x16, 0x02, 0x82, 0xfe, 0x9c, 0x00, 0x14, 0xcf, 0x16, 0x6c, 0x9c,
  0xec, 0xa1, 0x5f, 0x06, 0x93, 0x91, 0x08, 0x1f, 0x0a, 0x9c, 0x13, 0x0e,
  0xf0, 0x18, 0x63, 0xa0, 0x5d, 0x8f, 0x60, 0x1c, 0xf9, 0x9f, 0xd3, 0x20,
  0x42, 0x9b, 0x53, 0x80, 0x06, 0x1b, 0x61, 0x9c, 0xe9, 0x9d, 0x92, 0x18,
  0xd1, 0x8a, 0x95, 0x20, 0x09, 0x82, 0xe1, 0x19, 0xd0, 0x13, 0x45, 0x9c,
  0x8c, 0x20, 0x7d, 0x0e, 0x72, 0x95, 0x1d, 0x1b, 0x8f, 0x9c, 0x01, 0x10,
  0x18, 0x97, 0x38, 0x16, 0x61, 0x9c, 0xf4, 0x04, 0x0c, 0x1f, 0x3d, 0x20,
  0xb7, 0x8e, 0xbc, 0x99, 0xc9, 0x1e, 0xe7, 0x9b, 0x9e, 0x1c, 0x1c, 0xa2,
  0x0a, 0x8d, 0xd1, 0x99, 0xad, 0x98, 0xe7, 0x9d, 0x4e, 0x99, 0xc0, 0x1c,
  0xbd, 0x98, 0xa7, 0x20, 0x5e, 0x19, 0x43, 0x20, 0x23, 0x1f, 0x7c, 0x11,
  0x0b, 0x12, 0x1e, 0x9e, 0x49, 0x1d, 0x48, 0xa0, 0x46, 0x1a, 0x32, 0x9e,
  0xfd, 0x1b, 0x6e, 0x10, 0xc9, 0x19, 0x01, 0x80, 0x6a, 0x1a, 0xee, 0x1c,
  0xd9, 0x1c, 0x1e, 0x18, 0xdd, 0x20, 0xdc, 0x94, 0xb4, 0x1e, 0xda, 0x9c,
  0x9d, 0x13, 0x91, 0x94, 0x31, 0x10, 0xba, 0x97, 0x2c, 0x91, 0xee, 0x18,
  0x1c, 0x15, 0x1d, 0x1c, 0x17, 0x1d, 0x25, 0x1d, 0x5d, 0x1c, 0xf6, 0x94,
  0x9d, 0x8f, 0x68, 0x08, 0x16, 0x1e, 0x53, 0xa0, 0x85, 0x98, 0x49, 0x18,
  0xe2, 0x1d, 0x03, 0x1d, 0xa5, 0x94, 0x68, 0x8e, 0x2d, 0x99, 0x07, 0x1f,
  0xa5, 0x10, 0xc6, 0x1e, 0x5a, 0x99, 0x00, 0x1c, 0x64, 0x20, 0xfc, 0x1b,
  0xc0, 0x93, 0x71, 0x9e, 0x2a, 0x1a, 0x48, 0x21, 0xfa, 0x1c, 0xe4, 0x1f,
  0x8c, 0x1b, 0x39, 0x98, 0xb3, 0x99, 0xe6, 0x92, 0x0c, 0x9c, 0x2a, 0x1d,
  0xb2, 0x13, 0x08, 0x12, 0x84, 0x1d, 0xda, 0x8e, 0xaa, 0x19, 0xd3, 0xa0,
  0x74, 0x1c, 0xbd, 0x1c, 0xa5, 0x1b, 0x49, 0x1d, 0x52, 0x18, 0x8d, 0x18,
  0x6e, 0x98, 0x04, 0x1d, 0x23, 0x96, 0x24, 0x1f, 0xd7, 0x14, 0x6c, 0x1f,
  0xbd, 0x1b, 0xf7, 0x96, 0x5a, 0x1e, 0xdc, 0x9d, 0x75, 0x1c, 0x91, 0x97,
  0x34, 0x20, 0x21, 0x96, 0xa6, 0x19, 0x1b, 0x97, 0x5d, 0x18, 0xb1, 0x18,
  0x05, 0x19, 0x5d, 0x1c, 0x79, 0x1d, 0xc4, 0x1d, 0xca, 0x1f, 0x11, 0x1c,
  0xc4, 0x1c, 0x38, 0xa1, 0x0a, 0x1d, 0x3b, 0xa3, 0x89, 0x21, 0x14, 0x95,
  0xf0, 0x19, 0x91, 0x18, 0x90, 0x9d, 0x10, 0x16, 0xdd, 0x1a, 0xec, 0x1f,
  0x30, 0x16, 0xe8, 0x18, 0x6a, 0x21, 0xbe, 0x98, 0x5d, 0x20, 0xaf, 0x9b,
  0x6c, 0x95, 0xdf, 0x9d, 0x28, 0x12, 0x97, 0x9c, 0x27, 0x1a, 0xdf, 0x18,
  0xad, 0xa1, 0x88, 0x04, 0x57, 0x1a, 0x34, 0x1d, 0x1f, 0x20, 0xc0, 0x13,
  0x46, 0x22, 0x12, 0x90, 0x29, 0x17, 0x69, 0x07, 0x4b, 0x1c, 0xce, 0x1d,
  0xe0, 0x17, 0xc8, 0x0c, 0x79, 0x1a, 0xf8, 0x93, 0x37, 0x18, 0x57, 0x1c,
  0x34, 0x1e, 0x59, 0x1c, 0xd7, 0x1c, 0xb8, 0x13, 0x9f, 0x1f, 0x28, 0x19,
  0x26, 0x1c, 0x07, 0x96, 0xd4, 0x99, 0xc6, 0x1e, 0xaf, 0x97, 0x62, 0x91,
  0x16, 0x1b, 0x47, 0x98, 0x4b, 0x9f, 0x40, 0x14, 0xaa, 0x09, 0x00, 0x1c,
  0x48, 0x18, 0xff, 0x0f, 0x45, 0x1c, 0x6e, 0x10, 0x12, 0x17, 0xeb, 0x9d,
  0x71, 0x94, 0x59, 0x1c, 0x74, 0x96, 0x5d, 0x9c, 0x17, 0x83, 0xcf, 0x19,
  0x12, 0xa0, 0x1d, 0x9c, 0x59, 0x14, 0xc2, 0x19, 0x35, 0x1c, 0xd5, 0x19,
  0xb6, 0x86, 0xa4, 0x13, 0xf2, 0x19, 0xeb, 0x09, 0x6f, 0x17, 0x16, 0x05,
  0x19, 0x9d, 0x73, 0xa1, 0x3a, 0xa0, 0x54, 0x99, 0x47, 0x9d, 0x53, 0x98,
  0x83, 0x20, 0xbc, 0x90, 0xf0, 0x1b, 0x8e, 0x0d, 0x97, 0x1c, 0x49, 0x1e,
  0x23, 0x13, 0x08, 0x9f, 0x8a, 0x1c, 0x55, 0x9c, 0x5a, 0x14, 0x41, 0x9b,
  0xf6, 0x1c, 0x57, 0x92, 0x39, 0x9f, 0xf7, 0x94, 0xab, 0x1c, 0x68, 0x17,
  0x13, 0x01, 0xc1, 0x91, 0xfc, 0x20, 0x56, 0x1d, 0x39, 0x11, 0xf9, 0x9c,
  0x83, 0x1b, 0xad, 0xa2, 0x7a, 0x9b, 0xab, 0x94, 0x3e, 0x1e, 0x12, 0x1c,
  0x06, 0xa0, 0xdf, 0x99, 0xa6, 0x1c, 0xb6, 0x19, 0x8f, 0x1d, 0xeb, 0x18,
  0x96, 0x1a, 0xd3, 0x18, 0x23, 0x96, 0xa7, 0x1d, 0x41, 0x9e, 0x06, 0x9e,
  0x00, 0x92, 0xf6, 0x9a, 0x2f, 0x1d, 0x9b, 0x1d, 0xeb, 0x9f, 0x7a, 0x93,
  0x86, 0x11, 0xfb, 0x11, 0xa8, 0x1d, 0xdd, 0x98, 0x7b, 0x21, 0x29, 0x1f,
  0x71, 0x9e, 0xb6, 0x19, 0x5e, 0x93, 0xfd, 0x1d, 0x22, 0x1d, 0x20, 0x9c,
  0x39, 0x12, 0x6c, 0x16, 0x2b, 0x94, 0x2d, 0x03, 0x6b, 0x1c, 0x51, 0x1c,
  0x73, 0x15, 0x50, 0x19, 0xf4, 0x20, 0x6d, 0x1b, 0xb9, 0x9b, 0xa4, 0x1c,
  0xdd, 0x99, 0x9b, 0x22, 0x4d, 0x21, 0x65, 0x9c, 0x27, 0x99, 0xc6, 0x98,
  0x0d, 0x10, 0xa0, 0x96, 0xbd, 0x16, 0x71, 0x15, 0xd4, 0x17, 0x06, 0x99,
  0x5f, 0x1b, 0x9c, 0x20, 0xd8, 0x8a, 0xef, 0x1d, 0xed, 0x8c, 0x96, 0x1c,
  0x4c, 0x22, 0xd1, 0x18, 0x49, 0x1b, 0x59, 0x98, 0x8d, 0x95, 0x6d, 0x98,
  0xbd, 0x18, 0x92, 0x18, 0xf5, 0x9b, 0x35, 0x9c, 0xa3, 0x1a, 0x38, 0x22,
  0xde, 0x8c, 0x45, 0x21, 0x5f, 0x1a, 0x05, 0x8f, 0xc4, 0x19, 0x87, 0x20,
  0x8d, 0x9a, 0x88, 0x9c, 0x4c, 0x9e, 0x3f, 0x11, 0x2a, 0x0d, 0xc6, 0x92,
  0x0c, 0x91, 0x07, 0x9b, 0x0e, 0x21, 0x7c, 0x20, 0x9a, 0x17, 0x1a, 0x1e,
  0x43, 0x17, 0xef, 0xa0, 0xa7, 0x14, 0x7d, 0x18, 0xde, 0xa0, 0xfe, 0x99,
  0x81, 0x98, 0x2a, 0x9d, 0x93, 0x1c, 0x06, 0x15, 0x62, 0x03, 0x69, 0x10,
  0x61, 0x21, 0xbc, 0x1a, 0x17, 0x9c, 0xb8, 0x14, 0x44, 0x0c, 0xd4, 0x9e,
  0x73, 0x95, 0x19, 0x0a, 0xfe, 0x9f, 0xe9, 0x9c, 0x86, 0x92, 0xbe, 0x96,
  0xa4, 0x10, 0x34, 0x02, 0x48, 0x98, 0x33, 0x92, 0xc2, 0x18, 0x33, 0x1b,
  0x3f, 0x9d, 0x23, 0x1e, 0x0f, 0x09, 0xe2, 0x19, 0x4d, 0x98, 0xcd, 0x9c,
  0x76, 0x9c, 0xc9, 0x9e, 0x19, 0x98, 0xcc, 0x9c, 0x02, 0x13, 0x54, 0x9f,
  0x65, 0xa0, 0x10, 0x14, 0xb3, 0x0a, 0xc1, 0x1e, 0xe0, 0x1a, 0x62, 0x1e,
  0x68, 0x9c, 0x40, 0x1f, 0xf6, 0x99, 0x9e, 0x15, 0x0e, 0xa1, 0x76, 0xa0,
  0xf4, 0x9b, 0x01, 0x9f, 0x0e, 0x17, 0xaf, 0x1a, 0x3e, 0xa2, 0x03, 0x9b,
  0xfe, 0x1f, 0xb6, 0x19, 0xc6, 0x16, 0x82, 0x1c, 0x35, 0x1d, 0x5a, 0x1e,
  0xfb, 0x80, 0x78, 0x1d, 0x3e, 0xa1, 0x8a, 0x9d, 0x61, 0x9a, 0x15, 0xa0,
  0x34, 0x19, 0xa6, 0x9b, 0xa5, 0xa1, 0x65, 0x96, 0x13, 0x1d, 0x40, 0x96,
  0x81, 0x9d, 0x11, 0x91, 0x45, 0xa0, 0xd5, 0x0d, 0x24, 0x15, 0x51, 0x19,
  0x08, 0x9f, 0x35, 0x9b, 0x2f, 0xa0, 0x5b, 0x9f, 0xc1, 0x13, 0x60, 0x98,
  0x88, 0xa1, 0x4e, 0x17, 0xb1, 0x1f, 0xb2, 0x15, 0x61, 0x96, 0xee, 0x91,
  0xf8, 0x99, 0xe6, 0x15, 0xa0, 0x21, 0x92, 0x1a, 0x0a, 0x9e, 0xf6, 0x9d,
  0xd2, 0x93, 0xd1, 0x9b, 0x80, 0x98, 0xcc, 0x1b, 0x52, 0x9c, 0x42, 0x08,
  0x1a, 0x20, 0x0e, 0x1c, 0x11, 0x12, 0x57, 0x9a, 0x2a, 0x1d, 0x80, 0x9e,
  0x28, 0x20, 0x83, 0x1b, 0x5b, 0x9f, 0x8b, 0x9b, 0x65, 0x9d, 0xb1, 0x95,
  0xe8, 0x10, 0x58, 0x89, 0x5e, 0xa1, 0xc3, 0x8a, 0xb4, 0x22, 0xb9, 0x1e,
  0x15, 0x1d, 0x34, 0x12, 0x3f, 0x95, 0xc3, 0x99, 0xbe, 0x22, 0x3a, 0x1c,
  0x05, 0xa0, 0x75, 0x9e, 0x48, 0xa0, 0x89, 0x99, 0xc5, 0x13, 0xd4, 0x98,
  0x3c, 0xa0, 0xc9, 0x95, 0x38, 0x21, 0x50, 0x1b, 0x49, 0x20, 0x9a, 0x99,
  0x77, 0x95, 0x5c, 0x15, 0x85, 0x1e, 0xb2, 0x1a, 0x4f, 0x99, 0xdb, 0x9b,
  0x81, 0x98, 0x87, 0x9d, 0x63, 0x19, 0xdb, 0x99, 0x43, 0xa2, 0xe6, 0x19,
  0xe9, 0x20, 0x01, 0x1e, 0xcb, 0x1a, 0xc4, 0x9e, 0x76, 0x01, 0xec, 0x19,
  0x49, 0x1d, 0x9a, 0x95, 0xe3, 0x9b, 0x26, 0x99, 0x54, 0x99, 0x8c, 0x9d,
  0x89, 0x18, 0x78, 0x98, 0xd5, 0xa0, 0xc9, 0x01, 0x09, 0x1e, 0xa1, 0x1c,
  0xb9, 0x1d, 0x37, 0x98, 0xf5, 0x98, 0x77, 0x1e, 0xad, 0x1e, 0xa8, 0x1c,
  0x56, 0x9e, 0xdc, 0x9d, 0x4f, 0xa0, 0xe8, 0x9c, 0x2b, 0x8f, 0x23, 0x9d,
  0x1b, 0xa0, 0x64, 0x17, 0x2d, 0x20, 0xe7, 0x8b, 0xa2, 0xa0, 0xd3, 0x9a,
  0xd9, 0x9d, 0x7e, 0x1c, 0x01, 0x20, 0x8b, 0x14, 0x00, 0x9a, 0x75, 0x95,
  0x71, 0xa0, 0x7b, 0x97, 0xc9, 0x1b, 0x3f, 0x9a, 0x89, 0xa0, 0x45, 0x1f,
  0x03, 0x1b, 0xac, 0x17, 0xfe, 0x08, 0x78, 0x9c, 0x61, 0x99, 0x21, 0x98,
  0xab, 0x1c, 0xe6, 0x9e, 0x64, 0x8d, 0xe7, 0x9b, 0x9e, 0x8b, 0xef, 0x9c,
  0x05, 0x9a, 0x4d, 0x90, 0x54, 0xa0, 0x10, 0x91, 0x8a, 0x13, 0x48, 0x1d,
  0x9a, 0x1e, 0x4b, 0x9b, 0x01, 0x13, 0x8b, 0x18, 0xea, 0x1b, 0x09, 0x9d,
  0xad, 0x1b, 0x00, 0x9d, 0x44, 0x9d, 0x47, 0x9d, 0xfa, 0x91, 0x5b, 0x1f,
  0x75, 0x9e, 0x62, 0x1c, 0x0b, 0x1b, 0x60, 0x1e, 0x95, 0x1c, 0x62, 0x99,
  0x97, 0x10, 0xff, 0x92, 0x87, 0x9d, 0xd9, 0x98, 0x68, 0x9f, 0x4a, 0x9b,
  0x30, 0x9d, 0x6a, 0x99, 0x88, 0x1f, 0x61, 0x1b, 0xdf, 0x9a, 0x67, 0x1c,
  0xc4, 0x16, 0xe9, 0x1c, 0x8a, 0x1f, 0x7f, 0xa0, 0x66, 0x8d, 0x4b, 0x0f,
  0x63, 0x96, 0x0a, 0x1e, 0x33, 0x99, 0x67, 0x92, 0xa0, 0x91, 0x98, 0x98,
  0x44, 0x0a, 0x03, 0x9b, 0x72, 0x18, 0xdc, 0x1c, 0x15, 0x1d, 0x05, 0x1e,
  0x70, 0x94, 0xee, 0x9e, 0xd4, 0x18, 0xf1, 0x18, 0x7b, 0x9c, 0x73, 0x8d,
  0x59, 0x99, 0xd3, 0x15, 0xbf, 0x9b, 0x8b, 0x99, 0xbe, 0x1d, 0xcf, 0x16,
  0x06, 0x97, 0x5a, 0x1e, 0x3c, 0x1e, 0x58, 0x20, 0x2b, 0x1d, 0x35, 0x9e,
  0x4b, 0x9d, 0xf9, 0x97, 0xb5, 0x98, 0x06, 0xa0, 0x4a, 0x9c, 0xd4, 0x93,
  0x7a, 0x98, 0xea, 0x9d, 0xb3, 0x1d, 0xc5, 0x80, 0x13, 0x99, 0x85, 0x1d,
  0xfd, 0x1e, 0xa2, 0x21, 0x88, 0x18, 0xc5, 0x9c, 0x53, 0xa0, 0xe8, 0x11,
  0x0b, 0x17, 0x92, 0x9c, 0xe7, 0x9e, 0xab, 0x99, 0x0f, 0x99, 0xfa, 0x99,
  0xfd, 0x1c, 0xb6, 0x14, 0x40, 0xa0, 0x74, 0x1b, 0x7b, 0x1d, 0xee, 0x22,
  0xcb, 0x1f, 0xe8, 0x9f, 0x04, 0x9f, 0xa6, 0x99, 0x36, 0x1e, 0x06, 0x1b,
  0x7c, 0x96, 0xca, 0x8d, 0xde, 0x99, 0xfc, 0x9e, 0xf6, 0x1f, 0x77, 0x18,
  0x54, 0x9f, 0xe7, 0x1e, 0x5b, 0x01, 0xd5, 0x20, 0x11, 0x13, 0x48, 0x98,
  0x80, 0x8c, 0xdf, 0x9c, 0xa7, 0x1c, 0x68, 0x19, 0x16, 0x9b, 0xd5, 0x94,
  0x48, 0x14, 0x1c, 0x9c, 0x11, 0x20, 0x4b, 0x1b, 0x39, 0xa0, 0x8b, 0x1b,
  0x22, 0x1b, 0xdc, 0x16, 0x04, 0x20, 0x34, 0x96, 0xa0, 0x94, 0x6c, 0x1a,
  0xeb, 0x90, 0xfa, 0x19, 0x4b, 0x9e, 0x7d, 0x9c, 0xd9, 0x15, 0xf2, 0x9c,
  0x0a, 0x20, 0x48, 0x1e, 0x3e, 0x03, 0xe7, 0x20, 0x83, 0x18, 0x3d, 0x1c,
  0x7c, 0x1b, 0x60, 0x18, 0x8e, 0x94, 0x9c, 0x99, 0x98, 0x1c, 0x62, 0x11,
  0xf8, 0x14, 0xaf, 0x91, 0x85, 0x1c, 0x0b, 0x9e, 0xcf, 0x1f, 0x5b, 0x18,
  0x84, 0x9c, 0x3e, 0x1f, 0x43, 0x1e, 0x87, 0x18, 0x44, 0x1c, 0x16, 0x13,
  0x87, 0x96, 0x57, 0x10, 0x82, 0x11, 0xa3, 0x95, 0xd6, 0x1c, 0xd2, 0x9b,
  0xee, 0x1d, 0xf6, 0x99, 0x61, 0x1c, 0x3e, 0x05, 0x14, 0x84, 0xb2, 0x20,
  0x6b, 0x1c, 0xef, 0x18, 0x81, 0x1e, 0xd5, 0x9d, 0xe0, 0x9f, 0xc4, 0x88,
  0xc0, 0x15, 0x74, 0x0c, 0x68, 0x95, 0xa4, 0x9e, 0xd9, 0x21, 0xca, 0x97,
  0x67, 0x1d, 0xaf, 0x1d, 0xaa, 0x9a, 0x65, 0x15, 0x5c, 0x20, 0x3e, 0x9b,
  0xdf, 0x1b, 0xc4, 0x97, 0xaf, 0x9c, 0x8a, 0x18, 0x8e, 0x97, 0x00, 0x09,
  0xa3, 0x9a, 0xcd, 0x9f, 0x47, 0x22, 0xa3, 0x9f, 0xaa, 0x1d, 0x9a, 0x1b,
  0x8e, 0x98, 0x35, 0x1e, 0x26, 0x20, 0x5e, 0x9a, 0xaa, 0x1d, 0xa4, 0x15,
  0x88, 0x94, 0x41, 0x99, 0xad, 0x1b, 0x3c, 0x9e, 0x2e, 0x9d, 0xe6, 0x90,
  0x94, 0x1c, 0x21, 0x9c, 0x42, 0x1a, 0x1d, 0x20, 0xc9, 0x15, 0x3a, 0x18,
  0x25, 0x22, 0x20, 0x9a, 0x12, 0x20, 0xa0, 0x17, 0xda, 0x18, 0xa7, 0x88,
  0xec, 0x8f, 0x3b, 0x1f, 0x2d, 0x9e, 0xa6, 0x99, 0xd8, 0x1d, 0x68, 0x9d,
  0x97, 0x1a, 0x9d, 0x1e, 0x4d, 0x9d, 0x51, 0x97, 0x4c, 0x1f, 0x79, 0x9a,
  0xfa, 0x13, 0x40, 0x10, 0xbe, 0x15, 0xfa, 0x18, 0x13, 0x92, 0x64, 0x8f,
  0x7b, 0x82, 0x52, 0x9b, 0x97, 0x1c, 0x38, 0x9c, 0x11, 0x1e, 0xf3, 0x1e,
  0xd8, 0x9c, 0x21, 0x1d, 0x11, 0x21, 0x36, 0x97, 0xe6, 0x1c, 0x2d, 0x9c,
  0x4f, 0x06, 0xab, 0x9b, 0x7e, 0x90, 0xb9, 0x19, 0xbe, 0x17, 0x41, 0x97,
  0x53, 0x1d, 0x46, 0x98, 0x4b, 0x1d, 0x84, 0x0e, 0xc6, 0x10, 0x7d, 0x9a,
  0xcd, 0x1d, 0x31, 0x15, 0x31, 0x1c, 0xf9, 0x1a, 0xc8, 0x99, 0xbf, 0x9c,
  0x4a, 0x9e, 0x31, 0x9c, 0xf9, 0x19, 0x25, 0x9a, 0x97, 0x1c, 0xe5, 0xa0,
  0xfc, 0x02, 0x59, 0x9a, 0x61, 0x96, 0xd4, 0x21, 0x77, 0xa0, 0xd6, 0x13,
  0xc9, 0x98, 0x37, 0x14, 0xb9, 0x1e, 0x27, 0x18, 0x38, 0x9f, 0x76, 0x9b,
  0x14, 0x18, 0xb6, 0x94, 0x1f, 0x1c, 0x49, 0x1d, 0x79, 0x9e, 0xac, 0x17,
  0x5d, 0x17, 0x69, 0x22, 0x72, 0x9c, 0xe1, 0x1c, 0xcc, 0x17, 0x06, 0x9c,
  0xba, 0x22, 0x40, 0x1e, 0x07, 0xa4, 0xe7, 0x98, 0xbe, 0x90, 0x5d, 0x9c,
  0xd1, 0x21, 0xd0, 0x98, 0xcb, 0x9d, 0xf4, 0x1e, 0xc2, 0x9a, 0xbc, 0x1c,
  0x2e, 0x9b, 0xa3, 0x1c, 0x92, 0x96, 0x44, 0x1a, 0x8b, 0x1c, 0x88, 0x20,
  0xa5, 0xa3, 0x74, 0xa0, 0xed, 0x1c, 0xb4, 0x0e, 0xb8, 0x1b, 0x67, 0x9f,
  0x6a, 0x9d, 0x9d, 0x20, 0xc8, 0xa0, 0xa9, 0x11, 0xc4, 0x9d, 0x32, 0x1f,
  0x03, 0x9d, 0xa9, 0x9c, 0x8c, 0x00, 0x27, 0x0d, 0x7b, 0x92, 0x1f, 0x18,
  0x43, 0x93, 0xb0, 0x9d, 0x44, 0x1c, 0x8d, 0xa2, 0x08, 0x9e, 0x44, 0x11,
  0x06, 0x99, 0x54, 0x1f, 0xcd, 0x99, 0xcc, 0x1b, 0x3d, 0x96, 0x06, 0x9c,
  0xe6, 0x9c, 0x64, 0x16, 0x69, 0x9e, 0x9d, 0x1d, 0x3f, 0x9a, 0x70, 0x9d,
  0xa9, 0x14, 0x19, 0xa1, 0x7f, 0x16, 0xd5, 0x1a, 0x28, 0x0d, 0xf6, 0x1d,
  0x45, 0xa0, 0x6d, 0x1e, 0x1a, 0x99, 0x95, 0x9c, 0x68, 0xa1, 0x8b, 0x92,
  0xdf, 0x9d, 0x22, 0x96, 0x2e, 0x1b, 0x50, 0x98, 0xa7, 0x1b, 0xc1, 0xa0,
  0x12, 0x98, 0x85, 0x13, 0x0c, 0x9e, 0x24, 0x98, 0xb1, 0x9c, 0xd3, 0x96,
  0x6a, 0x18, 0x76, 0x9e, 0xd3, 0x9e, 0x60, 0x96, 0xdc, 0x9e, 0x7a, 0x18,
  0x3a, 0x1d, 0x4f, 0x8d, 0xb0, 0x9b, 0xa5, 0x9c, 0x27, 0x95, 0xd5, 0x1e,
  0xde, 0x99, 0x16, 0x9e, 0xf2, 0x12, 0x23, 0x8a, 0xaa, 0x92, 0x7c, 0x98,
  0x1d, 0x1c, 0xdb, 0x96, 0x70, 0x1f, 0x0a, 0x93, 0x09, 0x98, 0x0f, 0x9c,
  0x1a, 0x1f, 0x7c, 0x9e, 0x19, 0x17, 0xa0, 0x1c, 0x7b, 0x9b, 0xd5, 0x94,
  0xc3, 0x9c, 0xae, 0x9e, 0xbe, 0x97, 0xc3, 0x9c, 0x5e, 0x1f, 0xfe, 0x1c,
  0x9e, 0x19, 0xd6, 0x91, 0x25, 0x1c, 0x4e, 0x94, 0x6d, 0x13, 0x48, 0x9e,
  0x01, 0x90, 0x8a, 0x1c, 0xe6, 0x9f, 0x3b, 0x12, 0x9c, 0x8f, 0x7d, 0x9f,
  0x46, 0x9d, 0x1f, 0x15, 0x6e, 0x1c, 0x22, 0x1e, 0x45, 0x1e, 0x0d, 0x9e,
  0x2a, 0x14, 0x55, 0x18, 0x6c, 0x13, 0xb3, 0x9a, 0x98, 0x1d, 0xe2, 0x1f,
  0x56, 0x1c, 0xb3, 0x14, 0x27, 0x12, 0xa6, 0x9f, 0x80, 0x19, 0xff, 0x99,
  0xb7, 0x1b, 0x5a, 0x8e, 0x48, 0x93, 0xe3, 0x98, 0x3e, 0x17, 0x10, 0x90,
  0xfb, 0x94, 0x3d, 0x9f, 0x30, 0x14, 0x82, 0x1b, 0xab, 0x89, 0x2f, 0x9e,
  0xbb, 0x0b, 0xba, 0xa2, 0x8c, 0x17, 0x8b, 0x9a, 0xf1, 0xa0, 0x27, 0x9c,
  0xdd, 0x94, 0x8d, 0x1b, 0x1a, 0x1c, 0x42, 0x1c, 0xc3, 0x12, 0x6c, 0x9d,
  0x8c, 0x15, 0xfa, 0x1e, 0x23, 0x8f, 0xcb, 0x9e, 0xa9, 0x16, 0xa2, 0xa1,
  0xec, 0x0d, 0x0c, 0x92, 0xbd, 0x9e, 0xde, 0x95, 0xd2, 0x93, 0x0b, 0x23,
  0xdf, 0x20, 0xc9, 0x80, 0xcc, 0xa0, 0x96, 0x99, 0x79, 0x9b, 0x5a, 0x1c,
  0x5d, 0x17, 0x20, 0xa0, 0x5c, 0x9c, 0xa8, 0xa1, 0x2d, 0x1d, 0xf3, 0x9c,
  0x88, 0x8c, 0x27, 0xa0, 0x9e, 0x8e, 0xc1, 0x1e, 0x76, 0x1b, 0x63, 0x1c,
  0xe2, 0x18, 0x3a, 0x98, 0x1e, 0x17, 0xfb, 0x12, 0xa1, 0x1b, 0xc3, 0x9b,
  0x33, 0x08, 0xbb, 0xa1, 0xc7, 0x10, 0x43, 0x98, 0xad, 0x1f, 0x8b, 0x98,
  0x2d, 0x96, 0x88, 0x10, 0x67, 0x1a, 0xb3, 0x14, 0x69, 0x9f, 0xf0, 0x15,
  0x45, 0x99, 0xa4, 0x12, 0xe8, 0x96, 0xba, 0x9e, 0x53, 0x1a, 0x05, 0x9d,
  0x64, 0x1e, 0xb7, 0x1a, 0x2b, 0x1d, 0x70, 0x19, 0xed, 0x10, 0xfe, 0x1c,
  0x0d, 0x1b, 0x5a, 0x1a, 0xed, 0x9d, 0x0b, 0x11, 0x63, 0x9a, 0x3d, 0x97,
  0x17, 0x20, 0x1b, 0xa1, 0x64, 0x07, 0x03, 0x9c, 0xab, 0x1a, 0x4a, 0x9a,
  0x6c, 0x1e, 0x54, 0x1a, 0x8c, 0x9c, 0x0c, 0x9f, 0xf3, 0x14, 0x36, 0x1d,
  0x3f, 0x9f, 0x62, 0x1c, 0xd6, 0x9b, 0x24, 0x1d, 0xf4, 0x18, 0x01, 0xa2,
  0x01, 0x15, 0x38, 0x9d, 0xdd, 0x81, 0xff, 0x90, 0x04, 0x17, 0xf4, 0x11,
  0x8f, 0x9e, 0x3d, 0x97, 0x21, 0x14, 0x10, 0x20, 0x8e, 0x9a, 0x88, 0x1c,
  0xaa, 0x9f, 0x09, 0x1a, 0xe4, 0x0d, 0x39, 0x9a, 0x22, 0x1e, 0x14, 0x1d,
  0xaf, 0x19, 0x25, 0x1c, 0xbb, 0xa2, 0x4d, 0x9b, 0x1d, 0xa0, 0x20, 0x9e,
  0xe5, 0x1d, 0xfc, 0x0d, 0x37, 0x9e, 0xe2, 0x1f, 0x04, 0xa0, 0x8c, 0x15,
  0x24, 0x1b, 0xe0, 0x96, 0x02, 0x9c, 0x70, 0x9d, 0x72, 0x1b, 0x79, 0x12,
  0x9b, 0xa0, 0x12, 0x98, 0x04, 0x8e, 0x05, 0x9f, 0xfb, 0x19, 0xc4, 0x16,
  0xf4, 0xa1, 0x9d, 0x1e, 0xf2, 0xa0, 0x10, 0x9e, 0x32, 0x98, 0x3b, 0x9d,
  0xad, 0x86, 0x7f, 0x15, 0x15, 0x1f, 0x20, 0x1b, 0xdc, 0x1a, 0xa3, 0x13,
  0xf2, 0x9a, 0x15, 0xa0, 0x20, 0x98, 0x7d, 0x17, 0x1c, 0xa0, 0x75, 0x1d,
  0xb1, 0x9d, 0x07, 0x19, 0x1f, 0x9c, 0x82, 0xa1, 0x02, 0x9e, 0x06, 0x0d,
  0xe0, 0x14, 0x53, 0x1c, 0xa7, 0x21, 0x64, 0x9e, 0xd3, 0x10, 0x4f, 0x9c,
  0x30, 0x11, 0x34, 0x1b, 0xa2, 0xa4, 0x82, 0x1a, 0x31, 0x14, 0x4a, 0x1c,
  0x58, 0x10, 0x09, 0x9f, 0x32, 0x9c, 0xb4, 0x14, 0x78, 0x1e, 0x8b, 0x99,
  0x99, 0x20, 0x8a, 0x00, 0x16, 0x9f, 0x24, 0x1a, 0x7b, 0x98, 0xcd, 0x9c,
  0x10, 0xa1, 0x07, 0x98, 0x67, 0x07, 0xdd, 0x1c, 0x57, 0x15, 0x9a, 0x9a,
  0xc7, 0xa0, 0x3b, 0x8e, 0x4c, 0x00, 0xfc, 0x1a, 0x9c, 0x1e, 0x45, 0x0f,
  0x63, 0xa0, 0x70, 0x15, 0x5a, 0xa1, 0xa6, 0x9a, 0x81, 0xa2, 0x30, 0x93,
  0x89, 0x10, 0x07, 0x83, 0x31, 0x1c, 0x66, 0x9d, 0x51, 0xa3, 0xb8, 0x1d,
  0xbc, 0x99, 0x9c, 0x19, 0xef, 0xa0, 0x13, 0x9a, 0x01, 0xa0, 0x2d, 0x14,
  0x13, 0x11, 0x57, 0xa2, 0x10, 0xa1, 0x26, 0x1a, 0x47, 0x94, 0xc2, 0x9a,
  0x74, 0x13, 0x37, 0x99, 0x6d, 0x9f, 0x6e, 0x1c, 0xd0, 0x98, 0x74, 0x15,
  0x2d, 0xa1, 0x29, 0x95, 0xfb, 0x99, 0xb7, 0x9c, 0x53, 0x17, 0x3e, 0x0a,
  0x7e, 0x9c, 0xce, 0x1f, 0x3d, 0x99, 0xcd, 0x18, 0x85, 0x9e, 0x47, 0x9d,
  0x43, 0x98, 0x20, 0x1e, 0xa5, 0x0d, 0x6d, 0x20, 0x3f, 0x9e, 0xc7, 0x1c,
  0xbc, 0x9c, 0x4c, 0x8f, 0xa3, 0x17, 0xd5, 0x94, 0x54, 0x9d, 0x46, 0x96,
  0xc4, 0x18, 0x97, 0x99, 0x24, 0xa2, 0x43, 0x8e, 0xda, 0x99, 0xc5, 0x15,
  0x55, 0x17, 0xc4, 0x13, 0x1c, 0x1e, 0x6e, 0x98, 0x77, 0x9e, 0x45, 0x1f,
  0x1a, 0x1a, 0xe7, 0x18, 0x9b, 0x9f, 0x58, 0x1c, 0xa5, 0x97, 0xe1, 0x98,
  0xe4, 0x1c, 0xc1, 0x97, 0x13, 0x1e, 0x9d, 0x12, 0xed, 0x8d, 0x75, 0x20,
  0xc1, 0x1c, 0x1b, 0x98, 0xbd, 0x96, 0x69, 0x20, 0x67, 0x9f, 0xa1, 0xa4,
  0x7b, 0x9e, 0xc9, 0x92, 0x7f, 0x9f, 0x4a, 0x9c, 0x0b, 0x91, 0x63, 0x9a,
  0xe5, 0x18, 0xa3, 0x90, 0xef, 0x86, 0xb5, 0x1f, 0xee, 0x1f, 0xa1, 0x9c,
  0xb4, 0x1b, 0x28, 0x20, 0x94, 0x14, 0x03, 0xa0, 0xda, 0x9c, 0xcd, 0x1d,
  0x8f, 0xa0, 0x98, 0x98, 0x13, 0x0e, 0xbe, 0x9e, 0x37, 0x1e, 0x4e, 0x93,
  0x58, 0x14, 0x75, 0x1d, 0x39, 0x98, 0x61, 0x11, 0x55, 0x1d, 0x58, 0x1c,
  0x69, 0x97, 0x8e, 0xa2, 0x1f, 0x9b, 0x4e, 0x93, 0x80, 0x0d, 0x2f, 0x97,
  0x44, 0x9d, 0xab, 0x98, 0xb4, 0x1e, 0xfe, 0x9c, 0xd9, 0x99, 0xeb, 0x1b,
  0x7e, 0xa1, 0xaa, 0x9d, 0x1b, 0x1a, 0xb4, 0x9d, 0x5c, 0x9c, 0x2b, 0xa3,
  0x2c, 0x90, 0xfb, 0x96, 0xa4, 0x98, 0x75, 0x0c, 0x55, 0x18, 0x88, 0x1c,
  0x85, 0x1c, 0x37, 0x9d, 0x21, 0xa0, 0x54, 0x9a, 0x61, 0xa0, 0x94, 0x97,
  0x55, 0x1d, 0xfe, 0x9b, 0xfd, 0x9c, 0x7e, 0x9f, 0x05, 0xa0, 0x3b, 0xa2,
  0x60, 0x9e, 0x0f, 0x95, 0xcd, 0x18, 0x0f, 0x17, 0xa2, 0x9d, 0x37, 0x9e,
  0xe5, 0x9f, 0x4a, 0x21, 0xf8, 0x1b, 0x27, 0x20, 0xf7, 0x98, 0x6f, 0x9b,
  0xf3, 0x9e, 0xaa, 0xa2, 0x4e, 0x9d, 0x17, 0xa0, 0xa9, 0x9d, 0x84, 0x9e,
  0xb7, 0x99, 0x2b, 0x88, 0x1d, 0x08, 0x45, 0xa0, 0x37, 0x9c, 0x8b, 0x1b,
  0x5c, 0x21, 0x2b, 0x92, 0xd6, 0x98, 0x8a, 0x80, 0x89, 0x9e, 0x5a, 0xa0,
  0x72, 0x18, 0xb1, 0x98, 0x36, 0x9e, 0x4f, 0x98, 0xd5, 0x9e, 0x9c, 0x8e,
  0x3a, 0x96, 0x1e, 0x99, 0xec, 0x9e, 0xdf, 0x1e, 0x78, 0x1d, 0x89, 0x9a,
  0x11, 0x84, 0x60, 0x1d, 0xb6, 0x91, 0x70, 0xa0, 0x88, 0x9f, 0x1e, 0x9d,
  0x2b, 0x9c, 0x45, 0x9c, 0xf1, 0x9b, 0x6c, 0x1b, 0x10, 0x89, 0x1d, 0x9b,
  0xb3, 0xa1, 0x30, 0x1d, 0xb6, 0x20, 0x60, 0x96, 0xb3, 0x91, 0x1c, 0x9d,
  0x43, 0x9c, 0xd1, 0x98, 0x7d, 0x12, 0x79, 0x99, 0xe2, 0x99, 0x23, 0x9b,
  0x69, 0x82, 0x8a, 0x97, 0x67, 0x9d, 0xd6, 0x96, 0xc0, 0xa1, 0x1c, 0x9f,
  0x4d, 0x9c, 0x51, 0x99, 0x97, 0xa0, 0x10, 0x99, 0xb6, 0x0b, 0xfc, 0x9d,
  0xb9, 0x0c, 0x50, 0x9e, 0x71, 0x9c, 0x0c, 0x9f, 0xce, 0x9b, 0x1c, 0x99,
  0x46, 0x91, 0x51, 0x9a, 0x81, 0x99, 0x35, 0x19, 0x31, 0xa0, 0xe1, 0x9b,
  0xcb, 0x99, 0x76, 0x08, 0x6f, 0x9b, 0xc0, 0x17, 0x70, 0x97, 0x77, 0xa2,
  0x06, 0x9a, 0x1b, 0xa1, 0x6e, 0x9c, 0x80, 0x04, 0x89, 0x9d, 0xab, 0x96,
  0x55, 0x9d, 0x5a, 0xa1, 0x0e, 0x18, 0xcc, 0x1c, 0x9b, 0x9e, 0x77, 0x1d,
  0xb0, 0x14, 0x50, 0x98, 0x1e, 0x97, 0x18, 0x9d, 0xdc, 0x91, 0x44, 0xa1,
  0x2f, 0x9c, 0x64, 0x90, 0x34, 0x86, 0x49, 0x98, 0xbe, 0x9e, 0x23, 0x9c,
  0x85, 0x1d, 0xc7, 0x92, 0x9b, 0xa0, 0x85, 0x16, 0x47, 0x16, 0x7c, 0x96,
  0xf3, 0x1b, 0x99, 0xa1, 0x65, 0x1c, 0x87, 0x9e, 0x1d, 0x95, 0xb7, 0x1c,
  0x55, 0x1b, 0x12, 0x1b, 0x38, 0xa0, 0xc2, 0x1c, 0x42, 0x1a, 0x98, 0x16,
  0xf0, 0xa1, 0xaa, 0x9c, 0xec, 0x95, 0xe7, 0x9c, 0xb6, 0x88, 0xa1, 0x9c,
  0xad, 0x90, 0x00, 0xa4, 0x31, 0x9c, 0x27, 0xa0, 0x2f, 0x15, 0xbe, 0x95,
  0xba, 0xa0, 0xcd, 0x07, 0x90, 0x1e, 0x17, 0x9c, 0x7c, 0x15, 0xfe, 0xa0,
  0xab, 0x99, 0x92, 0x9a, 0x77, 0x15, 0x45, 0xa1, 0x11, 0x16, 0xa9, 0xa4,
  0xc1, 0x14, 0x23, 0xa0, 0x98, 0x99, 0xdc, 0x19, 0xfd, 0x98, 0x56, 0x12,
  0xca, 0x19, 0x0b, 0xa0, 0x1f, 0x1f, 0x2f, 0x9f, 0x95, 0x10, 0x46, 0x96,
  0xca, 0x0d, 0xd9, 0xa1, 0x74, 0x19, 0x60, 0xa2, 0x6a, 0x9c, 0x1c, 0x86,
  0xe8, 0x1a, 0xae, 0x19, 0x0f, 0x9c, 0x8f, 0xa0, 0x97, 0x9c, 0x1b, 0x94,
  0x05, 0x1d, 0x25, 0x1c, 0x96, 0x92, 0xb9, 0x9c, 0xe3, 0x0d, 0xfb, 0x9d,
  0x6c, 0x1c, 0x67, 0xa1, 0xfc, 0x8b, 0x6e, 0x15, 0x69, 0x16, 0xf7, 0x88,
  0xe1, 0x9f, 0x49, 0x16, 0x79, 0xa1, 0x25, 0x91, 0xc5, 0x1c, 0x93, 0x1d,
  0x8a, 0x96, 0xe2, 0x99, 0xd8, 0x1a, 0xe0, 0x9c, 0x65, 0x1c, 0x0d, 0x9e,
  0xc1, 0x97, 0xcb, 0x1a, 0xc5, 0x15, 0x8d, 0x98, 0x97, 0x9b, 0x87, 0x9b,
  0x83, 0x0f, 0x04, 0x99, 0x0a, 0x20, 0x6c, 0x1e, 0x81, 0x9d, 0xc8, 0xa0,
  0xe2, 0x1c, 0xa3, 0x9d, 0x57, 0x9c, 0x38, 0xa1, 0xe8, 0x95, 0xb7, 0xa1,
  0xff, 0x92, 0x08, 0x17, 0xe7, 0xa0, 0x03, 0x9a, 0xca, 0x20, 0xa0, 0x19,
  0xaa, 0x1e, 0x14, 0x9f, 0x86, 0x9c, 0xf0, 0xa1, 0x1f, 0x1d, 0x1b, 0x9f,
  0x2e, 0xa0, 0x54, 0xa2, 0xe7, 0x9d, 0xc0, 0x98, 0x25, 0x9b, 0x5e, 0x9c,
  0x4d, 0x90, 0x6e, 0x19, 0xfe, 0x94, 0x7a, 0x1d, 0x52, 0x1f, 0x14, 0x9f,
  0x5a, 0xa0, 0xaa, 0x9f, 0x69, 0x19, 0xf9, 0x13, 0xfa, 0x1c, 0x01, 0xa2,
  0xe2, 0x90, 0x59, 0x16, 0x55, 0x96, 0x53, 0x94, 0xa6, 0x9b, 0xbb, 0x9d,
  0x74, 0x1f, 0xf6, 0x8f, 0x16, 0x96, 0x52, 0x1d, 0x4e, 0x9c, 0x01, 0x9f,
  0xda, 0x20, 0x42, 0x19, 0xc9, 0x1a, 0x9d, 0x9d, 0xdf, 0x0d, 0xf8, 0x95,
  0x35, 0x9d, 0x15, 0x9d, 0xd3, 0x98, 0xc1, 0x99, 0x45, 0x90, 0xf9, 0x91,
  0x17, 0x1c, 0xe7, 0x15, 0x89, 0x9e, 0x78, 0x9d, 0xf8, 0x93, 0x85, 0x98,
  0x1f, 0x93, 0x0e, 0x9d, 0xab, 0x1b, 0xf3, 0x9d, 0xa8, 0x9d, 0xe0, 0x96,
  0xdd, 0x9d, 0x64, 0x94, 0x41, 0x9c, 0x5e, 0x16, 0xb0, 0x8a, 0xf7, 0x96,
  0xfd, 0x96, 0x71, 0x9b, 0x29, 0x11, 0x89, 0x17, 0x15, 0x19, 0x37, 0x9e,
  0x45, 0x96, 0x5c, 0x1d, 0xde, 0x9c, 0x86, 0x10, 0x83, 0x9d, 0xf7, 0x9a,
  0xdd, 0xa0, 0xa2, 0x20, 0x84, 0x1b, 0x2d, 0x9c, 0xab, 0x16, 0x38, 0x09,
  0x03, 0x95, 0x96, 0x18, 0xd6, 0x94, 0xdb, 0xa0, 0x40, 0x90, 0x56, 0x1a,
  0x92, 0x99, 0x4d, 0x1a, 0x7f, 0x95, 0x4e, 0x9c, 0x68, 0x1c, 0xd6, 0x83,
  0x11, 0x8d, 0x73, 0xa0, 0x5c, 0x1a, 0x83, 0x18, 0xb4, 0x98, 0xaf, 0x89,
  0x51, 0x1c, 0x4b, 0x1a, 0x41, 0x0a, 0x51, 0x15, 0x56, 0x9d, 0x63, 0x20,
  0xee, 0x14, 0x14, 0x9c, 0x24, 0x1d, 0xcb, 0x94, 0xe6, 0x16, 0x32, 0x9c,
  0x54, 0x1e, 0x19, 0x1c, 0xf7, 0x99, 0xe2, 0x92, 0xeb, 0x1c, 0x0a, 0x97,
  0x15, 0x1c, 0x81, 0x1c, 0x18, 0x9a, 0x0c, 0x16, 0xee, 0xa0, 0xaf, 0x90,
  0xed, 0x20, 0x5f, 0x9f, 0x95, 0x1c, 0x57, 0x95, 0xad, 0x19, 0xf1, 0x1d,
  0x6b, 0x18, 0x60, 0x98, 0x2b, 0x1d, 0x38, 0x20, 0x15, 0x18, 0x46, 0x94,
  0x4a, 0x99, 0xc7, 0x1b, 0x7f, 0x1b, 0x69, 0x99, 0xce, 0x98, 0xb4, 0x9c,
  0xbb, 0xa0, 0xad, 0x18, 0x54, 0x9a, 0x53, 0x1a, 0xb5, 0x99, 0xd3, 0x98,
  0xd9, 0x1e, 0xa7, 0x1c, 0x67, 0x9e, 0x71, 0x1e, 0xb1, 0x95, 0x0e, 0x9c,
  0x75, 0x9c, 0x5b, 0x9b, 0x94, 0x95, 0x88, 0x9d, 0x10, 0x9d, 0x11, 0x9d,
  0xbd, 0x95, 0x53, 0x1f, 0x63, 0x8a, 0x0b, 0x96, 0x19, 0x17, 0x08, 0x14,
  0xef, 0x91, 0x37, 0x1d, 0xce, 0x9b, 0x3a, 0x9c, 0xb5, 0x9a, 0x91, 0x97,
  0x06, 0x9d, 0xff, 0x1d, 0x97, 0x92, 0xc8, 0xa0, 0xbe, 0x17, 0xbb, 0x18,
  0x31, 0x9e, 0x1b, 0x1d, 0x56, 0x20, 0x9d, 0x1c, 0xb6, 0x98, 0xa6, 0x1d,
  0xee, 0x81, 0x1e, 0x9b, 0x42, 0x0c, 0xf1, 0x99, 0x2f, 0x99, 0x60, 0x19,
  0xb9, 0x1d, 0x85, 0x9d, 0x0b, 0x98, 0x71, 0x21, 0xc6, 0x11, 0x8d, 0x1c,
  0x7a, 0x19, 0x90, 0x94, 0xb8, 0x9b, 0x45, 0x1c, 0xc7, 0x19, 0x05, 0x8e,
  0x0f, 0x1c, 0xcf, 0x9d, 0x76, 0x1f, 0x23, 0x9e, 0x69, 0x9a, 0x21, 0xa0,
  0x8c, 0x1c, 0xd2, 0x19, 0xee, 0x99, 0x1a, 0x98, 0x4e, 0x1b, 0x14, 0x10,
  0x19, 0x8d, 0x31, 0x1c, 0x02, 0x1c, 0x37, 0x96, 0x9b, 0x9d, 0x1a, 0x9b,
  0x50, 0x1e, 0xd4, 0x13, 0x16, 0x9d, 0x2a, 0x96, 0x22, 0x84, 0xe5, 0x10,
  0x4b, 0x99, 0x66, 0x1a, 0xf5, 0x1d, 0x3c, 0x9c, 0xab, 0x9d, 0xb9, 0x1b,
  0x3d, 0x20, 0x4c, 0xa0, 0xe0, 0x92, 0xde, 0x99, 0xc6, 0x16, 0xf0, 0x9d,
  0xbb, 0x98, 0xb8, 0x19, 0x9d, 0x9c, 0x72, 0x95, 0x73, 0x9a, 0xf9, 0x0d,
  0x6f, 0x13, 0xac, 0x0f, 0xf8, 0x16, 0x6f, 0x18, 0xfe, 0x1c, 0x22, 0x9a,
  0x94, 0x9e, 0xf5, 0x99, 0x6b, 0x96, 0x59, 0x99, 0x3d, 0x19, 0x0c, 0x1d,
  0x3e, 0x9d, 0x0b, 0x9a, 0x56, 0x96, 0xf9, 0x9a, 0x59, 0x99, 0xa1, 0x1a,
  0xfc, 0x19, 0xb0, 0x1b, 0xa6, 0x20, 0x8b, 0x9e, 0x02, 0x98, 0x28, 0x9d,
  0x5d, 0x9b, 0x25, 0x20, 0x1c, 0x19, 0x57, 0x20, 0x71, 0x91, 0x59, 0x9b,
  0xd2, 0x93, 0x47, 0x9d, 0x2a, 0x19, 0xce, 0x80, 0x07, 0x9e, 0x96, 0x13,
  0xf6, 0x1d, 0x1d, 0xa0, 0x69, 0x89, 0x72, 0x9e, 0xc2, 0x97, 0x6c, 0x1c,
  0xa9, 0x89, 0x51, 0x1e, 0x91, 0xa1, 0x5b, 0xa0, 0xa4, 0x9a, 0xe9, 0x92,
  0xe1, 0x1c, 0x41, 0x1a, 0x65, 0x98, 0xb1, 0x20, 0x19, 0x21, 0x67, 0x99,
  0xcb, 0x20, 0xe6, 0x96, 0x35, 0x97, 0x07, 0x96, 0x8f, 0x95, 0x4b, 0x1e,
  0x4c, 0x99, 0x35, 0x93, 0xad, 0x97, 0x7d, 0x19, 0x4c, 0x17, 0x14, 0x19,
  0x84, 0xa1, 0xf6, 0x97, 0xc3, 0x18, 0xf3, 0x99, 0x97, 0x8d, 0xec, 0x94,
  0xa5, 0x21, 0x65, 0xa2, 0xc0, 0x9e, 0xf1, 0x95, 0xe5, 0xa0, 0x56, 0x16,
  0x59, 0x1c, 0x8f, 0x97, 0x50, 0x95, 0x3c, 0x1a, 0xa6, 0xa2, 0x3d, 0x07,
  0xf6, 0x1f, 0xda, 0x98, 0x23, 0x90, 0x8f, 0x97, 0x03, 0x1e, 0xd9, 0xa0,
  0x7a, 0x1c, 0x2f, 0x1f, 0x6b, 0xa1, 0xa0, 0x9b, 0xf6, 0x97, 0x81, 0x93,
  0x07, 0x1a, 0x9a, 0x18, 0x20, 0x9a, 0x22, 0x99, 0xfc, 0x1d, 0x14, 0x9e,
  0x89, 0x1e, 0xd4, 0x12, 0xac, 0x1b, 0xad, 0x9c, 0x12, 0x8d, 0xb8, 0x11,
  0x8f, 0x9d, 0x1f, 0x9f, 0x9b, 0x1c, 0xdb, 0x98, 0xaa, 0x18, 0x32, 0x90,
  0x95, 0xa0, 0xb8, 0x9b, 0x5c, 0x18, 0xec, 0x9d, 0x4f, 0x94, 0x1b, 0x1e,
  0xbe, 0x19, 0x24, 0x1d, 0x5c, 0x1b, 0xda, 0x1c, 0x96, 0x80, 0xb7, 0x9c,
  0x4e, 0x98, 0xc4, 0x86, 0x63, 0x94, 0xd2, 0x1d, 0x47, 0x9b, 0xaf, 0xa0,
  0x42, 0x98, 0xdb, 0x18, 0x9d, 0x1c, 0x39, 0x15, 0xac, 0x90, 0x9e, 0x1b,
  0xa2, 0x1c, 0xa4, 0x18, 0x9f, 0x94, 0xcb, 0x9e, 0x0f, 0x98, 0xcb, 0x99,
  0x55, 0x9b, 0x40, 0x1b, 0xe2, 0x9c, 0xb8, 0xa0, 0xbe, 0x91, 0x9c, 0x96,
  0x25, 0x1b, 0x2a, 0x1d, 0x7c, 0x9a, 0xdb, 0x1e, 0x46, 0x9c, 0xa5, 0x1c,
  0xfc, 0x16, 0x57, 0x91, 0x06, 0x9e, 0x2f, 0x9b, 0x2b, 0x16, 0x2d, 0x18,
  0x32, 0x13, 0xb1, 0x9e, 0x60, 0x9d, 0x60, 0x1b, 0x55, 0x1c, 0x6b, 0x98,
  0xb9, 0x18, 0x74, 0x19, 0x6f, 0x9a, 0x5c, 0x1c, 0x83, 0x18, 0x33, 0x1f,
  0x13, 0xa0, 0x13, 0x8a, 0x6c, 0x1c, 0xba, 0x19, 0xe6, 0xa0, 0x05, 0xa1,
  0x01, 0xa0, 0xb6, 0x1d, 0xb6, 0x18, 0x07, 0x06, 0x7d, 0x1d, 0x24, 0x9e,
  0x63, 0x98, 0xf7, 0x97, 0x16, 0x02, 0x01, 0x87, 0x72, 0x9c, 0x82, 0x1c,
  0xa0, 0x1a, 0xac, 0x1b, 0xe9, 0x18, 0x33, 0x9a, 0x9c, 0x9a, 0x7b, 0x1b,
  0x2c, 0x1d, 0x4a, 0x1c, 0xa9, 0x1e, 0x93, 0x9f, 0x32, 0x1c, 0x13, 0xa0,
  0x4a, 0x1c, 0x41, 0x1f, 0x38, 0x9c, 0xee, 0x1d, 0x59, 0x85, 0x54, 0x15,
  0x1f, 0x19, 0xa2, 0x19, 0x88, 0x9c, 0xb6, 0x1c, 0xd5, 0x1e, 0xe8, 0x16,
  0x34, 0x1f, 0xc7, 0x9d, 0x88, 0x18, 0x5f, 0xa1, 0xb0, 0x1c, 0x1b, 0x1b,
  0x46, 0x99, 0x75, 0x1c, 0x1e, 0x10, 0xa0, 0x9a, 0x2e, 0x1a, 0x62, 0x98,
  0x08, 0x9f, 0xe9, 0x80, 0x4b, 0x17, 0x31, 0x20, 0x48, 0x1a, 0x00, 0x20,
  0x49, 0x9e, 0xbb, 0x9a, 0xb0, 0x8a, 0x31, 0x1c, 0x12, 0x9b, 0x48, 0x97,
  0x1b, 0x18, 0xfa, 0x85, 0x7d, 0x14, 0xbd, 0x17, 0xdd, 0x99, 0x3b, 0x95,
  0x1d, 0x8e, 0x84, 0x1d, 0xfa, 0x9b, 0x66, 0x1f, 0x8f, 0x9a, 0xf1, 0x1c,
  0x85, 0x1e, 0xb0, 0x20, 0x93, 0x0c, 0x45, 0x1d, 0x84, 0x19, 0xff, 0x95,
  0x18, 0x20, 0x26, 0x17, 0x96, 0x17, 0x32, 0x19, 0x03, 0x91, 0x28, 0x19,
  0xd2, 0x18, 0xc1, 0x98, 0xa2, 0x99, 0xfb, 0x13, 0x8d, 0x90, 0xa7, 0x1c,
  0x0d, 0x97, 0x5b, 0x1a, 0xff, 0x1e, 0x9c, 0x1c, 0x9f, 0x1d, 0x63, 0x8e,
  0x6f, 0x97, 0xa8, 0x1d, 0x36, 0x99, 0x2f, 0x10, 0x28, 0x99, 0xaf, 0x9f,
  0x40, 0x98, 0x31, 0x9f, 0xe1, 0x1b, 0x0d, 0x1a, 0xa6, 0x94, 0x37, 0x15,
  0xa1, 0x19, 0xb6, 0x12, 0x61, 0x18, 0x11, 0x1c, 0x65, 0x9a, 0xdc, 0x98,
  0x5e, 0x1e, 0x37, 0x99, 0xa8, 0x1d, 0xbd, 0x9f, 0xc2, 0x12, 0x07, 0x91,
  0xab, 0x0e, 0x33, 0x1c, 0xcb, 0x1b, 0xe7, 0x1b, 0x45, 0x14, 0xd4, 0x14,
  0x35, 0x18, 0xae, 0x1c, 0xb5, 0x99, 0x36, 0x1b, 0x67, 0x84, 0xe2, 0x17,
  0xbc, 0x94, 0x22, 0x9d, 0xbc, 0x9d, 0xe3, 0x9c, 0x7e, 0x9a, 0xc7, 0x04,
  0x82, 0x99, 0x3b, 0x10, 0xf4, 0x93, 0x8c, 0x9e, 0xf0, 0x20, 0x9c, 0x1a,
  0xd5, 0x98, 0x22, 0x90, 0x2c, 0x18, 0x09, 0x0c, 0xba, 0x94, 0xf4, 0x9e,
  0x82, 0xa0, 0x7a, 0x92, 0x25, 0x1c, 0x39, 0x01, 0xeb, 0x19, 0x5f, 0x1d,
  0x80, 0x16, 0xb5, 0x94, 0x6b, 0x15, 0x41, 0x1d, 0xbc, 0x19, 0xd0, 0x19,
  0x19, 0x97, 0x24, 0x16, 0x85, 0x94, 0xf6, 0x1c, 0xbf, 0x99, 0xf0, 0x1c,
  0xa4, 0x19, 0x0e, 0x1c, 0x01, 0x98, 0x9a, 0x1d, 0x46, 0x1c, 0x01, 0x8c,
  0x66, 0x95, 0x15, 0x1d, 0x83, 0x8c, 0xd0, 0x9e, 0x07, 0x19, 0x7f, 0x18,
  0x2a, 0x8e, 0x13, 0x1f, 0xcc, 0x99, 0xd3, 0x1d, 0xe2, 0x94, 0xfc, 0x98,
  0x19, 0x16, 0xf8, 0x1d, 0xc3, 0x1d, 0x39, 0x15, 0x37, 0x10, 0x0b, 0x1e,
  0x72, 0x1a, 0x35, 0xa0, 0x87, 0x1b, 0xc9, 0x18, 0x17, 0x16, 0x69, 0x93,
  0x85, 0x1c, 0xba, 0x20, 0x16, 0xa0, 0x40, 0x1b, 0x2e, 0x11, 0xf4, 0x0b,
  0x39, 0x98, 0x14, 0x8d, 0x9e, 0x0a, 0x0f, 0x1e, 0x9a, 0x16, 0xce, 0x00,
  0x07, 0x1d, 0xac, 0x0d, 0x46, 0x1f, 0x7e, 0x12, 0x29, 0x1d, 0x9d, 0x11,
  0x2a, 0x1b, 0x86, 0x9e, 0xf1, 0x9c, 0x1b, 0x1b, 0x09, 0x17, 0x1c, 0x1a,
  0xbd, 0x9b, 0x1c, 0x1f, 0x05, 0x18, 0xb2, 0x9b, 0x6c, 0x0e, 0x51, 0x15,
  0x24, 0x1d, 0xcb, 0x9b, 0x2d, 0x1a, 0x0a, 0x18, 0x1b, 0x18, 0x96, 0x81,
  0xec, 0x1a, 0xcc, 0x15, 0x88, 0x90, 0x3c, 0x1d, 0xe9, 0x1a, 0x04, 0x20,
  0xcc, 0x16, 0x83, 0x8f, 0xb7, 0x18, 0x89, 0x15, 0x70, 0x92, 0x49, 0x9e,
  0x46, 0x1c, 0xc4, 0x20, 0xbc, 0x1f, 0x04, 0x9d, 0x94, 0x8d, 0x7f, 0x1c,
  0xb4, 0x98, 0x3e, 0x1e, 0xc9, 0x94, 0x87, 0x1c, 0xf6, 0x1f, 0xb1, 0x95,
  0x37, 0x8e, 0xa6, 0x17, 0xd0, 0x9f, 0xa6, 0x9f, 0xf3, 0x95, 0x0e, 0x18,
  0x7c, 0x98, 0x37, 0x9b, 0xca, 0x1b, 0x19, 0x1c, 0x80, 0x98, 0x7b, 0x1d,
  0xf1, 0x19, 0xfe, 0x18, 0xe4, 0x1d, 0x1f, 0x96, 0xb1, 0x1f, 0xdc, 0x18,
  0xf8, 0x96, 0x45, 0x93, 0xf8, 0x15, 0xff, 0x1c, 0xa3, 0x1d, 0x64, 0x14,
  0x21, 0x1e, 0x73, 0x1d, 0x5a, 0x19, 0xb3, 0x1c, 0xd0, 0x9d, 0x3f, 0x8f,
  0xea, 0x1e, 0x7e, 0x9c, 0x72, 0x1d, 0x39, 0x1d, 0x0a, 0x16, 0x39, 0x1d,
  0x67, 0x94, 0xbe, 0x16, 0x8e, 0x1b, 0x4e, 0x9d, 0x88, 0x0c, 0x5d, 0x18,
  0x55, 0x17, 0x08, 0x15, 0x49, 0x18, 0x82, 0x99, 0x77, 0x1a, 0x42, 0x0f,
  0x8a, 0x88, 0x63, 0x18, 0xda, 0x1c, 0xae, 0x17, 0x81, 0x1e, 0xc0, 0x1a,
  0x07, 0x15, 0xbc, 0x18, 0xaa, 0x17, 0xc6, 0x0c, 0x6a, 0x18, 0x73, 0x1f,
  0x33, 0x0f, 0xb7, 0x8f, 0x54, 0x12, 0xe5, 0x8f, 0x9c, 0x1f, 0xcb, 0x21,
  0xe2, 0x1e, 0xb2, 0x1b, 0x87, 0x9b, 0xea, 0x98, 0x07, 0x1f, 0x76, 0x9a,
  0x0b, 0x1a, 0x78, 0x1f, 0x50, 0x1d, 0xf8, 0x18, 0xbb, 0x1f, 0x12, 0x99,
  0x03, 0x1f, 0x7c, 0x10, 0x87, 0x1a, 0xaa, 0x94, 0x21, 0x19, 0x28, 0xa2,
  0xf8, 0x9c, 0x0b, 0x1c, 0xf0, 0x1a, 0x51, 0x9c, 0x6c, 0x19, 0x9f, 0x1d,
  0x2a, 0x98, 0x8d, 0x19, 0x32, 0x1e, 0xde, 0x9e, 0x34, 0x1b, 0x36, 0x9e,
  0x78, 0x8f, 0x67, 0x10, 0x29, 0x96, 0x24, 0xa2, 0x18, 0x9a, 0xdd, 0x9e,
  0x8e, 0x20, 0xf4, 0x94, 0x86, 0x96, 0xd7, 0x1f, 0x70, 0x20, 0xde, 0x19,
  0x58, 0x92, 0x44, 0x9d, 0x87, 0x1d, 0x3a, 0x9c, 0x2d, 0x96, 0x80, 0x21,
  0xeb, 0x94, 0x52, 0x9b, 0xca, 0x20, 0xae, 0xa2, 0xfb, 0x12, 0xfd, 0x99,
  0x9b, 0x9a, 0xc4, 0x1e, 0x2f, 0x1d, 0xcc, 0x9c, 0x0c, 0x85, 0x07, 0xa0,
  0x1e, 0x16, 0xeb, 0x9d, 0x18, 0x98, 0x2a, 0x16, 0x38, 0xa1, 0x88, 0x1c,
  0x6c, 0x13, 0x76, 0x98, 0xab, 0x16, 0x1a, 0x14, 0xab, 0x18, 0xbe, 0x12,
  0xd2, 0x9c, 0xda, 0x1c, 0x31, 0x95, 0x81, 0xa2, 0xf6, 0x15, 0x7a, 0x20,
  0x59, 0x9d, 0x5f, 0x94, 0xeb, 0x98, 0xd8, 0x22, 0x79, 0x15, 0x14, 0x1d,
  0xe7, 0x18, 0x94, 0x1b, 0xa3, 0x93, 0x11, 0x09, 0xb8, 0x95, 0xc5, 0x9e,
  0x19, 0x1c, 0x08, 0x9f, 0xec, 0x9d, 0x18, 0x1d, 0xfa, 0x12, 0xa1, 0x20,
  0xbb, 0x15, 0x21, 0x1e, 0xfe, 0x98, 0x1f, 0x1d, 0xb6, 0x99, 0x19, 0x95,
  0x41, 0x96, 0x0f, 0x1d, 0x17, 0x9c, 0x60, 0x98, 0x41, 0x18, 0x2c, 0x97,
  0xac, 0x9f, 0x1b, 0x1e, 0x1c, 0x9e, 0x19, 0x0e, 0x45, 0x19, 0x1f, 0x11,
  0x88, 0x97, 0xf8, 0x97, 0xab, 0x19, 0xbf, 0x05, 0xfa, 0x98, 0x14, 0x16,
  0x76, 0xa1, 0x1b, 0x97, 0x26, 0x14, 0x65, 0x9a, 0x38, 0x92, 0x09, 0x1e,
  0x5c, 0x9b, 0xd6, 0x1e, 0x97, 0x1b, 0x98, 0x9e, 0x06, 0x96, 0x60, 0x9e,
  0x36, 0x17, 0x47, 0x15, 0x7c, 0x1a, 0xf0, 0x93, 0x71, 0x8d, 0x06, 0x9d,
  0x07, 0x1f, 0xb0, 0x9f, 0x48, 0xa1, 0x5d, 0x88, 0xba, 0x8c, 0x1e, 0x20,
  0xbd, 0x9c, 0x6b, 0xa4, 0xcb, 0x9f, 0x2b, 0xa2, 0x71, 0x95, 0x09, 0x1c,
  0x8c, 0x1b, 0x8b, 0x18, 0x2d, 0x1d, 0x7a, 0x9c, 0xf9, 0x10, 0x2e, 0xa2,
  0x65, 0x9d, 0xc2, 0x1b, 0xd5, 0x13, 0xcd, 0x20, 0x37, 0x9c, 0x71, 0x9c,
  0x45, 0x9b, 0x90, 0x9e, 0x7f, 0x14, 0x7b, 0x93, 0x64, 0x13, 0x83, 0x17,
  0x93, 0x94, 0x02, 0x9e, 0x9a, 0x1f, 0xd1, 0x9f, 0x0e, 0x9e, 0x1a, 0x20,
  0x5e, 0x9d, 0x41, 0x1d, 0x55, 0x9c, 0x56, 0x1d, 0xbf, 0x9e, 0x0f, 0x18,
  0x22, 0x12, 0x2e, 0x15, 0x33, 0x99, 0xa3, 0x1c, 0xae, 0xa0, 0xc0, 0x9f,
  0x92, 0x91, 0xac, 0x9d, 0xa2, 0x94, 0xbf, 0x94, 0xac, 0x9c, 0x5d, 0x21,
  0x39, 0x1a, 0xde, 0x20, 0xa0, 0x9d, 0xb0, 0x16, 0xfc, 0x92, 0xac, 0x14,
  0xbe, 0x1e, 0x4a, 0x1c, 0xc6, 0x9d, 0xae, 0xa1, 0x75, 0x1d, 0x50, 0x9f,
  0x59, 0x92, 0x9f, 0x1c, 0x0f, 0x9f, 0x2f, 0x1d, 0x09, 0x20, 0x01, 0x91,
  0xdc, 0x0b, 0xdb, 0x96, 0xba, 0x98, 0xf5, 0x16, 0xac, 0x21, 0x88, 0x1d,
  0x4f, 0xa0, 0xfe, 0x9e, 0x34, 0x9d, 0x39, 0x94, 0x58, 0xa0, 0x8b, 0x16,
  0x24, 0x9c, 0x3b, 0x9b, 0x6f, 0x96, 0xcc, 0x9d, 0x98, 0x1a, 0x32, 0x98,
  0xe1, 0x95, 0x04, 0x14, 0x00, 0x98, 0xc0, 0x91, 0x3b, 0xa1, 0x55, 0x9d,
  0x3a, 0x99, 0xe0, 0x17, 0x11, 0x9e, 0x95, 0x88, 0x63, 0x9c, 0xa2, 0x94,
  0xa9, 0x12, 0x41, 0xa3, 0xf1, 0x18, 0xbb, 0x03, 0x7e, 0x11, 0x84, 0x18,
  0xdb, 0x1d, 0x5d, 0x13, 0x34, 0xa1, 0x23, 0x9c, 0xf6, 0x14, 0xb8, 0x11,
  0x2c, 0x95, 0xc8, 0x0b, 0x7e, 0x9b, 0x1e, 0x14, 0x4f, 0x96, 0x6a, 0xa2,
  0x5c, 0x16, 0x98, 0x15, 0x9c, 0x1b, 0xc4, 0x88, 0x30, 0x21, 0xa2, 0x18,
  0x1a, 0x9a, 0xb6, 0x95, 0xd1, 0x94, 0xca, 0x0c, 0x6f, 0x16, 0xfd, 0x90,
  0x47, 0xa0, 0xe2, 0x1b, 0xc4, 0x98, 0xb7, 0x15, 0xc9, 0x19, 0x85, 0x20,
  0x84, 0x20, 0x69, 0x94, 0x57, 0x1f, 0x13, 0x1a, 0x20, 0xa4, 0x5f, 0x98,
  0xe8, 0x94, 0xd1, 0x11, 0x11, 0x94, 0x64, 0x9d, 0x0e, 0x9b, 0x17, 0x20,
  0xa4, 0x96, 0xdb, 0x1d, 0x19, 0x1e, 0x29, 0x1f, 0x48, 0x9c, 0x1a, 0x14,
  0xa6, 0x1f, 0x1e, 0x89, 0x3f, 0xa0, 0xac, 0x9b, 0x55, 0x16, 0xf6, 0x1c,
  0xe2, 0xa0, 0x54, 0x9d, 0x88, 0xa0, 0x28, 0x1d, 0x94, 0x0a, 0x32, 0x24,
  0x53, 0x1c, 0x91, 0x00, 0x92, 0x9d, 0x9c, 0x9b, 0x13, 0x20, 0x30, 0x1a,
  0x2a, 0x9e, 0x54, 0x9c, 0xe7, 0x9f, 0x19, 0x88, 0xb0, 0x98, 0xf2, 0x95,
  0x8f, 0x9d, 0xc9, 0x99, 0x43, 0x19, 0x8c, 0x1f, 0xaf, 0x17, 0x85, 0x1c,
  0x4f, 0x9c, 0xa2, 0x95, 0x03, 0x21, 0x15, 0x9d, 0x15, 0x99, 0x45, 0x07,
  0xd7, 0x9d, 0x43, 0x1c, 0x7a, 0xa2, 0xdb, 0x9f, 0x56, 0x12, 0x45, 0x96,
  0x80, 0x15, 0x1c, 0xa0, 0x21, 0x98, 0xf6, 0x1c, 0x2c, 0x90, 0xd0, 0x95,
  0x58, 0x1a, 0x2d, 0x91, 0x28, 0x9d, 0x41, 0x9b, 0x23, 0x14, 0xa3, 0x97,
  0x38, 0xa1, 0x82, 0x9c, 0xb9, 0x87, 0x5f, 0xa0, 0xa9, 0x17, 0x20, 0xa4,
  0xe9, 0x9e, 0x13, 0x1d, 0x2e, 0x17, 0x41, 0x17, 0x10, 0x1a, 0xd7, 0x8d,
  0x28, 0x9a, 0x5a, 0x99, 0xe2, 0x97, 0x8c, 0x1c, 0x38, 0x98, 0x31, 0x9f,
  0x36, 0x9e, 0x9d, 0x9c, 0x49, 0x19, 0x1e, 0xa1, 0xa4, 0xa0, 0xcc, 0x9b,
  0xc9, 0x9a, 0x35, 0x19, 0x6b, 0x1d, 0xe9, 0x12, 0xc1, 0x9d, 0xb3, 0x9c,
  0x35, 0x1d, 0x48, 0x1d, 0x4d, 0x92, 0x60, 0xa1, 0x44, 0x9a, 0x06, 0x9e,
  0x88, 0x9e, 0x23, 0x1d, 0x69, 0x11, 0x82, 0xa1, 0x41, 0x1b, 0xec, 0x1c,
  0xe6, 0x20, 0x76, 0x18, 0x71, 0x9d, 0x94, 0x8f, 0x4e, 0x17, 0xdf, 0x1c,
  0xc5, 0x9f, 0xd4, 0xa0, 0x4c, 0x98, 0x07, 0x9c, 0x03, 0x97, 0xb6, 0x21,
  0x48, 0x0b, 0x3c, 0x9c, 0x16, 0x21, 0xf8, 0x18, 0xfb, 0x1c, 0xe6, 0x92,
  0xe8, 0x9e, 0xc8, 0x99, 0x57, 0x15, 0x09, 0x18, 0x59, 0x9e, 0x39, 0x9c,
  0x94, 0x9c, 0x3f, 0x95, 0x77, 0x9e, 0xc1, 0x21, 0x72, 0x1b, 0x99, 0x90,
  0x10, 0x20, 0x5c, 0x20, 0x01, 0x1c, 0x26, 0x14, 0x5e, 0x9c, 0x6a, 0x94,
  0xe4, 0x18, 0x02, 0x1c, 0x1d, 0x17, 0x94, 0x99, 0xc9, 0x12, 0x33, 0x9e,
  0x15, 0x95, 0xc6, 0x99, 0x2a, 0x1c, 0xd7, 0x1b, 0x41, 0x1f, 0xdb, 0x1d,
  0x60, 0x1c, 0xcd, 0x1d, 0x47, 0x99, 0xab, 0x18, 0x68, 0x1f, 0x0c, 0x1c,
  0xaf, 0x8d, 0x3d, 0x9e, 0x80, 0x9d, 0xa5, 0x9d, 0xc7, 0x1a, 0xda, 0x9f,
  0x14, 0x1b, 0x01, 0x8f, 0x5c, 0x20, 0xc7, 0x1e, 0x89, 0x1e, 0xf6, 0x1d,
  0x6d, 0x9d, 0x53, 0x9e, 0x0f, 0x22, 0xbb, 0x1a, 0x80, 0x9d, 0xec, 0x19,
  0xe3, 0x9d, 0xb4, 0x9c, 0xb5, 0x9e, 0x45, 0xa3, 0xf1, 0x08, 0x16, 0x9d,
  0x62, 0x21, 0xf6, 0x1e, 0x03, 0x1d, 0xe8, 0x1e, 0xfa, 0x9c, 0xc8, 0x96,
  0xb2, 0x21, 0xda, 0x1d, 0x50, 0x99, 0x34, 0x20, 0x23, 0x18, 0xe9, 0x0f,
  0x0e, 0x1e, 0x8f, 0x9b, 0x0c, 0x14, 0xc1, 0x9d, 0x23, 0x20, 0xf7, 0x1b,
  0x60, 0x21, 0x12, 0x1f, 0xba, 0x97, 0x13, 0x9c, 0x17, 0x23, 0x79, 0x19,
  0xd9, 0x9e, 0x1e, 0x14, 0x34, 0x9e, 0x45, 0x13, 0xa9, 0x1b, 0x02, 0x14,
  0xaa, 0x9f, 0x2a, 0xa0, 0x39, 0x1f, 0xdb, 0x1d, 0x32, 0x1c, 0xfa, 0x1c,
  0x92, 0x95, 0x57, 0x9e, 0xda, 0x1d, 0x30, 0x92, 0x0e, 0x9e, 0x77, 0x93,
  0x8a, 0x9d, 0x19, 0x15, 0x89, 0x9a, 0x37, 0x1f, 0x04, 0x9c, 0xa8, 0x9e,
  0x25, 0x20, 0xb6, 0x1f, 0x3f, 0x20, 0xfc, 0x16, 0x7e, 0x97, 0x39, 0x9f,
  0xfc, 0x21, 0x45, 0x1d, 0x51, 0xa0, 0x5e, 0x9c, 0xa9, 0xa0, 0x81, 0x94,
  0x48, 0x91, 0x25, 0x20, 0xf5, 0xa0, 0x72, 0x9c, 0x50, 0x21, 0x3a, 0x21,
  0xa8, 0x20, 0xa7, 0x1b, 0xa9, 0x9b, 0xd0, 0x8c, 0x67, 0x21, 0x6a, 0x1d,
  0xab, 0x9e, 0x86, 0x8f, 0x46, 0xa0, 0x11, 0x8f, 0x9d, 0x99, 0xbe, 0x96,
  0x2c, 0x9d, 0x91, 0x99, 0xb3, 0x1c, 0x19, 0x1e, 0x54, 0x1b, 0x4b, 0x1f,
  0x88, 0x9c, 0x65, 0x98, 0x7f, 0x23, 0x80, 0x8e, 0x46, 0x9d, 0xec, 0x98,
  0xa0, 0xa0, 0xb4, 0x18, 0x44, 0x91, 0x6f, 0x9f, 0x92, 0x80, 0x75, 0x15,
  0xbc, 0x1d, 0x6c, 0x1c, 0x6e, 0x19, 0xd1, 0x1e, 0x9e, 0x94, 0x5b, 0x9c,
  0x3a, 0x21, 0xe6, 0x0f, 0x40, 0x88, 0x38, 0x96, 0xc0, 0x9d, 0x78, 0x08,
  0x35, 0x1a, 0x62, 0x9e, 0x9b, 0x96, 0xcd, 0x9f, 0x7b, 0x20, 0xb7, 0x1f,
  0xcf, 0x21, 0x20, 0x1d, 0x9c, 0x9b, 0xa2, 0x9c, 0x26, 0x1f, 0x4d, 0x88,
  0x52, 0x9e, 0xf9, 0x18, 0x12, 0x1a, 0xde, 0x19, 0x78, 0x1d, 0x75, 0xa0,
  0xa4, 0x9c, 0xe4, 0x9c, 0x88, 0x1e, 0x87, 0x1e, 0xea, 0x21, 0xa8, 0x11,
  0xe0, 0x9f, 0x5d, 0x99, 0x8f, 0x21, 0x0b, 0x9d, 0xb0, 0x18, 0x09, 0x0f,
  0x4f, 0x9c, 0xbd, 0x1c, 0x4b, 0x19, 0xb0, 0x18, 0xd1, 0x9c, 0x33, 0x1d,
  0x0c, 0x1e, 0x03, 0x21, 0xe0, 0x1d, 0x89, 0x1e, 0x7f, 0x96, 0xf7, 0x9b,
  0x64, 0x21, 0x6a, 0x8e, 0x3b, 0x96, 0x05, 0x9a, 0x2e, 0xa0, 0x92, 0x19,
  0x8f, 0xa0, 0xfe, 0x0e, 0x0b, 0x15, 0x70, 0x1c, 0x7b, 0x8e, 0xa2, 0x20,
  0xfe, 0x1f, 0xc3, 0x19, 0x1e, 0x99, 0x14, 0x9d, 0xcf, 0x1f, 0xb1, 0x9c,
  0xd7, 0x17, 0x01, 0x9d, 0x4a, 0x95, 0xce, 0x17, 0xdc, 0xa0, 0x23, 0x1f,
  0x88, 0x1c, 0x8e, 0x1d, 0x6f, 0x1e, 0xed, 0x1d, 0x48, 0x1d, 0x4e, 0x1c,
  0xfb, 0xa0, 0x82, 0x9e, 0x9e, 0x1d, 0x96, 0x9d, 0x1c, 0x06, 0x25, 0x9b,
  0x2a, 0x9f, 0x1d, 0x20, 0x4e, 0xa0, 0x30, 0x97, 0x32, 0x19, 0xba, 0x9c,
  0x1e, 0x1e, 0xbf, 0x19, 0x26, 0x19, 0x2f, 0x1b, 0xbf, 0x99, 0x4c, 0x9e,
  0xde, 0x94, 0xaf, 0x9b, 0x2f, 0x97, 0x8e, 0x9f, 0xb2, 0x0b, 0x06, 0x20,
  0x69, 0x98, 0x2a, 0x9e, 0xdf, 0x1c, 0x8c, 0x18, 0xb0, 0x1c, 0x6c, 0x90,
  0x8a, 0x1d, 0x28, 0x18, 0x05, 0xa0, 0xcc, 0x9f, 0x00, 0x1f, 0x7a, 0x9c,
  0x27, 0x9b, 0x7a, 0xa1, 0xfc, 0x9e, 0xa3, 0x1e, 0x8d, 0x1c, 0x90, 0x9c,
  0x1e, 0x1c, 0xd7, 0x20, 0x98, 0x1f, 0x0c, 0x1d, 0xaf, 0x1c, 0x97, 0x1e,
  0xf3, 0x9e, 0x9e, 0x18, 0x34, 0x1b, 0x6f, 0x9d, 0x7c, 0x9c, 0x18, 0xa2,
  0x21, 0x0c, 0x7a, 0x1e, 0x85, 0x21, 0x5b, 0x95, 0x60, 0x83, 0x8a, 0x1e,
  0x0f, 0x21, 0x86, 0x20, 0x86, 0x1e, 0x70, 0x1a, 0x0d, 0x9d, 0x19, 0x13,
  0xa3, 0x20, 0x22, 0x98, 0x5c, 0x9d, 0x52, 0xa3, 0x52, 0x9c, 0x12, 0x1f,
  0x61, 0x1e, 0x60, 0x1d, 0x3a, 0x99, 0xa5, 0x97, 0x64, 0x20, 0x99, 0x1a,
  0xec, 0x1e, 0xa2, 0x1d, 0x20, 0x9f, 0x0c, 0x0a, 0x05, 0x1c, 0xa8, 0x9b,
  0x55, 0x18, 0x30, 0xa0, 0x8f, 0x8e, 0xdd, 0x18, 0x04, 0x9e, 0xc6, 0x1c,
  0x0e, 0x98, 0x1e, 0x9b, 0xe7, 0x1d, 0x25, 0x18, 0x6f, 0x11, 0x3c, 0x1a,
  0x09, 0xa0, 0x5f, 0x99, 0xcc, 0x21, 0x9e, 0x93, 0x93, 0x91, 0x42, 0x90,
  0x9a, 0x9a, 0x66, 0x1c, 0xe7, 0x9a, 0xe8, 0x1a, 0xf6, 0x19, 0x2a, 0x9b,
  0x17, 0x1f, 0xd0, 0x20, 0xa9, 0x8b, 0xb8, 0x19, 0xf5, 0x9f, 0x78, 0x97,
  0xe8, 0x12, 0x06, 0xa1, 0x30, 0x15, 0xc0, 0x98, 0x62, 0x99, 0x03, 0x19,
  0x2f, 0x97, 0x0d, 0x1d, 0x96, 0x9a, 0x15, 0x93, 0x7e, 0x15, 0xea, 0x19,
  0x6a, 0x00, 0x92, 0x1f, 0x8b, 0x9e, 0x97, 0x13, 0xeb, 0x1d, 0xe1, 0x9c,
  0x87, 0x9a, 0x5d, 0x98, 0x44, 0x95, 0x84, 0x18, 0xd4, 0x14, 0x75, 0x9e,
  0x19, 0x11, 0x27, 0x14, 0x19, 0x94, 0x20, 0x1f, 0xfe, 0x97, 0x9c, 0x12,
  0xce, 0x9a, 0xb0, 0x18, 0x48, 0x16, 0xb1, 0x9e, 0xd7, 0x90, 0x35, 0x0c,
  0xc9, 0x9a, 0x51, 0x20, 0x3a, 0x21, 0x1c, 0x9b, 0x00, 0x93, 0x27, 0x8c,
  0x6c, 0x1d, 0x54, 0x18, 0x92, 0x9e, 0x00, 0x1c, 0x00, 0x96, 0xe2, 0x95,
  0x38, 0x1a, 0x89, 0x1a, 0xad, 0x9b, 0xe7, 0x1c, 0xdd, 0x92, 0x0c, 0x1c,
  0x87, 0x20, 0x6c, 0x11, 0x8e, 0x14, 0x5c, 0x94, 0x76, 0x1d, 0xf7, 0x20,
  0x89, 0xa0, 0x84, 0x20, 0xf1, 0x99, 0xf2, 0x91, 0x20, 0x14, 0xdc, 0x9b,
  0x21, 0x9e, 0xb8, 0x1d, 0x23, 0x98, 0x41, 0x95, 0x5a, 0x10, 0xf3, 0x20,
  0x90, 0x9b, 0xfe, 0x16, 0xc1, 0x1d, 0x18, 0x98, 0x21, 0x8e, 0x72, 0x1d,
  0x6a, 0x90, 0x73, 0x9d, 0xef, 0x94, 0xc4, 0x92, 0xe6, 0xa0, 0xf5, 0x1d,
  0xc2, 0x9c, 0x64, 0x18, 0x0c, 0x9f, 0xcc, 0x17, 0x66, 0x19, 0xc5, 0xa0,
  0x33, 0x1f, 0x3f, 0x1b, 0x16, 0x9c, 0x1b, 0x20, 0x1a, 0x99, 0x33, 0x01,
  0xa4, 0x1d, 0x7c, 0x1d, 0x21, 0xa0, 0xd5, 0x1a, 0xf6, 0x18, 0xd6, 0x19,
  0x3e, 0x9d, 0x5a, 0x17, 0xc7, 0x1b, 0xb4, 0x99, 0xf2, 0x08, 0x83, 0x19,
  0xb7, 0x9c, 0x00, 0x1e, 0xc3, 0x99, 0xe1, 0x90, 0x5a, 0x1e, 0x30, 0x95,
  0xab, 0x9f, 0x4c, 0x1c, 0xe9, 0x9a, 0x5e, 0x1f, 0xd7, 0x9c, 0x39, 0x1a,
  0x65, 0x17, 0xd8, 0x91, 0xa8, 0x97, 0x94, 0x1c, 0x32, 0x9e, 0x6d, 0x18,
  0x2d, 0x98, 0x69, 0x1c, 0x86, 0x12, 0x21, 0x9e, 0x9a, 0x9c, 0x1e, 0x1c,
  0x0c, 0x11, 0x32, 0x18, 0x8e, 0x90, 0xab, 0x1c, 0x45, 0x93, 0xcd, 0x18,
  0xb4, 0x93, 0xba, 0x18, 0x3f, 0x9b, 0x76, 0x22, 0x66, 0x10, 0x5b, 0x15,
  0x67, 0x1f, 0xe6, 0xa1, 0xc4, 0x1c, 0x49, 0x9d, 0xed, 0x8b, 0x2e, 0x19,
  0x77, 0x17, 0x86, 0x14, 0x53, 0x13, 0xac, 0x9d, 0xda, 0x97, 0x24, 0x92,
  0x42, 0x9d, 0x54, 0x1f, 0x2a, 0xa1, 0x5c, 0x9c, 0x38, 0x20, 0x18, 0xa1,
  0x86, 0x1b, 0xa5, 0x9c, 0xc8, 0x9d, 0x42, 0x1d, 0x61, 0x95, 0x11, 0x8c,
  0xa3, 0x16, 0xb3, 0x98, 0xe5, 0x97, 0x8a, 0x8b, 0xf8, 0x9d, 0x05, 0x1e,
  0x7f, 0x9c, 0x73, 0x0e, 0x25, 0x21, 0x15, 0x9e, 0x4e, 0x17, 0xf4, 0x9e,
  0x7f, 0x13, 0x2b, 0x91, 0x4e, 0x94, 0x66, 0x1c, 0x7e, 0x1c, 0x2f, 0x13,
  0xef, 0x9e, 0x4b, 0xa0, 0x84, 0xa1, 0xa1, 0x21, 0xf2, 0x9d, 0x27, 0x9b,
  0x7a, 0x1c, 0xc4, 0x9d, 0xb4, 0x1c, 0x6b, 0x9c, 0x3f, 0x9a, 0x80, 0x1d,
  0x45, 0x98, 0x55, 0x92, 0xee, 0x14, 0x14, 0x99, 0x23, 0x99, 0x9c, 0xa0,
  0x4d, 0x9f, 0x43, 0x23, 0xc0, 0x9e, 0x69, 0x98, 0x24, 0x1d, 0xc1, 0x17,
  0x78, 0x18, 0x36, 0x9b, 0x9c, 0x9f, 0x00, 0x16, 0xff, 0x93, 0x1a, 0xa0,
  0xeb, 0x18, 0x92, 0x9f, 0xeb, 0x8d, 0x2d, 0x9e, 0x51, 0x9e, 0x2d, 0x24,
  0x84, 0x9f, 0xa4, 0x9b, 0xce, 0x80, 0x7a, 0x14, 0xfb, 0x21, 0x17, 0x9e,
  0xdc, 0x9b, 0x88, 0x1f, 0x1f, 0x99, 0xd4, 0x16, 0x17, 0x21, 0xd9, 0x9e,
  0xa2, 0x9f, 0xad, 0x9f, 0x50, 0x9c, 0x44, 0x22, 0x94, 0xa0, 0x68, 0x9d,
  0x7c, 0x95, 0x57, 0x90, 0x2a, 0x17, 0xf1, 0x15, 0x0f, 0xa0, 0x38, 0x1c,
  0x39, 0x9a, 0x35, 0x9c, 0xd6, 0x1a, 0xd3, 0x9a, 0xd7, 0x9f, 0xac, 0x9f,
  0xc1, 0xa1, 0x37, 0x22, 0x85, 0xa0, 0x7f, 0x9d, 0x07, 0x96, 0x4d, 0x20,
  0x47, 0x96, 0x0d, 0x99, 0x17, 0x9f, 0x17, 0x10, 0x80, 0x16, 0x41, 0x8a,
  0xa9, 0x92, 0xa3, 0x10, 0x2d, 0xa0, 0x2a, 0xa0, 0x13, 0x99, 0x2c, 0x0b,
  0x8c, 0xa2, 0xaa, 0x9c, 0x2c, 0x98, 0xde, 0x1c, 0x9a, 0x19, 0x4d, 0x1d,
  0x12, 0xa0, 0x84, 0x0d, 0x56, 0x1c, 0x4f, 0x0f, 0x77, 0x1c, 0x2f, 0xa2,
  0x4c, 0xa1, 0x9a, 0x9a, 0x08, 0x8a, 0xd0, 0x15, 0xcf, 0x9f, 0xcd, 0xa0,
  0x0e, 0x9d, 0x68, 0x90, 0xac, 0xa0, 0x81, 0x01, 0x76, 0x9f, 0x0d, 0x99,
  0x16, 0x98, 0x88, 0x0b, 0x9e, 0x9f, 0x34, 0xa0, 0xad, 0x9d, 0xe9, 0x9c,
  0x51, 0x14, 0x24, 0x9d, 0xb4, 0xa2, 0xe4, 0xa0, 0x76, 0xa0, 0xd9, 0x98,
  0x1e, 0x9e, 0x0a, 0x19, 0x0d, 0xa2, 0x38, 0x9c, 0x35, 0xa0, 0x2d, 0x8d,
  0xf6, 0x9c, 0x42, 0x95, 0xab, 0x9c, 0x71, 0xa0, 0x5b, 0x18, 0x46, 0x99,
  0x12, 0xa0, 0x5d, 0xa0, 0xa0, 0x9d, 0x1a, 0x1c, 0xd1, 0xa0, 0x7d, 0x1e,
  0x0d, 0xa3, 0x36, 0x9f, 0xbf, 0x99, 0x3f, 0x9b, 0xcf, 0x9f, 0xbe, 0x9d,
  0xfd, 0x9d, 0xfc, 0x9f, 0x1d, 0x1f, 0x4e, 0x9f, 0x16, 0xa0, 0x74, 0xa0,
  0xa6, 0x9e, 0xab, 0x1e, 0x99, 0xa1, 0x7a, 0x1c, 0x3d, 0xa2, 0x50, 0x9e,
  0xc2, 0x98, 0x8b, 0xa2, 0x95, 0x8e, 0x65, 0x9c, 0x4c, 0x9e, 0x0e, 0x9e,
  0xb7, 0x23, 0x69, 0x9e, 0x42, 0x9d, 0xaa, 0xa1, 0xf8, 0x9f, 0xda, 0x1d,
  0x7b, 0x9f, 0xce, 0x1d, 0xf4, 0xa4, 0x56, 0x9f, 0x7b, 0x1c, 0xdc, 0x98,
  0x11, 0xa0, 0x69, 0x9d, 0xeb, 0x9f, 0x4e, 0x9d, 0x70, 0x21, 0xd3, 0xa0,
  0xe1, 0x9b, 0x8e, 0xa0, 0xd7, 0xa0, 0x33, 0x16, 0x5c, 0xa1, 0xad, 0x20,
  0x6f, 0xa1, 0x06, 0xa0, 0x06, 0x15, 0x8e, 0x92, 0x10, 0x9b, 0x27, 0x9b,
  0x9a, 0x98, 0x2f, 0x9c, 0x60, 0x1f, 0x92, 0x9f, 0x0a, 0xa2, 0xb4, 0x9f,
  0x91, 0xa0, 0x3f, 0x1c, 0xc6, 0x9d, 0x23, 0x1d, 0x7d, 0xa2, 0x21, 0xa0,
  0xb8, 0x94, 0x7e, 0x91, 0x6e, 0x97, 0xc7, 0x96, 0x82, 0x9a, 0x93, 0x9b,
  0x38, 0x22, 0xdb, 0x9e, 0x6c, 0xa0, 0x6d, 0x9b, 0x2a, 0xa2, 0x7e, 0x16,
  0x18, 0x9a, 0x66, 0x0b, 0x24, 0xa4, 0x84, 0xa1, 0xbe, 0x9d, 0x7b, 0x94,
  0x28, 0x95, 0xde, 0x13, 0xb2, 0x9d, 0x1a, 0xa1, 0xc1, 0x20, 0x20, 0xa2,
  0x45, 0x9d, 0xd6, 0x9c, 0x21, 0xa0, 0x88, 0x9c, 0xae, 0x9b, 0xf4, 0x15,
  0x39, 0xa1, 0xe2, 0x9e, 0x55, 0x85, 0x81, 0x95, 0xb7, 0x1d, 0x1b, 0x92,
  0x82, 0x9d, 0x27, 0xa0, 0x34, 0x21, 0xe1, 0xa2, 0x08, 0x0a, 0x03, 0x8e,
  0xbd, 0xa0, 0xfa, 0x96, 0x33, 0x18, 0xf6, 0x9d, 0x1c, 0xa3, 0x99, 0xa2,
  0x58, 0x9e, 0xdb, 0x9c, 0x14, 0x8f, 0x23, 0x1d, 0xc0, 0x9b, 0x41, 0x9d,
  0x01, 0x1d, 0x7d, 0xa0, 0xed, 0x9c, 0xc1, 0xa0, 0xbc, 0xa0, 0xc3, 0x9a,
  0x7b, 0x1d, 0x0f, 0xa0, 0xbc, 0xa1, 0xb4, 0xa1, 0x01, 0x9a, 0x95, 0x1d,
  0x2b, 0x9b, 0xe7, 0x20, 0xe8, 0x99, 0x6f, 0x9f, 0x61, 0x20, 0x4e, 0xa3,
  0xca, 0xa0, 0x47, 0x82, 0x7f, 0xa3, 0xf1, 0x9a, 0x5d, 0x1b, 0x8d, 0xa0,
  0x9f, 0xa2, 0x35, 0xa0, 0x50, 0x10, 0x5e, 0x1c, 0x92, 0x10, 0xfb, 0x16,
  0x9f, 0x95, 0xe1, 0x93, 0x6e, 0x24, 0xe9, 0xa0, 0xb7, 0x9c, 0x79, 0x9d,
  0xa5, 0xa0, 0xb5, 0x99, 0xea, 0x94, 0x6f, 0xa0, 0xae, 0xa2, 0x03, 0xa3,
  0xab, 0x1a, 0xe1, 0x94, 0xf7, 0x1e, 0xf1, 0x15, 0xa0, 0x1d, 0x93, 0x12,
  0x43, 0x22, 0x7c, 0xa1, 0x70, 0xa0, 0x91, 0x9e, 0x41, 0x9c, 0x36, 0x9c,
  0x3f, 0x91, 0xc8, 0x9f, 0x8f, 0xa3, 0x42, 0x9e, 0xef, 0x18, 0x66, 0x1b,
  0xbc, 0x1f, 0x8f, 0x9c, 0xc3, 0x22, 0x6a, 0x1a, 0x9e, 0x20, 0xb2, 0xa1,
  0xb7, 0xa0, 0x8e, 0x9e, 0x3f, 0xa0, 0x30, 0x9e, 0x38, 0x9a, 0x73, 0xa3,
  0x3f, 0x9f, 0xea, 0xa0, 0x26, 0x9a, 0x9b, 0x14, 0xe7, 0x1c, 0x18, 0x1c,
  0x44, 0x23, 0xea, 0x20, 0x3b, 0x1f, 0x92, 0xa1, 0x45, 0x9e, 0x2b, 0x9e,
  0x91, 0x9c, 0x49, 0xa1, 0x58, 0x1e, 0x6b, 0xa1, 0xcb, 0xa0, 0xa9, 0x9c,
  0x2f, 0x96, 0x27, 0x15, 0x6d, 0x21, 0x3f, 0x1d, 0x1b, 0x20, 0xf7, 0x22,
  0xeb, 0x1e, 0x0c, 0xa1, 0xdf, 0x9a, 0x41, 0x9e, 0x67, 0x9b, 0x18, 0x9d,
  0xf9, 0x94, 0xb9, 0xa0, 0x52, 0x8e, 0xd7, 0x9e, 0x66, 0x9a, 0x89, 0x8a,
  0xfb, 0x1a, 0x15, 0x9e, 0xcb, 0x20, 0x83, 0x23, 0xa5, 0x19, 0xf5, 0xa0,
  0xce, 0x99, 0xb2, 0x9c, 0xcc, 0x22, 0xff, 0x9e, 0x9e, 0x1a, 0x3c, 0x9d,
  0x77, 0x1a, 0x0e, 0xa2, 0x58, 0xa0, 0xf0, 0x96, 0x60, 0x88, 0x07, 0x9e,
  0x8b, 0x20, 0x3c, 0x21, 0xb1, 0x1a, 0xab, 0xa1, 0x07, 0x9d, 0xf7, 0x94,
  0x6c, 0x22, 0x88, 0xa0, 0x73, 0x83, 0x89, 0x9a, 0x03, 0x88, 0x6d, 0xa0,
  0x12, 0x1b, 0x32, 0x1c, 0x13, 0x20, 0xdd, 0x9d, 0xcf, 0x1d, 0x9d, 0x1c,
  0xec, 0x1d, 0xdb, 0x9e, 0x6b, 0x13, 0xe4, 0x9d, 0x09, 0x19, 0x29, 0xa0,
  0x8b, 0x96, 0xb2, 0x9c, 0x80, 0x10, 0xbe, 0xa0, 0xd9, 0x20, 0xfb, 0x9c,
  0x2e, 0x96, 0x83, 0x9c, 0x62, 0x23, 0xc1, 0x25, 0x2d, 0x10, 0x5c, 0x9a,
  0x6e, 0x1e, 0x74, 0x9c, 0x98, 0x1a, 0x4f, 0xa0, 0xc6, 0x9d, 0x90, 0x99,
  0x7a, 0x14, 0x98, 0x1a, 0xc4, 0x96, 0xcf, 0x83, 0x3a, 0x98, 0x61, 0x1a,
  0x18, 0x1f, 0xfd, 0x1f, 0x0c, 0x9b, 0xb5, 0x1b, 0xb6, 0x1e, 0xdd, 0x0b,
  0xca, 0x1d, 0x53, 0x9f, 0x03, 0x9d, 0x75, 0x18, 0x53, 0x1c, 0x0b, 0x21,
  0x0f, 0x9d, 0xb5, 0x9a, 0xc1, 0x9d, 0x19, 0x9f, 0x22, 0x21, 0x2b, 0x21,
  0x2d, 0x19, 0x00, 0x1e, 0x55, 0x1e, 0xe7, 0x1d, 0x4f, 0x21, 0x00, 0xa1,
  0xca, 0xa1, 0x0b, 0x17, 0xae, 0x1b, 0xc7, 0x17, 0x65, 0x99, 0x26, 0x1c,
  0xb6, 0x98, 0x7f, 0x9c, 0x11, 0x1d, 0xe9, 0x23, 0xbe, 0x10, 0xb5, 0x20,
  0x85, 0x17, 0xc6, 0x1b, 0x39, 0x1e, 0x92, 0x99, 0x37, 0x9e, 0x4d, 0x1c,
  0xcd, 0x17, 0x19, 0x1f, 0xe6, 0x15, 0x8b, 0x1e, 0x9c, 0x9b, 0x16, 0x10,
  0x90, 0x1e, 0x4e, 0x1d, 0x12, 0x17, 0x7e, 0x24, 0x3f, 0x07, 0x15, 0x1f,
  0xf5, 0x1f, 0x86, 0x9d, 0x3e, 0xa2, 0x2b, 0x1c, 0x30, 0x21, 0xe8, 0x16,
  0x11, 0x9c, 0xe5, 0x1f, 0xf6, 0x9f, 0x08, 0x14, 0x01, 0x20, 0x65, 0x20,
  0x92, 0x8f, 0x07, 0x20, 0x4f, 0x20, 0x9f, 0x1d, 0xdf, 0x1d, 0x4e, 0x9c,
  0x8f, 0x9f, 0x11, 0x15, 0xe3, 0x1a, 0x29, 0x1e, 0x2b, 0x18, 0x54, 0x9c,
  0x9e, 0x9f, 0x83, 0x98, 0xad, 0x1b, 0xa8, 0x1d, 0xa8, 0x19, 0x45, 0x20,
  0xfe, 0x99, 0xeb, 0x15, 0x18, 0x20, 0x4c, 0x97, 0x06, 0xa0, 0x64, 0x07,
  0x85, 0x1a, 0x6e, 0x15, 0xe1, 0x12, 0x09, 0x15, 0xc0, 0x9d, 0x0a, 0x9e,
  0xbb, 0x1c, 0xa0, 0x1f, 0x90, 0x18, 0xba, 0x1d, 0xf7, 0x96, 0x96, 0x1a,
  0x48, 0x1b, 0x93, 0x80, 0x91, 0x9d, 0x03, 0x96, 0xc2, 0x1c, 0xdf, 0x1c,
  0x0a, 0x9b, 0x6a, 0x98, 0x98, 0x9f, 0xab, 0x9b, 0x44, 0x98, 0x54, 0x11,
  0xf2, 0x99, 0x87, 0x19, 0x44, 0x9c, 0xe0, 0x0c, 0x4b, 0x21, 0x87, 0x19,
  0x83, 0x9d, 0x3c, 0x9e, 0xd5, 0x92, 0x4b, 0x22, 0xb5, 0x99, 0xd5, 0x0c,
  0xc3, 0x15, 0x1c, 0x92, 0x1c, 0x9e, 0x1c, 0x11, 0xbe, 0x9b, 0x4f, 0x1c,
  0x2c, 0x99, 0x47, 0x17, 0xaa, 0x1e, 0x52, 0x21, 0x36, 0x98, 0x76, 0x9c,
  0x66, 0x9a, 0xe4, 0x1e, 0x57, 0x1e, 0xf7, 0x09, 0x46, 0x98, 0xe9, 0x10,
  0x0a, 0x9f, 0x8c, 0x9e, 0x04, 0xa1, 0xe6, 0x21, 0x34, 0x20, 0x95, 0x14,
  0xf9, 0x19, 0x76, 0x11, 0xaa, 0x12, 0x14, 0x9c, 0x48, 0x20, 0x5b, 0x22,
  0x15, 0x98, 0x2e, 0x1a, 0xd5, 0x0e, 0xf8, 0x18, 0x5c, 0x9a, 0x43, 0x9e,
  0xea, 0x9c, 0x05, 0x20, 0xac, 0x98, 0x6f, 0x9b, 0x83, 0x1f, 0x6e, 0x1b,
  0x3b, 0x0d, 0x74, 0x9c, 0xdd, 0x99, 0x37, 0x1e, 0x9a, 0x97, 0x52, 0x9e,
  0xba, 0x1a, 0x07, 0x1c, 0x18, 0x9f, 0x50, 0x1c, 0x51, 0x9d, 0xbf, 0x1c,
  0xe7, 0x9c, 0x4e, 0x1c, 0xa6, 0x13, 0x80, 0x0d, 0x97, 0x10, 0x8a, 0x95,
  0xf8, 0x1f, 0x36, 0x21, 0x0a, 0x20, 0x5a, 0x98, 0x0a, 0x21, 0x3a, 0x19,
  0xb2, 0x14, 0xf9, 0x15, 0xb0, 0x9c, 0x09, 0x0c, 0x0f, 0x11, 0x8f, 0x19,
  0x30, 0x91, 0x01, 0x21, 0x23, 0x1d, 0x40, 0x98, 0x5c, 0x1e, 0x39, 0x1d,
  0xa9, 0x98, 0x28, 0x99, 0x17, 0x15, 0x76, 0x1d, 0x8e, 0x17, 0xe7, 0x12,
  0xac, 0x9d, 0xab, 0x1c, 0x56, 0x1a, 0x8d, 0x19, 0x4c, 0x1b, 0x7f, 0x22,
  0x0c, 0x20, 0xac, 0x9d, 0xdc, 0x16, 0x27, 0x19, 0x06, 0x14, 0xea, 0x9d,
  0x2a, 0x14, 0xbb, 0x16, 0x86, 0x1e, 0xc8, 0x98, 0x1b, 0x99, 0x2a, 0x1c,
  0xc8, 0x91, 0xc6, 0x1b, 0xeb, 0x9a, 0x5c, 0x1f, 0xd1, 0x14, 0xc7, 0x96,
  0x25, 0x15, 0x68, 0x22, 0xe2, 0x11, 0x3c, 0x12, 0xaf, 0x1a, 0x21, 0x93,
  0xdf, 0x98, 0x35, 0x90, 0x75, 0x9a, 0x66, 0x18, 0x5b, 0x93, 0x7c, 0x9a,
  0x96, 0x13, 0xa0, 0x20, 0xa5, 0x81, 0xa1, 0x8a, 0xec, 0x1d, 0x8c, 0x17,
  0x9a, 0x15, 0x29, 0x16, 0x04, 0x1a, 0x5e, 0x12, 0x41, 0x96, 0x24, 0x96,
  0x55, 0x8f, 0x19, 0x18, 0x31, 0x94, 0x94, 0x12, 0x71, 0x9a, 0x4d, 0x8c,
  0x31, 0x99, 0x9d, 0x19, 0x68, 0x93, 0x33, 0x1c, 0x34, 0x9b, 0xfa, 0x21,
  0xd0, 0x19, 0xd0, 0x0c, 0x63, 0x0b, 0x08, 0x9b, 0x01, 0x17, 0x9e, 0x18,
  0x78, 0x22, 0xb3, 0x1c, 0x3d, 0x1a, 0x7b, 0x21, 0x43, 0x9b, 0x9d, 0x90,
  0xe5, 0x1a, 0x84, 0x20, 0xca, 0x0c, 0x7e, 0x90, 0x47, 0x9b, 0x8c, 0x9c,
  0x13, 0x8f, 0xac, 0x1e, 0x9e, 0x14, 0x4d, 0x18, 0xc7, 0x22, 0x92, 0x91,
  0xb9, 0x18, 0xc4, 0x0e, 0xbb, 0x99, 0xff, 0x15, 0x4c, 0x16, 0xb7, 0x1b,
  0xae, 0x1a, 0x7e, 0x93, 0x31, 0x0a, 0x41, 0x12, 0x96, 0x17, 0x87, 0x95,
  0x4b, 0x1e, 0x3c, 0x98, 0x97, 0x95, 0xdb, 0x19, 0x25, 0x97, 0x1a, 0x94,
  0xb4, 0x9e, 0x39, 0x98, 0xf3, 0x00, 0xa0, 0x1e, 0x66, 0x0d, 0x06, 0x9d,
  0x48, 0x02, 0xa0, 0x9b, 0xaa, 0xa0, 0x3e, 0x0d, 0xe3, 0x18, 0x6a, 0x99,
  0x58, 0x17, 0x92, 0x15, 0xc9, 0x95, 0x02, 0x91, 0x2e, 0x9d, 0x1b, 0x03,
  0x31, 0x86, 0x56, 0x15, 0x41, 0x9b, 0x4c, 0x90, 0xe4, 0x9e, 0x6a, 0x95,
  0x34, 0xa1, 0x74, 0x9e, 0xdf, 0x20, 0x0f, 0x10, 0x74, 0x1e, 0x3e, 0x1c,
  0x7e, 0x93, 0x14, 0x1f, 0x18, 0x9f, 0x17, 0x19, 0x1a, 0x15, 0xe5, 0x91,
  0xbe, 0x9c, 0x26, 0x18, 0x62, 0x9e, 0x5d, 0x87, 0x51, 0xa2, 0x7b, 0x9f,
  0xce, 0x21, 0x50, 0x9c, 0x37, 0x00, 0x02, 0x20, 0x5e, 0x97, 0x2a, 0xa0,
  0xc7, 0x9d, 0x07, 0x16, 0xf5, 0x8c, 0x2e, 0x8e, 0x92, 0x11, 0xd8, 0x9a,
  0x8f, 0x8d, 0x06, 0x1e, 0x45, 0x9e, 0xb9, 0x9f, 0xdf, 0x21, 0x3a, 0x96,
  0x38, 0x1f, 0x17, 0x00, 0x41, 0x9d, 0x8f, 0x9e, 0xc0, 0x9f, 0x3a, 0x1b,
  0x71, 0x99, 0x7a, 0x12, 0x79, 0x9f, 0x7e, 0x96, 0x7e, 0x9d, 0x4a, 0x9d,
  0x7f, 0x9d, 0xf9, 0x9e, 0x0a, 0x1d, 0x41, 0x9b, 0xec, 0x10, 0xff, 0x12,
  0x4d, 0x9c, 0x75, 0x9f, 0x4e, 0x98, 0xe2, 0x9d, 0x99, 0x94, 0xde, 0x94,
  0x81, 0x18, 0x41, 0x1d, 0x80, 0x0c, 0x3a, 0x17, 0x09, 0xa0, 0xa9, 0x9c,
  0xfc, 0x1d, 0x3f, 0x9b, 0xa4, 0x13, 0xee, 0x9b, 0x41, 0xa1, 0x95, 0x9d,
  0x62, 0x9b, 0xb2, 0x9b, 0xe8, 0x1e, 0x40, 0x19, 0xb7, 0x9f, 0xd3, 0x1c,
  0x7e, 0x18, 0x36, 0x1c, 0x06, 0xa0, 0x51, 0x9c, 0x74, 0x1f, 0xa3, 0x90,
  0xdf, 0x98, 0x9a, 0x9b, 0x17, 0xa0, 0x63, 0x1e, 0xe1, 0x95, 0xf2, 0x9e,
  0xa8, 0x9d, 0xd1, 0x99, 0x81, 0x9f, 0x00, 0x1d, 0x7a, 0x9e, 0x02, 0x1d,
  0x60, 0x9e, 0x6e, 0x9a, 0x71, 0x1e, 0x43, 0x9a, 0xc1, 0x95, 0x24, 0x8b,
  0xe0, 0x98, 0x83, 0x8c, 0x06, 0x91, 0x59, 0x9c, 0xe0, 0x20, 0x3a, 0x1c,
  0x35, 0x9b, 0x1d, 0x06, 0x7f, 0x98, 0x3a, 0x9c, 0x5f, 0x99, 0x0b, 0x9c,
  0x41, 0x15, 0xdc, 0xa0, 0x76, 0x1a, 0x83, 0x96, 0x37, 0x9c, 0xe0, 0x96,
  0xed, 0x9d, 0xb0, 0x96, 0x22, 0x1c, 0xff, 0x9b, 0x04, 0x99, 0xd7, 0x8c,
  0x0a, 0x94, 0x27, 0x20, 0x93, 0x1b, 0x97, 0x12, 0x98, 0x21, 0xdc, 0x9f,
  0xe8, 0x15, 0x07, 0x89, 0xe4, 0x92, 0xf5, 0x9b, 0x89, 0x99, 0x8e, 0x9a,
  0x64, 0x95, 0x85, 0x98, 0x6e, 0x94, 0x6e, 0x20, 0x80, 0x18, 0xb2, 0x90,
  0xc5, 0x15, 0x2e, 0x17, 0x4e, 0x13, 0x42, 0x9d, 0xfa, 0x97, 0xb8, 0x9c,
  0x23, 0x9c, 0x62, 0x91, 0xb7, 0x94, 0x48, 0x9b, 0xaf, 0x9f, 0xaa, 0x9f,
  0x88, 0x9e, 0xd2, 0x9b, 0x9e, 0x1f, 0xe4, 0x9f, 0x13, 0x9d, 0x9d, 0x1c,
  0x27, 0x1f, 0x8f, 0x9c, 0x03, 0x9b, 0x74, 0x97, 0x2f, 0x99, 0x02, 0x9a,
  0x12, 0x19, 0x2e, 0x9e, 0xa8, 0x1d, 0x58, 0x97, 0xda, 0x18, 0x3f, 0x9d,
  0x53, 0x1e, 0x3f, 0x9f, 0x4c, 0x18, 0x5c, 0x12, 0x05, 0x17, 0x9a, 0x9b,
  0x4f, 0xa0, 0x62, 0x18, 0x17, 0x8f, 0xab, 0x97, 0x43, 0x9c, 0x3f, 0x9d,
  0xaf, 0x20, 0x58, 0xa0, 0xbc, 0x95, 0x4c, 0x1d, 0x22, 0x1c, 0x6e, 0x14,
  0x65, 0x1d, 0xb9, 0x20, 0xd1, 0x17, 0xb8, 0x9d, 0xdb, 0x9c, 0x41, 0x9d,
  0xb0, 0x94, 0xc9, 0x96, 0x5f, 0x9c, 0x71, 0x9e, 0x35, 0x1d, 0x06, 0xa0,
  0x11, 0x9e, 0x93, 0x1c, 0x08, 0x1f, 0x2d, 0x93, 0xf1, 0x1c, 0x72, 0x1c,
  0xf3, 0x14, 0x80, 0x9e, 0xd0, 0x1a, 0x19, 0x9f, 0x12, 0x19, 0xdc, 0x98,
  0x67, 0x9c, 0x30, 0x98, 0xc4, 0x9e, 0x39, 0xa0, 0x38, 0x14, 0x49, 0x93,
  0x2a, 0x20, 0x36, 0x9b, 0x61, 0x1e, 0x34, 0x1a, 0xbb, 0x1a, 0x5c, 0x18,
  0xc9, 0x9a, 0x1e, 0x9f, 0xbd, 0x16, 0xa9, 0x93, 0xd1, 0x8c, 0x75, 0x97,
  0xb7, 0x9c, 0x20, 0x9d, 0xd1, 0x97, 0xb8, 0x1d, 0x5f, 0x20, 0x1d, 0x9e,
  0xee, 0x22, 0x77, 0x1a, 0xee, 0x1c, 0x51, 0x18, 0x32, 0x96, 0xff, 0x9d,
  0xc3, 0x19, 0x24, 0x9a, 0x64, 0x9e, 0xbe, 0x9b, 0xa5, 0xa1, 0x28, 0x9d,
  0x12, 0x9c, 0x4d, 0x21, 0xbe, 0x15, 0xa9, 0x9c, 0x5d, 0x1e, 0x37, 0x20,
  0x22, 0x91, 0x54, 0x9d, 0x2b, 0x9d, 0x2b, 0x1a, 0x16, 0x23, 0xe3, 0x89,
  0xd8, 0x91, 0x2e, 0x90, 0xef, 0x17, 0xfd, 0xa0, 0x78, 0x9a, 0xda, 0x99,
  0xd8, 0x1f, 0xcc, 0x19, 0xca, 0x23, 0xf1, 0x1e, 0x35, 0x9d, 0x36, 0x9c,
  0x7b, 0x98, 0x44, 0x94, 0x5a, 0x22, 0x3f, 0x92, 0x33, 0x9c, 0x63, 0x1f,
  0x32, 0x1c, 0x83, 0x9c, 0x07, 0x9e, 0xa4, 0x93, 0xb5, 0x12, 0x80, 0x09,
  0x58, 0x22, 0x1a, 0x1d, 0xd3, 0x80, 0x6a, 0x16, 0xd6, 0x97, 0x6f, 0x90,
  0xf6, 0x1b, 0xa0, 0x93, 0x81, 0x99, 0x9e, 0x1a, 0xc3, 0x9d, 0x85, 0xa0,
  0xe1, 0x96, 0x60, 0x17, 0xdb, 0x9a, 0x74, 0x91, 0x28, 0x21, 0xa9, 0x20,
  0x61, 0x90, 0x1f, 0x0e, 0x07, 0xa0, 0x76, 0x17, 0x27, 0x20, 0xf8, 0x19,
  0x00, 0x9d, 0xd0, 0x1e, 0xf8, 0x15, 0x36, 0x9a, 0x76, 0x14, 0x1f, 0x96,
  0xf0, 0x13, 0xa3, 0xa0, 0x18, 0x20, 0xb9, 0x21, 0x9c, 0x8c, 0x25, 0x94,
  0x25, 0x9d, 0x14, 0x99, 0x45, 0x1e, 0x28, 0x9a, 0xdc, 0x13, 0xda, 0x1d,
  0x99, 0xa0, 0xc5, 0x9e, 0x84, 0x95, 0x52, 0x14, 0xc4, 0x98, 0x80, 0x19,
  0xdd, 0x1c, 0x9d, 0x16, 0xdf, 0x9a, 0xf3, 0x89, 0x02, 0x9e, 0xdc, 0x8e,
  0x20, 0x1c, 0xdb, 0x02, 0x66, 0x95, 0x41, 0x14, 0xf3, 0x96, 0xbd, 0x9c,
  0x2c, 0x9b, 0x6e, 0x99, 0x8c, 0x16, 0x87, 0x19, 0x6c, 0x1e, 0xa8, 0x1f,
  0xa9, 0x9d, 0x2b, 0x1d, 0xfb, 0x9e, 0x50, 0x9d, 0xa3, 0x1c, 0xe4, 0x00,
  0x98, 0x16, 0xd4, 0x17, 0xdf, 0x9a, 0x27, 0x9b, 0x96, 0x9f, 0xda, 0x1c,
  0x43, 0x9c, 0x02, 0x9f, 0x2b, 0x1c, 0x8e, 0x1c, 0x20, 0x9c, 0x36, 0x19,
  0x61, 0xa0, 0x3a, 0x97, 0x18, 0x21, 0x35, 0x9b, 0x63, 0x99, 0x93, 0x1d,
  0x6f, 0x96, 0x84, 0x99, 0xe4, 0x99, 0xb6, 0x1c, 0x76, 0x00, 0x1f, 0x95,
  0xef, 0x1e, 0x5b, 0x19, 0xb3, 0x9e, 0x01, 0x10, 0x8b, 0x9f, 0xca, 0x99,
  0x42, 0x14, 0x85, 0x9a, 0x29, 0x9b, 0x50, 0x0a, 0xf3, 0x9b, 0x10, 0x98,
  0x8f, 0x93, 0xaa, 0x0e, 0x48, 0x18, 0xe3, 0x20, 0x67, 0x19, 0x40, 0x1a,
  0xc9, 0x9c, 0xab, 0x98, 0x80, 0x98, 0x70, 0x82, 0x1c, 0x9b, 0x61, 0x9c,
  0x2e, 0x9a, 0x77, 0x15, 0x03, 0x9e, 0x2d, 0x9b, 0x4c, 0x9d, 0xc4, 0x94,
  0x98, 0x96, 0x7f, 0x19, 0x4e, 0x14, 0x02, 0x97, 0xbf, 0x95, 0x04, 0x95,
  0x0e, 0x9a, 0x89, 0x98, 0xf9, 0x0f, 0xd7, 0x94, 0x38, 0x91, 0xb5, 0x1d,
  0x6f, 0x90, 0xa0, 0x97, 0xd7, 0x98, 0xff, 0x97, 0xf0, 0x95, 0x55, 0x18,
  0x14, 0x0e, 0xe8, 0x13, 0x59, 0x90, 0xb3, 0x19, 0x77, 0x91, 0x06, 0x16,
  0x9a, 0x9c, 0xa1, 0x9c, 0x90, 0x08, 0xee, 0x19, 0x4c, 0x17, 0x65, 0x9e,
  0x4f, 0x1c, 0x42, 0x9e, 0xd5, 0x8f, 0x4d, 0x99, 0x63, 0x9c, 0x7e, 0x9c,
  0x32, 0x88, 0x59, 0x97, 0x09, 0x9a, 0xcd, 0x11, 0xf0, 0x9f, 0xc0, 0x9e,
  0x49, 0x1a, 0x07, 0x15, 0x84, 0x1d, 0x2e, 0x9d, 0x4a, 0xa0, 0x73, 0x8d,
  0x56, 0x97, 0x20, 0x9b, 0x7f, 0x9b, 0x98, 0x02, 0xf3, 0x92, 0xa8, 0x98,
  0xfb, 0x9c, 0x66, 0x9d, 0x8c, 0x9d, 0x4b, 0x9e, 0x3c, 0x93, 0x8a, 0x9b,
  0xdf, 0x18, 0xbd, 0x98, 0x5c, 0x9d, 0xb7, 0x90, 0xc6, 0x1f, 0x9e, 0x9e,
  0xc4, 0x91, 0x80, 0x98, 0x6e, 0x96, 0xbd, 0x19, 0x66, 0x8d, 0x71, 0x10,
  0x65, 0xa0, 0xa5, 0x9c, 0x1d, 0x98, 0x5f, 0x16, 0xda, 0x14, 0xd1, 0x94,
  0x18, 0x88, 0x8a, 0x9b, 0xe4, 0x0d, 0x2b, 0x9d, 0x21, 0x9c, 0x7b, 0x9e,
  0x0b, 0x0a, 0xf0, 0x9c, 0xcf, 0x95, 0xcd, 0x8e, 0x12, 0x99, 0x57, 0x99,
  0x9f, 0x18, 0xd6, 0x99, 0x66, 0x10, 0x6f, 0x95, 0xc3, 0x14, 0x1f, 0x99,
  0x2a, 0x9c, 0x24, 0x9c, 0x00, 0x9e, 0xc8, 0x12, 0x93, 0x17, 0x12, 0x9c,
  0xd1, 0x90, 0xd1, 0x1d, 0x4a, 0x9f, 0x52, 0x9d, 0xa2, 0x9d, 0xdf, 0x98,
  0x25, 0x98, 0x46, 0x04, 0x30, 0x92, 0xc9, 0x9e, 0x07, 0x94, 0xd8, 0x9d,
  0x76, 0x9e, 0x35, 0xa0, 0x6b, 0x1b, 0x5b, 0x9a, 0x58, 0x9a, 0xe5, 0x1f,
  0xd7, 0x99, 0x48, 0x9a, 0x26, 0x97, 0x86, 0x98, 0x30, 0x18, 0x6a, 0x0a,
  0x12, 0x95, 0x4f, 0x99, 0x3d, 0x20, 0x56, 0x12, 0xe5, 0xa2, 0x06, 0x9c,
  0x46, 0x95, 0x9b, 0x98, 0xcd, 0x92, 0x32, 0x1f, 0x8f, 0x9e, 0x71, 0x9b,
  0xbb, 0x99, 0xec, 0x18, 0xa1, 0x9c, 0xc6, 0x18, 0xd6, 0x1a, 0xe6, 0x99,
  0x2c, 0x1e, 0x53, 0x9b, 0x24, 0xa0, 0x60, 0x9c, 0x61, 0x07, 0x18, 0x9c,
  0x26, 0x1c, 0x9d, 0x13, 0x37, 0xa0, 0x96, 0x17, 0x9f, 0xa0, 0x35, 0x15,
  0xfa, 0x9c, 0x51, 0x17, 0xed, 0x93, 0x36, 0x86, 0xfb, 0x0d, 0xc5, 0x96,
  0xc1, 0x9d, 0x6a, 0x9f, 0xe1, 0x94, 0xef, 0x83, 0x8e, 0x16, 0x31, 0x13,
  0x18, 0xa0, 0x63, 0x17, 0x2d, 0x9d, 0xec, 0x93, 0x1e, 0x8e, 0x41, 0x8c,
  0x05, 0x9f, 0x0a, 0x1a, 0x7b, 0x92, 0xe3, 0x9a, 0xbd, 0xa0, 0xde, 0x9b,
  0x26, 0x15, 0x27, 0x14, 0xb2, 0x19, 0x3c, 0x1a, 0x3c, 0x8c, 0x0c, 0x9d,
  0x57, 0x98, 0x66, 0x9a, 0x55, 0x95, 0x03, 0x97, 0x54, 0x9e, 0xab, 0x9b,
  0x63, 0x17, 0x3a, 0x9b, 0xf7, 0x95, 0xc5, 0x9f, 0x0b, 0x0f, 0xbc, 0x9c,
  0x22, 0x92, 0xe2, 0x0b, 0x02, 0x99, 0x5e, 0x94, 0xc4, 0x9b, 0x0c, 0x9d,
  0x24, 0x9c, 0xcb, 0x1d, 0x7a, 0x1a, 0xc9, 0x9e, 0xb8, 0x14, 0xaa, 0x96,
  0xc4, 0x94, 0xfc, 0x18, 0x95, 0x10, 0x19, 0x90, 0x25, 0x02, 0x3b, 0x9a,
  0xd9, 0x9c, 0x0e, 0x9c, 0x47, 0x94, 0xa2, 0x0e, 0x68, 0x98, 0xd6, 0x81,
  0x03, 0x17, 0x04, 0xa0, 0x54, 0x99, 0xe3, 0x95, 0x99, 0x9a, 0xe6, 0x96,
  0xb9, 0x90, 0x20, 0x1c, 0x17, 0x9a, 0xea, 0x96, 0x87, 0x9d, 0xcf, 0x98,
  0xcb, 0x18, 0x88, 0x15, 0x30, 0x9c, 0x58, 0x95, 0xfb, 0x1c, 0x3c, 0x9e,
  0xbd, 0x95, 0xf6, 0x99, 0x9b, 0x96, 0x4f, 0x19, 0x99, 0x9b, 0x43, 0x9a,
  0x6e, 0x94, 0x24, 0x95, 0x21, 0x96, 0x74, 0x16, 0x10, 0x98, 0xfe, 0x18,
  0x91, 0x9d, 0x3a, 0x8c, 0x16, 0xa1, 0xd4, 0x89, 0x11, 0x96, 0xa7, 0x9a,
  0x1e, 0x94, 0x9e, 0x93, 0xfe, 0x9b, 0xb3, 0x14, 0x88, 0x19, 0x3b, 0x98,
  0x7c, 0x0a, 0x6a, 0x98, 0x7f, 0x99, 0x06, 0x9d, 0x75, 0x81, 0x52, 0x8e,
  0xf5, 0x9f, 0x63, 0x21, 0x63, 0x10, 0x68, 0x97, 0x0c, 0x99, 0x91, 0x94,
  0x85, 0x97, 0x81, 0x1c, 0x84, 0x99, 0x10, 0x9a, 0x40, 0x11, 0x88, 0x1a,
  0x6c, 0x8a, 0xdb, 0x96, 0x0e, 0x9e, 0xc9, 0x14, 0xe5, 0x92, 0x54, 0x14,
  0xf3, 0x18, 0xa7, 0x1e, 0x2b, 0x9a, 0x2b, 0x1f, 0xb0, 0x99, 0x85, 0x9d,
  0x18, 0x95, 0xf4, 0x9b, 0x44, 0x14, 0x6a, 0x99, 0x2a, 0x8f, 0x0f, 0x97,
  0xc5, 0x9e, 0xbb, 0x1c, 0x7c, 0x91, 0xee, 0x98, 0xf6, 0x1b, 0x41, 0x16,
  0x4c, 0x12, 0xd5, 0x8b, 0xf2, 0x9b, 0x29, 0x98, 0x43, 0x1b, 0x74, 0x9d,
  0x6f, 0x18, 0x3e, 0x99, 0xbf, 0x05, 0x50, 0x1f, 0x61, 0x9f, 0x68, 0x17,
  0xd7, 0x13, 0x8d, 0x9d, 0xce, 0x1c, 0x1c, 0x22, 0x1a, 0x93, 0x7d, 0x14,
  0xa6, 0x9d, 0x0b, 0x14, 0x54, 0x9d, 0x83, 0x94, 0x01, 0x20, 0xda, 0x99,
  0xe0, 0x9c, 0x5a, 0x1f, 0x40, 0x9e, 0x93, 0x99, 0xf7, 0x95, 0x07, 0x9c,
  0xc3, 0x16, 0xc4, 0x1c, 0x47, 0x1c, 0xd2, 0x1c, 0xd5, 0x9c, 0xe9, 0x97,
  0x79, 0x9a, 0x0d, 0x98, 0x5c, 0x1c, 0x9c, 0x01, 0xe8, 0x9e, 0x21, 0x1c,
  0xc1, 0x99, 0xa8, 0x19, 0x23, 0x1c, 0x50, 0xa0, 0x63, 0x1e, 0xf5, 0x9c,
  0xb9, 0x16, 0xec, 0x94, 0x68, 0x99, 0xc4, 0x99, 0x39, 0x1f, 0xb1, 0x9d,
  0x42, 0x19, 0x55, 0x18, 0x60, 0x9d, 0x80, 0x15, 0x08, 0x9c, 0x6b, 0x21,
  0x08, 0xa1, 0x04, 0x97, 0xdc, 0x94, 0x8d, 0x1f, 0xc6, 0x14, 0x34, 0x19,
  0x78, 0x99, 0x37, 0x99, 0xae, 0x1f, 0xc8, 0x9e, 0x98, 0x98, 0x98, 0x83,
  0x60, 0x9d, 0x4e, 0x15, 0x84, 0x9c, 0x68, 0x15, 0xf7, 0x9d, 0x10, 0x1c,
  0x20, 0x06, 0x8c, 0x22, 0x48, 0x17, 0x9b, 0x1a, 0x80, 0x15, 0x48, 0x9c,
  0x99, 0x15, 0xc1, 0x12, 0x5a, 0x93, 0x1d, 0x94, 0xaf, 0x9d, 0x9b, 0x97,
  0xa3, 0xa0, 0x6f, 0x1c, 0x06, 0x10, 0x5d, 0x1c, 0xe0, 0x18, 0x6d, 0x0b,
  0x9c, 0x99, 0x0c, 0x1c, 0x36, 0x91, 0x7a, 0x9e, 0x24, 0x20, 0x7d, 0x17,
  0x4d, 0x8d, 0x46, 0x95, 0x42, 0x9f, 0x6e, 0x15, 0xa5, 0x9e, 0x84, 0x11,
  0x55, 0x10, 0x77, 0x1c, 0xcf, 0x9c, 0xe1, 0x9c, 0x0a, 0x1c, 0xd2, 0x8e,
  0x6e, 0x9b, 0xf3, 0x9d, 0x78, 0x14, 0x1c, 0x9f, 0xca, 0x97, 0xf8, 0x1d,
  0xca, 0x11, 0x29, 0x1a, 0x19, 0x9a, 0xab, 0x91, 0xb7, 0x95, 0x04, 0x9c,
  0xd0, 0x14, 0x16, 0x15, 0x9d, 0x92, 0x5e, 0x98, 0xf0, 0x99, 0x0f, 0x93,
  0x04, 0x99, 0x13, 0x12, 0x49, 0x1a, 0x89, 0x1f, 0xa4, 0x95, 0x4c, 0x8e,
  0x7d, 0x9c, 0x76, 0x1c, 0x5d, 0x8b, 0x9a, 0x9d, 0xce, 0xa0, 0x3d, 0x9a,
  0x68, 0x0f, 0x13, 0x9b, 0x5a, 0x97, 0x19, 0x9d, 0x22, 0x99, 0x14, 0x19,
  0x18, 0x9d, 0x10, 0x80, 0xff, 0x0c, 0x14, 0x10, 0x38, 0x9c, 0xd5, 0x1d,
  0x47, 0x9c, 0xa7, 0x9f, 0x82, 0x16, 0xa1, 0x13, 0x3a, 0x98, 0x04, 0x9e,
  0x76, 0x95, 0x6c, 0x9d, 0x46, 0x20, 0x1d, 0x22, 0x87, 0x98, 0x1d, 0x99,
  0xdc, 0x9c, 0x12, 0x14, 0xcc, 0x0c, 0xd2, 0x99, 0x8b, 0x9c, 0x95, 0x1d,
  0x78, 0x90, 0x0a, 0x9d, 0x55, 0x9a, 0xaf, 0x9d, 0x4f, 0x97, 0xf5, 0x99,
  0x6c, 0x99, 0x83, 0x1b, 0x5f, 0x9c, 0x3b, 0x1e, 0xd9, 0x9d, 0x51, 0x97,
  0x92, 0x96, 0x49, 0x1d, 0xe2, 0x0c, 0x03, 0x23, 0x22, 0x9b, 0x52, 0x1d,
  0x4e, 0x97, 0x85, 0x99, 0xcf, 0x98, 0x61, 0x9d, 0xca, 0x8e, 0xce, 0x9b,
  0x39, 0x99, 0x96, 0x95, 0xec, 0x9f, 0x49, 0x99, 0x1c, 0x10, 0x04, 0x1c,
  0x15, 0x8b, 0x0d, 0x18, 0x08, 0x1a, 0x55, 0x19, 0xd7, 0x93, 0x6c, 0x95,
  0x34, 0x11, 0xfa, 0x9e, 0xa3, 0x1c, 0xcc, 0xa0, 0x64, 0x9a, 0x32, 0x98,
  0x56, 0x99, 0x58, 0x9f, 0xe1, 0x99, 0x82, 0x21, 0xd6, 0x14, 0x49, 0x18,
  0x86, 0x9d, 0x05, 0x18, 0x84, 0x98, 0x04, 0x94, 0xc7, 0x9c, 0x2d, 0x98,
  0x84, 0x20, 0x71, 0x9b, 0xb3, 0x99, 0xa6, 0x98, 0x3e, 0x9c, 0x43, 0x93,
  0x35, 0x1c, 0x1c, 0x1d, 0xac, 0x9a, 0xe4, 0x19, 0xd3, 0x98, 0xf8, 0x98,
  0xc2, 0x9f, 0x57, 0x9b, 0x47, 0x99, 0x06, 0x18, 0x69, 0x1e, 0xdb, 0x9c,
  0xa4, 0x9c, 0x48, 0x1f, 0x6d, 0x9f, 0x63, 0x98, 0x50, 0x1f, 0x85, 0x0d,
  0x40, 0x9c, 0xa6, 0x9e, 0x1f, 0x9d, 0x7c, 0x9d, 0x84, 0x9d, 0x75, 0x1c,
  0x06, 0x9a, 0x40, 0x95, 0x5e, 0x19, 0x67, 0x03, 0x22, 0x9d, 0xa7, 0x9a,
  0x40, 0x9a, 0x81, 0x9c, 0x4b, 0x1b, 0x54, 0x18, 0x8e, 0x9f, 0x68, 0x99,
  0x3c, 0x9d, 0x80, 0x0d, 0x8e, 0x9d, 0xa5, 0x86, 0x7e, 0x98, 0x5a, 0x15,
  0x4e, 0x1d, 0xcf, 0x94, 0xf5, 0x9b, 0x25, 0x9e, 0x95, 0x99, 0x4f, 0xa0,
  0xbe, 0x20, 0x1d, 0x93, 0x19, 0x9c, 0x31, 0x9d, 0x90, 0x9d, 0xf3, 0x96,
  0x6d, 0x90, 0x84, 0x9a, 0xe5, 0x91, 0xc3, 0x92, 0x70, 0x12, 0x3f, 0x9b,
  0xdd, 0x19, 0x96, 0x89, 0x1f, 0x8f, 0xe7, 0x9a, 0x3a, 0x19, 0xca, 0x96,
  0xf6, 0x05, 0x6c, 0x09, 0xba, 0x9a, 0x65, 0x91, 0xe2, 0x86, 0x6c, 0x96,
  0xe1, 0x9d, 0xac, 0x20, 0x3f, 0x19, 0xe4, 0x90, 0x3d, 0x95, 0xc0, 0x15,
  0x44, 0x1b, 0xac, 0x17, 0x53, 0x18, 0xc0, 0x1b, 0xf0, 0x1a, 0x37, 0x1d,
  0x69, 0x9a, 0x68, 0x14, 0x2c, 0x9c, 0x0b, 0x11, 0xa8, 0x98, 0xc2, 0x9b,
  0x2b, 0x19, 0xc7, 0x13, 0x06, 0xa0, 0x4d, 0x9b, 0x50, 0x9e, 0x7a, 0x9a,
  0xc9, 0x18, 0x5c, 0x1e, 0x0e, 0x8c, 0xdd, 0x16, 0xc3, 0x10, 0x06, 0x14,
  0xab, 0x9e, 0x0a, 0x18, 0x69, 0x9c, 0x16, 0x9c, 0x3e, 0x19, 0xe2, 0x1e,
  0x99, 0x9d, 0xd8, 0x9c, 0xcf, 0x98, 0x97, 0x98, 0x65, 0x1c, 0xea, 0x8d,
  0x8f, 0xa1, 0x5c, 0x9a, 0x6e, 0x19, 0x5e, 0x1b, 0x4b, 0x99, 0x0c, 0x98,
  0x7f, 0x9c, 0xef, 0x1c, 0xa1, 0x1b, 0xd0, 0x1c, 0x36, 0x9a, 0x67, 0x16,
  0xdf, 0x9c, 0x8d, 0x99, 0x46, 0x1a, 0xe3, 0x97, 0xec, 0x11, 0x93, 0x9d,
  0x4d, 0x95, 0x96, 0x8c, 0xc8, 0x94, 0xea, 0x82, 0xb3, 0x9c, 0x78, 0x97,
  0x2b, 0x1d, 0xa0, 0x1f, 0x4e, 0x9d, 0x25, 0x19, 0x86, 0x9b, 0x32, 0x1c,
  0x10, 0x0d, 0x4d, 0x95, 0x84, 0x9a, 0xc5, 0x9f, 0x38, 0x19, 0x8a, 0x0c,
  0xb4, 0x9b, 0xb7, 0x1c, 0xdc, 0x9f, 0x59, 0x12, 0x23, 0x0f, 0xbc, 0x99,
  0x29, 0x9e, 0x86, 0x1d, 0x25, 0x9c, 0x36, 0x18, 0x6c, 0x1b, 0x08, 0x9a,
  0x6d, 0x1a, 0xe8, 0x9c, 0xe6, 0x19, 0x01, 0x21, 0x69, 0x9c, 0x4c, 0x11,
  0x85, 0x9e, 0x82, 0x15, 0xb5, 0x1d, 0xfb, 0x1d, 0x31, 0x9d, 0xb0, 0x99,
  0x87, 0x9d, 0x5d, 0x14, 0xfe, 0x19, 0xec, 0x15, 0x13, 0x99, 0x21, 0x1c,
  0x1e, 0x19, 0x57, 0x1e, 0x0a, 0x10, 0x69, 0x1a, 0xd4, 0x9d, 0x51, 0x9e,
  0xbe, 0x16, 0x94, 0x1d, 0x9f, 0x96, 0x6b, 0x99, 0x12, 0x9b, 0x75, 0x16,
  0x38, 0x1b, 0x6b, 0x13, 0x22, 0x00, 0xb9, 0x15, 0x7c, 0x19, 0x00, 0x93,
  0xa1, 0x19, 0x71, 0x1a, 0x5e, 0x95, 0x3b, 0x0c, 0x2d, 0x1b, 0x23, 0x9b,
  0x28, 0x9b, 0x66, 0x1c, 0xab, 0x97, 0x7c, 0x9f, 0xa4, 0x1b, 0xde, 0x83,
  0xd3, 0x9c, 0x98, 0x1b, 0x32, 0x80, 0x08, 0x10, 0x7e, 0x15, 0x9e, 0x96,
  0x12, 0x99, 0x60, 0x99, 0x82, 0x1c, 0x79, 0x19, 0x06, 0x9e, 0x78, 0x0e,
  0x06, 0x9d, 0xd7, 0x9f, 0x2a, 0x17, 0xf0, 0x12, 0x7c, 0xa0, 0x05, 0x17,
  0x2d, 0x98, 0x69, 0x0a, 0x8a, 0x98, 0xcb, 0x1a, 0xfc, 0x9c, 0xf2, 0x9b,
  0xb7, 0x1b, 0x0b, 0x1d, 0x2b, 0x9b, 0x10, 0x9d, 0x7e, 0x9d, 0xbc, 0x99,
  0x75, 0x13, 0x4b, 0x14, 0xf0, 0x9b, 0x74, 0x98, 0xd8, 0x9d, 0x2a, 0x18,
  0x77, 0x98, 0x2d, 0x15, 0x9b, 0x9d, 0xe6, 0x9d, 0x5f, 0x20, 0x34, 0x94,
  0x17, 0x96, 0xa5, 0x19, 0x55, 0x97, 0x22, 0x97, 0x0a, 0x94, 0x23, 0x1a,
  0xf6, 0x1c, 0x66, 0x9c, 0x84, 0x9c, 0x8e, 0x89, 0x4c, 0x98, 0x39, 0xa0,
  0x28, 0x98, 0x91, 0x80, 0x23, 0x18, 0x7f, 0x11, 0xcd, 0x97, 0xa3, 0x9d,
  0xed, 0x9d, 0x85, 0x0f, 0x3d, 0x17, 0x21, 0x18, 0x6d, 0x14, 0xce, 0xa0,
  0x87, 0x9e, 0xce, 0x9c, 0x09, 0xa0, 0x35, 0xa0, 0x58, 0x94, 0xed, 0x98,
  0xa6, 0x1e, 0x05, 0x18, 0xa6, 0x99, 0xf6, 0x99, 0xb7, 0x98, 0x83, 0x15,
  0x1a, 0x90, 0x26, 0x1c, 0xf2, 0x9a, 0x4c, 0x91, 0x1e, 0x97, 0x94, 0x95,
  0xb0, 0x9a, 0xd8, 0x9c, 0x4e, 0x94, 0xf4, 0x96, 0x5a, 0x12, 0x2d, 0x1e,
  0xc6, 0x9c, 0x51, 0x98, 0x8e, 0x9b, 0xa8, 0x96, 0x2a, 0x90, 0x1c, 0x1a,
  0x38, 0x9c, 0x6f, 0x19, 0x76, 0x91, 0x79, 0x1d, 0x5f, 0x9b, 0xac, 0x9c,
  0x92, 0x1e, 0xc1, 0x97, 0x84, 0x8a, 0x4c, 0x1d, 0xb8, 0x11, 0x67, 0x94,
  0x2b, 0x9c, 0x60, 0x07, 0x67, 0x0e, 0xd4, 0x1c, 0x5f, 0x9f, 0x65, 0x9a,
  0x93, 0x9d, 0x9a, 0x1f, 0x81, 0x9e, 0x69, 0x9d, 0xbf, 0x9a, 0xdb, 0x95,
  0xdc, 0x88, 0xa1, 0x98, 0x8f, 0x1c, 0xda, 0x91, 0xc4, 0x19, 0x48, 0x95,
  0xa1, 0x1c, 0x8e, 0x98, 0xd6, 0x21, 0xf2, 0x11, 0xa9, 0x98, 0x96, 0x1c,
  0x57, 0xa1, 0xe1, 0xa0, 0x20, 0x95, 0xff, 0x97, 0x59, 0x15, 0xf9, 0x16,
  0xb6, 0x0c, 0xd2, 0x98, 0x5f, 0x9e, 0xe5, 0x93, 0x05, 0x17, 0x5b, 0x0d,
  0xbc, 0x14, 0xf4, 0x1a, 0x61, 0x8d, 0x67, 0x8e, 0x31, 0x9f, 0x6e, 0xa3,
  0xe3, 0x98, 0x65, 0x9c, 0x85, 0x1d, 0x4d, 0x15, 0x7c, 0x9d, 0xce, 0x1a,
  0x97, 0x94, 0xb2, 0x9c, 0xce, 0x19, 0x79, 0x1c, 0xed, 0x1e, 0x18, 0x9d,
  0x6c, 0x97, 0xcc, 0x9d, 0x98, 0x9e, 0x10, 0xa2, 0x36, 0x92, 0x8a, 0x9d,
  0xd4, 0x19, 0x23, 0x94, 0x98, 0x8d, 0x3c, 0x18, 0xcd, 0x9b, 0x14, 0x9d,
  0x98, 0x14, 0xf2, 0x12, 0x20, 0x0e, 0x8a, 0xa0, 0x9f, 0x13, 0x6f, 0x94,
  0x49, 0x18, 0xd9, 0x8e, 0x88, 0x1a, 0x1e, 0x95, 0x12, 0x1d, 0x70, 0x0e,
  0xf5, 0x90, 0x6e, 0x1d, 0xd5, 0x95, 0xe2, 0x9c, 0xde, 0x1c, 0xc6, 0x16,
  0xaf, 0xa0, 0x59, 0x9d, 0x1e, 0x99, 0xe8, 0x80, 0xbf, 0x9c, 0x79, 0x99,
  0x7c, 0x99, 0x9a, 0x0c, 0x30, 0x93, 0x26, 0x14, 0x19, 0x09, 0x31, 0x1a,
  0x31, 0x9d, 0x36, 0x9b, 0xa5, 0x97, 0xbd, 0x9b, 0xe3, 0x9d, 0xd6, 0x95,
  0x5d, 0x98, 0x44, 0x98, 0x94, 0x9e, 0x63, 0x1d, 0xd3, 0x98, 0xaa, 0x9d,
  0x3a, 0x18, 0x4b, 0x96, 0xea, 0x9f, 0x27, 0x15, 0x06, 0x9c, 0x01, 0x94,
  0x5c, 0x05, 0x94, 0x99, 0x6b, 0x17, 0xb5, 0x1f, 0x26, 0x19, 0x87, 0x98,
  0x9d, 0x9a, 0xd7, 0x99, 0x56, 0x96, 0x4c, 0x99, 0x57, 0x98, 0x06, 0x9e,
  0x85, 0x16, 0xd1, 0x18, 0xdc, 0x9e, 0xf8, 0x94, 0xcb, 0x9d, 0x0e, 0x9e,
  0x61, 0x21, 0x9f, 0x02, 0x1c, 0x0d, 0xdb, 0x96, 0x63, 0x9b, 0xcc, 0xa1,
  0xa4, 0x9c, 0xbb, 0x9c, 0x6c, 0x9b, 0x55, 0x94, 0x06, 0x9a, 0x68, 0x0c,
  0xd0, 0x98, 0x11, 0x9e, 0x3c, 0x9d, 0x12, 0x9d, 0x39, 0x91, 0xdf, 0x9d,
  0x02, 0x91, 0x3e, 0x94, 0xe8, 0xa0, 0x33, 0x8c, 0x8a, 0x9c, 0xc1, 0x99,
  0x61, 0x93, 0xf5, 0x99, 0xd8, 0x1b, 0xec, 0x99, 0x22, 0x9c, 0x84, 0x8e,
  0x73, 0x9b, 0xcb, 0x9f, 0x55, 0x1d, 0x6c, 0x1a, 0x00, 0x9c, 0x72, 0x94,
  0x17, 0x92, 0x3a, 0x1c, 0x44, 0x93, 0x72, 0x1b, 0x4d, 0x98, 0x1a, 0x9c,
  0xed, 0x8d, 0x9f, 0x08, 0xc8, 0x8b, 0x4c, 0x9f, 0xac, 0x9f, 0xbb, 0xa0,
  0x97, 0x9b, 0x7d, 0x9f, 0x38, 0x9b, 0x67, 0x1f, 0xcf, 0x10, 0x64, 0x9f,
  0x7d, 0x15, 0xdf, 0x98, 0x34, 0x9d, 0xc1, 0x9b, 0x14, 0x11, 0x44, 0x95,
  0xd6, 0x9c, 0x6f, 0x9e, 0x9f, 0xa1, 0x2d, 0xa0, 0x19, 0xa1, 0xdf, 0x98,
  0xde, 0x0e, 0x01, 0x1a, 0xbc, 0x8f, 0x33, 0x18, 0xc6, 0x9a, 0xd5, 0x9e,
  0x34, 0x8a, 0x4a, 0x9b, 0xf1, 0x9b, 0x25, 0x98, 0x61, 0x9c, 0x6b, 0x14,
  0x6f, 0x9f, 0x24, 0x9e, 0x37, 0x1e, 0xff, 0x1f, 0xea, 0x98, 0x55, 0x20,
  0x8d, 0x9a, 0xb7, 0x9c, 0x38, 0x9c, 0x12, 0x17, 0xd7, 0x94, 0x63, 0x9f,
  0x16, 0x95, 0xb4, 0x02, 0xa2, 0x9a, 0xea, 0x1c, 0xe3, 0x9e, 0x9e, 0xa2,
  0xe6, 0x98, 0x8a, 0x15, 0x8d, 0x8d, 0x2c, 0x85, 0xfd, 0x9c, 0x05, 0x1e,
  0x23, 0xa0, 0x62, 0x8e, 0x03, 0x9c, 0x1a, 0x9a, 0x12, 0x10, 0xeb, 0x14,
  0xf7, 0x99, 0x5b, 0x95, 0xed, 0xa0, 0x85, 0x9c, 0x10, 0x97, 0x33, 0x17,
  0xe4, 0x1b, 0xdc, 0x12, 0xb8, 0x9a, 0x49, 0x97, 0xbb, 0x9c, 0x52, 0x17,
  0xb1, 0xa0, 0x78, 0x94, 0x58, 0x9c, 0x7d, 0x90, 0x42, 0x96, 0xbd, 0x9d,
  0x66, 0x9f, 0xc9, 0x80, 0x18, 0x93, 0xee, 0x9b, 0xc7, 0x19, 0xf5, 0x19,
  0x9e, 0x15, 0x3b, 0x1e, 0xa7, 0xa0, 0x25, 0x93, 0xe6, 0x9a, 0x5b, 0x97,
  0xa5, 0x0e, 0x0b, 0x97, 0x33, 0x9b, 0x4b, 0x9c, 0x10, 0xa0, 0x8b, 0xa1,
  0x47, 0x1e, 0x11, 0x94, 0x8e, 0x96, 0x54, 0x99, 0x24, 0x8f, 0xe2, 0x91,
  0x40, 0x99, 0xa5, 0x9b, 0x0a, 0x9f, 0x1f, 0x9f, 0xec, 0x19, 0x20, 0x9e,
  0x86, 0x9e, 0x1c, 0x0f, 0x99, 0xa0, 0x25, 0xa1, 0x48, 0x9e, 0xbc, 0x9b,
  0x84, 0x8e, 0x17, 0x1e, 0x5e, 0x14, 0xf8, 0x1d, 0xbe, 0x17, 0x14, 0x99,
  0x03, 0xa0, 0x9b, 0x9b, 0xb1, 0x98, 0x86, 0xa0, 0xbf, 0xa1, 0xfb, 0x9c,
  0x7b, 0x9e, 0x83, 0xa1, 0x53, 0x9f, 0x54, 0x9d, 0x6e, 0x1c, 0xc7, 0x98,
  0x04, 0x13, 0x16, 0x98, 0x7c, 0x17, 0x9c, 0x9d, 0xd2, 0x9d, 0xe5, 0x9a,
  0x4d, 0x15, 0xb1, 0x20, 0xdd, 0x9c, 0xa6, 0x18, 0x4a, 0xa0, 0x84, 0xa1,
  0x4f, 0x8c, 0x22, 0x9a, 0x33, 0xa0, 0x9d, 0x98, 0x08, 0x9c, 0x4a, 0x9b,
  0x32, 0x93, 0xb0, 0x9b, 0xc9, 0x0f, 0x5a, 0x14, 0x63, 0xa0, 0x5b, 0x21,
  0x72, 0x95, 0xc2, 0x1f, 0x42, 0x1e, 0x19, 0x9c, 0x33, 0xa0, 0xe9, 0x9a,
  0x96, 0x9c, 0x20, 0x15, 0x1e, 0x9b, 0xfd, 0x97, 0xa6, 0x14, 0xa9, 0x9e,
  0xd9, 0x20, 0x14, 0x17, 0xc2, 0xa1, 0xaa, 0x1e, 0x9c, 0x9c, 0x68, 0x1c,
  0x7d, 0x1f, 0xc8, 0x9c, 0x47, 0x9a, 0x5a, 0x94, 0x1c, 0x9a, 0x93, 0x95,
  0xc7, 0x17, 0xad, 0x99, 0x0e, 0x9f, 0x0f, 0x97, 0x13, 0x1c, 0x3d, 0x14,
  0x7a, 0x9f, 0x27, 0x21, 0xa1, 0x9a, 0xce, 0x1d, 0xa1, 0x18, 0xdd, 0x9a,
  0xee, 0x13, 0x05, 0xa1, 0xbc, 0x9c, 0x50, 0x9d, 0x19, 0x15, 0x7b, 0x19,
  0x79, 0x1f, 0x38, 0x9a, 0xdb, 0x1a, 0xd1, 0x97, 0x28, 0x9c, 0x8a, 0x23,
  0x2c, 0x9e, 0x4f, 0x19, 0xa3, 0x17, 0xce, 0x9e, 0x14, 0x1f, 0xc2, 0x96,
  0xef, 0x9e, 0x7b, 0x9d, 0xf1, 0x97, 0x21, 0x19, 0x0f, 0x1b, 0x3a, 0x9e,
  0x9e, 0x99, 0x44, 0x99, 0x6a, 0x98, 0x62, 0x1e, 0xdf, 0x12, 0x26, 0x1b,
  0x44, 0x15, 0x66, 0x9e, 0x00, 0x1b, 0xbd, 0x1a, 0xa6, 0x0a, 0x66, 0x9d,
  0x09, 0x9b, 0xd3, 0x19, 0x64, 0x15, 0x38, 0xa1, 0x50, 0x16, 0x03, 0x1c,
  0xb8, 0x8d, 0x71, 0x18, 0x27, 0x16, 0x40, 0x1a, 0x00, 0x15, 0xba, 0xa0,
  0x28, 0x1b, 0x35, 0x99, 0x3f, 0x9c, 0xb0, 0x99, 0x2b, 0x97, 0x14, 0x92,
  0x61, 0x94, 0xd8, 0x9c, 0xff, 0x97, 0x62, 0x1b, 0x27, 0x1d, 0x9c, 0x1e,
  0x31, 0x1d, 0xfb, 0x88, 0xb9, 0x0a, 0xdc, 0x9a, 0xf4, 0x92, 0x50, 0x19,
  0x79, 0x97, 0xae, 0x9c, 0xc7, 0x14, 0x4a, 0x9a, 0x08, 0x22, 0x13, 0xa0,
  0x9b, 0x9a, 0xab, 0x1b, 0xd7, 0x1e, 0x30, 0x10, 0x9b, 0x1c, 0x74, 0x9a,
  0xdf, 0x8f, 0x74, 0x9c, 0x18, 0x9c, 0x9e, 0x9f, 0xfe, 0x97, 0x0d, 0x9e,
  0x3e, 0x10, 0x18, 0x12, 0xb1, 0x1c, 0x4b, 0x1e, 0x9b, 0x13, 0x53, 0x8d,
  0x89, 0x19, 0x80, 0x1a, 0xdd, 0x1f, 0xaf, 0x9f, 0x8d, 0x97, 0x41, 0x9e,
  0x6f, 0x9e, 0xfb, 0x9d, 0x9e, 0x91, 0x66, 0x19, 0x2a, 0x93, 0x13, 0x8f,
  0x3e, 0x14, 0x93, 0x14, 0xfd, 0x9c, 0xe5, 0x99, 0x99, 0x23, 0xe5, 0x1e,
  0x68, 0x22, 0xf7, 0x14, 0x9b, 0x93, 0x10, 0x9e, 0x6a, 0x1a, 0x42, 0xa1,
  0x96, 0x16, 0x3d, 0x96, 0xc9, 0x18, 0x67, 0x17, 0x9a, 0x1a, 0xea, 0x1f,
  0x80, 0x9d, 0xa4, 0x11, 0xd6, 0x20, 0x1e, 0x22, 0xa3, 0x20, 0x3e, 0x9d,
  0x2a, 0x94, 0xfb, 0x98, 0x4d, 0x1d, 0x4a, 0x11, 0x2f, 0x20, 0x3b, 0x83,
  0x0b, 0x15, 0xd5, 0x1d, 0xa6, 0x11, 0xa1, 0x1f, 0xf0, 0x9c, 0x4e, 0x9b,
  0x0a, 0x22, 0x94, 0x1b, 0xc5, 0x21, 0x2d, 0x9d, 0x21, 0x99, 0x76, 0x9c,
  0x6b, 0x1e, 0x68, 0x1a, 0xfe, 0x21, 0x36, 0x14, 0x08, 0x1b, 0x52, 0x93,
  0xa2, 0x9a, 0xd7, 0x1f, 0xfc, 0x9d, 0x99, 0x9c, 0xce, 0x21, 0xd8, 0x13,
  0x4e, 0x21, 0x85, 0x9d, 0xb0, 0x96, 0xd5, 0x9e, 0x75, 0x1e, 0x70, 0x21,
  0x05, 0x1d, 0x10, 0x9e, 0xa7, 0x98, 0x80, 0x1d, 0x58, 0x9e, 0xc7, 0x1c,
  0x8f, 0x9d, 0x0d, 0x9d, 0xa0, 0x20, 0x9d, 0x85, 0xbb, 0x21, 0x9a, 0x9f,
  0xbd, 0x96, 0x8a, 0xa0, 0x06, 0x9c, 0x17, 0x18, 0x11, 0x22, 0x39, 0x19,
  0x1c, 0x21, 0xa6, 0x16, 0xf4, 0xa1, 0x20, 0x20, 0x64, 0x9c, 0xe6, 0x9c,
  0x9b, 0x21, 0x60, 0x1d, 0xb6, 0x22, 0x84, 0x9d, 0x2b, 0x9f, 0x9f, 0x9c,
  0x56, 0x9c, 0x32, 0x9c, 0x94, 0x20, 0xbb, 0x1b, 0x62, 0x15, 0x16, 0x1d,
  0x3e, 0x9b, 0x5a, 0x1f, 0x5a, 0xa0, 0x58, 0x9d, 0x68, 0x1f, 0xca, 0x16,
  0xa1, 0x20, 0x43, 0x92, 0x8a, 0xa0, 0x2d, 0x9c, 0x8e, 0x1c, 0x72, 0x1c,
  0x54, 0x20, 0x10, 0x1b, 0x10, 0x19, 0x33, 0x19, 0xde, 0xa1, 0x64, 0x18,
  0xe9, 0x9c, 0x93, 0xa1, 0x5e, 0x19, 0x96, 0x15, 0xd0, 0x1f, 0xbd, 0x8f,
  0x72, 0xa1, 0xfa, 0x16, 0x0b, 0x1b, 0x87, 0x9c, 0xa3, 0x20, 0x9f, 0x20,
  0x8e, 0x1c, 0x25, 0x21, 0xee, 0x9c, 0x51, 0x1e, 0xea, 0x9c, 0x7b, 0xa3,
  0xb7, 0x20, 0x6d, 0x90, 0xb1, 0x1d, 0x7c, 0x1e, 0xdb, 0x9f, 0xf7, 0x98,
  0x09, 0x15, 0x46, 0x1c, 0x11, 0x1c, 0x94, 0x20, 0xa7, 0x1d, 0xc2, 0x1d,
  0xfa, 0x9e, 0x8b, 0x98, 0x7a, 0x9f, 0x76, 0xa2, 0x56, 0x10, 0xe2, 0x9b,
  0xa5, 0x98, 0x64, 0x1d, 0x23, 0x09, 0x14, 0x82, 0xc1, 0x20, 0x5d, 0x1b,
  0xf9, 0x20, 0x5d, 0x1d, 0xd2, 0x1d, 0xc7, 0x20, 0xbd, 0x95, 0xdc, 0x9f,
  0x0c, 0x1d, 0xda, 0xa1, 0x10, 0x12, 0xfa, 0x94, 0x5b, 0x98, 0x08, 0x23,
  0x94, 0x9c, 0x2e, 0x91, 0xc5, 0x12, 0xde, 0x9c, 0xb1, 0x1e, 0x2b, 0x99,
  0x0c, 0x1c, 0xa3, 0x22, 0x23, 0x98, 0xc1, 0x9d, 0x41, 0x1f, 0x7c, 0x9e,
  0x0e, 0x20, 0x1f, 0x9c, 0x5e, 0x12, 0x1c, 0x20, 0x60, 0xa0, 0x11, 0x19,
  0x84, 0x9b, 0x35, 0x9a, 0x5f, 0x98, 0xc9, 0x1c, 0x70, 0x20, 0x09, 0x17,
  0x62, 0xa2, 0xa9, 0xa1, 0xdf, 0x8d, 0x7f, 0xa1, 0x6a, 0x20, 0x75, 0x9b,
  0x8c, 0x20, 0xa0, 0x21, 0x8d, 0x1c, 0x56, 0x1e, 0xeb, 0x9d, 0x96, 0x16,
  0xeb, 0xa0, 0x96, 0x0f, 0x57, 0x94, 0xf1, 0x07, 0x58, 0x15, 0xcb, 0xa1,
  0xd5, 0x1e, 0x24, 0x9a, 0x4c, 0x1b, 0x2f, 0x98, 0x72, 0x16, 0x83, 0x1f,
  0x4e, 0x20, 0xf2, 0x19, 0xdd, 0x9a, 0x61, 0x1b, 0xf3, 0xa0, 0x29, 0x1d,
  0x09, 0xa0, 0x95, 0x15, 0x10, 0x9b, 0x30, 0xa2, 0x79, 0x21, 0x96, 0x9d,
  0xc3, 0x8f, 0xea, 0x88, 0xc4, 0x22, 0x81, 0x21, 0xb8, 0x16, 0xa8, 0x1d,
  0xe7, 0x95, 0xf3, 0x9d, 0xda, 0x9d, 0x89, 0x14, 0x69, 0x9c, 0xfe, 0x9c,
  0x20, 0x19, 0xec, 0xa0, 0x7a, 0x8e, 0xcb, 0x10, 0xd2, 0x8f, 0x2e, 0x18,
  0x8c, 0x1a, 0xa3, 0x1f, 0x52, 0x20, 0xaf, 0x1c, 0x6c, 0x1f, 0x4a, 0x9c,
  0x04, 0x96, 0x52, 0xa0, 0xf2, 0xa0, 0x67, 0x17, 0xd9, 0x10, 0xf2, 0xa1,
  0xdb, 0x16, 0x7e, 0x12, 0xa7, 0x9c, 0x58, 0x11, 0xc3, 0x88, 0xd8, 0x1f,
  0x27, 0x20, 0xa2, 0x1c, 0x17, 0x18, 0xe3, 0x97, 0x2d, 0x9b, 0xd5, 0x13,
  0xa8, 0xa0, 0x78, 0xa1, 0x41, 0x14, 0xa1, 0xa3, 0xc9, 0x19, 0xbb, 0x9a,
  0x32, 0xa0, 0x01, 0x1d, 0x1c, 0x98, 0x02, 0x1c, 0xb6, 0x9b, 0x13, 0x20,
  0x7f, 0x1b, 0x2b, 0x0c, 0x13, 0x92, 0x87, 0x96, 0xe9, 0xa0, 0x2a, 0x92,
  0x21, 0x15, 0xa0, 0xa2, 0xaa, 0x20, 0x57, 0x98, 0xd7, 0xa0, 0x78, 0x18,
  0xf5, 0x14, 0x6b, 0x1d, 0xf6, 0x95, 0xeb, 0x21, 0x42, 0x9d, 0x79, 0x94,
  0x73, 0x8d, 0x52, 0x9a, 0xf8, 0x9e, 0xf1, 0x9b, 0x13, 0x18, 0xd4, 0xa1,
  0xe6, 0x16, 0xe8, 0x95, 0x69, 0xa2, 0x23, 0x1b, 0x30, 0x91, 0x65, 0x1d,
  0xa3, 0x11, 0xc3, 0x20, 0xe1, 0x9b, 0xca, 0x19, 0xba, 0x1b, 0xed, 0x9c,
  0xce, 0xa0, 0x7f, 0xa1, 0x07, 0x1d, 0x7f, 0xa2, 0xba, 0x1d, 0xb4, 0x11,
  0x94, 0xa1, 0x0d, 0x1c, 0xf5, 0x15, 0x0b, 0x96, 0x5f, 0x15, 0xa3, 0x9a,
  0x79, 0x9c, 0xc8, 0x8c, 0x97, 0x16, 0x3c, 0xa0, 0xf9, 0x9d, 0xcc, 0x98,
  0x82, 0x1d, 0xf7, 0xa4, 0x06, 0x1c, 0xdc, 0x94, 0x44, 0xa1, 0x01, 0x20,
  0x1c, 0x17, 0x0a, 0x9b, 0x87, 0x19, 0x4f, 0x91, 0xab, 0x1a, 0xd7, 0x96,
  0xd0, 0x1d, 0xaf, 0x98, 0x03, 0xa1, 0xee, 0x17, 0xc1, 0x15, 0x06, 0xa3,
  0x8c, 0x89, 0x78, 0x9a, 0x36, 0xa0, 0x22, 0x23, 0xdc, 0x1f, 0x49, 0x0b,
  0x75, 0x1b, 0xb3, 0x14, 0x12, 0x97, 0x79, 0xa0, 0x1c, 0x1e, 0xab, 0x18,
