unsigned char EEGNET_tfLite_tflite[] = {
  0x1c, 0x00, 0x00, 0x00, 0x54, 0x46, 0x4c, 0x33, 0x14, 0x00, 0x20, 0x00,
  0x1c, 0x00, 0x18, 0x00, 0x14, 0x00, 0x10, 0x00, 0x0c, 0x00, 0x00, 0x00,
  0x08, 0x00, 0x04, 0x00, 0x14, 0x00, 0x00, 0x00, 0x1c, 0x00, 0x00, 0x00,
  0x80, 0x00, 0x00, 0x00, 0xd8, 0x00, 0x00, 0x00, 0x8c, 0x22, 0x00, 0x00,
  0x9c, 0x22, 0x00, 0x00, 0x9c, 0x34, 0x00, 0x00, 0x03, 0x00, 0x00, 0x00,
  0x01, 0x00, 0x00, 0x00, 0x04, 0x00, 0x00, 0x00, 0x5e, 0xd9, 0xff, 0xff,
  0x0c, 0x00, 0x00, 0x00, 0x1c, 0x00, 0x00, 0x00, 0x38, 0x00, 0x00, 0x00,
  0x0f, 0x00, 0x00, 0x00, 0x73, 0x65, 0x72, 0x76, 0x69, 0x6e, 0x67, 0x5f,
  0x64, 0x65, 0x66, 0x61, 0x75, 0x6c, 0x74, 0x00, 0x01, 0x00, 0x00, 0x00,
  0x04, 0x00, 0x00, 0x00, 0x9c, 0xff, 0xff, 0xff, 0x1c, 0x00, 0x00, 0x00,
  0x04, 0x00, 0x00, 0x00, 0x07, 0x00, 0x00, 0x00, 0x73, 0x6f, 0x66, 0x74,
  0x6d, 0x61, 0x78, 0x00, 0x01, 0x00, 0x00, 0x00, 0x04, 0x00, 0x00, 0x00,
  0x2a, 0xdd, 0xff, 0xff, 0x04, 0x00, 0x00, 0x00, 0x07, 0x00, 0x00, 0x00,
  0x69, 0x6e, 0x70, 0x75, 0x74, 0x5f, 0x31, 0x00, 0x02, 0x00, 0x00, 0x00,
  0x34, 0x00, 0x00, 0x00, 0x04, 0x00, 0x00, 0x00, 0xdc, 0xff, 0xff, 0xff,
  0x1f, 0x00, 0x00, 0x00, 0x04, 0x00, 0x00, 0x00, 0x13, 0x00, 0x00, 0x00,
  0x43, 0x4f, 0x4e, 0x56, 0x45, 0x52, 0x53, 0x49, 0x4f, 0x4e, 0x5f, 0x4d,
  0x45, 0x54, 0x41, 0x44, 0x41, 0x54, 0x41, 0x00, 0x08, 0x00, 0x0c, 0x00,
  0x08, 0x00, 0x04, 0x00, 0x08, 0x00, 0x00, 0x00, 0x1e, 0x00, 0x00, 0x00,
  0x04, 0x00, 0x00, 0x00, 0x13, 0x00, 0x00, 0x00, 0x6d, 0x69, 0x6e, 0x5f,
  0x72, 0x75, 0x6e, 0x74, 0x69, 0x6d, 0x65, 0x5f, 0x76, 0x65, 0x72, 0x73,
  0x69, 0x6f, 0x6e, 0x00, 0x20, 0x00, 0x00, 0x00, 0xb0, 0x21, 0x00, 0x00,
  0xa8, 0x21, 0x00, 0x00, 0x58, 0x21, 0x00, 0x00, 0x28, 0x21, 0x00, 0x00,
  0x18, 0x12, 0x00, 0x00, 0xc8, 0x11, 0x00, 0x00, 0xa8, 0x11, 0x00, 0x00,
  0x98, 0x0d, 0x00, 0x00, 0x88, 0x09, 0x00, 0x00, 0x78, 0x05, 0x00, 0x00,
  0x58, 0x05, 0x00, 0x00, 0x38, 0x05, 0x00, 0x00, 0x20, 0x05, 0x00, 0x00,
  0x10, 0x01, 0x00, 0x00, 0x08, 0x01, 0x00, 0x00, 0x00, 0x01, 0x00, 0x00,
  0xf8, 0x00, 0x00, 0x00, 0xf0, 0x00, 0x00, 0x00, 0xe8, 0x00, 0x00, 0x00,
  0xe0, 0x00, 0x00, 0x00, 0xd8, 0x00, 0x00, 0x00, 0xd0, 0x00, 0x00, 0x00,
  0xc8, 0x00, 0x00, 0x00, 0xc0, 0x00, 0x00, 0x00, 0xb8, 0x00, 0x00, 0x00,
  0xb0, 0x00, 0x00, 0x00, 0xa8, 0x00, 0x00, 0x00, 0xa0, 0x00, 0x00, 0x00,
  0x98, 0x00, 0x00, 0x00, 0x90, 0x00, 0x00, 0x00, 0x70, 0x00, 0x00, 0x00,
  0x04, 0x00, 0x00, 0x00, 0x1e, 0xde, 0xff, 0xff, 0x04, 0x00, 0x00, 0x00,
  0x5c, 0x00, 0x00, 0x00, 0x0c, 0x00, 0x00, 0x00, 0x08, 0x00, 0x0e, 0x00,
  0x08, 0x00, 0x04, 0x00, 0x08, 0x00, 0x00, 0x00, 0x14, 0x00, 0x00, 0x00,
  0x2c, 0x00, 0x00, 0x00, 0x00, 0x00, 0x0a, 0x00, 0x0c, 0x00, 0x08, 0x00,
  0x00, 0x00, 0x07, 0x00, 0x0a, 0x00, 0x00, 0x00, 0x00, 0x00, 0x00, 0x01,
  0x04, 0x00, 0x00, 0x00, 0x00, 0x00, 0x00, 0x00, 0x00, 0x00, 0x0a, 0x00,
  0x10, 0x00, 0x0c, 0x00, 0x08, 0x00, 0x04, 0x00, 0x0a, 0x00, 0x00, 0x00,
  0x02, 0x00, 0x00, 0x00, 0x02, 0x00, 0x00, 0x00, 0x04, 0x00, 0x00, 0x00,
  0x06, 0x00, 0x00, 0x00, 0x32, 0x2e, 0x31, 0x32, 0x2e, 0x30, 0x00, 0x00,
  0x86, 0xde, 0xff, 0xff, 0x04, 0x00, 0x00, 0x00, 0x10, 0x00, 0x00, 0x00,
  0x31, 0x2e, 0x31, 0x34, 0x2e, 0x30, 0x00, 0x00, 0x00, 0x00, 0x00, 0x00,
  0x00, 0x00, 0x00, 0x00, 0x74, 0xcd, 0xff, 0xff, 0x78, 0xcd, 0xff, 0xff,
  0x7c, 0xcd, 0xff, 0xff, 0x80, 0xcd, 0xff, 0xff, 0x84, 0xcd, 0xff, 0xff,
  0x88, 0xcd, 0xff, 0xff, 0x8c, 0xcd, 0xff, 0xff, 0x90, 0xcd, 0xff, 0xff,
  0x94, 0xcd, 0xff, 0xff, 0x98, 0xcd, 0xff, 0xff, 0x9c, 0xcd, 0xff, 0xff,
  0xa0, 0xcd, 0xff, 0xff, 0xa4, 0xcd, 0xff, 0xff, 0xa8, 0xcd, 0xff, 0xff,
  0xac, 0xcd, 0xff, 0xff, 0xb0, 0xcd, 0xff, 0xff, 0xe2, 0xde, 0xff, 0xff,
  0x04, 0x00, 0x00, 0x00, 0x00, 0x04, 0x00, 0x00, 0xb4, 0x69, 0xeb, 0x3c,
  0xfe, 0xb6, 0xb2, 0xbc, 0x4e, 0xe9, 0xab, 0xbc, 0x32, 0xa2, 0x3e, 0xbd,
  0xf0, 0x34, 0x2c, 0xbd, 0x69, 0x38, 0xc2, 0x3b, 0xbb, 0x7c, 0xec, 0x3c,
  0x9c, 0x5c, 0xde, 0x3c, 0x72, 0xe1, 0x9b, 0x3c, 0x33, 0x1a, 0x0c, 0x3d,
  0x1f, 0xb2, 0x67, 0xbd, 0xc1, 0xd0, 0x38, 0xbd, 0xb3, 0x4f, 0x17, 0xbd,
  0x8c, 0xb7, 0x1f, 0xbd, 0x64, 0xc4, 0x06, 0xbd, 0xc2, 0x92, 0x50, 0xbd,
  0xca, 0xbb, 0xed, 0xbc, 0xa3, 0xd5, 0xce, 0xbb, 0x7e, 0x2d, 0x9f, 0xbb,
  0xd8, 0x35, 0xc7, 0x3b, 0x45, 0xa8, 0x6b, 0x3c, 0xb6, 0x1b, 0xca, 0xbc,
  0x4e, 0xf1, 0x0b, 0xbd, 0xb6, 0xd4, 0xf6, 0xbc, 0xb2, 0xa2, 0x8f, 0xbc,
  0x65, 0xc9, 0x90, 0xbc, 0x58, 0xc1, 0xf6, 0x3b, 0xb8, 0x39, 0xb5, 0x3b,
  0xaf, 0xff, 0x46, 0xbb, 0xe2, 0x54, 0xdc, 0xb7, 0xbe, 0x34, 0x42, 0x3b,
  0xd5, 0x79, 0x6b, 0x3c, 0x21, 0x4d, 0xa1, 0x3c, 0x32, 0xc8, 0xab, 0x3b,
  0xa6, 0x52, 0xe1, 0xbb, 0x36, 0xe7, 0xe4, 0xbb, 0x73, 0x6d, 0x3f, 0xbc,
  0x57, 0xfb, 0x91, 0x3b, 0xbf, 0x11, 0xc5, 0x3c, 0x67, 0x7b, 0x68, 0x3c,
  0x31, 0xb3, 0xbb, 0x3c, 0xc5, 0x90, 0x33, 0x3c, 0x6a, 0x2c, 0xa6, 0xbc,
  0x47, 0x47, 0x55, 0xbc, 0xce, 0xb6, 0x36, 0xbc, 0x8c, 0x7b, 0x60, 0xbc,
  0x30, 0x6b, 0xd8, 0xbb, 0x04, 0x79, 0x88, 0xbc, 0xb3, 0x75, 0x19, 0xbd,
  0xc0, 0x46, 0x1d, 0xbd, 0x2a, 0xbd, 0x48, 0xbd, 0x3d, 0xce, 0x70, 0x3d,
  0x8d, 0x14, 0x59, 0x3d, 0x18, 0xe8, 0x6b, 0xbd, 0xec, 0xc4, 0x26, 0xbd,
  0x83, 0x25, 0x33, 0xbd, 0x1c, 0x3c, 0x6c, 0xbc, 0xe6, 0x86, 0x19, 0xbd,
  0xc1, 0xb8, 0x57, 0x3d, 0xf2, 0x0e, 0x5d, 0x3d, 0xa3, 0x25, 0x0a, 0xbd,
  0x08, 0xaf, 0x04, 0xbd, 0x90, 0x46, 0x65, 0x3d, 0x57, 0x70, 0x57, 0x3d,
  0x90, 0x20, 0x37, 0x3c, 0x89, 0x2b, 0x4a, 0xbd, 0x3c, 0x0a, 0x3b, 0xbd,
  0x78, 0xf0, 0xa9, 0xbb, 0x65, 0xcb, 0x6e, 0xbc, 0x44, 0xb3, 0xeb, 0xbc,
  0x17, 0x38, 0x2f, 0x3c, 0xcd, 0xd8, 0x76, 0x3c, 0xe6, 0xe8, 0xa6, 0x3c,
  0x8d, 0x9a, 0xae, 0x3b, 0xfe, 0x8a, 0x9e, 0x3b, 0xa2, 0xfe, 0x3e, 0xbb,
  0xa6, 0x1a, 0x16, 0xbd, 0xd3, 0x40, 0x1c, 0xbd, 0xf9, 0xbe, 0x58, 0x3c,
  0xfa, 0x01, 0xcf, 0xbb, 0xa4, 0x4f, 0x3b, 0xbd, 0x25, 0x39, 0x34, 0xbb,
  0xf7, 0xd6, 0x4c, 0x3c, 0x90, 0x35, 0x1d, 0x3c, 0xd9, 0x5c, 0xc7, 0xba,
  0xc3, 0x1d, 0x34, 0xbc, 0xbd, 0x46, 0x0a, 0xbd, 0x52, 0x68, 0x33, 0xbd,
  0xbe, 0x3d, 0x53, 0xbd, 0xdf, 0x41, 0x47, 0xbd, 0xc2, 0x00, 0xbd, 0x3b,
  0xc6, 0xf1, 0x47, 0x3b, 0x86, 0x7e, 0xd8, 0x3b, 0xf5, 0x17, 0x4a, 0x3c,
  0x49, 0xa0, 0x2d, 0xbc, 0xc5, 0x10, 0x37, 0x3b, 0xd1, 0x41, 0x7c, 0x3c,
  0x10, 0x58, 0x38, 0xbc, 0x36, 0x86, 0x84, 0xbc, 0xb6, 0xd4, 0xf5, 0xbb,
  0xe5, 0x60, 0x96, 0xbb, 0x36, 0x00, 0xdd, 0x3b, 0x4a, 0xa4, 0x0f, 0x3c,
  0x00, 0x39, 0x9a, 0x3c, 0x97, 0xa1, 0x5b, 0x3c, 0x96, 0xd8, 0xba, 0x3c,
  0x11, 0x0d, 0xe6, 0x3a, 0x96, 0x29, 0x29, 0x3a, 0x83, 0x4a, 0x39, 0xbc,
  0x23, 0x3d, 0xbe, 0xbc, 0xee, 0x02, 0xca, 0x3a, 0x90, 0x48, 0x43, 0xbb,
  0xba, 0x1d, 0x2e, 0xbd, 0xda, 0x1c, 0x39, 0x3d, 0xee, 0x46, 0x69, 0x3d,
  0x4a, 0x6b, 0x49, 0xbd, 0x6b, 0x31, 0x57, 0xbd, 0x6b, 0x7a, 0x5d, 0x3d,
  0x28, 0x39, 0x0c, 0xbd, 0xdb, 0x3a, 0x3e, 0xbd, 0x9f, 0x10, 0x6f, 0xbd,
  0xae, 0x17, 0x55, 0xbd, 0x7a, 0x5c, 0x51, 0xbd, 0x74, 0xb3, 0x40, 0xbd,
  0x9b, 0xbb, 0x4b, 0x3d, 0xc5, 0xf2, 0x4a, 0x3d, 0x58, 0xe9, 0x62, 0xbd,
  0x9a, 0x22, 0x38, 0xbd, 0xd0, 0x20, 0x85, 0xbd, 0xda, 0x57, 0x48, 0x3d,
  0x12, 0xb7, 0x49, 0x3d, 0xc0, 0x96, 0x1b, 0xbd, 0x40, 0xfd, 0x3b, 0xbd,
  0xa8, 0xe3, 0x3d, 0x3d, 0xe4, 0x8a, 0x8a, 0xbd, 0x38, 0xc9, 0x78, 0xbd,
  0xae, 0x99, 0x8c, 0xbd, 0xeb, 0xf0, 0x8b, 0xbd, 0x88, 0x97, 0x38, 0xbd,
  0x32, 0xcb, 0x2f, 0xbd, 0x9b, 0x17, 0x4b, 0x3d, 0xf0, 0xbf, 0x51, 0x3d,
  0xed, 0xa8, 0x3c, 0xbd, 0x09, 0xd9, 0x10, 0xbd, 0x8f, 0xc6, 0x8e, 0x3c,
  0x21, 0x10, 0xa6, 0x3c, 0xcb, 0x57, 0xf0, 0x3b, 0x97, 0x50, 0xc1, 0xbc,
  0x96, 0x83, 0xff, 0xbc, 0x0d, 0x64, 0xb2, 0x3c, 0xc4, 0x3b, 0x73, 0x3c,
  0x22, 0x5a, 0x86, 0x3c, 0x00, 0x11, 0x81, 0x3c, 0x2f, 0xe5, 0x88, 0x3c,
  0x89, 0xfb, 0xf1, 0xbc, 0x55, 0x8b, 0xc7, 0xbc, 0xf7, 0x32, 0x37, 0x3c,
  0xb6, 0x26, 0xfd, 0x3b, 0xa4, 0x2b, 0x12, 0xbc, 0x6d, 0xb9, 0x15, 0xbd,
  0xca, 0x7c, 0x0e, 0xbd, 0x49, 0x44, 0x82, 0x3b, 0xbf, 0x95, 0xf5, 0x3b,
  0x1e, 0xfc, 0x91, 0x3c, 0x10, 0x3f, 0x92, 0x3c, 0x54, 0x90, 0xba, 0xbb,
  0xce, 0x13, 0xe8, 0xbc, 0x8a, 0x13, 0x1e, 0xbd, 0x10, 0x5f, 0xea, 0xbc,
  0x5b, 0x60, 0xf2, 0xbc, 0x59, 0xf2, 0x4a, 0x3c, 0x94, 0xe1, 0xd6, 0x3b,
  0xef, 0x92, 0x11, 0x3c, 0x30, 0x9f, 0x31, 0x3c, 0xd3, 0x01, 0xa9, 0x3b,
  0xb3, 0x0d, 0x27, 0x3c, 0x96, 0xc5, 0x89, 0x3c, 0x05, 0xd1, 0x13, 0xbb,
  0x8c, 0xf6, 0x2a, 0xbc, 0x0c, 0x56, 0xd6, 0xbc, 0x15, 0x21, 0x8c, 0xbc,
  0xf0, 0xab, 0x23, 0x39, 0x57, 0xe3, 0x81, 0x3c, 0xc2, 0x4d, 0x8d, 0x3c,
  0x8d, 0xbd, 0x56, 0x3c, 0xef, 0xb3, 0x8c, 0x3c, 0x02, 0xd5, 0xbe, 0xbc,
  0xc3, 0x3b, 0xa5, 0xbc, 0xd2, 0xf3, 0x3a, 0xbc, 0x92, 0x86, 0xaf, 0xbc,
  0xff, 0x0d, 0x46, 0xbc, 0xb3, 0xb0, 0xa2, 0xbc, 0xa3, 0xdd, 0x54, 0xbd,
  0xd2, 0x93, 0x10, 0xbd, 0xb5, 0xec, 0x1c, 0xbd, 0x04, 0x58, 0x4b, 0x3d,
  0xd3, 0x14, 0x6c, 0x3d, 0xbe, 0x06, 0x5b, 0xbd, 0x01, 0xd6, 0x4a, 0xbd,
  0xbc, 0xb3, 0x6d, 0xbd, 0x48, 0x38, 0x00, 0xbd, 0xea, 0x45, 0x49, 0xbd,
  0x88, 0xa7, 0x5f, 0x3d, 0x39, 0x65, 0x50, 0x3d, 0x08, 0x28, 0x07, 0xbd,
  0xe9, 0xdf, 0x0a, 0xbd, 0x9d, 0xa3, 0x4c, 0x3d, 0xd3, 0xe0, 0x54, 0x3d,
  0xcd, 0xfe, 0x6e, 0x3c, 0xb4, 0x30, 0x6b, 0xbc, 0x9b, 0x83, 0xa3, 0xbc,
  0x66, 0x3b, 0xd4, 0xb8, 0x52, 0x9f, 0x2e, 0x3c, 0x21, 0xf7, 0xaf, 0xbb,
  0x7a, 0xef, 0x52, 0x3c, 0xfd, 0x4c, 0x82, 0x3c, 0x4d, 0x6b, 0x74, 0x3c,
  0x11, 0xb0, 0x4d, 0x3c, 0x74, 0xe1, 0xf6, 0x3b, 0xca, 0xea, 0x38, 0x3c,
  0xec, 0xeb, 0x9d, 0xbc, 0x77, 0xcd, 0xfc, 0xbc, 0xfd, 0x91, 0x52, 0x3c,
  0x0f, 0xf3, 0xa0, 0x3b, 0xa3, 0x56, 0x3d, 0xbd, 0x67, 0xf1, 0x96, 0x3a,
  0xbb, 0x08, 0x0c, 0x3c, 0x95, 0x75, 0xb6, 0xbb, 0xb4, 0x43, 0xb4, 0xbb,
  0x06, 0x68, 0x3d, 0xbc, 0xce, 0x6e, 0x3f, 0xbd, 0xe0, 0xbd, 0x24, 0xbd,
  0x44, 0x33, 0x3d, 0xbd, 0xdd, 0x52, 0x45, 0xbd, 0xee, 0xd5, 0x01, 0x3b,
  0x5a, 0xf7, 0xce, 0x3b, 0x8f, 0xf0, 0xbc, 0x3b, 0x34, 0x54, 0x44, 0x3c,
  0xff, 0x81, 0x01, 0x3a, 0x1b, 0xbd, 0x7b, 0x3b, 0x63, 0x9e, 0xa4, 0x3c,
  0x15, 0xe0, 0x2c, 0xbd, 0xc1, 0x93, 0x30, 0xbd, 0x68, 0x83, 0x9b, 0xbc,
  0x2e, 0x07, 0x3e, 0xbc, 0x24, 0x33, 0xfe, 0xbc, 0x8a, 0x28, 0xad, 0x3c,
  0xa9, 0x93, 0xd3, 0x3c, 0xa6, 0x65, 0xd2, 0x3c, 0x93, 0x24, 0xc3, 0x3c,
  0x02, 0x88, 0x20, 0xbb, 0xea, 0x4a, 0x83, 0xbc, 0x60, 0x10, 0x3d, 0xbd,
  0x0a, 0xfe, 0x18, 0xbd, 0x61, 0x9f, 0x98, 0xbb, 0x05, 0xe0, 0x6e, 0xbc,
  0xee, 0xe2, 0xff, 0xff, 0x04, 0x00, 0x00, 0x00, 0x08, 0x00, 0x00, 0x00,
  0xff, 0xff, 0xff, 0xff, 0x40, 0x00, 0x00, 0x00, 0x02, 0xe3, 0xff, 0xff,
  0x04, 0x00, 0x00, 0x00, 0x10, 0x00, 0x00, 0x00, 0x00, 0x00, 0x00, 0x00,
  0x02, 0x00, 0x00, 0x00, 0x03, 0x00, 0x00, 0x00, 0x01, 0x00, 0x00, 0x00,
  0x1e, 0xe3, 0xff, 0xff, 0x04, 0x00, 0x00, 0x00, 0x10, 0x00, 0x00, 0x00,
  0x1f, 0xb6, 0xf1, 0xbd, 0xe7, 0xd5, 0xd4, 0x3d, 0x7b, 0x7e, 0x3f, 0x3c,
  0x5a, 0x0b, 0x89, 0xbb, 0x3a, 0xe3, 0xff, 0xff, 0x04, 0x00, 0x00, 0x00,
  0x00, 0x04, 0x00, 0x00, 0xd4, 0xde, 0x85, 0xbc, 0xc5, 0x65, 0x5e, 0x3d,
  0xd4, 0x06, 0x78, 0xbd, 0x7e, 0x41, 0x89, 0x3c, 0x6b, 0xe0, 0x3f, 0x3d,
  0x6a, 0xc8, 0xe3, 0x3d, 0x54, 0x08, 0x80, 0xbd, 0xd6, 0xa3, 0x8a, 0xbe,
  0xdc, 0x8c, 0x93, 0x3c, 0x6e, 0x9c, 0xaf, 0xbd, 0x1e, 0x6e, 0x54, 0x3a,
  0xa5, 0x80, 0x0d, 0x3e, 0xac, 0x55, 0x82, 0x3d, 0x33, 0xb1, 0xb6, 0xbc,
  0xbd, 0xb7, 0x87, 0xbe, 0x89, 0x82, 0x12, 0xbe, 0x5d, 0x9f, 0x41, 0x3d,
  0x2c, 0x1e, 0xe7, 0x3d, 0x75, 0x2f, 0xfc, 0xbd, 0x30, 0x47, 0xb6, 0x3d,
  0x96, 0xe5, 0x86, 0x3d, 0xf5, 0x93, 0x2d, 0x3e, 0x3d, 0x36, 0x9c, 0xbc,
  0x7c, 0x09, 0x63, 0xbe, 0x2d, 0x55, 0x60, 0xbd, 0x51, 0xf3, 0x8b, 0xbd,
  0xce, 0xbf, 0xe2, 0xbc, 0x9b, 0xfa, 0x2e, 0x3e, 0x60, 0x4b, 0x0f, 0x3c,
  0xac, 0x31, 0x8d, 0xba, 0x4e, 0x09, 0x5d, 0xbe, 0xfe, 0x98, 0xc3, 0xbc,
  0x90, 0xa0, 0xdf, 0x3d, 0xce, 0xcb, 0x13, 0x3e, 0xdb, 0x5d, 0x20, 0xbe,
  0x51, 0x40, 0x2b, 0x3e, 0xdf, 0x9a, 0xdd, 0x3d, 0x44, 0x64, 0x4b, 0x3e,
  0xa3, 0xaf, 0x0d, 0x3c, 0xf7, 0xb9, 0x1b, 0xbe, 0xbc, 0x0b, 0xad, 0xbd,
  0x39, 0xa0, 0xac, 0xbd, 0x0d, 0x1f, 0x8b, 0xbb, 0x30, 0x40, 0x2a, 0x3e,
  0x9d, 0x06, 0x73, 0x3c, 0xec, 0xdf, 0x89, 0x3c, 0x9a, 0xa5, 0x1f, 0xbe,
  0xdf, 0xdb, 0xf3, 0x3c, 0x74, 0xb7, 0x1b, 0x3e, 0x09, 0x19, 0x13, 0x3e,
  0x72, 0x87, 0x29, 0xbe, 0xbb, 0x37, 0x37, 0x3e, 0x25, 0x49, 0x0a, 0x3e,
  0x6e, 0x1f, 0x3c, 0x3e, 0x29, 0x49, 0x13, 0x3d, 0x8b, 0x2f, 0xff, 0xbd,
  0x0b, 0x67, 0x5a, 0xbd, 0xc8, 0x2e, 0x7e, 0xbd, 0xb6, 0xeb, 0x2e, 0x3c,
  0x21, 0xd8, 0xdc, 0x3d, 0xbb, 0xc8, 0x92, 0x3d, 0xb2, 0x57, 0x54, 0x3d,
  0x44, 0x24, 0xf4, 0xbd, 0xf9, 0xf6, 0xaf, 0x3d, 0xa5, 0x99, 0x04, 0x3e,
  0x4c, 0xf2, 0xfe, 0x3d, 0x33, 0x0b, 0x2b, 0xbe, 0x93, 0x59, 0x28, 0x3e,
  0xd8, 0xac, 0x1e, 0x3e, 0xa8, 0xf7, 0xe1, 0x3d, 0x8c, 0x95, 0xe9, 0x3c,
  0xa4, 0x58, 0xe8, 0xbd, 0x89, 0x76, 0x01, 0xbc, 0xcf, 0x1d, 0xd8, 0xbc,
  0x12, 0x9f, 0x94, 0x3c, 0xd3, 0x91, 0xbe, 0x3d, 0x7a, 0x5d, 0xd3, 0x3d,
  0x68, 0x58, 0xcd, 0x3d, 0xbb, 0xef, 0x7b, 0x3b, 0x3f, 0x26, 0xe8, 0x3d,
  0xfc, 0xc3, 0xcc, 0x3d, 0x75, 0x56, 0xc1, 0x3d, 0xf4, 0xf0, 0x0f, 0xbe,
  0x1d, 0x20, 0x0c, 0x3e, 0x94, 0xcd, 0x2b, 0x3e, 0x28, 0xa2, 0x0e, 0x3e,
  0x28, 0x7b, 0x33, 0xb8, 0xf2, 0x9c, 0xda, 0xbd, 0x1f, 0xae, 0xd1, 0x3b,
  0x79, 0xad, 0x44, 0x3c, 0x19, 0xf0, 0x8a, 0x3d, 0x9f, 0x7a, 0x1a, 0x3e,
  0xea, 0x78, 0x05, 0x3e, 0x22, 0x47, 0x11, 0x3e, 0x0b, 0xb2, 0x2e, 0x3d,
  0x92, 0x11, 0xb7, 0x3d, 0x6d, 0xc7, 0xe2, 0x3d, 0x47, 0x4d, 0xd1, 0x3d,
  0x39, 0x74, 0xe0, 0xbd, 0xf7, 0x34, 0xfb, 0x3d, 0xa6, 0x39, 0x2b, 0x3e,
  0x69, 0xea, 0x07, 0x3e, 0xcb, 0x3c, 0x09, 0xbd, 0x83, 0xa8, 0x97, 0xbd,
  0x27, 0xdf, 0x13, 0xbd, 0x7a, 0xd3, 0xb2, 0x3c, 0x8e, 0xc2, 0xc1, 0x3a,
  0x74, 0x94, 0x27, 0x3e, 0x2d, 0xfa, 0x0a, 0x3e, 0xa2, 0xd0, 0x36, 0x3e,
  0x91, 0x1c, 0xc1, 0xbc, 0x3d, 0xdb, 0x23, 0x3d, 0xee, 0x7c, 0x09, 0x3e,
  0xd9, 0xbb, 0xc7, 0x3d, 0x8c, 0xbb, 0xab, 0xbd, 0x3d, 0xad, 0x07, 0x3e,
  0xa2, 0x17, 0x1a, 0x3e, 0x57, 0x4c, 0x12, 0x3e, 0xe2, 0x2d, 0x97, 0xbd,
  0x96, 0x7f, 0x48, 0xbd, 0x83, 0x25, 0x62, 0xbd, 0x54, 0xca, 0x99, 0x3c,
  0xad, 0xed, 0x23, 0x3d, 0x3a, 0xdd, 0x32, 0x3e, 0xd6, 0x37, 0xf2, 0x3d,
  0x35, 0xd9, 0x30, 0x3e, 0x1d, 0x05, 0xd0, 0x3c, 0x63, 0x53, 0xa3, 0x3c,
  0x60, 0xa7, 0x08, 0x3e, 0x35, 0x8d, 0x8c, 0x3d, 0x80, 0xaa, 0xa2, 0xbd,
  0xc4, 0x4e, 0x10, 0x3e, 0x13, 0x5e, 0x38, 0x3e, 0xbf, 0xed, 0x2a, 0x3e,
  0x91, 0xaa, 0xde, 0xbd, 0x2b, 0xe0, 0x51, 0x3c, 0x35, 0x93, 0x3f, 0xbd,
  0x38, 0x08, 0x9e, 0x3d, 0x7b, 0x30, 0x48, 0x3d, 0x6b, 0xe0, 0x5c, 0x3d,
  0x23, 0x7a, 0x01, 0x3e, 0xbc, 0x93, 0x5d, 0x3e, 0xf5, 0x96, 0xdd, 0x3d,
  0x00, 0x3a, 0x50, 0x3d, 0xa6, 0x77, 0xbf, 0x3d, 0xe6, 0xe9, 0xf5, 0x3c,
  0xd8, 0xc3, 0x36, 0xbd, 0x5d, 0x83, 0xec, 0x3d, 0xd5, 0xb5, 0x54, 0x3e,
  0x73, 0x28, 0x29, 0x3e, 0x36, 0x5b, 0x0c, 0xbe, 0xec, 0xce, 0x29, 0x3d,
  0xd7, 0xfa, 0x0e, 0xbd, 0xf3, 0x40, 0x27, 0x3e, 0xd0, 0xae, 0x95, 0x3d,
  0x81, 0x8a, 0x43, 0xbd, 0xa3, 0x68, 0x52, 0x3e, 0x25, 0xab, 0x67, 0x3e,
  0x57, 0x1a, 0xf0, 0x3d, 0xaf, 0xba, 0xa7, 0x3d, 0x30, 0xc3, 0x48, 0x3d,
  0x2e, 0xe7, 0xcf, 0xbc, 0x92, 0x70, 0x39, 0xbd, 0x36, 0x28, 0x52, 0x3d,
  0x62, 0x01, 0x4e, 0x3e, 0x9f, 0xc2, 0x0d, 0x3e, 0x91, 0xcd, 0x31, 0xbe,
  0xcc, 0x68, 0x2e, 0x3d, 0x4b, 0xd4, 0xa2, 0xbc, 0xcc, 0x71, 0x29, 0x3e,
  0xbf, 0xdc, 0xa9, 0x3d, 0x61, 0x3a, 0x7a, 0xbd, 0x10, 0x13, 0x7c, 0x3e,
  0x9c, 0xae, 0x64, 0x3e, 0xa0, 0x57, 0x11, 0x3e, 0x5d, 0xf0, 0xb0, 0x3d,
  0x50, 0xff, 0x3f, 0xba, 0x35, 0x7d, 0x45, 0xbd, 0xf9, 0x4b, 0x36, 0xbd,
  0xee, 0xc6, 0x72, 0x3c, 0x7c, 0xfe, 0x29, 0x3e, 0x6d, 0x85, 0xbd, 0x3d,
  0xad, 0x03, 0x66, 0xbe, 0xb9, 0x79, 0x69, 0x3d, 0xf4, 0xf8, 0x0d, 0xbd,
  0xa8, 0x51, 0x21, 0x3e, 0xbd, 0x42, 0x5f, 0x3d, 0xcd, 0x8c, 0x5c, 0x3b,
  0x1a, 0xd1, 0x46, 0x3e, 0xdd, 0xa7, 0x4f, 0x3e, 0x81, 0x61, 0x17, 0x3e,
  0x25, 0x80, 0x7d, 0x3d, 0x7a, 0x9c, 0xba, 0xbb, 0xbb, 0xd7, 0x32, 0xbd,
  0x7b, 0x50, 0x8e, 0xbc, 0x0b, 0xcd, 0x99, 0xbc, 0xeb, 0xe9, 0x20, 0x3e,
  0xb1, 0x4f, 0x22, 0x3e, 0x8d, 0x64, 0x68, 0xbe, 0x7d, 0x08, 0x9f, 0x3d,
  0xd3, 0x99, 0x82, 0xbd, 0xe7, 0xdd, 0x0e, 0x3e, 0x02, 0x7b, 0x3d, 0x3d,
  0x57, 0x9d, 0xe0, 0x3d, 0x13, 0x82, 0x23, 0x3e, 0x88, 0x74, 0x40, 0x3e,
  0x65, 0x1e, 0x88, 0x3d, 0x65, 0x99, 0x76, 0x3d, 0x45, 0x17, 0x0a, 0x3d,
  0x37, 0x59, 0xa2, 0xbc, 0xdc, 0x2d, 0x38, 0xbd, 0xb4, 0xf8, 0x18, 0x3c,
  0xf5, 0x9c, 0x0f, 0x3e, 0xf8, 0x48, 0xf6, 0x3d, 0xa8, 0x40, 0x4b, 0xbe,
  0x2d, 0x9f, 0x9f, 0x3d, 0x2d, 0xce, 0x9c, 0xbd, 0x76, 0x92, 0x9f, 0x3d,
  0x28, 0xbd, 0x11, 0x3c, 0x01, 0x00, 0x62, 0x3d, 0x8e, 0xac, 0xda, 0x3d,
  0x30, 0xb1, 0x13, 0x3e, 0xa3, 0x78, 0x2c, 0xbc, 0x0a, 0x68, 0x43, 0x3d,
  0x8d, 0xcd, 0x78, 0xbc, 0x4f, 0x5a, 0x47, 0xbd, 0xba, 0xb7, 0x45, 0xbd,
  0x91, 0xb8, 0x9b, 0xbc, 0x49, 0x18, 0x18, 0x3e, 0xfb, 0xbc, 0xd1, 0x3d,
  0xbc, 0x7f, 0x37, 0xbe, 0xf2, 0x86, 0x9c, 0x3d, 0xd9, 0xda, 0xc1, 0xbc,
  0x51, 0xc7, 0x8d, 0x3d, 0xed, 0x20, 0x0b, 0x3d, 0xff, 0x36, 0xd1, 0x3c,
  0x68, 0x0d, 0xb2, 0x3d, 0x97, 0x90, 0xe1, 0x3d, 0xa3, 0x81, 0x7b, 0x3d,
  0x4a, 0xa3, 0x53, 0x3d, 0xdd, 0x3a, 0xf9, 0xbd, 0x16, 0xd9, 0xde, 0xbd,
  0x9e, 0xee, 0x0e, 0xbb, 0x71, 0x65, 0xc3, 0xbd, 0x00, 0xe1, 0x2c, 0x3e,
  0x0d, 0x24, 0x82, 0x3d, 0x04, 0xdf, 0x3a, 0xbe, 0xa0, 0xa8, 0xb0, 0x3d,
  0x18, 0x5e, 0xf3, 0xba, 0xde, 0x14, 0xa0, 0x3d, 0x47, 0x61, 0xbe, 0x3b,
  0xd4, 0x44, 0xac, 0xbc, 0x29, 0x2f, 0xd3, 0x3d, 0x3d, 0x89, 0xf4, 0x3d,
  0x3e, 0xd4, 0x91, 0x3c, 0x4a, 0x12, 0x42, 0x3d, 0x46, 0xe7, 0xff, 0xff,
  0x04, 0x00, 0x00, 0x00, 0x00, 0x04, 0x00, 0x00, 0x50, 0xcc, 0xe7, 0x3f,
  0x3c, 0x46, 0xcf, 0x3f, 0xb3, 0x9e, 0xaa, 0xbf, 0xea, 0x29, 0xb0, 0x3f,
  0x8a, 0x2f, 0x92, 0xbe, 0xda, 0x8a, 0xde, 0xbe, 0x27, 0x21, 0x6c, 0x3e,
  0xd0, 0x55, 0xb7, 0xbf, 0x37, 0x84, 0x73, 0xbf, 0xd8, 0x61, 0x02, 0xbf,
  0x0d, 0x63, 0x07, 0x3f, 0xd7, 0x10, 0xc4, 0xbe, 0x42, 0xd5, 0xfe, 0xbe,
  0xd6, 0x7d, 0x24, 0xbf, 0x9c, 0xcf, 0xe0, 0x3f, 0x32, 0xd0, 0xba, 0xbf,
  0x08, 0x6a, 0xc6, 0xbe, 0x80, 0xe1, 0xd1, 0xbe, 0x8d, 0x42, 0x00, 0x3f,
  0x86, 0x29, 0xb3, 0xbd, 0x78, 0x2d, 0x3e, 0xbf, 0xf7, 0xc5, 0x9c, 0x3f,
  0x0a, 0x3d, 0xd2, 0xbf, 0xd2, 0x4c, 0xa2, 0x3e, 0x11, 0x12, 0x6c, 0x3f,
  0x8c, 0x1f, 0x8e, 0xbe, 0x9d, 0xfc, 0xa8, 0x3e, 0x9d, 0xbc, 0xd1, 0x3f,
  0x2a, 0x64, 0xa9, 0x3f, 0x55, 0xf5, 0x24, 0xbf, 0x65, 0x45, 0x2a, 0xbf,
  0xe5, 0x4d, 0x46, 0x3f, 0x9d, 0x7a, 0x19, 0xbf, 0x73, 0xee, 0x15, 0xbf,
  0x0b, 0x3a, 0x35, 0x3f, 0xc0, 0x63, 0xef, 0xbd, 0x70, 0x13, 0x4b, 0xbf,
  0xa0, 0x46, 0x83, 0x3f, 0x93, 0xb3, 0xd8, 0xbf, 0xcb, 0x49, 0x04, 0x3f,
  0x94, 0x28, 0x36, 0x3f, 0xcd, 0x07, 0x24, 0xbe, 0x6d, 0xe8, 0x21, 0x3f,
  0xc3, 0x3a, 0x91, 0x3f, 0x6d, 0x6e, 0xab, 0x3f, 0x65, 0x51, 0x3c, 0xbf,
  0x23, 0xb0, 0x98, 0xbf, 0x37, 0x90, 0xbd, 0x3e, 0xe9, 0xab, 0x49, 0xbf,
  0x11, 0xa2, 0x17, 0xbf, 0x53, 0x93, 0xb4, 0xbd, 0x43, 0x9f, 0x6d, 0xbf,
  0x7c, 0x24, 0xad, 0x3f, 0xfc, 0xe2, 0x60, 0xbf, 0x92, 0x5b, 0x5c, 0x3f,
  0x24, 0xd2, 0x09, 0x3f, 0xdd, 0xd2, 0x85, 0xbf, 0xe8, 0x36, 0x74, 0x3f,
  0xdf, 0x30, 0x54, 0xbf, 0x7b, 0xa0, 0x0f, 0xbf, 0x37, 0x1a, 0x31, 0xbf,
  0xc7, 0x89, 0xbf, 0x3f, 0x80, 0x49, 0xd5, 0xbd, 0x6a, 0x9d, 0x03, 0x3f,
  0x47, 0xb0, 0xc5, 0xbe, 0x14, 0x84, 0x5a, 0xbf, 0x7e, 0x21, 0xdc, 0xbd,
  0x93, 0x12, 0x67, 0xbf, 0x76, 0x8f, 0xb3, 0x3f, 0x28, 0x54, 0x5c, 0xbf,
  0x70, 0x0c, 0x5c, 0x3f, 0x1d, 0x28, 0xd1, 0x3e, 0xe1, 0xc9, 0xb3, 0x3d,
  0xdb, 0x24, 0xc8, 0x3f, 0xde, 0xe4, 0x8c, 0x3e, 0xcb, 0x01, 0x4e, 0xbf,
  0x33, 0x36, 0x14, 0xbf, 0xe3, 0x6f, 0xb5, 0x3f, 0xc1, 0x89, 0x90, 0x3e,
  0xd0, 0x9b, 0x31, 0x3f, 0x2f, 0x05, 0xbc, 0xbd, 0x2c, 0x78, 0x48, 0xbe,
  0xb7, 0x14, 0x9e, 0x3e, 0x6e, 0x61, 0x70, 0x3f, 0x9c, 0x17, 0x44, 0xbf,
  0xb1, 0xf6, 0xc9, 0x3f, 0x2b, 0xaa, 0xd0, 0xbf, 0xec, 0x53, 0x4d, 0x3d,
  0x68, 0xed, 0x7e, 0x3e, 0x59, 0x1f, 0x54, 0xbf, 0x49, 0xca, 0x4b, 0xbf,
  0x51, 0xfb, 0x95, 0x3f, 0x53, 0x68, 0xa1, 0x3f, 0x33, 0x26, 0x86, 0xbf,
  0x57, 0x4c, 0x34, 0xbf, 0xb1, 0x95, 0x06, 0xbf, 0x61, 0x5b, 0xb2, 0x3f,
  0x9b, 0xe9, 0xb9, 0x3f, 0xab, 0xbc, 0x93, 0xbf, 0xfb, 0x8a, 0xeb, 0x3f,
  0xd1, 0x61, 0xaf, 0xbe, 0x33, 0x6d, 0xd2, 0xbe, 0x87, 0xae, 0x07, 0x3e,
  0x26, 0x9c, 0xbd, 0xbf, 0x2d, 0x6d, 0xbb, 0xbf, 0xdc, 0x53, 0x51, 0xbf,
  0x88, 0x94, 0x72, 0x3c, 0x85, 0x50, 0xdf, 0xbe, 0x5e, 0x01, 0x0d, 0xbf,
  0x6e, 0xa4, 0x11, 0xbf, 0xc0, 0xb4, 0x9d, 0x3f, 0x58, 0x04, 0xe7, 0xbf,
  0x00, 0x3b, 0xdd, 0x3f, 0x57, 0x20, 0xe4, 0x3f, 0x23, 0xaa, 0x97, 0xbf,
  0x44, 0x88, 0xb5, 0x3f, 0x3a, 0x14, 0xca, 0xbe, 0x19, 0x2c, 0xf8, 0xbe,
  0xcd, 0x9a, 0x95, 0x3e, 0x83, 0x89, 0xa2, 0xbf, 0x75, 0xfa, 0x32, 0xbf,
  0x9c, 0x98, 0x79, 0xbf, 0xa7, 0xcf, 0xc1, 0xbf, 0x5d, 0xcd, 0x97, 0xbe,
  0x27, 0xed, 0x0c, 0xbf, 0xd2, 0x01, 0x1b, 0xbf, 0xd4, 0xc3, 0xcd, 0x3f,
  0xbd, 0x29, 0xc5, 0xbf, 0x15, 0x66, 0xe1, 0x3f, 0x3e, 0x24, 0xe2, 0x3f,
  0x1d, 0x43, 0xf7, 0xbf, 0x74, 0x8a, 0x16, 0x3f, 0xe0, 0xea, 0x02, 0xbd,
  0x8f, 0x81, 0x1d, 0xbf, 0x28, 0xc4, 0x02, 0x3f, 0xfe, 0x1b, 0xb3, 0xbf,
  0xfd, 0xf5, 0x5a, 0xbe, 0x6d, 0xd0, 0x6f, 0xbe, 0xa0, 0x03, 0x95, 0x3e,
  0x9f, 0x21, 0x41, 0xbf, 0x03, 0x8e, 0x05, 0xbf, 0x14, 0x7c, 0x4a, 0xbe,
  0x5f, 0x92, 0x14, 0x40, 0xb1, 0x73, 0x10, 0xbf, 0x7a, 0x84, 0xf5, 0x3f,
  0xb6, 0x50, 0xf1, 0x3f, 0x7d, 0xda, 0xb6, 0xbf, 0xc6, 0x0b, 0x8b, 0x3f,
  0xd3, 0x20, 0xba, 0xbe, 0x84, 0x23, 0xd0, 0xbe, 0x3e, 0x73, 0x90, 0x3e,
  0xd2, 0x38, 0xb6, 0xbf, 0xe0, 0x5f, 0xb0, 0xbe, 0x53, 0x8f, 0x02, 0xbf,
  0x0f, 0x2b, 0xeb, 0xbf, 0x2c, 0xfd, 0xdd, 0xbe, 0x69, 0x6b, 0x03, 0xbf,
  0x84, 0xca, 0x04, 0xbf, 0xcc, 0xc4, 0x09, 0x40, 0x77, 0x89, 0x6e, 0xbf,
  0xcd, 0xb1, 0xee, 0xbe, 0xce, 0x32, 0xed, 0xbe, 0xd7, 0x5a, 0xef, 0xbe,
  0xe2, 0x79, 0xb9, 0xbf, 0x80, 0x74, 0x95, 0x3f, 0x92, 0xe0, 0x6a, 0xbf,
  0x4d, 0x0c, 0x80, 0x3f, 0x86, 0x04, 0x0f, 0x3f, 0x68, 0x6f, 0x03, 0x3e,
  0xe6, 0xfa, 0xdf, 0x3f, 0xa7, 0x7e, 0x2e, 0x3f, 0xd4, 0x55, 0x69, 0xbf,
  0x1b, 0x1a, 0x1b, 0xbf, 0x2a, 0xd3, 0xaf, 0x3f, 0xd2, 0x62, 0xbb, 0x3e,
  0x4b, 0x0e, 0x27, 0x3f, 0x27, 0x4b, 0x71, 0xbf, 0x95, 0x9d, 0xe1, 0xbe,
  0x5e, 0x12, 0xf1, 0xbc, 0xdc, 0x26, 0x30, 0xbf, 0xab, 0xa4, 0xca, 0x3f,
  0x03, 0x93, 0x25, 0xbf, 0xb0, 0x05, 0x4d, 0x3f, 0x8e, 0x9f, 0x60, 0x3e,
  0x73, 0xe5, 0x7e, 0xbf, 0xd6, 0x2f, 0x74, 0x3f, 0xc5, 0x04, 0x07, 0xbf,
  0x14, 0xd4, 0x2e, 0xbf, 0x71, 0xde, 0x09, 0xbf, 0xf7, 0x9a, 0xb6, 0x3f,
  0x84, 0x32, 0x1b, 0xbe, 0xf0, 0x70, 0x9d, 0xbd, 0x2d, 0x88, 0x49, 0xbf,
  0xf8, 0x5d, 0x4c, 0xbf, 0x95, 0x3a, 0x7b, 0x3f, 0x37, 0x5a, 0xc6, 0x3d,
  0x54, 0x94, 0x48, 0xbf, 0x73, 0xb5, 0xa0, 0x3f, 0x77, 0x3c, 0xb2, 0xbf,
  0x67, 0x1b, 0xfc, 0x3e, 0xf1, 0xdf, 0xb9, 0x3f, 0x4a, 0xab, 0x8f, 0x3e,
  0x8a, 0x4b, 0xba, 0x3f, 0x4f, 0x4e, 0xcf, 0x3f, 0x3f, 0x10, 0xb5, 0x3f,
  0xb0, 0x9c, 0x58, 0xbf, 0xd7, 0x3b, 0x92, 0xbf, 0x3f, 0x5b, 0xde, 0x3e,
  0x2a, 0xb9, 0x04, 0xbf, 0x75, 0xe5, 0x87, 0xbf, 0x10, 0x98, 0x37, 0x3f,
  0xbe, 0x93, 0x03, 0xbf, 0x22, 0x93, 0x37, 0xbf, 0x08, 0x8d, 0x91, 0x3f,
  0xc5, 0xb1, 0x9e, 0xbf, 0x09, 0xa0, 0x2b, 0x3f, 0x7a, 0x41, 0xc7, 0x3f,
  0xe1, 0xcc, 0xe0, 0x3d, 0x7f, 0x80, 0xcc, 0x3f, 0x48, 0xf5, 0xed, 0x3f,
  0x46, 0x0b, 0xbb, 0x3f, 0x52, 0xc2, 0x65, 0xbf, 0x28, 0xc8, 0x9c, 0xbf,
  0xcd, 0x27, 0x8c, 0x3f, 0xd2, 0xa0, 0x94, 0xbe, 0x81, 0x1d, 0x19, 0xbe,
  0x23, 0xab, 0x06, 0xbf, 0xed, 0x76, 0x4b, 0xbf, 0x3b, 0x69, 0xcb, 0x3f,
  0xc2, 0x4a, 0x42, 0xbf, 0xbe, 0xb3, 0x58, 0x3f, 0x84, 0x0c, 0x39, 0x3e,
  0x4d, 0x12, 0xcf, 0x3e, 0x77, 0xbc, 0x25, 0x3f, 0x61, 0x8d, 0xd3, 0xbf,
  0x32, 0x0c, 0xb2, 0xbf, 0xe2, 0x2f, 0x2f, 0xbf, 0xe5, 0x83, 0xbe, 0x3f,
  0xd5, 0x8d, 0x78, 0x3f, 0xe1, 0xe1, 0x37, 0x3f, 0x19, 0x69, 0x1c, 0xbf,
  0xf2, 0x3d, 0x6d, 0xbf, 0xa7, 0xa2, 0x09, 0xbe, 0xc7, 0x47, 0x83, 0xbf,
  0x22, 0xca, 0x9d, 0x3f, 0x09, 0x67, 0x49, 0xbf, 0xdf, 0x61, 0x79, 0x3f,
  0xac, 0xa2, 0x0d, 0x3f, 0xe0, 0x44, 0xf2, 0x3e, 0xe6, 0xf5, 0xdc, 0x3f,
  0x4f, 0xa7, 0x08, 0xbf, 0x3b, 0xc2, 0x5c, 0xbf, 0xf7, 0x14, 0x41, 0xbf,
  0x70, 0xba, 0xc8, 0x3f, 0x6d, 0x4a, 0x52, 0x3e, 0x99, 0x7c, 0x90, 0x3f,
  0x52, 0xeb, 0xff, 0xff, 0x04, 0x00, 0x00, 0x00, 0x00, 0x04, 0x00, 0x00,
  0xbd, 0x7d, 0xfa, 0xbf, 0x6d, 0x5e, 0x16, 0xc0, 0x8a, 0x86, 0xb7, 0xc0,
  0x13, 0x8a, 0x0b, 0x40, 0xa2, 0x8d, 0xaa, 0xc0, 0xac, 0xa1, 0x40, 0x3e,
  0x70, 0x7e, 0x81, 0xc0, 0x25, 0xb5, 0x09, 0x40, 0xf3, 0x48, 0x71, 0x3f,
  0xf2, 0x04, 0xd3, 0x3e, 0x1d, 0x2a, 0x12, 0xc0, 0x55, 0xc7, 0x0f, 0x40,
  0x98, 0xd6, 0x51, 0xc0, 0x3d, 0xcb, 0x11, 0xc0, 0x3d, 0xba, 0xcf, 0xbe,
  0x38, 0xf8, 0x8d, 0xc0, 0x1e, 0xaf, 0x80, 0xc0, 0x72, 0x51, 0x14, 0xc0,
  0xca, 0x4b, 0xa3, 0xc0, 0x04, 0x45, 0x5c, 0xc0, 0x5e, 0x33, 0x9a, 0xc0,
  0xe0, 0x22, 0x05, 0xc1, 0x30, 0xb7, 0xc8, 0xbf, 0x70, 0xd6, 0xf8, 0xc0,
  0x10, 0x2a, 0x85, 0xc0, 0xe5, 0x6c, 0x86, 0xc0, 0xa5, 0x56, 0xf6, 0xc0,
  0x1e, 0xbb, 0xb0, 0xc0, 0x8e, 0x33, 0xb4, 0xc0, 0xbd, 0x67, 0x72, 0xbf,
  0xb9, 0xfc, 0xa9, 0xc0, 0x67, 0x96, 0x00, 0xc1, 0xa4, 0xce, 0x1e, 0x40,
  0xd7, 0xb7, 0x97, 0xbe, 0x4f, 0x35, 0xcb, 0x3f, 0xca, 0xb6, 0x22, 0x3f,
  0x06, 0xb0, 0x3d, 0x3f, 0x71, 0x15, 0x12, 0x40, 0xfd, 0x91, 0x1f, 0xbe,
  0x78, 0x27, 0x16, 0x40, 0xd8, 0x8e, 0xb5, 0xbf, 0xaa, 0x86, 0x4d, 0x40,
  0x31, 0x86, 0x50, 0x40, 0x54, 0x7d, 0x30, 0x3d, 0xb3, 0x85, 0xa3, 0x40,
  0x2c, 0x01, 0x0b, 0x40, 0x09, 0xf6, 0x52, 0xbf, 0xf4, 0x48, 0xb4, 0x40,
  0x4a, 0xa1, 0xba, 0x40, 0x26, 0x71, 0x4e, 0x3f, 0x9d, 0x91, 0xcf, 0x3f,
  0x3f, 0x40, 0xf0, 0x40, 0x31, 0xa0, 0x9a, 0x3f, 0x55, 0xa2, 0xfb, 0x40,
  0xec, 0xf1, 0xbc, 0x40, 0x14, 0xf3, 0x2e, 0xbf, 0xa5, 0x32, 0xa6, 0x40,
  0xeb, 0xf3, 0x80, 0x3f, 0x69, 0xf9, 0xd0, 0x40, 0xab, 0xf6, 0x30, 0x40,
  0xe0, 0xdc, 0xac, 0x40, 0xd9, 0x36, 0x95, 0xc0, 0xe1, 0x0b, 0xac, 0x40,
  0xa8, 0x64, 0xc1, 0x40, 0xfa, 0x31, 0xc6, 0x40, 0x80, 0xba, 0x34, 0x41,
  0x5f, 0x20, 0x0a, 0x41, 0x00, 0x55, 0xea, 0x40, 0xa0, 0x8c, 0x71, 0xc0,
  0x21, 0x77, 0x00, 0x41, 0x3a, 0xc0, 0x87, 0xbf, 0x72, 0xef, 0x43, 0x3f,
  0xff, 0x40, 0x1b, 0x3f, 0x89, 0x1e, 0x9d, 0xc0, 0x19, 0xae, 0x61, 0x40,
  0xc2, 0xc6, 0xc1, 0xc0, 0x4b, 0xb5, 0x11, 0x3f, 0x03, 0x8a, 0xef, 0xc0,
  0x92, 0xde, 0x39, 0xc1, 0xc9, 0xc4, 0xd3, 0xc0, 0x6a, 0x19, 0x0f, 0xc1,
  0x30, 0xb4, 0xd4, 0xc0, 0xe5, 0xb2, 0x30, 0xc1, 0x04, 0x9e, 0x29, 0xc0,
  0x62, 0x6f, 0x3d, 0xc0, 0xce, 0x52, 0x0c, 0xc1, 0xa2, 0x04, 0x21, 0x3f,
  0x07, 0x4c, 0x0f, 0xc0, 0x24, 0x6b, 0xd0, 0xbf, 0x2b, 0x09, 0x25, 0x40,
  0xbe, 0x14, 0xe5, 0x40, 0xbb, 0xe0, 0xbb, 0xc0, 0x92, 0x42, 0x77, 0x3f,
  0x69, 0xee, 0xeb, 0x40, 0x41, 0x91, 0xcb, 0x40, 0xbe, 0x39, 0x9b, 0x41,
  0xc9, 0x5c, 0x9f, 0xc0, 0xb1, 0xd4, 0x97, 0xc0, 0x28, 0xf3, 0x21, 0xbe,
  0x4c, 0xe9, 0x7a, 0xc0, 0xb2, 0xea, 0x5d, 0xbf, 0x72, 0xde, 0x55, 0xc0,
  0x74, 0xed, 0x1c, 0xc1, 0x65, 0x3d, 0x8b, 0xc0, 0x4e, 0xbe, 0xc9, 0xc0,
  0x48, 0x2b, 0xc8, 0xc0, 0x8d, 0x64, 0x0a, 0xc1, 0xc9, 0xff, 0x28, 0xc0,
  0xea, 0x2b, 0xfd, 0xc0, 0xf2, 0x57, 0xf3, 0xc0, 0x4d, 0xf4, 0xfd, 0xc0,
  0x52, 0xb8, 0x81, 0xc0, 0x8c, 0xc6, 0x25, 0xc1, 0xae, 0x72, 0xd0, 0xc0,
  0xd9, 0xd4, 0xae, 0xc0, 0x54, 0xef, 0x03, 0xc0, 0xd8, 0x61, 0xea, 0xc0,
  0x0f, 0x9e, 0xf5, 0xc0, 0x73, 0x3f, 0x48, 0x3f, 0x06, 0x75, 0xa8, 0xc0,
  0xed, 0x9a, 0x14, 0xc0, 0x9a, 0xae, 0xaf, 0xc0, 0xf0, 0x26, 0x71, 0x3f,
  0x1e, 0xb9, 0xc3, 0xbf, 0x06, 0x35, 0x7b, 0xc0, 0xb9, 0x3a, 0xfe, 0x3f,
  0x0b, 0xc1, 0x44, 0xbf, 0x86, 0x9b, 0xac, 0x40, 0x99, 0x89, 0x4c, 0x40,
  0x0a, 0xd2, 0x39, 0x40, 0xdf, 0x0c, 0x7e, 0x40, 0x99, 0xce, 0x50, 0x40,
  0xcd, 0xbe, 0x51, 0x40, 0x4d, 0x11, 0x43, 0x40, 0x18, 0x46, 0x86, 0x3f,
  0x2b, 0xc2, 0x3d, 0x40, 0x44, 0xa4, 0x55, 0x40, 0x74, 0xcf, 0xe4, 0xbf,
  0xcd, 0xad, 0x8b, 0x40, 0x68, 0x5a, 0x4e, 0xbd, 0x9b, 0x53, 0x5c, 0x40,
  0xd0, 0xe9, 0xa3, 0xbf, 0x94, 0xfa, 0x83, 0xbf, 0xff, 0xe0, 0x06, 0x40,
  0xf1, 0xb0, 0x08, 0xc0, 0xa2, 0x3d, 0x01, 0xc0, 0xd9, 0x3a, 0xac, 0x3f,
  0xe6, 0xb7, 0xbd, 0x3f, 0x88, 0xf9, 0x28, 0x40, 0x17, 0xef, 0x12, 0xc0,
  0x87, 0xb4, 0xb4, 0x40, 0xcf, 0x3d, 0x63, 0x40, 0xee, 0xfb, 0x60, 0x40,
  0xae, 0x06, 0x7e, 0x3f, 0x25, 0x22, 0xbf, 0x3c, 0xf4, 0x05, 0xc1, 0x40,
  0xdf, 0xff, 0x5b, 0x40, 0x33, 0x21, 0x2d, 0x3f, 0xca, 0xea, 0xbc, 0xbf,
  0x06, 0x23, 0x03, 0x40, 0x45, 0xf3, 0xad, 0xc0, 0xac, 0x5f, 0x69, 0xc0,
  0x71, 0x5b, 0xdf, 0x3f, 0xe9, 0x2a, 0x41, 0x3f, 0x81, 0x54, 0x11, 0xc0,
  0x83, 0x47, 0xb6, 0x3f, 0xa1, 0x28, 0x83, 0xc0, 0x10, 0x01, 0xe8, 0x3f,
  0x24, 0x07, 0x12, 0xc0, 0x10, 0x29, 0x6e, 0xbe, 0xb9, 0x68, 0x24, 0x3e,
  0x48, 0xd9, 0x6b, 0x3f, 0x2e, 0x99, 0x45, 0x40, 0xb2, 0xdb, 0xf1, 0xbe,
  0xe8, 0xf2, 0x95, 0x3f, 0x21, 0xa0, 0xdc, 0x3f, 0xec, 0x44, 0x9a, 0xc0,
  0x9b, 0x48, 0x5e, 0x40, 0xa0, 0x0e, 0x39, 0xc0, 0xa6, 0xf4, 0xa2, 0xc0,
  0x02, 0xd7, 0x45, 0x40, 0x91, 0xac, 0x48, 0x40, 0xf5, 0x4e, 0x34, 0xbf,
  0x93, 0xdf, 0x82, 0xbe, 0x75, 0x76, 0x16, 0xc0, 0x2f, 0xf9, 0x05, 0x40,
  0x8d, 0xc7, 0x14, 0xc0, 0x65, 0x02, 0xb0, 0xbe, 0x6e, 0x10, 0x49, 0xc0,
  0x7e, 0x6c, 0xb8, 0x40, 0xc8, 0xe3, 0x1b, 0x40, 0xef, 0x3f, 0x4c, 0x41,
  0xab, 0x85, 0x64, 0x41, 0xa4, 0xe7, 0xa2, 0x40, 0xbc, 0xa9, 0x7f, 0x3f,
  0x62, 0x1e, 0xca, 0x3f, 0xfe, 0x66, 0x9e, 0x40, 0x46, 0x0d, 0x96, 0xc0,
  0x8d, 0xda, 0xa5, 0x40, 0x9c, 0xe0, 0x23, 0x3f, 0xc1, 0x19, 0xd1, 0xbf,
  0x72, 0xa3, 0xd2, 0xbf, 0x8f, 0x15, 0x1f, 0xc0, 0x4c, 0x08, 0x9f, 0xbf,
  0x78, 0xce, 0x1e, 0xc1, 0x25, 0x60, 0x8f, 0xc0, 0xda, 0xe4, 0xf8, 0xc0,
  0xa6, 0x92, 0xee, 0xc0, 0x52, 0xc9, 0xf0, 0xbf, 0xa9, 0x5b, 0x0f, 0xc1,
  0x68, 0x19, 0x3d, 0xbe, 0x01, 0xf8, 0xdd, 0xbf, 0x6c, 0xdc, 0x4f, 0xbf,
  0x1a, 0x16, 0x22, 0xc0, 0x60, 0x52, 0x04, 0x40, 0x72, 0x88, 0xba, 0xbe,
  0x50, 0xa6, 0xa7, 0x40, 0xc5, 0x97, 0xa4, 0x40, 0x45, 0xb1, 0x2a, 0x40,
  0x32, 0x37, 0xa4, 0x40, 0x57, 0x1d, 0x3f, 0x40, 0x8f, 0xfd, 0xb2, 0x40,
  0xed, 0xaa, 0xef, 0x40, 0x88, 0x26, 0x58, 0x41, 0xab, 0xaa, 0xb3, 0x40,
  0xf4, 0x32, 0xf0, 0x40, 0x21, 0x76, 0x95, 0x40, 0x66, 0xce, 0x5b, 0x3f,
  0xb1, 0x97, 0x96, 0x40, 0x8f, 0xbe, 0xd4, 0x3e, 0xce, 0x98, 0x98, 0x40,
  0xd7, 0x0f, 0xf3, 0x3d, 0xa8, 0xc1, 0x75, 0x40, 0x17, 0x88, 0x1e, 0x3f,
  0x1a, 0xce, 0xa9, 0x40, 0xa5, 0x84, 0x86, 0x3f, 0x41, 0xca, 0xd0, 0x40,
  0xe8, 0x5a, 0xe8, 0xbf, 0xcb, 0x97, 0x9f, 0x40, 0x21, 0xc3, 0xc8, 0x40,
  0xa4, 0x1b, 0xf7, 0xbf, 0xba, 0x77, 0x89, 0x3f, 0xfb, 0xc8, 0xa6, 0x40,
  0xe3, 0xbd, 0xf4, 0xbf, 0xb3, 0xe5, 0x1c, 0x3f, 0x69, 0xdb, 0x1d, 0x40,
  0x3f, 0xac, 0x83, 0x40, 0x62, 0xd8, 0x4c, 0x40, 0x73, 0xaa, 0x55, 0x3f,
  0x10, 0xf9, 0x84, 0x40, 0x3c, 0xeb, 0xad, 0xbd, 0x02, 0x61, 0x36, 0x40,
  0x6d, 0x5c, 0x16, 0xbd, 0xde, 0x08, 0xee, 0x3f, 0xa0, 0x7d, 0xcf, 0x3f,
  0x69, 0x8a, 0x1f, 0x40, 0x5e, 0xef, 0xff, 0xff, 0x04, 0x00, 0x00, 0x00,
  0x10, 0x00, 0x00, 0x00, 0x00, 0x00, 0x00, 0x00, 0x03, 0x00, 0x00, 0x00,
  0x01, 0x00, 0x00, 0x00, 0x02, 0x00, 0x00, 0x00, 0x7a, 0xef, 0xff, 0xff,
  0x04, 0x00, 0x00, 0x00, 0x40, 0x00, 0x00, 0x00, 0xcc, 0xf4, 0xb1, 0x3e,
  0x3c, 0x88, 0x85, 0x3f, 0xe1, 0x37, 0x7f, 0x3f, 0xb4, 0x82, 0x8a, 0x3f,
  0x16, 0x1b, 0x82, 0x3f, 0x5a, 0x46, 0xa9, 0x3f, 0xac, 0x12, 0xe3, 0x3e,
  0xfc, 0x5e, 0x64, 0x3e, 0xfe, 0xf6, 0x14, 0x3f, 0xfe, 0xed, 0x96, 0x3e,
  0x0a, 0x0a, 0x6e, 0x3f, 0x66, 0xf8, 0x9b, 0x3f, 0x60, 0x45, 0x74, 0x3f,
  0xa8, 0x37, 0x79, 0x3f, 0xb8, 0x75, 0xc6, 0x3f, 0xee, 0x89, 0x84, 0x3f,
  0xc6, 0xef, 0xff, 0xff, 0x04, 0x00, 0x00, 0x00, 0x00, 0x0f, 0x00, 0x00,
  0xfa, 0x11, 0xaa, 0x3d, 0x65, 0x45, 0xcc, 0x3e, 0xe1, 0x91, 0x2c, 0xbf,
  0x4b, 0x48, 0x9b, 0x3f, 0x4a, 0xab, 0x05, 0xbf, 0x2f, 0xd7, 0x4f, 0x3f,
  0xfd, 0x43, 0x41, 0x3f, 0x6b, 0x12, 0x57, 0xbf, 0x5d, 0x00, 0x08, 0xbf,
  0x90, 0x1b, 0xb6, 0x3f, 0xb2, 0x02, 0x43, 0x3f, 0xf2, 0x71, 0x82, 0xbe,
  0x86, 0x87, 0x8c, 0x3e, 0x3d, 0xcb, 0xcb, 0x3d, 0xca, 0x5c, 0x20, 0x40,
  0x0b, 0xb7, 0x58, 0xbf, 0x82, 0xbc, 0x08, 0xbf, 0xc3, 0x28, 0x80, 0x3f,
  0xdb, 0x2b, 0x7e, 0xbf, 0xd9, 0x3d, 0xa0, 0x3e, 0x7b, 0x05, 0x84, 0xbe,
  0xb3, 0xef, 0x1e, 0xbf, 0x1d, 0x69, 0x7c, 0xbd, 0x31, 0x3b, 0x13, 0x3f,
  0xb5, 0xef, 0x87, 0xbf, 0x69, 0xc8, 0x5c, 0xbf, 0x60, 0x3b, 0xf2, 0x3e,
  0xc7, 0xda, 0x1f, 0x3e, 0x9f, 0x32, 0xc5, 0x3d, 0xfb, 0x03, 0x19, 0xbe,
  0xf3, 0x50, 0x33, 0x3f, 0x96, 0x06, 0xe7, 0x3e, 0xc5, 0xf9, 0x3f, 0xbf,
  0x18, 0xa6, 0x44, 0xbf, 0x04, 0x05, 0x2e, 0x3f, 0x22, 0xd3, 0xcc, 0xbf,
  0xef, 0x63, 0x73, 0x3f, 0x69, 0x65, 0xb5, 0x3e, 0x0e, 0x7a, 0xfa, 0xbe,
  0x67, 0xb8, 0x65, 0xbd, 0x82, 0x5e, 0x25, 0xbe, 0x52, 0x6b, 0x8a, 0xbf,
  0xea, 0x38, 0xda, 0x3f, 0xb2, 0x56, 0x82, 0x3e, 0xb4, 0x2c, 0x12, 0xbf,
  0xcf, 0x45, 0x81, 0x3f, 0x97, 0x26, 0x5a, 0xbf, 0x4f, 0x85, 0x9a, 0xbe,
  0x6d, 0x39, 0xaf, 0x3f, 0x71, 0x2e, 0x24, 0xbf, 0x5e, 0xf5, 0xc5, 0xbe,
  0xde, 0xbd, 0x9b, 0xbf, 0x79, 0x60, 0x89, 0xbf, 0x9c, 0x07, 0x8d, 0xbe,
  0xae, 0xef, 0xb4, 0xbf, 0x5b, 0x02, 0xa1, 0xbf, 0x58, 0xc5, 0xfa, 0xbe,
  0x71, 0x6d, 0x7b, 0x3f, 0x56, 0x2b, 0x43, 0xbf, 0x0b, 0xd0, 0x3c, 0xbf,
  0x1b, 0xe3, 0x59, 0x3f, 0x25, 0x44, 0xec, 0xbe, 0xc9, 0x5d, 0xfd, 0xbf,
  0xed, 0x3c, 0x77, 0x3f, 0xb3, 0xd4, 0x11, 0xc0, 0x2d, 0x3d, 0xa6, 0xbf,
  0x9e, 0x54, 0x00, 0x3f, 0x52, 0x38, 0xfb, 0x3e, 0x3e, 0xcd, 0x40, 0xbf,
  0x36, 0xb3, 0x45, 0x3e, 0xa2, 0xac, 0xb6, 0x3e, 0x71, 0x7c, 0x9d, 0xbe,
  0xe5, 0x3b, 0x85, 0xbf, 0x8a, 0x88, 0xf2, 0x3e, 0x58, 0xc4, 0x86, 0x3f,
  0x91, 0xbf, 0x5b, 0xbf, 0x86, 0x2f, 0xdb, 0x3e, 0x15, 0x06, 0xe0, 0xbf,
  0xa0, 0x3f, 0x46, 0x3f, 0x8f, 0x87, 0x6d, 0xbf, 0x14, 0x44, 0xa1, 0x3f,
  0xf4, 0xc2, 0x76, 0x3f, 0xef, 0x02, 0x32, 0xbf, 0xcc, 0x71, 0x02, 0xbf,
  0x9c, 0xdc, 0xaa, 0x3e, 0xf7, 0xaf, 0xec, 0xbb, 0x61, 0xe2, 0x35, 0x3f,
  0xde, 0xf9, 0xdc, 0xbe, 0x64, 0xd5, 0x66, 0xbf, 0xca, 0x4a, 0xb3, 0x3f,
  0xd9, 0xbd, 0xae, 0xbf, 0xdc, 0x6e, 0xbb, 0x3f, 0x02, 0x55, 0x57, 0x3f,
  0x06, 0x45, 0xcd, 0x3e, 0xdf, 0x35, 0x6a, 0xc0, 0xae, 0xfc, 0x80, 0x3f,
  0x75, 0xbc, 0x31, 0x3e, 0x73, 0x03, 0xe9, 0xbe, 0x54, 0x84, 0xf8, 0x3e,
  0x72, 0xdb, 0xba, 0x3f, 0x43, 0xbb, 0x37, 0x3f, 0x68, 0xd5, 0x2b, 0xbf,
  0xb4, 0xf2, 0xee, 0xbe, 0x15, 0x0d, 0x69, 0x3f, 0x84, 0x38, 0x0c, 0x3e,
  0x9c, 0x66, 0x93, 0xbe, 0x1d, 0xca, 0xb9, 0xbf, 0xd0, 0xc3, 0xdf, 0xbe,
  0xe3, 0x5b, 0x69, 0x3d, 0x9a, 0xff, 0x1c, 0x3d, 0x53, 0xbe, 0x07, 0xbe,
  0xa3, 0xa6, 0xb4, 0x3e, 0x70, 0x29, 0x94, 0xbe, 0xa8, 0x72, 0x02, 0xbf,
  0x11, 0xba, 0x0d, 0x40, 0x50, 0x34, 0x69, 0x3f, 0x0f, 0xdb, 0xcd, 0x3d,
  0xa3, 0x31, 0xba, 0xbf, 0xbc, 0x77, 0x95, 0x3f, 0xd5, 0xb0, 0x09, 0x3f,
  0x41, 0x4b, 0x01, 0x3d, 0x61, 0x65, 0x40, 0xbf, 0x34, 0x93, 0x29, 0xc0,
  0x3e, 0x4f, 0xa4, 0xbf, 0xc9, 0x11, 0xd7, 0xbf, 0x58, 0x74, 0x25, 0x3e,
  0xb0, 0xcd, 0x29, 0xbf, 0x5f, 0x90, 0x30, 0xbf, 0xe7, 0xdc, 0x6f, 0x3e,
  0xdf, 0x1c, 0x6e, 0x3f, 0x6f, 0x3c, 0x85, 0xbf, 0xa6, 0x2f, 0x2b, 0xbf,
  0x25, 0x7f, 0xb9, 0x3c, 0x4e, 0x78, 0xb7, 0x3e, 0x60, 0x14, 0x87, 0xbe,
  0xf4, 0x36, 0x35, 0xbf, 0xd6, 0xd4, 0x98, 0xbf, 0x51, 0x8a, 0x63, 0xbf,
  0xdf, 0x35, 0x48, 0x3f, 0x0e, 0x31, 0x2b, 0xc0, 0x66, 0x82, 0x26, 0xbe,
  0x00, 0xd7, 0xfc, 0x3e, 0x6a, 0x9e, 0x0a, 0x3f, 0xc9, 0x41, 0x46, 0x3e,
  0x06, 0xa4, 0xa4, 0x3f, 0x83, 0x13, 0x69, 0xbf, 0x2e, 0x8e, 0x30, 0x3f,
  0x93, 0x24, 0xf9, 0x3e, 0xc8, 0x25, 0x16, 0xbf, 0x71, 0xe3, 0xe2, 0x3d,
  0x10, 0x41, 0x48, 0xbf, 0x39, 0xaa, 0x2a, 0xbf, 0x09, 0x78, 0xa5, 0xbf,
  0xd7, 0x1b, 0x3e, 0x3e, 0xdf, 0x20, 0x7b, 0xbf, 0x7a, 0x11, 0x76, 0x3e,
  0xf9, 0xd9, 0x9e, 0xbe, 0x48, 0xc9, 0x43, 0xbf, 0x62, 0x21, 0x8a, 0xbf,
  0xee, 0x61, 0x33, 0x3f, 0x3b, 0xa8, 0xfc, 0x3e, 0xfd, 0x58, 0x99, 0xbf,
  0xfa, 0x57, 0x9d, 0x3f, 0xec, 0x96, 0x13, 0x40, 0x85, 0xf2, 0x93, 0x3f,
  0xd7, 0x3f, 0x0b, 0xbd, 0x10, 0xd2, 0x40, 0x3e, 0x8f, 0x0b, 0xde, 0x3e,
  0x49, 0x9e, 0x2a, 0xbe, 0xfa, 0xe9, 0x20, 0xbf, 0x27, 0xee, 0x3a, 0xbf,
  0xba, 0x1b, 0x97, 0x3f, 0x53, 0x6e, 0x5f, 0xbe, 0x5f, 0x08, 0xa0, 0x3f,
  0x4a, 0xec, 0x49, 0x40, 0x49, 0x38, 0xb0, 0xbe, 0x59, 0x75, 0x34, 0x3d,
  0xa7, 0x28, 0x18, 0x3e, 0xe4, 0xd0, 0xe6, 0x3f, 0xe5, 0xa4, 0x69, 0x3e,
  0x9c, 0x9a, 0x36, 0xbe, 0x94, 0x7f, 0xc7, 0x3e, 0x34, 0x00, 0x0f, 0x3f,
  0x7f, 0xf0, 0x86, 0x3f, 0x27, 0x45, 0x1c, 0x3f, 0x38, 0xe1, 0xf6, 0xbf,
  0x34, 0x9f, 0x83, 0x3f, 0xd6, 0x5e, 0x91, 0x3f, 0x1e, 0xce, 0x80, 0xbf,
  0x41, 0x70, 0x91, 0x3f, 0x9c, 0xc2, 0xf7, 0x3f, 0x29, 0x12, 0x8a, 0xbf,
  0x5a, 0xc2, 0x84, 0xbe, 0x99, 0x3b, 0x30, 0xbe, 0x0c, 0x3e, 0x58, 0xbf,
  0xa8, 0xc0, 0xff, 0xbe, 0x12, 0x81, 0x29, 0x3f, 0xed, 0x05, 0xde, 0x3e,
  0xfd, 0x46, 0xe2, 0xbf, 0xae, 0x41, 0x72, 0x3f, 0x16, 0xc7, 0x94, 0x3f,
  0xd8, 0x54, 0xf8, 0x3e, 0xf8, 0xd2, 0x64, 0xbf, 0x43, 0x82, 0x14, 0x3f,
  0xf7, 0xcb, 0x18, 0xbf, 0x0f, 0x39, 0x0b, 0xbe, 0xb0, 0xda, 0xb0, 0x3f,
  0x61, 0x0f, 0x4a, 0xbf, 0x66, 0x76, 0x68, 0xbe, 0x0b, 0xce, 0x6b, 0x3f,
  0x22, 0xdf, 0x1d, 0xc0, 0x9a, 0x3a, 0xb1, 0xbf, 0xc7, 0xd5, 0xec, 0x3e,
  0x5a, 0x5c, 0xd3, 0x3e, 0x3b, 0x62, 0xb1, 0x3f, 0x67, 0x48, 0x87, 0xbe,
  0x09, 0x0c, 0x0f, 0x3e, 0x72, 0xe6, 0x5d, 0xbf, 0xfe, 0x32, 0xa9, 0xbf,
  0x06, 0x1b, 0xb8, 0x3c, 0x1d, 0x47, 0x32, 0x3f, 0xdb, 0xbc, 0x08, 0x3f,
  0x6c, 0xa5, 0x38, 0x3f, 0x13, 0xff, 0x42, 0xbf, 0xad, 0xae, 0x24, 0xbf,
  0xe4, 0x6b, 0x90, 0x3e, 0x88, 0xd8, 0xb7, 0xbf, 0x78, 0x1d, 0x9c, 0x3f,
  0xa9, 0x76, 0x61, 0x3f, 0xa0, 0xf8, 0x2b, 0x3d, 0xc4, 0x7f, 0x78, 0xbf,
  0x49, 0x26, 0xb3, 0x3f, 0xad, 0x19, 0x9e, 0xbc, 0xb1, 0x33, 0x87, 0xbf,
  0xd0, 0x00, 0x03, 0xc0, 0x52, 0x92, 0x43, 0x3f, 0xfb, 0x4d, 0x88, 0xbd,
  0x9b, 0xbd, 0x18, 0x3f, 0x28, 0xd5, 0x31, 0xbf, 0x9d, 0x8d, 0xd9, 0xbe,
  0x6e, 0xb3, 0xf6, 0xbf, 0x6f, 0x98, 0x9b, 0xbf, 0xc4, 0x07, 0x20, 0x3f,
  0x34, 0x71, 0xe0, 0x3f, 0x8b, 0x9c, 0xdd, 0xbe, 0x87, 0xf0, 0x2b, 0xbf,
  0x93, 0x34, 0xec, 0x3f, 0xb5, 0xb8, 0xe2, 0xbc, 0x0c, 0x8b, 0x86, 0x3e,
  0x7d, 0x27, 0x29, 0x3f, 0x2b, 0x40, 0xe4, 0x3f, 0xde, 0x67, 0x16, 0xc0,
  0xfd, 0xf4, 0x47, 0xbe, 0xb4, 0xdb, 0x2a, 0xbe, 0x12, 0xb6, 0xb9, 0x3f,
  0x1a, 0x20, 0xb8, 0xbe, 0xb2, 0x0c, 0x11, 0x3e, 0xb0, 0x10, 0xba, 0x3f,
  0xa5, 0x71, 0x8c, 0xbf, 0x18, 0xd3, 0x96, 0x3f, 0x67, 0xb2, 0x15, 0x3f,
  0x7c, 0x6d, 0x8f, 0x3f, 0x32, 0x65, 0x1f, 0x40, 0x25, 0xba, 0x48, 0xbf,
  0xd1, 0xb9, 0x44, 0xbf, 0x76, 0x57, 0x4b, 0x40, 0x24, 0x0a, 0x10, 0xbf,
  0xd7, 0xe7, 0xf3, 0xbe, 0x73, 0xe6, 0xb3, 0x3f, 0xfd, 0x54, 0xe5, 0x3e,
  0x3c, 0x00, 0x17, 0xc0, 0x1b, 0xf3, 0x8a, 0x3f, 0x04, 0xe5, 0xfd, 0xbe,
  0xee, 0x97, 0xad, 0xbe, 0x1f, 0x4d, 0x0d, 0x3f, 0x60, 0x1d, 0x89, 0x3f,
  0x03, 0x9a, 0x4b, 0xbf, 0x33, 0x2b, 0xcc, 0x3f, 0x8b, 0x27, 0x2c, 0xbe,
  0x81, 0x5b, 0xcc, 0xbf, 0xff, 0xdc, 0x9e, 0xbf, 0x07, 0xb0, 0xbf, 0x3f,
  0x4b, 0x20, 0xc7, 0x3f, 0x49, 0x26, 0xf3, 0x3f, 0x69, 0xe8, 0x54, 0x3d,
  0xa3, 0x88, 0x8f, 0xbe, 0x50, 0x70, 0xf1, 0xbf, 0x6f, 0x3e, 0x76, 0x3f,
  0x04, 0xbb, 0x28, 0x40, 0x6a, 0x80, 0xc3, 0x3f, 0xaa, 0xda, 0xb5, 0xbf,
  0x00, 0x4b, 0xfe, 0xbf, 0x7a, 0xa0, 0xe3, 0xbd, 0xc8, 0x30, 0xb8, 0xbe,
  0x34, 0x40, 0x6e, 0xbf, 0x3c, 0xa0, 0xbb, 0x3e, 0x07, 0x63, 0xfd, 0xbe,
  0xa2, 0x12, 0x0b, 0xbf, 0x1e, 0xf9, 0x2e, 0xbe, 0xf1, 0xb5, 0xc5, 0x3d,
  0x45, 0xc5, 0x4d, 0x3f, 0x14, 0xa5, 0x10, 0xbf, 0x3d, 0xfe, 0x10, 0xc0,
  0x78, 0x7b, 0x59, 0x3f, 0x39, 0x61, 0x6e, 0x3e, 0xcc, 0x14, 0x08, 0x40,
  0x6f, 0x47, 0x62, 0x3c, 0xb0, 0xf3, 0x81, 0xbf, 0x19, 0x49, 0x06, 0xbf,
  0xa3, 0x42, 0x14, 0xc0, 0x0b, 0x6a, 0xeb, 0x3f, 0x1d, 0xec, 0xab, 0x3f,
  0xf6, 0x62, 0x0d, 0x3f, 0x7a, 0xff, 0x9c, 0x3d, 0xe2, 0x65, 0xda, 0xbe,
  0x24, 0x60, 0x23, 0xbf, 0x6d, 0x11, 0xac, 0xbf, 0x55, 0xd0, 0x90, 0xbf,
  0x55, 0xdc, 0x01, 0xc0, 0x86, 0xc2, 0x0a, 0x3b, 0xa6, 0x54, 0xa3, 0xbe,
  0x09, 0x8b, 0xf6, 0xbf, 0x87, 0xe1, 0x97, 0x3f, 0x60, 0x0f, 0x57, 0x3f,
  0x08, 0x4b, 0xcb, 0xbf, 0xb5, 0x06, 0xc6, 0xbd, 0xb7, 0x13, 0x19, 0x3f,
  0xea, 0xcc, 0x30, 0xbf, 0xe8, 0x2c, 0xae, 0x3f, 0xbd, 0x9f, 0x85, 0xbf,
  0xc4, 0x70, 0x90, 0xbf, 0x41, 0xa3, 0x02, 0xc0, 0x39, 0x53, 0xc8, 0xbe,
  0x42, 0x67, 0x55, 0xbf, 0xb0, 0xba, 0x96, 0xbf, 0x2c, 0x28, 0x34, 0x3e,
  0x05, 0xb3, 0xf9, 0x3f, 0xe1, 0x68, 0x38, 0x3f, 0xd8, 0x65, 0xd7, 0xbe,
  0x1b, 0xec, 0x29, 0xc0, 0x78, 0xe0, 0x3a, 0xbf, 0x19, 0x3d, 0x92, 0x3d,
  0xa8, 0x4a, 0xe1, 0x3e, 0x59, 0x68, 0xda, 0x3e, 0xba, 0xc1, 0x65, 0x3f,
  0xf2, 0xf8, 0xa3, 0x3f, 0x6e, 0xeb, 0x5c, 0xbf, 0xdf, 0x17, 0x05, 0xbc,
  0x4f, 0x79, 0xbf, 0xbe, 0x94, 0x74, 0x9d, 0x3d, 0x95, 0xa8, 0xee, 0xbe,
  0xa0, 0xe5, 0x2a, 0x3f, 0x5f, 0x77, 0x8e, 0xbe, 0xaa, 0x4c, 0x33, 0xbf,
  0x74, 0x3a, 0x9a, 0x3f, 0xc9, 0x1c, 0x7f, 0xbe, 0x29, 0x21, 0x5c, 0xbf,
  0x66, 0x7b, 0x65, 0xbe, 0x17, 0x9c, 0x30, 0xbe, 0xb2, 0xb6, 0x81, 0x3d,
  0x05, 0x7d, 0x6c, 0xbf, 0xf6, 0x5c, 0x53, 0xbe, 0xf3, 0xdd, 0x56, 0xbd,
  0xbc, 0xb6, 0xa0, 0xbe, 0x5a, 0x58, 0xc8, 0x3d, 0xc9, 0x79, 0xef, 0xbf,
  0x47, 0x9a, 0x13, 0x40, 0xd5, 0x75, 0x02, 0x3f, 0xf1, 0xb7, 0x09, 0xc0,
  0x4c, 0x88, 0x1b, 0xc0, 0xff, 0x87, 0x4f, 0x40, 0x4a, 0xdb, 0xb5, 0x3f,
  0x99, 0xc9, 0xc9, 0x3d, 0x50, 0xef, 0x06, 0xbe, 0x30, 0x36, 0x2f, 0xbf,
  0x72, 0xb4, 0xf7, 0xbe, 0x6a, 0x9e, 0xe9, 0x3e, 0x17, 0xe0, 0xe8, 0x3f,
  0x96, 0x51, 0x02, 0x40, 0x5d, 0xe8, 0xad, 0x3f, 0x91, 0x89, 0xbd, 0x3f,
  0xcd, 0xce, 0x1d, 0xbf, 0x5d, 0x5a, 0x52, 0xbf, 0x5b, 0xa5, 0x98, 0x3e,
  0xa1, 0x6e, 0x93, 0xbe, 0xfb, 0x74, 0x0c, 0xbe, 0x31, 0x11, 0xa6, 0xbf,
  0x90, 0x1d, 0xdb, 0x3f, 0xee, 0xa6, 0x80, 0x3f, 0xb3, 0x3c, 0x14, 0xbf,
  0x33, 0xbe, 0x27, 0x3f, 0xb3, 0x4c, 0x41, 0x3f, 0xf5, 0xce, 0x65, 0x3f,
  0x5b, 0xae, 0x8f, 0x3e, 0xf3, 0x09, 0x95, 0xbf, 0x81, 0x6b, 0xac, 0x3f,
  0x12, 0xf8, 0x59, 0xbf, 0xa7, 0xa7, 0xf6, 0xbd, 0x45, 0x11, 0xc8, 0xbd,
  0x14, 0xef, 0xc6, 0xbf, 0x6b, 0xfc, 0x75, 0xbf, 0x86, 0x77, 0xaa, 0xbe,
  0x22, 0x29, 0x78, 0xbf, 0xbd, 0x10, 0xc9, 0xbe, 0xd7, 0xe0, 0x27, 0xbe,
  0x73, 0x12, 0xcc, 0x3b, 0x78, 0x72, 0xe6, 0xbe, 0xf9, 0x09, 0x94, 0x3e,
  0x8d, 0xde, 0x44, 0x3f, 0x36, 0x18, 0xa1, 0xbf, 0xd9, 0x1e, 0xd0, 0x3e,
  0xfc, 0xea, 0x08, 0xc0, 0xa6, 0xf8, 0x56, 0x3e, 0x66, 0x90, 0xb8, 0xbd,
  0x5d, 0x8b, 0xbf, 0x3f, 0x90, 0xd7, 0xb2, 0xbe, 0x6f, 0x82, 0x2d, 0x40,
  0x91, 0x5b, 0x79, 0x3f, 0xcf, 0x16, 0x00, 0x3f, 0xb8, 0x4a, 0x10, 0xbf,
  0x81, 0x1e, 0x6e, 0xbf, 0xa3, 0x4b, 0xb8, 0xbf, 0x3f, 0x07, 0xa7, 0x3d,
  0x85, 0xc0, 0xbc, 0x3e, 0xa0, 0xf0, 0x9f, 0xbf, 0xb5, 0x26, 0xfd, 0x3f,
  0x4d, 0xf7, 0xc6, 0x3e, 0xcb, 0xaf, 0xf1, 0xbf, 0x9e, 0x2c, 0x25, 0x3f,
  0xd7, 0x88, 0x1b, 0x3f, 0x9f, 0xe2, 0xe6, 0xbf, 0x41, 0x04, 0x46, 0x3f,
  0x42, 0xc3, 0x38, 0x3f, 0xae, 0xf0, 0xd0, 0x3f, 0x62, 0xc7, 0x34, 0xc0,
  0xcc, 0x7e, 0x0f, 0xc0, 0xc1, 0xbb, 0xa4, 0x3f, 0xb6, 0x29, 0xdb, 0x3c,
  0x31, 0x33, 0x77, 0xbe, 0x79, 0xb5, 0xa1, 0xbf, 0x69, 0xcf, 0xa0, 0xbd,
  0xf1, 0x7b, 0x6f, 0xbf, 0x20, 0xaa, 0x2c, 0x3f, 0x90, 0xaa, 0xe7, 0xbd,
  0xb6, 0xb8, 0xdf, 0xbe, 0x77, 0xf2, 0xba, 0x3e, 0x18, 0x95, 0x0e, 0x3f,
  0xe4, 0x6c, 0xc8, 0xbe, 0xea, 0xda, 0x36, 0x3f, 0xdf, 0x2b, 0x01, 0x40,
  0x67, 0x0c, 0xbe, 0xbf, 0x9b, 0x26, 0x05, 0xbf, 0x72, 0xde, 0x04, 0x3f,
  0x0e, 0x51, 0xd1, 0x3e, 0xb6, 0x62, 0x01, 0xbe, 0xc2, 0xf1, 0xa4, 0x3e,
  0x43, 0xac, 0xa4, 0xbd, 0x2a, 0x14, 0x40, 0xbe, 0xfa, 0x73, 0xa6, 0xbf,
  0x42, 0x63, 0x9e, 0xbf, 0x95, 0xca, 0x9e, 0x3f, 0x79, 0x01, 0x89, 0x3e,
  0xa2, 0xd0, 0x67, 0xc0, 0xa7, 0xfd, 0x28, 0x3f, 0xf0, 0xe0, 0x59, 0xbe,
  0x75, 0x0e, 0x9c, 0x3f, 0x58, 0xba, 0x65, 0x3d, 0xba, 0x87, 0xa6, 0xbf,
  0xc9, 0x9d, 0x59, 0xbf, 0xb4, 0xc6, 0xdf, 0xbd, 0xa5, 0x11, 0xfd, 0x3e,
  0x6e, 0xee, 0xfc, 0xbe, 0xc6, 0x6c, 0x56, 0x3f, 0xda, 0xd3, 0x23, 0x40,
  0x41, 0x1f, 0x70, 0xbf, 0x97, 0xba, 0x5b, 0x3f, 0x35, 0x9d, 0x1e, 0xbf,
  0xd5, 0x93, 0xa2, 0xbf, 0x47, 0x67, 0x1b, 0x3f, 0x09, 0x60, 0xab, 0x3f,
  0xaf, 0x02, 0xb3, 0x3f, 0xf9, 0x23, 0x91, 0xbf, 0x84, 0xaa, 0x0c, 0x3f,
  0x33, 0xfd, 0x09, 0xbf, 0x98, 0xf7, 0xf7, 0xbd, 0xa0, 0x4e, 0x84, 0xbf,
  0xa9, 0x38, 0x99, 0x3e, 0x7f, 0x29, 0xd7, 0x3e, 0xcc, 0xdb, 0x12, 0xbf,
  0xfa, 0xdd, 0x88, 0x3e, 0x65, 0x36, 0x97, 0x3f, 0x07, 0x4b, 0x97, 0xbe,
  0x71, 0x64, 0x8f, 0xbf, 0x22, 0x43, 0x83, 0x3f, 0xce, 0xf4, 0x2c, 0x40,
  0x3a, 0xdc, 0xb2, 0x3f, 0x86, 0x8d, 0x26, 0x40, 0x7f, 0xd5, 0x88, 0x3f,
  0xf1, 0xb7, 0xb5, 0xbf, 0x43, 0x3e, 0x9c, 0xbf, 0x38, 0xb7, 0x95, 0xbf,
  0x83, 0x06, 0x95, 0xbd, 0xf9, 0x8f, 0x8a, 0xbf, 0x53, 0xb2, 0x91, 0xbe,
  0x0c, 0x88, 0xf7, 0x3e, 0x29, 0xfe, 0x70, 0x3f, 0xb8, 0x6d, 0xcc, 0x3f,
  0x11, 0x43, 0xa6, 0x3e, 0x5b, 0xac, 0x9b, 0xbd, 0x7f, 0x0a, 0x17, 0x3f,
  0x5f, 0x55, 0xe4, 0xbf, 0xdd, 0x3e, 0xcd, 0x3e, 0x11, 0xa6, 0x52, 0x3f,
  0x50, 0x3e, 0x1f, 0x40, 0xfc, 0x0c, 0x0a, 0xc0, 0x1a, 0x42, 0x3d, 0xc0,
  0x23, 0x76, 0xd5, 0x3e, 0x01, 0x88, 0x7c, 0x3f, 0xd6, 0xa7, 0x63, 0x3f,
  0x9b, 0x09, 0x9f, 0xbf, 0x47, 0x49, 0x05, 0xbf, 0xa3, 0x27, 0xfc, 0x3e,
  0x3c, 0x8f, 0xce, 0x3f, 0x7a, 0xbc, 0xb6, 0xbf, 0x4b, 0x01, 0x62, 0xbe,
  0x88, 0xb2, 0x8d, 0xbf, 0xf4, 0xb7, 0x8f, 0xbf, 0xa7, 0xc5, 0xfc, 0x3f,
  0x2a, 0x68, 0xc7, 0x3f, 0x97, 0x5e, 0x92, 0x3e, 0x34, 0x5f, 0xee, 0x3e,
  0x7f, 0x04, 0x09, 0xc0, 0xa2, 0xb4, 0xa8, 0xbe, 0x52, 0x24, 0xe4, 0xbe,
  0x4e, 0xcc, 0xbb, 0xbf, 0x0e, 0x4c, 0x86, 0xbf, 0x3f, 0x13, 0x1c, 0x3e,
  0x0f, 0x27, 0xa3, 0x3f, 0xae, 0xe3, 0x90, 0xbf, 0x03, 0xf3, 0xb2, 0x3f,
  0x49, 0x2a, 0xa5, 0x3b, 0xe4, 0x4e, 0x11, 0xbc, 0x10, 0x75, 0xc5, 0x3e,
  0x96, 0x1a, 0xad, 0x3f, 0x5d, 0x00, 0x02, 0x3d, 0xbe, 0x37, 0x09, 0xbf,
  0x9c, 0x82, 0x0f, 0xbf, 0x0b, 0x05, 0x31, 0xbf, 0x18, 0x5d, 0x88, 0xbe,
  0xcc, 0xbf, 0x90, 0x3f, 0x42, 0x6a, 0x84, 0xbf, 0x3d, 0x49, 0x00, 0xc0,
  0x1e, 0xc5, 0x96, 0x3e, 0x3f, 0x98, 0xef, 0x3f, 0x74, 0x2f, 0xe7, 0xbf,
  0x2c, 0x50, 0xad, 0x3f, 0xb8, 0xc3, 0x15, 0x3f, 0xa5, 0x5f, 0xed, 0x3c,
  0x25, 0x01, 0x70, 0xbf, 0xbe, 0x53, 0x1c, 0x3f, 0x99, 0x1b, 0xa6, 0xbf,
  0xa4, 0x2e, 0xb7, 0xbf, 0x27, 0xf3, 0x65, 0xbe, 0x5d, 0xa8, 0x0b, 0x3f,
  0x78, 0x11, 0x75, 0x3c, 0xfd, 0x3b, 0x64, 0x3e, 0xf6, 0x43, 0x42, 0x3f,
  0xe7, 0x9a, 0x83, 0xbf, 0x0e, 0xcc, 0x0b, 0x3e, 0xae, 0x5e, 0x04, 0xc0,
  0x71, 0x0f, 0x31, 0x40, 0x83, 0x0b, 0x8e, 0x3f, 0x2b, 0xb1, 0xc2, 0xbe,
  0x92, 0x4a, 0x10, 0xbf, 0x22, 0x3c, 0x92, 0xbd, 0x5e, 0xdf, 0x06, 0xc0,
  0xdb, 0x26, 0xe0, 0xbf, 0x53, 0x6d, 0xb4, 0xbf, 0x9c, 0xda, 0xdd, 0x3f,
  0x47, 0x0d, 0xa4, 0x3e, 0x21, 0xc6, 0xdd, 0xbd, 0x7d, 0xd9, 0x81, 0xbe,
  0x88, 0xcc, 0x61, 0xbf, 0x29, 0xae, 0xc5, 0x3f, 0x85, 0x19, 0xfb, 0xbe,
  0x10, 0xb6, 0xbb, 0xbf, 0x88, 0xde, 0xc0, 0xbf, 0x07, 0x35, 0xe3, 0x3f,
  0x82, 0x5b, 0x83, 0xbf, 0x5a, 0x88, 0xc3, 0xbd, 0xa5, 0xc0, 0x6d, 0x40,
  0x78, 0xce, 0x25, 0xbf, 0x66, 0x2e, 0x65, 0xbf, 0x95, 0x11, 0x01, 0xc0,
  0x8d, 0xe8, 0x27, 0x40, 0x3d, 0xaf, 0x32, 0xbf, 0x8e, 0xb3, 0xe6, 0x3f,
  0xed, 0xe4, 0x6b, 0xbf, 0x40, 0xd2, 0x63, 0xbf, 0xdd, 0xd1, 0xd2, 0xbd,
  0xb0, 0x7b, 0x20, 0xbf, 0x54, 0xee, 0x2a, 0xc0, 0x51, 0x75, 0xac, 0x3e,
  0x8b, 0x67, 0x43, 0xbd, 0xc8, 0x69, 0xdc, 0xbe, 0x9b, 0xee, 0x01, 0x40,
  0xb8, 0x30, 0xfc, 0x3f, 0x0e, 0x6b, 0x32, 0xbf, 0x73, 0xd2, 0xc4, 0xbe,
  0xd0, 0x93, 0x9e, 0x3f, 0xa5, 0xc0, 0x25, 0xbf, 0x0b, 0x0e, 0x31, 0xc0,
  0x08, 0xf7, 0x3f, 0x3f, 0x5d, 0xe1, 0x43, 0x3f, 0x4e, 0xf5, 0xaf, 0xbf,
  0xcb, 0x9e, 0xca, 0x3f, 0x95, 0xb4, 0x5b, 0x3f, 0x91, 0x2d, 0xa0, 0x3e,
  0x50, 0x96, 0x48, 0x3e, 0x93, 0xed, 0xa0, 0x3f, 0x87, 0x8d, 0x19, 0x3e,
  0x45, 0xb3, 0x9b, 0x3e, 0xc0, 0xeb, 0xf4, 0xbd, 0xe4, 0x47, 0xc7, 0x3c,
  0xa2, 0xc6, 0xc7, 0xbf, 0x99, 0x3f, 0x50, 0xbe, 0x71, 0x34, 0x41, 0xbf,
  0xbe, 0x74, 0xf1, 0x3f, 0x62, 0x12, 0x41, 0x3d, 0x0c, 0xc8, 0x9d, 0x3e,
  0xdf, 0x27, 0x21, 0xc0, 0xad, 0xed, 0xb6, 0xbf, 0xa1, 0xf5, 0x5b, 0xbe,
  0x61, 0x57, 0x55, 0x3f, 0x6e, 0x2d, 0x8a, 0x3f, 0xaf, 0x26, 0x29, 0x40,
  0x8b, 0xc5, 0xe9, 0x3f, 0x10, 0x42, 0x6e, 0x3f, 0x13, 0x53, 0x93, 0xbf,
  0xf0, 0x41, 0x72, 0x3e, 0x87, 0x64, 0xa0, 0xbe, 0xd5, 0xd0, 0xa3, 0x3f,
  0x4a, 0xa8, 0xab, 0x3e, 0xb6, 0x14, 0x86, 0xbd, 0x04, 0x1d, 0x02, 0x3f,
  0xc9, 0x01, 0x75, 0x3f, 0x12, 0x45, 0xdb, 0xbf, 0x69, 0xdb, 0x78, 0xbf,
  0x0c, 0xcd, 0x4e, 0x3f, 0x69, 0xfe, 0x4b, 0xbe, 0xe2, 0xbc, 0x6d, 0xbe,
  0xd8, 0xbf, 0x94, 0x3f, 0xc6, 0x44, 0x99, 0x3f, 0xa5, 0xc1, 0x4e, 0xbf,
  0x3e, 0xc8, 0x2f, 0xc0, 0xaf, 0x6b, 0x86, 0xbf, 0x4d, 0x08, 0x3a, 0x40,
  0x9a, 0xc9, 0x83, 0xbc, 0xf7, 0xde, 0xb8, 0xbf, 0x64, 0xe8, 0xa8, 0xbe,
  0xe5, 0x59, 0x9c, 0x3f, 0x93, 0x5c, 0x37, 0x3f, 0x97, 0xd3, 0x90, 0xbe,
  0xab, 0x70, 0x43, 0xbf, 0xf7, 0xf6, 0x7f, 0x3f, 0xa2, 0x4e, 0x3d, 0x40,
  0xb2, 0x0b, 0x95, 0x3f, 0x4e, 0x81, 0x94, 0x3f, 0x50, 0xb6, 0x91, 0x3f,
  0x9f, 0x3c, 0x00, 0x3f, 0xce, 0xe8, 0x05, 0xbf, 0x16, 0x1c, 0x81, 0x3f,
  0xfe, 0xff, 0x51, 0xbe, 0x28, 0x37, 0xa4, 0xbf, 0x80, 0x60, 0x99, 0xbf,
  0xe1, 0x3f, 0x87, 0x3f, 0x3d, 0xb6, 0xbf, 0x3f, 0xaf, 0x8c, 0x9b, 0x3f,
  0x51, 0x1e, 0x8f, 0xbf, 0x65, 0xf6, 0x70, 0x3f, 0xae, 0xe2, 0x7c, 0x3f,
  0x45, 0xc4, 0x90, 0xbe, 0xde, 0xdd, 0xd1, 0xbf, 0x85, 0xf3, 0x9d, 0x40,
  0x11, 0x29, 0x08, 0xbf, 0x4b, 0x49, 0xec, 0x3f, 0x5c, 0x31, 0xad, 0xbf,
  0x46, 0x3e, 0x8f, 0xbe, 0xf9, 0x92, 0x8e, 0xbf, 0x36, 0x74, 0x1e, 0xbf,
  0xd4, 0x18, 0x78, 0x40, 0x9e, 0xc0, 0xb3, 0x3e, 0x08, 0xa4, 0xe3, 0xbf,
  0xa8, 0x37, 0x61, 0x3f, 0x9f, 0x4a, 0xd3, 0xbd, 0x3f, 0x92, 0x59, 0x3f,
  0x1f, 0xde, 0x53, 0xbf, 0xa7, 0x11, 0x3e, 0xbe, 0x8e, 0xb5, 0xbb, 0xbf,
  0x79, 0xf8, 0xf1, 0x3f, 0x8d, 0x1a, 0xd3, 0x3f, 0xff, 0x5a, 0xb7, 0xbf,
  0x26, 0x45, 0x99, 0x40, 0x26, 0x97, 0xf7, 0xbe, 0x37, 0x3c, 0xe4, 0xbf,
  0x91, 0xf9, 0x01, 0xc0, 0x4d, 0xfc, 0xf9, 0x3f, 0x45, 0xdb, 0xc8, 0x3f,
  0xd7, 0xa4, 0x3e, 0xbf, 0x38, 0xa9, 0x1b, 0x3e, 0x15, 0x32, 0x9b, 0x3f,
  0xf8, 0x2e, 0x09, 0x40, 0x14, 0x48, 0x94, 0xbe, 0x25, 0xb4, 0xf9, 0xbf,
  0xbb, 0x26, 0x0a, 0x3c, 0x90, 0x35, 0x29, 0xbf, 0x93, 0x36, 0x9c, 0xbf,
  0xe8, 0x45, 0xf4, 0xbf, 0xa1, 0xe8, 0x11, 0x3f, 0xf8, 0xd9, 0x1f, 0xbf,
  0x4b, 0xb5, 0x3a, 0x3f, 0x4e, 0xeb, 0x1c, 0x40, 0x8e, 0x30, 0x3b, 0xbf,
  0x1a, 0x53, 0x15, 0xc0, 0x8d, 0x5e, 0x8e, 0x3f, 0xa2, 0xd6, 0xc5, 0x3f,
  0x63, 0x01, 0xcb, 0xbf, 0xbd, 0x26, 0x9a, 0x3f, 0xf3, 0x12, 0x8f, 0x3e,
  0x81, 0x98, 0xae, 0xbf, 0x95, 0xf8, 0x89, 0xbf, 0xd9, 0x8d, 0x9c, 0x3f,
  0x95, 0x1a, 0x86, 0x3f, 0xf9, 0x6f, 0x59, 0x3f, 0x0c, 0x87, 0xad, 0x3d,
  0x02, 0xfe, 0x5f, 0x3f, 0x81, 0x97, 0xae, 0x3f, 0xec, 0xfa, 0x8c, 0x3f,
  0x64, 0x9f, 0x24, 0xbf, 0xee, 0x88, 0xf6, 0xbf, 0x76, 0x57, 0x9b, 0x3f,
  0x13, 0x16, 0xd4, 0x3f, 0xfd, 0x79, 0xa7, 0xbf, 0xcc, 0xd1, 0xaa, 0x3f,
  0x5b, 0x0a, 0xf8, 0xbe, 0x0e, 0xa0, 0x09, 0x3f, 0x44, 0xf2, 0x3e, 0xbd,
  0xa2, 0x18, 0xf1, 0x3e, 0x13, 0xb6, 0xb3, 0x3f, 0x99, 0xb6, 0xd0, 0xbe,
  0x08, 0x87, 0x0e, 0x40, 0x34, 0xf0, 0x80, 0x3f, 0xfa, 0x27, 0x3b, 0xbf,
  0xcf, 0xb2, 0xfa, 0xbf, 0x98, 0x2f, 0xa5, 0x3f, 0x17, 0x36, 0x7d, 0x3f,
  0x55, 0x03, 0x04, 0x40, 0xac, 0x55, 0x00, 0x40, 0xef, 0xf6, 0xba, 0xbf,
  0xea, 0x09, 0x74, 0xbf, 0x23, 0xd6, 0xda, 0x3e, 0xcb, 0x98, 0x0f, 0x3f,
  0xa3, 0x77, 0xc6, 0xbf, 0x5e, 0xce, 0xf8, 0xbd, 0x11, 0x5e, 0x03, 0x40,
  0xa9, 0xbd, 0x09, 0x40, 0x21, 0x7a, 0x07, 0xc0, 0x12, 0x37, 0x5d, 0x3c,
  0xf2, 0xb9, 0x11, 0x3f, 0x1e, 0xd9, 0xf5, 0xbf, 0x4e, 0xc4, 0x86, 0xbf,
  0xc3, 0x2c, 0xca, 0x3f, 0xc6, 0x6b, 0xa2, 0x3e, 0x03, 0x1e, 0xce, 0x3f,
  0xec, 0x3b, 0x62, 0x3f, 0xa9, 0x96, 0xe8, 0xbd, 0xa9, 0x80, 0x80, 0x3e,
  0x8f, 0x5a, 0x12, 0x40, 0xcf, 0x2f, 0x33, 0xbe, 0xf5, 0x5b, 0xb1, 0x3f,
  0xeb, 0x1d, 0x68, 0x3f, 0x72, 0x48, 0xa2, 0x3f, 0xe7, 0x56, 0x19, 0xc0,
  0x1c, 0xd1, 0xc2, 0x3d, 0xaa, 0x4e, 0x1f, 0xc0, 0x8f, 0xd6, 0x18, 0xc0,
  0x27, 0xc9, 0x4b, 0x3f, 0x78, 0x15, 0x03, 0x40, 0xdd, 0xbd, 0xf8, 0x3e,
  0x8e, 0x75, 0x88, 0xbf, 0x56, 0xfe, 0xda, 0x3f, 0x61, 0xde, 0x0b, 0xbf,
  0x94, 0xf7, 0x12, 0x3e, 0x81, 0xc2, 0xf0, 0x3d, 0xba, 0x36, 0x52, 0x3f,
  0x20, 0x20, 0xa7, 0x3e, 0x54, 0x4a, 0xb3, 0xbe, 0x92, 0xfd, 0x47, 0xbf,
  0xb1, 0xaa, 0x42, 0x40, 0xf1, 0x82, 0x02, 0x3e, 0x76, 0xe8, 0x24, 0xbf,
  0x9d, 0xd1, 0x89, 0x3d, 0x97, 0x7f, 0x8d, 0xbe, 0x10, 0x7e, 0x07, 0x40,
  0x70, 0x3d, 0x68, 0xbf, 0x66, 0xd8, 0xef, 0xbe, 0x89, 0x42, 0xc2, 0x3f,
  0xda, 0x5f, 0xa2, 0x3f, 0xff, 0x58, 0xa4, 0xbf, 0x96, 0xe1, 0xd1, 0xbf,
  0xe8, 0x65, 0xce, 0x3e, 0xab, 0x60, 0xc9, 0xbf, 0x7f, 0xec, 0xd1, 0xbe,
  0x8f, 0x94, 0x6f, 0xbf, 0x2a, 0x06, 0xbd, 0x3f, 0x2e, 0xb8, 0x5b, 0xbf,
  0xca, 0xe3, 0x8e, 0xbf, 0xed, 0x55, 0x88, 0x3f, 0x8c, 0x5c, 0x20, 0xbf,
  0xac, 0x78, 0x4a, 0x3c, 0xfd, 0xb2, 0x97, 0x3f, 0x8b, 0x7a, 0x39, 0xbf,
  0xd7, 0x16, 0x46, 0x3f, 0xa6, 0xa2, 0xca, 0x3f, 0xf0, 0xd2, 0xb7, 0xbf,
  0x03, 0xd7, 0xad, 0xbe, 0x26, 0x4c, 0xaf, 0x3e, 0x46, 0x0c, 0x91, 0x3e,
  0xd3, 0xb5, 0xcf, 0xbf, 0xbc, 0xaf, 0xca, 0x3f, 0x62, 0x4f, 0x7b, 0x3e,
  0xb0, 0x8e, 0xb6, 0x3e, 0xca, 0x09, 0x87, 0x40, 0x41, 0x81, 0xb5, 0x3f,
  0x1a, 0xd9, 0x71, 0xc0, 0x2f, 0xf4, 0x98, 0xbf, 0x2d, 0x2a, 0xfd, 0x40,
  0x10, 0x5a, 0x06, 0x40, 0x68, 0xa0, 0x09, 0xc1, 0xf9, 0x41, 0xb5, 0xbf,
  0xb6, 0x5b, 0x62, 0xbc, 0x06, 0x42, 0x3e, 0x3d, 0xbe, 0xf5, 0x85, 0xbe,
  0x40, 0x99, 0x33, 0x41, 0xda, 0x6d, 0x90, 0xbe, 0x2b, 0x8f, 0xc8, 0x40,
  0x8d, 0xbd, 0xe8, 0xc0, 0xb0, 0x65, 0x73, 0xbe, 0x96, 0x9b, 0xab, 0x3f,
  0xee, 0xfe, 0xeb, 0x3e, 0x84, 0xdb, 0xed, 0x3e, 0x32, 0xaf, 0x24, 0x3f,
  0x0f, 0x33, 0xa4, 0xc0, 0x45, 0xae, 0x43, 0xbf, 0xd2, 0xfb, 0x8b, 0xbf,
  0x87, 0x9b, 0x65, 0x3f, 0xc2, 0x0b, 0x46, 0xbf, 0xde, 0xed, 0x69, 0xbf,
  0x9b, 0xe4, 0xd5, 0x3f, 0x70, 0xfa, 0xe2, 0x3f, 0xec, 0xc0, 0xa9, 0xbf,
  0x6d, 0x62, 0x38, 0xc0, 0x5d, 0x92, 0x11, 0xbe, 0xdc, 0x9c, 0x0a, 0xbf,
  0xd9, 0x3d, 0xb7, 0xbf, 0x16, 0x04, 0xff, 0xbf, 0x58, 0x1a, 0xa5, 0xbf,
  0x8b, 0xf1, 0x31, 0x3f, 0x32, 0x5e, 0xc1, 0xbf, 0xca, 0xc7, 0x52, 0xc0,
  0x75, 0x0d, 0x82, 0x40, 0xad, 0x2c, 0x85, 0x3e, 0x9d, 0xc1, 0x12, 0xbd,
  0xb7, 0x2e, 0x05, 0xc0, 0x14, 0x43, 0xc9, 0xbc, 0x8b, 0x64, 0xb6, 0xc0,
  0x30, 0x76, 0xaa, 0xbf, 0x15, 0x34, 0xfb, 0xbf, 0x79, 0xc5, 0x89, 0x40,
  0x52, 0x3c, 0x81, 0xbf, 0x35, 0x0e, 0xe2, 0x3f, 0x93, 0xc9, 0xba, 0x3f,
  0xb8, 0x64, 0xe1, 0xbe, 0x93, 0xce, 0xa2, 0x3f, 0xa0, 0x75, 0x53, 0xbf,
  0x9b, 0x4f, 0xeb, 0xbf, 0xf8, 0x38, 0x4e, 0x40, 0x8b, 0x48, 0x30, 0x40,
  0x31, 0x28, 0xb4, 0xbf, 0x25, 0x36, 0x24, 0xbd, 0x31, 0xbb, 0x2c, 0xbd,
  0xa0, 0xc8, 0x92, 0xc0, 0xbe, 0x29, 0x70, 0xc0, 0x0c, 0x17, 0x35, 0x3e,
  0xbc, 0xdb, 0x1a, 0x40, 0x87, 0xa9, 0x90, 0xbf, 0x78, 0xd4, 0xe6, 0x3c,
  0x2f, 0xc0, 0x28, 0xbe, 0xaf, 0x50, 0x0c, 0x3f, 0x89, 0x88, 0x9a, 0x3e,
  0x27, 0x50, 0x43, 0xc0, 0x79, 0x3d, 0xc6, 0x3e, 0xf9, 0x1c, 0x06, 0xc0,
  0x0e, 0xe1, 0x40, 0xc0, 0x35, 0xd3, 0x60, 0x3f, 0xf2, 0x02, 0x98, 0xbf,
  0x5a, 0xb3, 0x61, 0xbf, 0xf0, 0x75, 0x47, 0x40, 0xe9, 0x80, 0x79, 0x3f,
  0x0a, 0x7d, 0x29, 0xc0, 0xd2, 0xd2, 0x45, 0xc0, 0x3e, 0xb8, 0x23, 0x3f,
  0x16, 0x81, 0x37, 0xbe, 0xb4, 0x7b, 0xb3, 0xbe, 0x01, 0x6d, 0x11, 0x40,
  0xee, 0xa6, 0x08, 0x3f, 0x70, 0x40, 0x51, 0x3f, 0x73, 0x9d, 0xcf, 0xbe,
  0x95, 0xbf, 0x88, 0x3f, 0xeb, 0xcd, 0x21, 0xbf, 0x1d, 0x8a, 0x2b, 0x3f,
  0x1d, 0x7e, 0xad, 0xbf, 0x21, 0x50, 0x05, 0x40, 0xe6, 0x05, 0xaf, 0xbf,
  0xdf, 0xa1, 0x99, 0x3f, 0x26, 0x04, 0x76, 0x3e, 0x1c, 0xd9, 0xbd, 0x3f,
  0x37, 0xb8, 0x53, 0xbf, 0xf2, 0x42, 0x9a, 0xbe, 0xf6, 0x72, 0xa6, 0x3e,
  0xc9, 0xa1, 0xae, 0x3f, 0x6e, 0xcb, 0x84, 0x3f, 0x25, 0x77, 0xd4, 0x3f,
  0x8d, 0x35, 0xdf, 0xbf, 0x60, 0x13, 0x40, 0x40, 0x18, 0xc5, 0x86, 0x3d,
  0x45, 0x79, 0xdc, 0xbd, 0x49, 0x5c, 0x9a, 0x3e, 0xc5, 0x7c, 0x0f, 0xc0,
  0x5e, 0x13, 0x98, 0xc0, 0x01, 0x38, 0xd0, 0xbf, 0x1e, 0xb4, 0xce, 0x3f,
  0xf9, 0x7f, 0xe0, 0xbf, 0x86, 0x1b, 0xa4, 0xbf, 0xc8, 0x38, 0x99, 0x3d,
  0x37, 0x89, 0xc1, 0x3e, 0xd6, 0x8e, 0x0e, 0xc0, 0x3c, 0x68, 0x48, 0xbe,
  0x65, 0xa5, 0x37, 0x40, 0xa6, 0x94, 0x1e, 0x3f, 0x0f, 0x5d, 0x13, 0xc0,
  0x3c, 0x8a, 0x30, 0xc0, 0xbe, 0x5f, 0xcd, 0x3f, 0x11, 0x80, 0x14, 0x40,
  0xef, 0x9d, 0x63, 0xbf, 0x1a, 0x27, 0x3f, 0x40, 0xf0, 0x37, 0x4c, 0x3f,
  0x4e, 0xa8, 0x55, 0x40, 0xfb, 0xc1, 0xa8, 0xc0, 0x4b, 0xd6, 0x4e, 0xbf,
  0xd2, 0xfe, 0xff, 0xff, 0x04, 0x00, 0x00, 0x00, 0x20, 0x00, 0x00, 0x00,
  0x86, 0x47, 0x5c, 0x3c, 0x5c, 0x02, 0x31, 0xbc, 0xa2, 0x80, 0xc6, 0xbc,
  0x64, 0x73, 0x34, 0xbb, 0x5c, 0x53, 0xc5, 0x38, 0xa8, 0xec, 0xb8, 0x3c,
  0x52, 0x95, 0xce, 0x3a, 0x11, 0x5b, 0xb8, 0xba, 0xfe, 0xfe, 0xff, 0xff,
  0x04, 0x00, 0x00, 0x00, 0x40, 0x00, 0x00, 0x00, 0xde, 0x9a, 0xea, 0xbe,
  0x17, 0x39, 0x63, 0xbe, 0xde, 0xfd, 0xa2, 0xbe, 0x38, 0x10, 0x88, 0xbe,
  0x21, 0x7b, 0x84, 0xbf, 0xa5, 0x70, 0x23, 0xbf, 0xf1, 0x62, 0x91, 0xbf,
  0x83, 0x50, 0x62, 0xbe, 0x3c, 0xef, 0xcf, 0xbd, 0xff, 0xb2, 0xf8, 0xbc,
  0x1d, 0x88, 0xa7, 0xbd, 0xac, 0xa7, 0x12, 0xbf, 0xb0, 0xef, 0x55, 0xbf,
  0x74, 0x78, 0x7e, 0xbf, 0x2d, 0x0f, 0x84, 0xbd, 0x4c, 0x68, 0x57, 0x3c,
  0x1c, 0xee, 0xff, 0xff, 0x20, 0xee, 0xff, 0xff, 0x0f, 0x00, 0x00, 0x00,
  0x4d, 0x4c, 0x49, 0x52, 0x20, 0x43, 0x6f, 0x6e, 0x76, 0x65, 0x72, 0x74,
  0x65, 0x64, 0x2e, 0x00, 0x01, 0x00, 0x00, 0x00, 0x14, 0x00, 0x00, 0x00,
  0x00, 0x00, 0x0e, 0x00, 0x18, 0x00, 0x14, 0x00, 0x10, 0x00, 0x0c, 0x00,
  0x08, 0x00, 0x04, 0x00, 0x0e, 0x00, 0x00, 0x00, 0x14, 0x00, 0x00, 0x00,
  0x1c, 0x00, 0x00, 0x00, 0x08, 0x05, 0x00, 0x00, 0x0c, 0x05, 0x00, 0x00,
  0x10, 0x05, 0x00, 0x00, 0x04, 0x00, 0x00, 0x00, 0x6d, 0x61, 0x69, 0x6e,
  0x00, 0x00, 0x00, 0x00, 0x10, 0x00, 0x00, 0x00, 0xcc, 0x04, 0x00, 0x00,
  0x80, 0x04, 0x00, 0x00, 0x1c, 0x04, 0x00, 0x00, 0xf8, 0x03, 0x00, 0x00,
  0xd4, 0x03, 0x00, 0x00, 0x20, 0x03, 0x00, 0x00, 0x28, 0x02, 0x00, 0x00,
  0x04, 0x02, 0x00, 0x00, 0xb4, 0x01, 0x00, 0x00, 0x90, 0x01, 0x00, 0x00,
  0x6c, 0x01, 0x00, 0x00, 0xc4, 0x00, 0x00, 0x00, 0xa0, 0x00, 0x00, 0x00,
  0x78, 0x00, 0x00, 0x00, 0x40, 0x00, 0x00, 0x00, 0x04, 0x00, 0x00, 0x00,
  0xca, 0xfb, 0xff, 0xff, 0x1c, 0x00, 0x00, 0x00, 0x00, 0x00, 0x00, 0x09,
  0x1c, 0x00, 0x00, 0x00, 0x20, 0x00, 0x00, 0x00, 0x08, 0x00, 0x00, 0x00,
  0x00, 0x00, 0x06, 0x00, 0x08, 0x00, 0x04, 0x00, 0x06, 0x00, 0x00, 0x00,
  0x00, 0x00, 0x80, 0x3f, 0x01, 0x00, 0x00, 0x00, 0x1c, 0x00, 0x00, 0x00,
  0x01, 0x00, 0x00, 0x00, 0x1b, 0x00, 0x00, 0x00, 0x02, 0xfc, 0xff, 0xff,
  0x14, 0x00, 0x00, 0x00, 0x00, 0x00, 0x00, 0x08, 0x10, 0x00, 0x00, 0x00,
  0x14, 0x00, 0x00, 0x00, 0x07, 0x00, 0x00, 0x00, 0x08, 0xef, 0xff, 0xff,
  0x01, 0x00, 0x00, 0x00, 0x1b, 0x00, 0x00, 0x00, 0x03, 0x00, 0x00, 0x00,
  0x1a, 0x00, 0x00, 0x00, 0x0c, 0x00, 0x00, 0x00, 0x09, 0x00, 0x00, 0x00,
  0xd2, 0xfc, 0xff, 0xff, 0x0c, 0x00, 0x00, 0x00, 0x10, 0x00, 0x00, 0x00,
  0x06, 0x00, 0x00, 0x00, 0x01, 0x00, 0x00, 0x00, 0x1a, 0x00, 0x00, 0x00,
  0x02, 0x00, 0x00, 0x00, 0x19, 0x00, 0x00, 0x00, 0x0b, 0x00, 0x00, 0x00,
  0x0e, 0xfc, 0xff, 0xff, 0x08, 0x00, 0x00, 0x00, 0x0c, 0x00, 0x00, 0x00,
  0x01, 0x00, 0x00, 0x00, 0x19, 0x00, 0x00, 0x00, 0x02, 0x00, 0x00, 0x00,
  0x18, 0x00, 0x00, 0x00, 0x0a, 0x00, 0x00, 0x00, 0xcc, 0xfd, 0xff, 0xff,
  0x10, 0x00, 0x00, 0x00, 0x8c, 0x00, 0x00, 0x00, 0x90, 0x00, 0x00, 0x00,
  0x04, 0x00, 0x00, 0x00, 0x7c, 0x00, 0x00, 0x00, 0x07, 0x41, 0x76, 0x67,
  0x50, 0x6f, 0x6f, 0x6c, 0x00, 0x69, 0x12, 0x07, 0x41, 0x76, 0x67, 0x50,
  0x6f, 0x6f, 0x6c, 0x1a, 0x00, 0x2a, 0x12, 0x0a, 0x07, 0x70, 0x61, 0x64,
  0x64, 0x69, 0x6e, 0x67, 0x12, 0x07, 0x12, 0x05, 0x56, 0x41, 0x4c, 0x49,
  0x44, 0x2a, 0x11, 0x0a, 0x05, 0x6b, 0x73, 0x69, 0x7a, 0x65, 0x12, 0x08,
  0x0a, 0x06, 0x1a, 0x04, 0x01, 0x01, 0x01, 0x08, 0x2a, 0x13, 0x0a, 0x07,
  0x73, 0x74, 0x72, 0x69, 0x64, 0x65, 0x73, 0x12, 0x08, 0x0a, 0x06, 0x1a,
  0x04, 0x01, 0x01, 0x01, 0x08, 0x2a, 0x15, 0x0a, 0x0b, 0x64, 0x61, 0x74,
  0x61, 0x5f, 0x66, 0x6f, 0x72, 0x6d, 0x61, 0x74, 0x12, 0x06, 0x12, 0x04,
  0x4e, 0x43, 0x48, 0x57, 0x2a, 0x07, 0x0a, 0x01, 0x54, 0x12, 0x02, 0x30,
  0x01, 0x32, 0x00, 0x00, 0x02, 0x74, 0x6c, 0x14, 0x14, 0x04, 0x28, 0x01,
  0x01, 0x00, 0x00, 0x00, 0x18, 0x00, 0x00, 0x00, 0x01, 0x00, 0x00, 0x00,
  0x17, 0x00, 0x00, 0x00, 0xba, 0xfd, 0xff, 0xff, 0x0c, 0x00, 0x00, 0x00,
  0x10, 0x00, 0x00, 0x00, 0x03, 0x00, 0x00, 0x00, 0x01, 0x00, 0x00, 0x00,
  0x17, 0x00, 0x00, 0x00, 0x01, 0x00, 0x00, 0x00, 0x16, 0x00, 0x00, 0x00,
  0xf2, 0xfc, 0xff, 0xff, 0x08, 0x00, 0x00, 0x00, 0x0c, 0x00, 0x00, 0x00,
  0x01, 0x00, 0x00, 0x00, 0x16, 0x00, 0x00, 0x00, 0x02, 0x00, 0x00, 0x00,
  0x15, 0x00, 0x00, 0x00, 0x05, 0x00, 0x00, 0x00, 0x5e, 0xfd, 0xff, 0xff,
  0x20, 0x00, 0x00, 0x00, 0x00, 0x00, 0x00, 0x01, 0x28, 0x00, 0x00, 0x00,
  0x2c, 0x00, 0x00, 0x00, 0x01, 0x00, 0x00, 0x00, 0x00, 0x00, 0x0a, 0x00,
  0x10, 0x00, 0x0f, 0x00, 0x08, 0x00, 0x04, 0x00, 0x0a, 0x00, 0x00, 0x00,
  0x01, 0x00, 0x00, 0x00, 0x01, 0x00, 0x00, 0x00, 0x00, 0x00, 0x00, 0x01,
  0x01, 0x00, 0x00, 0x00, 0x15, 0x00, 0x00, 0x00, 0x03, 0x00, 0x00, 0x00,
  0x14, 0x00, 0x00, 0x00, 0x07, 0x00, 0x00, 0x00, 0x04, 0x00, 0x00, 0x00,
  0x5e, 0xfd, 0xff, 0xff, 0x08, 0x00, 0x00, 0x00, 0x0c, 0x00, 0x00, 0x00,
  0x01, 0x00, 0x00, 0x00, 0x14, 0x00, 0x00, 0x00, 0x02, 0x00, 0x00, 0x00,
  0x13, 0x00, 0x00, 0x00, 0x0a, 0x00, 0x00, 0x00, 0x1c, 0xff, 0xff, 0xff,
  0x10, 0x00, 0x00, 0x00, 0xc8, 0x00, 0x00, 0x00, 0xcc, 0x00, 0x00, 0x00,
  0x05, 0x00, 0x00, 0x00, 0xb6, 0x00, 0x00, 0x00, 0x15, 0x44, 0x65, 0x70,
  0x74, 0x68, 0x77, 0x69, 0x73, 0x65, 0x43, 0x6f, 0x6e, 0x76, 0x32, 0x64,
  0x4e, 0x61, 0x74, 0x69, 0x76, 0x65, 0x00, 0x95, 0x12, 0x15, 0x44, 0x65,
  0x70, 0x74, 0x68, 0x77, 0x69, 0x73, 0x65, 0x43, 0x6f, 0x6e, 0x76, 0x32,
  0x64, 0x4e, 0x61, 0x74, 0x69, 0x76, 0x65, 0x1a, 0x00, 0x1a, 0x00, 0x2a,
  0x07, 0x0a, 0x01, 0x54, 0x12, 0x02, 0x30, 0x01, 0x2a, 0x15, 0x0a, 0x09,
  0x64, 0x69, 0x6c, 0x61, 0x74, 0x69, 0x6f, 0x6e, 0x73, 0x12, 0x08, 0x0a,
  0x06, 0x1a, 0x04, 0x01, 0x01, 0x01, 0x01, 0x2a, 0x11, 0x0a, 0x07, 0x70,
  0x61, 0x64, 0x64, 0x69, 0x6e, 0x67, 0x12, 0x06, 0x12, 0x04, 0x53, 0x41,
  0x4d, 0x45, 0x2a, 0x15, 0x0a, 0x0b, 0x64, 0x61, 0x74, 0x61, 0x5f, 0x66,
  0x6f, 0x72, 0x6d, 0x61, 0x74, 0x12, 0x06, 0x12, 0x04, 0x4e, 0x43, 0x48,
  0x57, 0x2a, 0x17, 0x0a, 0x11, 0x65, 0x78, 0x70, 0x6c, 0x69, 0x63, 0x69,
  0x74, 0x5f, 0x70, 0x61, 0x64, 0x64, 0x69, 0x6e, 0x67, 0x73, 0x12, 0x02,
  0x0a, 0x00, 0x2a, 0x13, 0x0a, 0x07, 0x73, 0x74, 0x72, 0x69, 0x64, 0x65,
  0x73, 0x12, 0x08, 0x0a, 0x06, 0x1a, 0x04, 0x01, 0x01, 0x01, 0x01, 0x32,
  0x00, 0x00, 0x02, 0xae, 0x98, 0x14, 0x14, 0x04, 0x28, 0x01, 0x00, 0x00,
  0x01, 0x00, 0x00, 0x00, 0x13, 0x00, 0x00, 0x00, 0x02, 0x00, 0x00, 0x00,
  0x12, 0x00, 0x00, 0x00, 0x08, 0x00, 0x00, 0x00, 0x10, 0x00, 0x14, 0x00,
  0x10, 0x00, 0x0c, 0x00, 0x08, 0x00, 0x00, 0x00, 0x00, 0x00, 0x04, 0x00,
  0x10, 0x00, 0x00, 0x00, 0x10, 0x00, 0x00, 0x00, 0x8c, 0x00, 0x00, 0x00,
  0x90, 0x00, 0x00, 0x00, 0x04, 0x00, 0x00, 0x00, 0x7c, 0x00, 0x00, 0x00,
  0x07, 0x41, 0x76, 0x67, 0x50, 0x6f, 0x6f, 0x6c, 0x00, 0x69, 0x12, 0x07,
  0x41, 0x76, 0x67, 0x50, 0x6f, 0x6f, 0x6c, 0x1a, 0x00, 0x2a, 0x07, 0x0a,
  0x01, 0x54, 0x12, 0x02, 0x30, 0x01, 0x2a, 0x15, 0x0a, 0x0b, 0x64, 0x61,
  0x74, 0x61, 0x5f, 0x66, 0x6f, 0x72, 0x6d, 0x61, 0x74, 0x12, 0x06, 0x12,
  0x04, 0x4e, 0x43, 0x48, 0x57, 0x2a, 0x13, 0x0a, 0x07, 0x73, 0x74, 0x72,
  0x69, 0x64, 0x65, 0x73, 0x12, 0x08, 0x0a, 0x06, 0x1a, 0x04, 0x01, 0x01,
  0x01, 0x04, 0x2a, 0x11, 0x0a, 0x05, 0x6b, 0x73, 0x69, 0x7a, 0x65, 0x12,
  0x08, 0x0a, 0x06, 0x1a, 0x04, 0x01, 0x01, 0x01, 0x04, 0x2a, 0x12, 0x0a,
  0x07, 0x70, 0x61, 0x64, 0x64, 0x69, 0x6e, 0x67, 0x12, 0x07, 0x12, 0x05,
  0x56, 0x41, 0x4c, 0x49, 0x44, 0x32, 0x00, 0x00, 0x02, 0x74, 0x6c, 0x14,
  0x14, 0x04, 0x28, 0x01, 0x01, 0x00, 0x00, 0x00, 0x12, 0x00, 0x00, 0x00,
  0x01, 0x00, 0x00, 0x00, 0x11, 0x00, 0x00, 0x00, 0x00, 0x00, 0x0a, 0x00,
  0x10, 0x00, 0x0c, 0x00, 0x08, 0x00, 0x04, 0x00, 0x0a, 0x00, 0x00, 0x00,
  0x0c, 0x00, 0x00, 0x00, 0x10, 0x00, 0x00, 0x00, 0x03, 0x00, 0x00, 0x00,
  0x01, 0x00, 0x00, 0x00, 0x11, 0x00, 0x00, 0x00, 0x01, 0x00, 0x00, 0x00,
  0x10, 0x00, 0x00, 0x00, 0x42, 0xff, 0xff, 0xff, 0x08, 0x00, 0x00, 0x00,
  0x0c, 0x00, 0x00, 0x00, 0x01, 0x00, 0x00, 0x00, 0x10, 0x00, 0x00, 0x00,
  0x02, 0x00, 0x00, 0x00, 0x0f, 0x00, 0x00, 0x00, 0x05, 0x00, 0x00, 0x00,
  0xae, 0xff, 0xff, 0xff, 0x20, 0x00, 0x00, 0x00, 0x00, 0x00, 0x00, 0x02,
  0x2c, 0x00, 0x00, 0x00, 0x30, 0x00, 0x00, 0x00, 0x02, 0x00, 0x00, 0x00,
  0x0c, 0x00, 0x14, 0x00, 0x13, 0x00, 0x0c, 0x00, 0x08, 0x00, 0x04, 0x00,
  0x0c, 0x00, 0x00, 0x00, 0x02, 0x00, 0x00, 0x00, 0x01, 0x00, 0x00, 0x00,
  0x01, 0x00, 0x00, 0x00, 0x00, 0x00, 0x00, 0x01, 0x01, 0x00, 0x00, 0x00,
  0x0f, 0x00, 0x00, 0x00, 0x03, 0x00, 0x00, 0x00, 0x0e, 0x00, 0x00, 0x00,
  0x03, 0x00, 0x00, 0x00, 0x01, 0x00, 0x00, 0x00, 0x00, 0x00, 0x0e, 0x00,
  0x18, 0x00, 0x14, 0x00, 0x10, 0x00, 0x0c, 0x00, 0x0b, 0x00, 0x04, 0x00,
  0x0e, 0x00, 0x00, 0x00, 0x14, 0x00, 0x00, 0x00, 0x00, 0x00, 0x00, 0x01,
  0x18, 0x00, 0x00, 0x00, 0x1c, 0x00, 0x00, 0x00, 0x01, 0x00, 0x00, 0x00,
  0xda, 0xff, 0xff, 0xff, 0x01, 0x00, 0x00, 0x00, 0x01, 0x00, 0x00, 0x00,
  0x01, 0x00, 0x00, 0x00, 0x0e, 0x00, 0x00, 0x00, 0x03, 0x00, 0x00, 0x00,
  0x0d, 0x00, 0x00, 0x00, 0x06, 0x00, 0x00, 0x00, 0x02, 0x00, 0x00, 0x00,
  0x00, 0x00, 0x0a, 0x00, 0x0c, 0x00, 0x00, 0x00, 0x08, 0x00, 0x04, 0x00,
  0x0a, 0x00, 0x00, 0x00, 0x08, 0x00, 0x00, 0x00, 0x0c, 0x00, 0x00, 0x00,
  0x01, 0x00, 0x00, 0x00, 0x0d, 0x00, 0x00, 0x00, 0x02, 0x00, 0x00, 0x00,
  0x00, 0x00, 0x00, 0x00, 0x0a, 0x00, 0x00, 0x00, 0x01, 0x00, 0x00, 0x00,
  0x1c, 0x00, 0x00, 0x00, 0x01, 0x00, 0x00, 0x00, 0x00, 0x00, 0x00, 0x00,
  0x1d, 0x00, 0x00, 0x00, 0x58, 0x0c, 0x00, 0x00, 0xe4, 0x0b, 0x00, 0x00,
  0x74, 0x0b, 0x00, 0x00, 0xc4, 0x0a, 0x00, 0x00, 0x68, 0x0a, 0x00, 0x00,
  0x08, 0x0a, 0x00, 0x00, 0xa4, 0x09, 0x00, 0x00, 0x44, 0x09, 0x00, 0x00,
  0xd4, 0x08, 0x00, 0x00, 0x84, 0x08, 0x00, 0x00, 0x2c, 0x08, 0x00, 0x00,
  0xe8, 0x07, 0x00, 0x00, 0xa4, 0x07, 0x00, 0x00, 0x3c, 0x07, 0x00, 0x00,
  0xac, 0x06, 0x00, 0x00, 0xe4, 0x05, 0x00, 0x00, 0x64, 0x05, 0x00, 0x00,
  0xfc, 0x04, 0x00, 0x00, 0x8c, 0x04, 0x00, 0x00, 0x08, 0x04, 0x00, 0x00,
  0x8c, 0x03, 0x00, 0x00, 0xe4, 0x02, 0x00, 0x00, 0x64, 0x02, 0x00, 0x00,
  0xfc, 0x01, 0x00, 0x00, 0x88, 0x01, 0x00, 0x00, 0x20, 0x01, 0x00, 0x00,
  0xc8, 0x00, 0x00, 0x00, 0x60, 0x00, 0x00, 0x00, 0x04, 0x00, 0x00, 0x00,
  0x32, 0xf4, 0xff, 0xff, 0x00, 0x00, 0x00, 0x01, 0x14, 0x00, 0x00, 0x00,
  0x1c, 0x00, 0x00, 0x00, 0x1c, 0x00, 0x00, 0x00, 0x1d, 0x00, 0x00, 0x00,
  0x34, 0x00, 0x00, 0x00, 0x02, 0x00, 0x00, 0x00, 0xff, 0xff, 0xff, 0xff,
  0x04, 0x00, 0x00, 0x00, 0x14, 0xf4, 0xff, 0xff, 0x19, 0x00, 0x00, 0x00,
  0x53, 0x74, 0x61, 0x74, 0x65, 0x66, 0x75, 0x6c, 0x50, 0x61, 0x72, 0x74,
  0x69, 0x74, 0x69, 0x6f, 0x6e, 0x65, 0x64, 0x43, 0x61, 0x6c, 0x6c, 0x3a,
  0x30, 0x00, 0x00, 0x00, 0x02, 0x00, 0x00, 0x00, 0x01, 0x00, 0x00, 0x00,
  0x04, 0x00, 0x00, 0x00, 0x8a, 0xf4, 0xff, 0xff, 0x00, 0x00, 0x00, 0x01,
  0x14, 0x00, 0x00, 0x00, 0x1c, 0x00, 0x00, 0x00, 0x1c, 0x00, 0x00, 0x00,
  0x1c, 0x00, 0x00, 0x00, 0x40, 0x00, 0x00, 0x00, 0x02, 0x00, 0x00, 0x00,
  0xff, 0xff, 0xff, 0xff, 0x04, 0x00, 0x00, 0x00, 0x6c, 0xf4, 0xff, 0xff,
  0x26, 0x00, 0x00, 0x00, 0x6d, 0x6f, 0x64, 0x65, 0x6c, 0x2f, 0x64, 0x65,
  0x6e, 0x73, 0x65, 0x2f, 0x4d, 0x61, 0x74, 0x4d, 0x75, 0x6c, 0x3b, 0x6d,
  0x6f, 0x64, 0x65, 0x6c, 0x2f, 0x64, 0x65, 0x6e, 0x73, 0x65, 0x2f, 0x42,
  0x69, 0x61, 0x73, 0x41, 0x64, 0x64, 0x00, 0x00, 0x02, 0x00, 0x00, 0x00,
  0x01, 0x00, 0x00, 0x00, 0x04, 0x00, 0x00, 0x00, 0xee, 0xf4, 0xff, 0xff,
  0x00, 0x00, 0x00, 0x01, 0x14, 0x00, 0x00, 0x00, 0x1c, 0x00, 0x00, 0x00,
  0x1c, 0x00, 0x00, 0x00, 0x1b, 0x00, 0x00, 0x00, 0x30, 0x00, 0x00, 0x00,
  0x02, 0x00, 0x00, 0x00, 0xff, 0xff, 0xff, 0xff, 0x40, 0x00, 0x00, 0x00,
  0xd0, 0xf4, 0xff, 0xff, 0x15, 0x00, 0x00, 0x00, 0x6d, 0x6f, 0x64, 0x65,
  0x6c, 0x2f, 0x66, 0x6c, 0x61, 0x74, 0x74, 0x65, 0x6e, 0x2f, 0x52, 0x65,
  0x73, 0x68, 0x61, 0x70, 0x65, 0x00, 0x00, 0x00, 0x02, 0x00, 0x00, 0x00,
  0x01, 0x00, 0x00, 0x00, 0x40, 0x00, 0x00, 0x00, 0x42, 0xf5, 0xff, 0xff,
  0x00, 0x00, 0x00, 0x01, 0x14, 0x00, 0x00, 0x00, 0x24, 0x00, 0x00, 0x00,
  0x24, 0x00, 0x00, 0x00, 0x1a, 0x00, 0x00, 0x00, 0x38, 0x00, 0x00, 0x00,
  0x04, 0x00, 0x00, 0x00, 0xff, 0xff, 0xff, 0xff, 0x01, 0x00, 0x00, 0x00,
  0x04, 0x00, 0x00, 0x00, 0x10, 0x00, 0x00, 0x00, 0x2c, 0xf5, 0xff, 0xff,
  0x17, 0x00, 0x00, 0x00, 0x6d, 0x6f, 0x64, 0x65, 0x6c, 0x2f, 0x66, 0x6c,
  0x61, 0x74, 0x74, 0x65, 0x6e, 0x2f, 0x74, 0x72, 0x61, 0x6e, 0x73, 0x70,
  0x6f, 0x73, 0x65, 0x00, 0x04, 0x00, 0x00, 0x00, 0x01, 0x00, 0x00, 0x00,
  0x01, 0x00, 0x00, 0x00, 0x04, 0x00, 0x00, 0x00, 0x10, 0x00, 0x00, 0x00,
  0xa6, 0xf5, 0xff, 0xff, 0x00, 0x00, 0x00, 0x01, 0x14, 0x00, 0x00, 0x00,
  0x24, 0x00, 0x00, 0x00, 0x24, 0x00, 0x00, 0x00, 0x19, 0x00, 0x00, 0x00,
  0x44, 0x00, 0x00, 0x00, 0x04, 0x00, 0x00, 0x00, 0xff, 0xff, 0xff, 0xff,
  0x10, 0x00, 0x00, 0x00, 0x01, 0x00, 0x00, 0x00, 0x04, 0x00, 0x00, 0x00,
  0x90, 0xf5, 0xff, 0xff, 0x21, 0x00, 0x00, 0x00, 0x6d, 0x6f, 0x64, 0x65,
  0x6c, 0x2f, 0x61, 0x76, 0x65, 0x72, 0x61, 0x67, 0x65, 0x5f, 0x70, 0x6f,
  0x6f, 0x6c, 0x69, 0x6e, 0x67, 0x32, 0x64, 0x5f, 0x31, 0x2f, 0x41, 0x76,
  0x67, 0x50, 0x6f, 0x6f, 0x6c, 0x00, 0x00, 0x00, 0x04, 0x00, 0x00, 0x00,
  0x01, 0x00, 0x00, 0x00, 0x10, 0x00, 0x00, 0x00, 0x01, 0x00, 0x00, 0x00,
  0x04, 0x00, 0x00, 0x00, 0x16, 0xf6, 0xff, 0xff, 0x00, 0x00, 0x00, 0x01,
  0x14, 0x00, 0x00, 0x00, 0x24, 0x00, 0x00, 0x00, 0x24, 0x00, 0x00, 0x00,
  0x18, 0x00, 0x00, 0x00, 0x38, 0x00, 0x00, 0x00, 0x04, 0x00, 0x00, 0x00,
  0xff, 0xff, 0xff, 0xff, 0x10, 0x00, 0x00, 0x00, 0x01, 0x00, 0x00, 0x00,
  0x25, 0x00, 0x00, 0x00, 0x00, 0xf6, 0xff, 0xff, 0x16, 0x00, 0x00, 0x00,
  0x6d, 0x6f, 0x64, 0x65, 0x6c, 0x2f, 0x61, 0x63, 0x74, 0x69, 0x76, 0x61,
  0x74, 0x69, 0x6f, 0x6e, 0x5f, 0x31, 0x2f, 0x45, 0x6c, 0x75, 0x00, 0x00,
  0x04, 0x00, 0x00, 0x00, 0x01, 0x00, 0x00, 0x00, 0x10, 0x00, 0x00, 0x00,
  0x01, 0x00, 0x00, 0x00, 0x25, 0x00, 0x00, 0x00, 0x7a, 0xf6, 0xff, 0xff,
  0x00, 0x00, 0x00, 0x01, 0x14, 0x00, 0x00, 0x00, 0x24, 0x00, 0x00, 0x00,
  0x24, 0x00, 0x00, 0x00, 0x17, 0x00, 0x00, 0x00, 0x50, 0x00, 0x00, 0x00,
  0x04, 0x00, 0x00, 0x00, 0xff, 0xff, 0xff, 0xff, 0x10, 0x00, 0x00, 0x00,
  0x01, 0x00, 0x00, 0x00, 0x25, 0x00, 0x00, 0x00, 0x64, 0xf6, 0xff, 0xff,
  0x2d, 0x00, 0x00, 0x00, 0x6d, 0x6f, 0x64, 0x65, 0x6c, 0x2f, 0x62, 0x61,
  0x74, 0x63, 0x68, 0x5f, 0x6e, 0x6f, 0x72, 0x6d, 0x61, 0x6c, 0x69, 0x7a,
  0x61, 0x74, 0x69, 0x6f, 0x6e, 0x5f, 0x32, 0x2f, 0x46, 0x75, 0x73, 0x65,
  0x64, 0x42, 0x61, 0x74, 0x63, 0x68, 0x4e, 0x6f, 0x72, 0x6d, 0x56, 0x33,
  0x31, 0x00, 0x00, 0x00, 0x04, 0x00, 0x00, 0x00, 0x01, 0x00, 0x00, 0x00,
  0x10, 0x00, 0x00, 0x00, 0x01, 0x00, 0x00, 0x00, 0x25, 0x00, 0x00, 0x00,
  0xf6, 0xf6, 0xff, 0xff, 0x00, 0x00, 0x00, 0x01, 0x14, 0x00, 0x00, 0x00,
  0x24, 0x00, 0x00, 0x00, 0x24, 0x00, 0x00, 0x00, 0x16, 0x00, 0x00, 0x00,
  0x78, 0x00, 0x00, 0x00, 0x04, 0x00, 0x00, 0x00, 0xff, 0xff, 0xff, 0xff,
  0x01, 0x00, 0x00, 0x00, 0x25, 0x00, 0x00, 0x00, 0x10, 0x00, 0x00, 0x00,
  0xe0, 0xf6, 0xff, 0xff, 0x54, 0x00, 0x00, 0x00, 0x6d, 0x6f, 0x64, 0x65,
  0x6c, 0x2f, 0x62, 0x61, 0x74, 0x63, 0x68, 0x5f, 0x6e, 0x6f, 0x72, 0x6d,
  0x61, 0x6c, 0x69, 0x7a, 0x61, 0x74, 0x69, 0x6f, 0x6e, 0x5f, 0x32, 0x2f,
  0x46, 0x75, 0x73, 0x65, 0x64, 0x42, 0x61, 0x74, 0x63, 0x68, 0x4e, 0x6f,
  0x72, 0x6d, 0x56, 0x33, 0x3b, 0x6d, 0x6f, 0x64, 0x65, 0x6c, 0x2f, 0x73,
  0x65, 0x70, 0x61, 0x72, 0x61, 0x62, 0x6c, 0x65, 0x5f, 0x63, 0x6f, 0x6e,
  0x76, 0x32, 0x64, 0x2f, 0x73, 0x65, 0x70, 0x61, 0x72, 0x61, 0x62, 0x6c,
  0x65, 0x5f, 0x63, 0x6f, 0x6e, 0x76, 0x32, 0x64, 0x00, 0x00, 0x00, 0x00,
  0x04, 0x00, 0x00, 0x00, 0x01, 0x00, 0x00, 0x00, 0x01, 0x00, 0x00, 0x00,
  0x25, 0x00, 0x00, 0x00, 0x10, 0x00, 0x00, 0x00, 0x9a, 0xf7, 0xff, 0xff,
  0x00, 0x00, 0x00, 0x01, 0x14, 0x00, 0x00, 0x00, 0x24, 0x00, 0x00, 0x00,
  0x24, 0x00, 0x00, 0x00, 0x15, 0x00, 0x00, 0x00, 0x4c, 0x00, 0x00, 0x00,
  0x04, 0x00, 0x00, 0x00, 0xff, 0xff, 0xff, 0xff, 0x01, 0x00, 0x00, 0x00,
  0x25, 0x00, 0x00, 0x00, 0x10, 0x00, 0x00, 0x00, 0x84, 0xf7, 0xff, 0xff,
  0x28, 0x00, 0x00, 0x00, 0x6d, 0x6f, 0x64, 0x65, 0x6c, 0x2f, 0x73, 0x65,
  0x70, 0x61, 0x72, 0x61, 0x62, 0x6c, 0x65, 0x5f, 0x63, 0x6f, 0x6e, 0x76,
  0x32, 0x64, 0x2f, 0x73, 0x65, 0x70, 0x61, 0x72, 0x61, 0x62, 0x6c, 0x65,
  0x5f, 0x63, 0x6f, 0x6e, 0x76, 0x32, 0x64, 0x31, 0x00, 0x00, 0x00, 0x00,
  0x04, 0x00, 0x00, 0x00, 0x01, 0x00, 0x00, 0x00, 0x01, 0x00, 0x00, 0x00,
  0x25, 0x00, 0x00, 0x00, 0x10, 0x00, 0x00, 0x00, 0x12, 0xf8, 0xff, 0xff,
  0x00, 0x00, 0x00, 0x01, 0x14, 0x00, 0x00, 0x00, 0x24, 0x00, 0x00, 0x00,
  0x24, 0x00, 0x00, 0x00, 0x14, 0x00, 0x00, 0x00, 0x54, 0x00, 0x00, 0x00,
  0x04, 0x00, 0x00, 0x00, 0xff, 0xff, 0xff, 0xff, 0x10, 0x00, 0x00, 0x00,
  0x01, 0x00, 0x00, 0x00, 0x25, 0x00, 0x00, 0x00, 0xfc, 0xf7, 0xff, 0xff,
  0x31, 0x00, 0x00, 0x00, 0x6d, 0x6f, 0x64, 0x65, 0x6c, 0x2f, 0x73, 0x65,
  0x70, 0x61, 0x72, 0x61, 0x62, 0x6c, 0x65, 0x5f, 0x63, 0x6f, 0x6e, 0x76,
  0x32, 0x64, 0x2f, 0x73, 0x65, 0x70, 0x61, 0x72, 0x61, 0x62, 0x6c, 0x65,
  0x5f, 0x63, 0x6f, 0x6e, 0x76, 0x32, 0x64, 0x2f, 0x64, 0x65, 0x70, 0x74,
  0x68, 0x77, 0x69, 0x73, 0x65, 0x00, 0x00, 0x00, 0x04, 0x00, 0x00, 0x00,
  0x01, 0x00, 0x00, 0x00, 0x10, 0x00, 0x00, 0x00, 0x01, 0x00, 0x00, 0x00,
  0x25, 0x00, 0x00, 0x00, 0x92, 0xf8, 0xff, 0xff, 0x00, 0x00, 0x00, 0x01,
  0x14, 0x00, 0x00, 0x00, 0x24, 0x00, 0x00, 0x00, 0x24, 0x00, 0x00, 0x00,
  0x13, 0x00, 0x00, 0x00, 0x40, 0x00, 0x00, 0x00, 0x04, 0x00, 0x00, 0x00,
  0xff, 0xff, 0xff, 0xff, 0x10, 0x00, 0x00, 0x00, 0x01, 0x00, 0x00, 0x00,
  0x25, 0x00, 0x00, 0x00, 0x7c, 0xf8, 0xff, 0xff, 0x1f, 0x00, 0x00, 0x00,
  0x6d, 0x6f, 0x64, 0x65, 0x6c, 0x2f, 0x61, 0x76, 0x65, 0x72, 0x61, 0x67,
  0x65, 0x5f, 0x70, 0x6f, 0x6f, 0x6c, 0x69, 0x6e, 0x67, 0x32, 0x64, 0x2f,
  0x41, 0x76, 0x67, 0x50, 0x6f, 0x6f, 0x6c, 0x00, 0x04, 0x00, 0x00, 0x00,
  0x01, 0x00, 0x00, 0x00, 0x10, 0x00, 0x00, 0x00, 0x01, 0x00, 0x00, 0x00,
  0x25, 0x00, 0x00, 0x00, 0xfe, 0xf8, 0xff, 0xff, 0x00, 0x00, 0x00, 0x01,
  0x14, 0x00, 0x00, 0x00, 0x24, 0x00, 0x00, 0x00, 0x24, 0x00, 0x00, 0x00,
  0x12, 0x00, 0x00, 0x00, 0x38, 0x00, 0x00, 0x00, 0x04, 0x00, 0x00, 0x00,
  0xff, 0xff, 0xff, 0xff, 0x10, 0x00, 0x00, 0x00, 0x01, 0x00, 0x00, 0x00,
  0x97, 0x00, 0x00, 0x00, 0xe8, 0xf8, 0xff, 0xff, 0x14, 0x00, 0x00, 0x00,
  0x6d, 0x6f, 0x64, 0x65, 0x6c, 0x2f, 0x61, 0x63, 0x74, 0x69, 0x76, 0x61,
  0x74, 0x69, 0x6f, 0x6e, 0x2f, 0x45, 0x6c, 0x75, 0x00, 0x00, 0x00, 0x00,
  0x04, 0x00, 0x00, 0x00, 0x01, 0x00, 0x00, 0x00, 0x10, 0x00, 0x00, 0x00,
  0x01, 0x00, 0x00, 0x00, 0x97, 0x00, 0x00, 0x00, 0x62, 0xf9, 0xff, 0xff,
  0x00, 0x00, 0x00, 0x01, 0x14, 0x00, 0x00, 0x00, 0x24, 0x00, 0x00, 0x00,
  0x24, 0x00, 0x00, 0x00, 0x11, 0x00, 0x00, 0x00, 0x50, 0x00, 0x00, 0x00,
  0x04, 0x00, 0x00, 0x00, 0xff, 0xff, 0xff, 0xff, 0x10, 0x00, 0x00, 0x00,
  0x01, 0x00, 0x00, 0x00, 0x97, 0x00, 0x00, 0x00, 0x4c, 0xf9, 0xff, 0xff,
  0x2d, 0x00, 0x00, 0x00, 0x6d, 0x6f, 0x64, 0x65, 0x6c, 0x2f, 0x62, 0x61,
  0x74, 0x63, 0x68, 0x5f, 0x6e, 0x6f, 0x72, 0x6d, 0x61, 0x6c, 0x69, 0x7a,
  0x61, 0x74, 0x69, 0x6f, 0x6e, 0x5f, 0x31, 0x2f, 0x46, 0x75, 0x73, 0x65,
  0x64, 0x42, 0x61, 0x74, 0x63, 0x68, 0x4e, 0x6f, 0x72, 0x6d, 0x56, 0x33,
  0x32, 0x00, 0x00, 0x00, 0x04, 0x00, 0x00, 0x00, 0x01, 0x00, 0x00, 0x00,
  0x10, 0x00, 0x00, 0x00, 0x01, 0x00, 0x00, 0x00, 0x97, 0x00, 0x00, 0x00,
  0xde, 0xf9, 0xff, 0xff, 0x00, 0x00, 0x00, 0x01, 0x14, 0x00, 0x00, 0x00,
  0x24, 0x00, 0x00, 0x00, 0x24, 0x00, 0x00, 0x00, 0x10, 0x00, 0x00, 0x00,
  0x98, 0x00, 0x00, 0x00, 0x04, 0x00, 0x00, 0x00, 0xff, 0xff, 0xff, 0xff,
  0x01, 0x00, 0x00, 0x00, 0x97, 0x00, 0x00, 0x00, 0x10, 0x00, 0x00, 0x00,
  0xc8, 0xf9, 0xff, 0xff, 0x75, 0x00, 0x00, 0x00, 0x6d, 0x6f, 0x64, 0x65,
  0x6c, 0x2f, 0x62, 0x61, 0x74, 0x63, 0x68, 0x5f, 0x6e, 0x6f, 0x72, 0x6d,
  0x61, 0x6c, 0x69, 0x7a, 0x61, 0x74, 0x69, 0x6f, 0x6e, 0x5f, 0x31, 0x2f,
  0x46, 0x75, 0x73, 0x65, 0x64, 0x42, 0x61, 0x74, 0x63, 0x68, 0x4e, 0x6f,
  0x72, 0x6d, 0x56, 0x33, 0x3b, 0x6d, 0x6f, 0x64, 0x65, 0x6c, 0x2f, 0x73,
  0x65, 0x70, 0x61, 0x72, 0x61, 0x62, 0x6c, 0x65, 0x5f, 0x63, 0x6f, 0x6e,
  0x76, 0x32, 0x64, 0x2f, 0x73, 0x65, 0x70, 0x61, 0x72, 0x61, 0x62, 0x6c,
  0x65, 0x5f, 0x63, 0x6f, 0x6e, 0x76, 0x32, 0x64, 0x3b, 0x6d, 0x6f, 0x64,
  0x65, 0x6c, 0x2f, 0x64, 0x65, 0x70, 0x74, 0x68, 0x77, 0x69, 0x73, 0x65,
  0x5f, 0x63, 0x6f, 0x6e, 0x76, 0x32, 0x64, 0x2f, 0x64, 0x65, 0x70, 0x74,
  0x68, 0x77, 0x69, 0x73, 0x65, 0x00, 0x00, 0x00, 0x04, 0x00, 0x00, 0x00,
  0x01, 0x00, 0x00, 0x00, 0x01, 0x00, 0x00, 0x00, 0x97, 0x00, 0x00, 0x00,
  0x10, 0x00, 0x00, 0x00, 0xa2, 0xfa, 0xff, 0xff, 0x00, 0x00, 0x00, 0x01,
  0x14, 0x00, 0x00, 0x00, 0x24, 0x00, 0x00, 0x00, 0x24, 0x00, 0x00, 0x00,
  0x0f, 0x00, 0x00, 0x00, 0x60, 0x00, 0x00, 0x00, 0x04, 0x00, 0x00, 0x00,
  0xff, 0xff, 0xff, 0xff, 0x3c, 0x00, 0x00, 0x00, 0x97, 0x00, 0x00, 0x00,
  0x08, 0x00, 0x00, 0x00, 0x8c, 0xfa, 0xff, 0xff, 0x3e, 0x00, 0x00, 0x00,
  0x6d, 0x6f, 0x64, 0x65, 0x6c, 0x2f, 0x62, 0x61, 0x74, 0x63, 0x68, 0x5f,
  0x6e, 0x6f, 0x72, 0x6d, 0x61, 0x6c, 0x69, 0x7a, 0x61, 0x74, 0x69, 0x6f,
  0x6e, 0x2f, 0x46, 0x75, 0x73, 0x65, 0x64, 0x42, 0x61, 0x74, 0x63, 0x68,
  0x4e, 0x6f, 0x72, 0x6d, 0x56, 0x33, 0x3b, 0x6d, 0x6f, 0x64, 0x65, 0x6c,
  0x2f, 0x63, 0x6f, 0x6e, 0x76, 0x32, 0x64, 0x2f, 0x43, 0x6f, 0x6e, 0x76,
  0x32, 0x44, 0x00, 0x00, 0x04, 0x00, 0x00, 0x00, 0x01, 0x00, 0x00, 0x00,
  0x3c, 0x00, 0x00, 0x00, 0x97, 0x00, 0x00, 0x00, 0x08, 0x00, 0x00, 0x00,
  0x2e, 0xfb, 0xff, 0xff, 0x00, 0x00, 0x00, 0x01, 0x14, 0x00, 0x00, 0x00,
  0x24, 0x00, 0x00, 0x00, 0x24, 0x00, 0x00, 0x00, 0x0e, 0x00, 0x00, 0x00,
  0x38, 0x00, 0x00, 0x00, 0x04, 0x00, 0x00, 0x00, 0xff, 0xff, 0xff, 0xff,
  0x3c, 0x00, 0x00, 0x00, 0x97, 0x00, 0x00, 0x00, 0x01, 0x00, 0x00, 0x00,
  0x18, 0xfb, 0xff, 0xff, 0x14, 0x00, 0x00, 0x00, 0x6d, 0x6f, 0x64, 0x65,
  0x6c, 0x2f, 0x63, 0x6f, 0x6e, 0x76, 0x32, 0x64, 0x2f, 0x43, 0x6f, 0x6e,
  0x76, 0x32, 0x44, 0x31, 0x00, 0x00, 0x00, 0x00, 0x04, 0x00, 0x00, 0x00,
  0x01, 0x00, 0x00, 0x00, 0x3c, 0x00, 0x00, 0x00, 0x97, 0x00, 0x00, 0x00,
  0x01, 0x00, 0x00, 0x00, 0x02, 0xfc, 0xff, 0xff, 0x00, 0x00, 0x00, 0x01,
  0x10, 0x00, 0x00, 0x00, 0x10, 0x00, 0x00, 0x00, 0x0d, 0x00, 0x00, 0x00,
  0x20, 0x00, 0x00, 0x00, 0x64, 0xfb, 0xff, 0xff, 0x12, 0x00, 0x00, 0x00,
  0x6d, 0x6f, 0x64, 0x65, 0x6c, 0x2f, 0x64, 0x65, 0x6e, 0x73, 0x65, 0x2f,
  0x4d, 0x61, 0x74, 0x4d, 0x75, 0x6c, 0x00, 0x00, 0x02, 0x00, 0x00, 0x00,
  0x04, 0x00, 0x00, 0x00, 0x40, 0x00, 0x00, 0x00, 0x0e, 0xfe, 0xff, 0xff,
  0x00, 0x00, 0x00, 0x01, 0x14, 0x00, 0x00, 0x00, 0x14, 0x00, 0x00, 0x00,
  0x0c, 0x00, 0x00, 0x00, 0x00, 0x00, 0x00, 0x02, 0x20, 0x00, 0x00, 0x00,
  0xa8, 0xfb, 0xff, 0xff, 0x13, 0x00, 0x00, 0x00, 0x6d, 0x6f, 0x64, 0x65,
  0x6c, 0x2f, 0x66, 0x6c, 0x61, 0x74, 0x74, 0x65, 0x6e, 0x2f, 0x43, 0x6f,
  0x6e, 0x73, 0x74, 0x00, 0x01, 0x00, 0x00, 0x00, 0x02, 0x00, 0x00, 0x00,
  0x4e, 0xfe, 0xff, 0xff, 0x00, 0x00, 0x00, 0x01, 0x14, 0x00, 0x00, 0x00,
  0x14, 0x00, 0x00, 0x00, 0x0b, 0x00, 0x00, 0x00, 0x00, 0x00, 0x00, 0x02,
  0x34, 0x00, 0x00, 0x00, 0xe8, 0xfb, 0xff, 0xff, 0x25, 0x00, 0x00, 0x00,
  0x6d, 0x6f, 0x64, 0x65, 0x6c, 0x2f, 0x64, 0x65, 0x70, 0x74, 0x68, 0x77,
  0x69, 0x73, 0x65, 0x5f, 0x63, 0x6f, 0x6e, 0x76, 0x32, 0x64, 0x2f, 0x74,
  0x72, 0x61, 0x6e, 0x73, 0x70, 0x6f, 0x73, 0x65, 0x2f, 0x70, 0x65, 0x72,
  0x6d, 0x00, 0x00, 0x00, 0x01, 0x00, 0x00, 0x00, 0x04, 0x00, 0x00, 0x00,
  0xd6, 0xfc, 0xff, 0xff, 0x00, 0x00, 0x00, 0x01, 0x10, 0x00, 0x00, 0x00,
  0x10, 0x00, 0x00, 0x00, 0x0a, 0x00, 0x00, 0x00, 0x30, 0x00, 0x00, 0x00,
  0x38, 0xfc, 0xff, 0xff, 0x22, 0x00, 0x00, 0x00, 0x6d, 0x6f, 0x64, 0x65,
  0x6c, 0x2f, 0x64, 0x65, 0x6e, 0x73, 0x65, 0x2f, 0x42, 0x69, 0x61, 0x73,
  0x41, 0x64, 0x64, 0x2f, 0x52, 0x65, 0x61, 0x64, 0x56, 0x61, 0x72, 0x69,
  0x61, 0x62, 0x6c, 0x65, 0x4f, 0x70, 0x00, 0x00, 0x01, 0x00, 0x00, 0x00,
  0x04, 0x00, 0x00, 0x00, 0x22, 0xfd, 0xff, 0xff, 0x00, 0x00, 0x00, 0x01,
  0x10, 0x00, 0x00, 0x00, 0x10, 0x00, 0x00, 0x00, 0x09, 0x00, 0x00, 0x00,
  0x44, 0x00, 0x00, 0x00, 0x84, 0xfc, 0xff, 0xff, 0x36, 0x00, 0x00, 0x00,
  0x6d, 0x6f, 0x64, 0x65, 0x6c, 0x2f, 0x73, 0x65, 0x70, 0x61, 0x72, 0x61,
  0x62, 0x6c, 0x65, 0x5f, 0x63, 0x6f, 0x6e, 0x76, 0x32, 0x64, 0x2f, 0x73,
  0x65, 0x70, 0x61, 0x72, 0x61, 0x62, 0x6c, 0x65, 0x5f, 0x63, 0x6f, 0x6e,
  0x76, 0x32, 0x64, 0x2f, 0x52, 0x65, 0x61, 0x64, 0x56, 0x61, 0x72, 0x69,
  0x61, 0x62, 0x6c, 0x65, 0x4f, 0x70, 0x00, 0x00, 0x04, 0x00, 0x00, 0x00,
  0x01, 0x00, 0x00, 0x00, 0x10, 0x00, 0x00, 0x00, 0x10, 0x00, 0x00, 0x00,
  0x01, 0x00, 0x00, 0x00, 0x8e, 0xfd, 0xff, 0xff, 0x00, 0x00, 0x00, 0x01,
  0x10, 0x00, 0x00, 0x00, 0x10, 0x00, 0x00, 0x00, 0x08, 0x00, 0x00, 0x00,
  0x34, 0x00, 0x00, 0x00, 0xf0, 0xfc, 0xff, 0xff, 0x27, 0x00, 0x00, 0x00,
  0x6d, 0x6f, 0x64, 0x65, 0x6c, 0x2f, 0x73, 0x65, 0x70, 0x61, 0x72, 0x61,
  0x62, 0x6c, 0x65, 0x5f, 0x63, 0x6f, 0x6e, 0x76, 0x32, 0x64, 0x2f, 0x73,
  0x65, 0x70, 0x61, 0x72, 0x61, 0x62, 0x6c, 0x65, 0x5f, 0x63, 0x6f, 0x6e,
  0x76, 0x32, 0x64, 0x00, 0x04, 0x00, 0x00, 0x00, 0x10, 0x00, 0x00, 0x00,
  0x01, 0x00, 0x00, 0x00, 0x01, 0x00, 0x00, 0x00, 0x10, 0x00, 0x00, 0x00,
  0xea, 0xfd, 0xff, 0xff, 0x00, 0x00, 0x00, 0x01, 0x10, 0x00, 0x00, 0x00,
  0x10, 0x00, 0x00, 0x00, 0x07, 0x00, 0x00, 0x00, 0x20, 0x00, 0x00, 0x00,
  0x4c, 0xfd, 0xff, 0xff, 0x13, 0x00, 0x00, 0x00, 0x6d, 0x6f, 0x64, 0x65,
  0x6c, 0x2f, 0x63, 0x6f, 0x6e, 0x76, 0x32, 0x64, 0x2f, 0x43, 0x6f, 0x6e,
  0x76, 0x32, 0x44, 0x00, 0x04, 0x00, 0x00, 0x00, 0x08, 0x00, 0x00, 0x00,
  0x01, 0x00, 0x00, 0x00, 0x20, 0x00, 0x00, 0x00, 0x01, 0x00, 0x00, 0x00,
  0x00, 0x00, 0x16, 0x00, 0x1c, 0x00, 0x18, 0x00, 0x17, 0x00, 0x10, 0x00,
  0x0c, 0x00, 0x08, 0x00, 0x00, 0x00, 0x00, 0x00, 0x00, 0x00, 0x07, 0x00,
  0x16, 0x00, 0x00, 0x00, 0x00, 0x00, 0x00, 0x01, 0x14, 0x00, 0x00, 0x00,
  0x14, 0x00, 0x00, 0x00, 0x06, 0x00, 0x00, 0x00, 0x00, 0x00, 0x00, 0x02,
  0x3c, 0x00, 0x00, 0x00, 0xb0, 0xfd, 0xff, 0xff, 0x2d, 0x00, 0x00, 0x00,
  0x6d, 0x6f, 0x64, 0x65, 0x6c, 0x2f, 0x62, 0x61, 0x74, 0x63, 0x68, 0x5f,
  0x6e, 0x6f, 0x72, 0x6d, 0x61, 0x6c, 0x69, 0x7a, 0x61, 0x74, 0x69, 0x6f,
  0x6e, 0x5f, 0x31, 0x2f, 0x46, 0x75, 0x73, 0x65, 0x64, 0x42, 0x61, 0x74,
  0x63, 0x68, 0x4e, 0x6f, 0x72, 0x6d, 0x56, 0x33, 0x31, 0x00, 0x00, 0x00,
  0x01, 0x00, 0x00, 0x00, 0x04, 0x00, 0x00, 0x00, 0xa6, 0xfe, 0xff, 0xff,
  0x00, 0x00, 0x00, 0x01, 0x10, 0x00, 0x00, 0x00, 0x10, 0x00, 0x00, 0x00,
  0x05, 0x00, 0x00, 0x00, 0x3c, 0x00, 0x00, 0x00, 0x08, 0xfe, 0xff, 0xff,
  0x2c, 0x00, 0x00, 0x00, 0x6d, 0x6f, 0x64, 0x65, 0x6c, 0x2f, 0x62, 0x61,
  0x74, 0x63, 0x68, 0x5f, 0x6e, 0x6f, 0x72, 0x6d, 0x61, 0x6c, 0x69, 0x7a,
  0x61, 0x74, 0x69, 0x6f, 0x6e, 0x5f, 0x32, 0x2f, 0x46, 0x75, 0x73, 0x65,
  0x64, 0x42, 0x61, 0x74, 0x63, 0x68, 0x4e, 0x6f, 0x72, 0x6d, 0x56, 0x33,
  0x00, 0x00, 0x00, 0x00, 0x01, 0x00, 0x00, 0x00, 0x10, 0x00, 0x00, 0x00,
  0xfe, 0xfe, 0xff, 0xff, 0x00, 0x00, 0x00, 0x01, 0x10, 0x00, 0x00, 0x00,
  0x10, 0x00, 0x00, 0x00, 0x04, 0x00, 0x00, 0x00, 0x84, 0x00, 0x00, 0x00,
  0x60, 0xfe, 0xff, 0xff, 0x75, 0x00, 0x00, 0x00, 0x6d, 0x6f, 0x64, 0x65,
  0x6c, 0x2f, 0x62, 0x61, 0x74, 0x63, 0x68, 0x5f, 0x6e, 0x6f, 0x72, 0x6d,
  0x61, 0x6c, 0x69, 0x7a, 0x61, 0x74, 0x69, 0x6f, 0x6e, 0x5f, 0x31, 0x2f,
  0x46, 0x75, 0x73, 0x65, 0x64, 0x42, 0x61, 0x74, 0x63, 0x68, 0x4e, 0x6f,
  0x72, 0x6d, 0x56, 0x33, 0x3b, 0x6d, 0x6f, 0x64, 0x65, 0x6c, 0x2f, 0x64,
  0x65, 0x70, 0x74, 0x68, 0x77, 0x69, 0x73, 0x65, 0x5f, 0x63, 0x6f, 0x6e,
  0x76, 0x32, 0x64, 0x2f, 0x64, 0x65, 0x70, 0x74, 0x68, 0x77, 0x69, 0x73,
  0x65, 0x3b, 0x6d, 0x6f, 0x64, 0x65, 0x6c, 0x2f, 0x73, 0x65, 0x70, 0x61,
  0x72, 0x61, 0x62, 0x6c, 0x65, 0x5f, 0x63, 0x6f, 0x6e, 0x76, 0x32, 0x64,
  0x2f, 0x73, 0x65, 0x70, 0x61, 0x72, 0x61, 0x62, 0x6c, 0x65, 0x5f, 0x63,
  0x6f, 0x6e, 0x76, 0x32, 0x64, 0x00, 0x00, 0x00, 0x04, 0x00, 0x00, 0x00,
  0x01, 0x00, 0x00, 0x00, 0x3c, 0x00, 0x00, 0x00, 0x01, 0x00, 0x00, 0x00,
  0x10, 0x00, 0x00, 0x00, 0xaa, 0xff, 0xff, 0xff, 0x00, 0x00, 0x00, 0x01,
  0x10, 0x00, 0x00, 0x00, 0x10, 0x00, 0x00, 0x00, 0x03, 0x00, 0x00, 0x00,
  0x38, 0x00, 0x00, 0x00, 0x0c, 0xff, 0xff, 0xff, 0x2a, 0x00, 0x00, 0x00,
  0x6d, 0x6f, 0x64, 0x65, 0x6c, 0x2f, 0x62, 0x61, 0x74, 0x63, 0x68, 0x5f,
  0x6e, 0x6f, 0x72, 0x6d, 0x61, 0x6c, 0x69, 0x7a, 0x61, 0x74, 0x69, 0x6f,
  0x6e, 0x2f, 0x46, 0x75, 0x73, 0x65, 0x64, 0x42, 0x61, 0x74, 0x63, 0x68,
  0x4e, 0x6f, 0x72, 0x6d, 0x56, 0x33, 0x00, 0x00, 0x01, 0x00, 0x00, 0x00,
  0x08, 0x00, 0x00, 0x00, 0x00, 0x00, 0x16, 0x00, 0x18, 0x00, 0x14, 0x00,
  0x00, 0x00, 0x10, 0x00, 0x0c, 0x00, 0x08, 0x00, 0x00, 0x00, 0x00, 0x00,
  0x00, 0x00, 0x07, 0x00, 0x16, 0x00, 0x00, 0x00, 0x00, 0x00, 0x00, 0x01,
  0x10, 0x00, 0x00, 0x00, 0x10, 0x00, 0x00, 0x00, 0x02, 0x00, 0x00, 0x00,
  0x3c, 0x00, 0x00, 0x00, 0x78, 0xff, 0xff, 0xff, 0x2c, 0x00, 0x00, 0x00,
  0x6d, 0x6f, 0x64, 0x65, 0x6c, 0x2f, 0x62, 0x61, 0x74, 0x63, 0x68, 0x5f,
  0x6e, 0x6f, 0x72, 0x6d, 0x61, 0x6c, 0x69, 0x7a, 0x61, 0x74, 0x69, 0x6f,
  0x6e, 0x5f, 0x31, 0x2f, 0x46, 0x75, 0x73, 0x65, 0x64, 0x42, 0x61, 0x74,
  0x63, 0x68, 0x4e, 0x6f, 0x72, 0x6d, 0x56, 0x33, 0x00, 0x00, 0x00, 0x00,
  0x01, 0x00, 0x00, 0x00, 0x10, 0x00, 0x00, 0x00, 0x00, 0x00, 0x16, 0x00,
  0x1c, 0x00, 0x18, 0x00, 0x00, 0x00, 0x14, 0x00, 0x10, 0x00, 0x0c, 0x00,
  0x00, 0x00, 0x00, 0x00, 0x08, 0x00, 0x07, 0x00, 0x16, 0x00, 0x00, 0x00,
  0x00, 0x00, 0x00, 0x01, 0x14, 0x00, 0x00, 0x00, 0x28, 0x00, 0x00, 0x00,
  0x28, 0x00, 0x00, 0x00, 0x01, 0x00, 0x00, 0x00, 0x40, 0x00, 0x00, 0x00,
  0x04, 0x00, 0x00, 0x00, 0xff, 0xff, 0xff, 0xff, 0x01, 0x00, 0x00, 0x00,
  0x3c, 0x00, 0x00, 0x00, 0x97, 0x00, 0x00, 0x00, 0x04, 0x00, 0x04, 0x00,
  0x04, 0x00, 0x00, 0x00, 0x19, 0x00, 0x00, 0x00, 0x73, 0x65, 0x72, 0x76,
  0x69, 0x6e, 0x67, 0x5f, 0x64, 0x65, 0x66, 0x61, 0x75, 0x6c, 0x74, 0x5f,
  0x69, 0x6e, 0x70, 0x75, 0x74, 0x5f, 0x31, 0x3a, 0x30, 0x00, 0x00, 0x00,
  0x04, 0x00, 0x00, 0x00, 0x01, 0x00, 0x00, 0x00, 0x01, 0x00, 0x00, 0x00,
  0x3c, 0x00, 0x00, 0x00, 0x97, 0x00, 0x00, 0x00, 0x09, 0x00, 0x00, 0x00,
  0xd4, 0x00, 0x00, 0x00, 0xb8, 0x00, 0x00, 0x00, 0xa8, 0x00, 0x00, 0x00,
  0x98, 0x00, 0x00, 0x00, 0x74, 0x00, 0x00, 0x00, 0x34, 0x00, 0x00, 0x00,
  0x24, 0x00, 0x00, 0x00, 0x14, 0x00, 0x00, 0x00, 0x04, 0x00, 0x00, 0x00,
  0x5c, 0xff, 0xff, 0xff, 0x19, 0x00, 0x00, 0x00, 0x00, 0x00, 0x00, 0x19,
  0x68, 0xff, 0xff, 0xff, 0x09, 0x00, 0x00, 0x00, 0x00, 0x00, 0x00, 0x09,
  0x74, 0xff, 0xff, 0xff, 0x16, 0x00, 0x00, 0x00, 0x00, 0x00, 0x00, 0x16,
  0xd0, 0xff, 0xff, 0xff, 0x20, 0x00, 0x00, 0x00, 0x08, 0x00, 0x00, 0x00,
  0x00, 0x00, 0x00, 0x20, 0x19, 0x00, 0x00, 0x00, 0x46, 0x6c, 0x65, 0x78,
  0x44, 0x65, 0x70, 0x74, 0x68, 0x77, 0x69, 0x73, 0x65, 0x43, 0x6f, 0x6e,
  0x76, 0x32, 0x64, 0x4e, 0x61, 0x74, 0x69, 0x76, 0x65, 0x00, 0x00, 0x00,
  0x0c, 0x00, 0x10, 0x00, 0x0f, 0x00, 0x08, 0x00, 0x00, 0x00, 0x04, 0x00,
  0x0c, 0x00, 0x00, 0x00, 0x20, 0x00, 0x00, 0x00, 0x08, 0x00, 0x00, 0x00,
  0x00, 0x00, 0x00, 0x20, 0x0b, 0x00, 0x00, 0x00, 0x46, 0x6c, 0x65, 0x78,
  0x41, 0x76, 0x67, 0x50, 0x6f, 0x6f, 0x6c, 0x00, 0xdc, 0xff, 0xff, 0xff,
  0x6f, 0x00, 0x00, 0x00, 0x00, 0x00, 0x00, 0x6f, 0xe8, 0xff, 0xff, 0xff,
  0x04, 0x00, 0x00, 0x00, 0x00, 0x00, 0x00, 0x04, 0xf4, 0xff, 0xff, 0xff,
  0x03, 0x00, 0x00, 0x00, 0x00, 0x00, 0x00, 0x03, 0x0c, 0x00, 0x0c, 0x00,
  0x0b, 0x00, 0x00, 0x00, 0x00, 0x00, 0x04, 0x00, 0x0c, 0x00, 0x00, 0x00,
  0x27, 0x00, 0x00, 0x00, 0x00, 0x00, 0x00, 0x27
};
unsigned int EEGNET_tfLite_tflite_len = 13748;
